<unk>	0
<s>	0
</s>	0
.	-3.33116
을	-3.77468
▁	-3.8153
의	-3.8656
를	-4.22142
는	-4.28293
에	-4.37087
이	-4.40963
가	-4.4484
은	-4.50686
,	-4.54087
고	-4.60545
에서	-5.11313
▁“	-5.1648
로	-5.16908
”	-5.20937
한	-5.22918
인	-5.33022
일	-5.34629
)	-5.36846
(	-5.40033
▁이	-5.49077
과	-5.51766
▁있다	-5.56411
으로	-5.57538
와	-5.61328
▁수	-5.7194
도	-5.77191
▁밝혔다	-5.79366
▁말했다	-5.81326
할	-5.82432
년	-5.90797
지	-5.92252
▁있는	-5.99621
며	-6.09923
다	-6.11686
했다	-6.12043
하는	-6.12165
▁그	-6.1285
하고	-6.12987
▁전	-6.19769
▁그는	-6.20418
▁2	-6.22304
▁1	-6.27778
▁대한	-6.29879
▁위해	-6.31711
만	-6.33079
월	-6.37848
▁전했다	-6.38278
▁한	-6.38481
해	-6.4166
▁미국	-6.42898
기	-6.441
▁이번	-6.45634
▁3	-6.45697
▁지난	-6.48137
현지시간	-6.49137
자	-6.5216
▁중	-6.54341
된	-6.56944
▁대해	-6.57216
스	-6.57705
▁미	-6.58796
"	-6.59939
▁것으로	-6.64292
▁‘	-6.65174
에게	-6.66303
▁것이라고	-6.69913
▁것	-6.69969
명이	-6.70407
▁"	-6.70967
이라고	-6.72938
▁있다고	-6.76393
▁것을	-6.7968
나	-6.80918
▁4	-6.80976
s	-6.81226
리	-6.82701
’	-6.84866
시	-6.85019
▁6	-6.87366
▁이라크	-6.88597
게	-6.88971
▁5	-6.898
▁그러나	-6.89961
▁더	-6.92708
히	-6.93688
▁다른	-6.94175
들이	-6.98321
▁대통령	-6.99709
하게	-7.00115
라	-7.01042
▁중국	-7.0236
하기	-7.027
▁한편	-7.03185
운	-7.03539
▁10	-7.04672
하지	-7.06686
라고	-7.06852
▁북한	-7.08948
던	-7.10799
▁주	-7.10868
명의	-7.12306
▁후	-7.12878
대	-7.13151
적인	-7.13292
어	-7.13755
주	-7.16677
사	-7.16777
▁이후	-7.17838
▁정부	-7.19062
들은	-7.19894
-	-7.20545
드	-7.20881
▁통해	-7.21006
▁많은	-7.21929
▁또	-7.22349
서	-7.22381
▁위한	-7.22866
▁대통령은	-7.23339
▁영국	-7.2369
▁두	-7.2486
▁부시	-7.25124
▁내	-7.25203
트	-7.26353
명	-7.26357
▁가장	-7.27403
▁8	-7.27719
세	-7.28356
▁동안	-7.28624
▁같은	-7.29979
▁것이다	-7.30064
▁바	-7.30509
▁7	-7.30693
▁대변인은	-7.31541
▁등	-7.33657
▁한국	-7.34407
까지	-7.34514
수	-7.35388
될	-7.36694
비	-7.38744
▁주장했다	-7.40756
이다	-7.42024
▁알	-7.42352
아	-7.42898
▁될	-7.43929
▁약	-7.44167
▁것은	-7.44518
개	-7.44615
▁세계	-7.44898
▁한다	-7.44915
▁할	-7.45028
됐다	-7.45081
했다고	-7.45088
▁또한	-7.46331
▁때	-7.47169
성	-7.48023
▁현재	-7.48114
적	-7.48574
▁12	-7.50642
▁경우	-7.50845
▁보도했다	-7.5091
르	-7.51151
하며	-7.51425
▁이상	-7.51682
▁덧붙였다	-7.51961
야	-7.52086
▁9	-7.52276
▁관련	-7.52302
▁있었다	-7.52872
▁않았다	-7.52877
면	-7.52923
및	-7.5318
▁문제	-7.54106
e	-7.54116
니	-7.54146
미	-7.54175
▁최근	-7.54217
부	-7.5427
▁오바마	-7.54439
했으며	-7.55253
▁했다	-7.55417
▁영화	-7.55497
▁일	-7.57407
들을	-7.57581
에는	-7.58064
했던	-7.58838
상	-7.5961
치	-7.60445
▁자신의	-7.60481
▁11	-7.60563
▁뒤	-7.61504
▁일부	-7.62427
'	-7.62715
▁경제	-7.63135
▁함께	-7.63439
▁것이	-7.63471
크	-7.63787
▁20	-7.64439
▁새로	-7.64982
▁'	-7.65016
마	-7.65107
전	-7.65186
▁당시	-7.65745
소	-7.66369
▁말	-7.67527
진	-7.67702
▁모든	-7.68129
▁그리고	-7.68348
원	-7.6885
▁일본	-7.69021
선	-7.69452
▁때문에	-7.69984
▁비	-7.72184
▁아	-7.72252
▁19	-7.72259
▁예정이다	-7.72424
▁수도	-7.7259
▁조사	-7.72936
▁없다	-7.73087
▁지	-7.73168
보	-7.73274
▁있습니다	-7.74329
▁설명했다	-7.74484
▁제	-7.74731
해야	-7.75066
▁몇	-7.75361
▁있으며	-7.76494
에서는	-7.7664
화	-7.7729
▁경찰은	-7.77723
▁모두	-7.78095
▁나	-7.78581
장	-7.78958
차	-7.7946
한다	-7.79644
분	-7.79795
▁미군	-7.79859
▁시	-7.8009
▁공격	-7.80748
억	-7.80882
약	-7.80911
▁정부는	-7.8111
▁파키스탄	-7.81288
파	-7.81737
▁프랑스	-7.81836
▁유엔	-7.81866
당	-7.81932
보다	-7.82256
▁국가	-7.82735
▁계속	-7.8276
하다	-7.83037
적으로	-7.83056
▁사	-7.83136
▁큰	-7.83354
▁오	-7.83663
▁마	-7.84319
▁30	-7.85494
타	-7.85767
들	-7.86153
▁러시아	-7.86197
▁하는	-7.86314
▁계획	-7.8637
제	-7.87269
▁이들	-7.87417
여	-7.87697
▁지난해	-7.87819
▁이스라엘	-7.88117
▁경찰	-7.896
바	-7.89625
▁민주당	-7.89666
▁사고	-7.89804
▁(	-7.89992
명을	-7.90183
▁열린	-7.90215
오	-7.90464
정	-7.90694
▁않을	-7.91163
▁대통령이	-7.91165
하	-7.91299
▁지역	-7.9146
d	-7.91598
프	-7.9173
용	-7.92107
2	-7.92463
조	-7.92533
▁거	-7.92631
▁부	-7.92791
▁올해	-7.93047
그	-7.94157
즈	-7.94882
▁반	-7.94885
▁이날	-7.95056
▁총리는	-7.95499
▁대	-7.95604
▁우리	-7.95714
신	-7.95787
▁the	-7.95881
티	-7.96396
▁발표했다	-7.96823
▁경기	-7.96883
▁핵	-7.96975
▁클린턴	-7.9735
▁발생한	-7.97503
디	-7.97666
내	-7.97834
▁해	-7.9786
간	-7.97867
▁지원	-7.97947
했습니다	-7.98132
레	-7.98243
▁15	-7.98306
▁받고	-7.99345
▁후보	-8.00007
▁테러	-8.00963
위	-8.01114
라는	-8.01408
우	-8.02622
에따르면	-8.02777
▁다	-8.0297
▁하고	-8.03283
▁결과	-8.03489
▁있을	-8.03633
▁달	-8.04694
▁가운데	-8.04939
▁세	-8.05177
m	-8.0523
었다	-8.05347
카	-8.05464
에도	-8.05647
▁미국의	-8.05852
▁데	-8.05877
▁달러	-8.05939
▁존	-8.06087
▁16	-8.06104
▁안	-8.0626
시간	-8.06363
1	-8.06749
▁총리	-8.06929
러	-8.06956
▁선거	-8.06987
▁to	-8.07021
산	-8.07118
이나	-8.07454
▁군	-8.07929
국	-8.08135
▁국제	-8.08294
▁무	-8.08587
▁의해	-8.0868
▁여성	-8.08774
구	-8.08881
▁이란	-8.08916
질	-8.09057
▁된다	-8.09159
▁회담	-8.09329
부터	-8.09476
▁사건	-8.0955
▁주요	-8.09821
려	-8.09848
▁에	-8.10045
▁결정	-8.10065
▁사람들이	-8.10091
▁정부가	-8.10365
노	-8.10775
▁18	-8.11059
모	-8.11215
▁연구	-8.11521
▁다시	-8.1153
)’	-8.11697
으며	-8.11905
▁보	-8.12101
▁인해	-8.12185
▁관계	-8.12261
▁보고	-8.12295
면서	-8.1257
코	-8.12584
▁됐다	-8.12957
입니다	-8.13106
▁초	-8.13252
▁발표	-8.13287
길	-8.13463
▁정	-8.13623
▁기	-8.13705
되는	-8.14065
▁않은	-8.14094
▁모	-8.14132
토	-8.14134
▁파	-8.14391
y	-8.14393
▁of	-8.14995
브	-8.15228
계	-8.15677
.”	-8.15687
린	-8.15734
▁13	-8.15852
S	-8.15875
▁채	-8.15971
▁조	-8.1647
▁첫	-8.16483
▁혐의로	-8.16773
▁시간	-8.17044
▁유	-8.17077
하면서	-8.17244
▁총	-8.17572
들의	-8.1761
단	-8.18012
▁있다는	-8.18052
▁노	-8.19061
호	-8.19557
▁차	-8.19815
▁자	-8.20099
▁불	-8.20333
되어	-8.20343
실	-8.20533
▁조치	-8.20538
▁이미	-8.21151
▁프로그램	-8.21287
▁아프간	-8.21475
식	-8.21477
▁시위	-8.21624
▁인도	-8.21775
▁승리	-8.21861
돼	-8.22133
▁14	-8.22237
▁위치한	-8.22407
▁강	-8.22421
▁받았다	-8.22421
km	-8.22462
a	-8.2254
권	-8.23452
▁성	-8.23507
▁우려	-8.23533
▁방문	-8.23558
▁팔레스타인	-8.24022
번	-8.24106
▁줄	-8.2425
▁없는	-8.2476
▁뉴욕	-8.24926
▁피해	-8.25321
안	-8.25515
▁신	-8.25553
더	-8.25592
하여	-8.25917
지만	-8.26257
▁아직	-8.26599
루	-8.26653
▁TV	-8.26756
▁감독	-8.2777
▁하	-8.2787
되고	-8.28131
이라며	-8.28154
▁추가	-8.28463
▁사실을	-8.2895
관	-8.2898
▁회사	-8.29095
▁대선	-8.2919
▁구	-8.29263
로부터	-8.29502
▁25	-8.29797
▁잘	-8.30019
▁관리	-8.30321
▁혐의	-8.30324
체	-8.30429
▁관계자는	-8.30504
▁시장	-8.3053
▁카	-8.3064
▁않고	-8.30918
▁유럽	-8.31382
▁간	-8.31543
살	-8.31864
/	-8.31888
▁아이	-8.31902
▁독일	-8.32101
점	-8.32355
▁한다고	-8.32358
▁공	-8.32358
▁지적했다	-8.32455
▁''	-8.32511
▁17	-8.32851
▁최고	-8.32932
▁지지	-8.33045
▁피	-8.33086
▁지금	-8.33344
달러	-8.3338
회	-8.33517
▁당	-8.33537
▁W	-8.33682
습니다	-8.33868
▁포함	-8.33982
▁기록	-8.34214
▁활동	-8.34296
▁상원의원	-8.3432
A	-8.34414
년간	-8.3447
▁명의	-8.34472
3	-8.34481
▁재	-8.34643
▁협상	-8.34681
▁조지	-8.34725
▁매우	-8.34867
중	-8.34912
▁소속	-8.34914
물	-8.34956
법	-8.35189
o	-8.35315
직	-8.35408
▁원	-8.35634
▁올림픽	-8.35876
▁내용	-8.35878
공	-8.35993
▁도	-8.36017
▁이슬람	-8.36065
▁당국은	-8.36081
ing	-8.36662
▁타	-8.36832
난	-8.36882
▁탈레반	-8.36905
▁대부분	-8.37019
▁소	-8.37089
▁in	-8.37442
▁매케인	-8.37508
동	-8.37608
든	-8.37772
ed	-8.37843
▁호주	-8.38084
▁양	-8.38154
개월	-8.38197
유	-8.38214
▁시작	-8.38515
▁판매	-8.38587
▁없다고	-8.38691
▁차량	-8.38971
▁대학	-8.39182
▁라	-8.39264
였다	-8.39403
▁스	-8.39453
▁받은	-8.39668
▁예정	-8.39734
▁이는	-8.39793
▁못했다	-8.40032
처럼	-8.40159
▁않는다	-8.40164
력	-8.40736
▁인터넷	-8.4075
▁노력	-8.40889
▁매	-8.41106
되지	-8.41333
▁사람	-8.41658
▁이에	-8.42017
포	-8.42046
▁비난	-8.421
?	-8.42491
▁2006	-8.42727
▁많	-8.42869
▁24	-8.43021
▁어떤	-8.43039
무	-8.43138
▁주장	-8.43311
5	-8.43388
발	-8.43427
▁부상	-8.43428
▁오늘	-8.43465
재	-8.43539
▁여러	-8.437
▁새	-8.43804
▁하지	-8.44062
▁하지만	-8.44251
▁폭탄	-8.44279
종	-8.44297
▁리	-8.44437
임	-8.44665
▁사망	-8.44759
방	-8.44901
▁100	-8.44991
▁반대	-8.45012
▁있던	-8.45166
피	-8.45186
▁물	-8.45269
▁기자	-8.45392
▁해결	-8.45398
▁오후	-8.45475
▁석방	-8.45626
▁S	-8.45727
▁21	-8.45832
▁기술	-8.45938
▁개발	-8.45998
경	-8.46026
▁50	-8.46069
▁입장	-8.4635
▁생각	-8.46352
심	-8.46363
들에게	-8.466
▁A	-8.46644
▁전쟁	-8.46844
란	-8.46949
명은	-8.47273
▁검찰	-8.47605
▁방송	-8.48019
▁개	-8.4814
문	-8.48218
터	-8.48496
▁상	-8.48547
▁날	-8.48568
네	-8.48603
형	-8.48676
▁도시	-8.48682
▁27	-8.48687
▁미얀마	-8.48725
되었다	-8.48973
반	-8.49215
▁배	-8.49233
릴	-8.49233
▁정책	-8.49744
하는데	-8.49924
▁합의	-8.49982
이며	-8.50063
버	-8.50131
▁있어	-8.50272
데	-8.5048
▁자동차	-8.50651
▁23	-8.50769
개의	-8.50932
했고	-8.5095
들과	-8.50975
▁인터뷰에서	-8.51395
▁준비	-8.51397
이었다	-8.51443
▁병원	-8.51521
▁22	-8.51533
i	-8.51583
▁된	-8.51665
석	-8.51706
▁우주	-8.51815
학	-8.51872
6	-8.52058
▁김	-8.52119
▁컴퓨터	-8.52132
al	-8.52236
▁발	-8.5225
▁강조했다	-8.52369
했지만	-8.52639
▁그들은	-8.52737
▁이러	-8.52764
▁갖고	-8.52784
▁것에	-8.52811
:	-8.53021
▁투표	-8.53419
▁공화당	-8.53458
▁산	-8.5352
연	-8.53536
감	-8.53785
▁점	-8.53795
키	-8.53851
c	-8.53946
에따라	-8.53994
▁앞서	-8.54275
▁떨어진	-8.54356
▁원문기사보기	-8.54703
▁서	-8.54872
교	-8.54899
▁있도록	-8.54949
▁오전	-8.55083
▁대표	-8.55162
▁사이	-8.5537
t	-8.55414
▁이어	-8.55573
거	-8.55621
▁발생	-8.55643
▁마지막	-8.55746
▁남부	-8.55886
▁의사	-8.55949
▁비난했다	-8.56235
온	-8.56349
▁중단	-8.5636
하도록	-8.56379
▁a	-8.56437
▁생산	-8.56697
▁북한이	-8.56725
하기로	-8.56888
▁터키	-8.56917
▁안전	-8.57198
n	-8.57266
▁가진	-8.57268
▁폭발	-8.57307
했었다	-8.57364
▁증가	-8.57531
▁경찰이	-8.57536
▁변화	-8.57726
▁오는	-8.57862
군	-8.5811
▁볼	-8.58119
요	-8.58191
▁2005	-8.58309
위원회	-8.58506
▁실	-8.58655
했으나	-8.5879
▁미국과	-8.58991
C	-8.592
▁코	-8.59281
▁장관은	-8.59304
▁정치	-8.5936
▁이를	-8.5976
▁인근	-8.59833
▁외	-8.59981
▁처음으로	-8.6005
▁자신이	-8.60131
▁상황	-8.60171
u	-8.60219
▁그녀	-8.60266
이라는	-8.6032
7	-8.60574
▁이용	-8.60628
▁처음	-8.60747
▁열	-8.60791
▁그녀는	-8.60958
▁연방	-8.61
▁사용	-8.61112
▁위협	-8.61172
▁규모	-8.61324
▁남자	-8.61403
됐다고	-8.61459
▁버락	-8.61568
으로부터	-8.61738
▁성명	-8.61742
▁지난달	-8.61818
▁어	-8.61952
▁반군	-8.61967
▁아시아	-8.61986
P	-8.6202
▁치료	-8.62049
▁없었다	-8.62109
▁여행	-8.62216
▁26	-8.62276
▁선	-8.62328
▁힐러리	-8.62328
건	-8.62343
▁이탈리아	-8.62553
▁40	-8.62724
너	-8.62727
▁최소	-8.62781
▁지역에서	-8.63016
스트	-8.63162
▁금융	-8.63253
▁CNN	-8.63516
거나	-8.63568
▁앞으로	-8.63668
배	-8.63826
지는	-8.63918
▁있지만	-8.63926
▁영향	-8.64039
▁자신	-8.64233
▁야당	-8.64309
▁없이	-8.64368
행	-8.64606
▁보인다	-8.64728
▁보도	-8.64966
▁관한	-8.65102
▁̋	-8.65172
▁사망했다	-8.65271
er	-8.65286
된다	-8.6533
▁다음	-8.65919
▁불법	-8.66017
와의	-8.66113
▁스페인	-8.66445
▁장	-8.6647
E	-8.66755
츠	-8.66852
▁평화	-8.66953
▁않다	-8.6707
▁사망자	-8.67169
▁만에	-8.6729
▁살해	-8.67325
강	-8.67343
▁좋은	-8.67349
▁의회	-8.67418
론	-8.67613
▁공식	-8.67624
▁미국이	-8.67741
판	-8.67758
▁29	-8.67919
▁사람들	-8.67927
▁이름	-8.67968
▁현지	-8.68135
▁가격	-8.68234
번째	-8.68404
울	-8.68431
_	-8.68458
▁돈	-8.68489
▁당국	-8.68919
▁상태	-8.68959
▁발견	-8.68991
▁집	-8.69114
는데	-8.69278
M	-8.69392
▁은행	-8.69436
▁비행기	-8.69521
우리는	-8.69699
▁사태	-8.69995
▁런던	-8.70098
N	-8.70152
▁행사	-8.70171
▁가능성	-8.70287
▁언론	-8.70314
▁팀	-8.70324
▁미사일	-8.70334
류	-8.70387
▁밤	-8.70633
▁사람들은	-8.70711
워	-8.70872
▁28	-8.71034
▁거래	-8.71107
급	-8.71397
article	-8.71566
▁백악관	-8.71627
▁무기	-8.71628
▁최대	-8.71807
▁주둔	-8.71807
▁이들은	-8.71832
▁적	-8.72026
▁알려졌다	-8.72155
▁우	-8.72242
날	-8.72474
▁레	-8.72477
▁동	-8.7264
▁조직	-8.72731
▁살	-8.7278
▁AP	-8.72877
천	-8.72887
▁논의	-8.729
▁자금	-8.73038
p	-8.73122
▁건물	-8.73198
▁벌이	-8.73363
▁불구하고	-8.73916
▁심	-8.73951
됐으며	-8.74014
병	-8.7404
▁중요한	-8.74113
▁투자	-8.74128
▁연기	-8.74135
▁오바마는	-8.74374
청	-8.74441
▁B	-8.74808
▁발언	-8.74849
▁이전	-8.74858
▁말했습니다	-8.74871
▁바그다드	-8.75029
▁공급	-8.75064
▁박사는	-8.75256
▁발생했다	-8.75266
두	-8.75402
%	-8.75425
▁대통령과	-8.75431
I	-8.75564
▁사망한	-8.75565
▁명	-8.75618
▁게임	-8.7565
▁필요	-8.75767
장은	-8.75868
F	-8.76114
▁호	-8.76115
▁위	-8.76123
▁것입니다	-8.76195
and	-8.76291
▁지구	-8.76435
▁용의자	-8.7654
▁막	-8.7659
▁입	-8.76755
▁이런	-8.7679
▁정도	-8.76814
저	-8.7688
▁미국은	-8.76881
▁역할	-8.76968
▁공동	-8.77205
▁발사	-8.77223
작	-8.77233
▁반면	-8.77293
D	-8.77438
▁관심	-8.77442
▁법	-8.77573
▁올	-8.77731
친	-8.7775
▁법원	-8.77804
▁요구	-8.77844
▁코리아	-8.77894
금	-8.77894
스는	-8.77992
▁군사	-8.78016
설	-8.78034
▁2008	-8.78292
▁인질	-8.78501
▁방	-8.78528
▁역사	-8.78555
▁이야기	-8.78708
▁부토	-8.78769
▁상승	-8.78934
층	-8.78975
▁학교	-8.79172
’’	-8.79177
T	-8.79405
▁앞	-8.7979
▁무샤라프	-8.79918
▁보안	-8.80104
▁치	-8.80153
▁포	-8.80167
▁북부	-8.80202
▁고위	-8.80289
속	-8.80375
▁회장	-8.80523
▁보다	-8.80526
▁서비스	-8.80561
▁사망했다고	-8.80565
출	-8.80813
2005.08	-8.80916
▁메	-8.8093
▁기간	-8.81098
간의	-8.81156
▁분	-8.81176
4	-8.81184
▁위험	-8.81359
▁길	-8.81419
마리	-8.8161
▁정치적	-8.81635
래	-8.81713
▁나라	-8.81796
▁의하면	-8.81874
기를	-8.81887
▁단체	-8.81888
▁알카에다	-8.8196
▁모습을	-8.8206
▁2005.08	-8.8211
포인트	-8.8221
CNN	-8.82213
▁자신들	-8.82269
▁워싱턴	-8.82343
▁의원	-8.82346
▁지도자	-8.82391
B	-8.82454
▁부족	-8.8248
▁충돌	-8.82556
시킬	-8.8286
▁수사	-8.82873
▁것이라는	-8.82952
▁건강	-8.82976
팀	-8.82982
▁자살	-8.83156
▁행위	-8.83202
▁공항	-8.83248
하면	-8.83254
▁힘	-8.83404
▁감소	-8.83406
▁우승	-8.83424
▁출신	-8.83457
f	-8.83522
▁가능성이	-8.83679
▁높은	-8.83755
▁더욱	-8.83761
▁여	-8.83851
▁지난주	-8.83944
통	-8.83957
▁왔다	-8.83976
▁뜻	-8.84098
▁정보	-8.84182
▁국경	-8.84221
▁인용	-8.84405
후	-8.84703
▁행동	-8.84793
ar	-8.84832
’(	-8.84861
▁위기	-8.85068
초	-8.85127
슨	-8.85145
▁성명에서	-8.85169
an	-8.85182
▁뉴스	-8.85217
▁금지	-8.85251
▁전에	-8.85301
▁베	-8.85315
한다고	-8.85363
▁서울	-8.85371
▁하마스	-8.85532
▁&	-8.85615
하자	-8.85652
▁지역에	-8.85834
▁저	-8.85915
▁체포	-8.86099
▁F	-8.86147
▁폐쇄	-8.86229
세의	-8.86448
만달러	-8.86502
▁하나	-8.86514
▁H	-8.86526
▁보호	-8.86557
▁말을	-8.86603
▁N	-8.86624
▁문	-8.86753
▁가족	-8.86798
h	-8.86857
r	-8.86905
▁확인	-8.86975
▁이와	-8.87042
▁아니다	-8.87138
▁검사	-8.87237
▁것이며	-8.87358
▁인쇄	-8.87386
▁알고	-8.87644
▁2004	-8.87742
이번	-8.87791
▁for	-8.87878
▁총리가	-8.87993
▁않는	-8.88124
▁손	-8.88223
O	-8.88239
▁경	-8.88272
g	-8.88337
▁독립	-8.88396
▁전화	-8.88836
in	-8.88857
▁석유	-8.88869
민	-8.88885
였던	-8.8901
양	-8.89054
▁캘리포니아	-8.8912
▁폭탄테러	-8.89215
▁하락	-8.89218
하겠다고	-8.8922
▁않았다고	-8.8924
▁병력	-8.89572
색	-8.89589
증	-8.89807
▁철수	-8.89812
▁진행	-8.89835
▁시신	-8.90223
▁기자회견에서	-8.90363
▁핵무기	-8.90516
▁어제	-8.90525
하던	-8.90731
▁직접	-8.90798
▁되는	-8.90817
▁하루	-8.91002
▁맥	-8.91269
▁필요한	-8.91428
▁납치	-8.91447
도록	-8.91481
▁아침	-8.91522
▁에서	-8.91568
▁라이스	-8.91705
▁관련된	-8.91717
져	-8.9173
▁아니라	-8.91773
미국	-8.91792
▁C	-8.91965
▁곳	-8.91998
▁각	-8.92048
▁여부	-8.92072
▁동영상	-8.92099
▁범죄	-8.92119
▁생활	-8.92143
영	-8.92177
R	-8.92192
설명	-8.92225
▁결혼	-8.92234
G	-8.9227
품	-8.92294
▁회의	-8.92302
억원	-8.92353
▁속	-8.9243
▁확보	-8.92446
인한	-8.92467
▁증거	-8.92578
해서	-8.92584
▁국방부	-8.92586
편	-8.92614
만명	-8.92624
▁방법	-8.92661
▁사람이	-8.92803
▁재개	-8.92885
▁베이징	-8.92943
▁우리는	-8.92959
▁공개	-8.93024
▁사업	-8.93034
함	-8.93087
▁국민	-8.9317
▁아들	-8.93281
▁들	-8.9331
▁시도	-8.93547
“	-8.93605
JO	-8.93635
▁사르코지	-8.93742
년대	-8.93871
▁통과	-8.93921
긴	-8.93936
▁요청	-8.93949
차례	-8.93965
년에	-8.94021
▁타고	-8.94024
했을	-8.94175
▁주택	-8.94254
▁협력	-8.94345
탄	-8.9451
▁아버지	-8.9459
▁정상	-8.94629
나는	-8.94637
▁있고	-8.94691
INS	-8.94708
그러나	-8.94719
en	-8.94735
▁받을	-8.94902
▁작전	-8.94925
▁P	-8.94944
▁원문	-8.95107
▁골	-8.9515
▁티베트	-8.95242
매	-8.95345
베	-8.95588
년까지	-8.95612
▁아프가니스탄	-8.95644
▁노무현	-8.95866
▁독해	-8.9587
▁연	-8.95901
▁콜롬비아	-8.95923
▁결국	-8.95984
▁상원	-8.96046
▁추	-8.9629
▁폴	-8.96407
▁건설	-8.96461
생	-8.96573
▁역시	-8.96575
▁번째	-8.9661
졌다	-8.96687
▁사회	-8.96696
▁딸	-8.96711
▁신문	-8.96761
메	-8.96803
▁사진	-8.97105
▁남	-8.97124
▁비행	-8.97215
다고	-8.97346
하려	-8.97346
▁에너지	-8.97473
▁아이들	-8.97539
▁보내	-8.97642
▁통	-8.97752
▁빌	-8.97768
예	-8.9795
▁2003	-8.98038
▁제안	-8.98052
▁애	-8.98055
▁열리는	-8.98077
▁곧	-8.98086
▁이유로	-8.98182
▁기업	-8.98252
▁환경	-8.98309
▁숨졌다	-8.98463
있는	-8.98477
▁M	-8.98582
▁얻	-8.98632
▁페	-8.98664
▁드	-8.98781
▁수준	-8.98831
▁사건에	-8.98854
▁60	-8.98864
▁친구	-8.98929
▁언급	-8.98967
▁국무부	-8.99156
▁눈	-8.99207
▁본	-8.99253
▁문제에	-8.99271
▁Korea	-8.99286
▁단	-8.9934
▁온	-8.9946
▁의견	-8.99502
▁타임즈	-8.99541
▁부인	-8.99617
&	-8.99634
▁판결	-8.99699
▁구조	-8.99786
▁전망	-9.00031
▁키	-9.00035
▁호텔	-9.00065
량	-9.00111
▁연설	-9.00226
위를	-9.00296
▁이제	-9.00428
▁도로	-9.00612
▁경쟁	-9.00651
▁지방	-9.00935
이자	-9.01132
측	-9.01206
▁인정	-9.01272
▁예정이라고	-9.01275
으나	-9.01291
▁종	-9.01434
▁어떻게	-9.01437
하라	-9.01441
▁최초	-9.01647
▁네	-9.01839
▁훈련	-9.01994
▁못	-9.02253
▁루	-9.02277
▁시스템	-9.02298
본	-9.02459
▁현	-9.02585
▁경선	-9.02669
▁같다	-9.02685
▁까지	-9.02797
▁보였다	-9.02841
▁팔	-9.02998
▁주변	-9.03046
▁예상	-9.03047
▁레바논	-9.03281
▁이동	-9.03285
커	-9.0331
▁성장	-9.03496
▁시작했다	-9.03608
일간	-9.03693
하려는	-9.03719
▁선수	-9.03781
▁승인	-9.03817
▁전문가들은	-9.039
▁맞	-9.03904
▁한국인	-9.03908
▁해외	-9.04001
▁산업	-9.04019
▁요구했다	-9.04038
에서도	-9.04083
▁변	-9.04121
▁임무	-9.04193
▁방안	-9.04336
만원	-9.0436
▁정보를	-9.04397
▁성공	-9.04409
▁또는	-9.04411
▁일정	-9.0442
테	-9.0448
▁이같	-9.04482
▁200	-9.04523
케	-9.04557
▁음악	-9.04585
▁시설	-9.04598
▁인구	-9.04652
▁태국	-9.04764
▁있게	-9.0502
▁친	-9.05217
▁예	-9.05309
▁개인	-9.05336
▁데이비드	-9.05383
▁대선후보	-9.05387
명과	-9.0544
▁멕시코	-9.05477
업	-9.05481
남	-9.05582
▁발견했다	-9.05596
▁2000	-9.05783
▁T	-9.05797
or	-9.05817
처	-9.06079
▁과학자들	-9.06164
▁보고서	-9.06395
▁내년	-9.06456
▁선택	-9.06763
시켰다	-9.06774
▁시위대	-9.06783
▁수술	-9.06804
▁운동	-9.0695
역	-9.0697
▁앞두고	-9.07006
▁비디오	-9.07083
▁대변인	-9.07182
지역	-9.07199
추	-9.07234
▁만	-9.07235
▁한나라당	-9.07311
▁사망하고	-9.07411
▁비롯	-9.0742
▁교육	-9.0743
▁여객기	-9.07548
▁생각한다	-9.07596
▁너무	-9.07716
l	-9.07755
com	-9.07793
▁배우	-9.08167
▁나타났다	-9.08296
le	-9.08614
▁어린이	-9.08664
L	-9.08818
▁관할	-9.08825
▁대사관	-9.08951
it	-9.09035
▁유지	-9.09065
▁폭력	-9.09341
▁인권	-9.09389
▁민간인	-9.09439
▁버	-9.09596
▁장관	-9.0968
▁전투	-9.09736
▁있었던	-9.09922
▁전세계	-9.10092
▁돌	-9.10113
▁포함한	-9.1018
료	-9.1042
▁행정부	-9.10421
▁회복	-9.10423
▁별	-9.10436
▁가지	-9.1048
▁바로	-9.10699
▁도움	-9.10713
혀	-9.10734
▁운영	-9.10748
▁대규모	-9.10766
▁토	-9.10831
렌	-9.10931
▁진	-9.11149
▁출전	-9.11281
▁제작	-9.11286
투	-9.11343
▁디	-9.11363
▁판사	-9.11373
억달러	-9.1138
▁G	-9.11486
▁화재	-9.11574
▁아닌	-9.11623
▁결	-9.11679
씨는	-9.11717
독	-9.11746
▁안에	-9.12099
▁여전	-9.12104
▁경고	-9.12164
▁인도네시아	-9.12351
8	-9.12431
▁로버트	-9.12472
▁알리	-9.12571
▁전체	-9.12574
▁브라운	-9.12648
▁아프리카	-9.12766
▁동물	-9.12849
▁교수는	-9.13073
▁출연	-9.13383
▁D	-9.13518
▁가지고	-9.13527
▁의원은	-9.13551
▁촉구했다	-9.13638
~	-9.13715
▁벌	-9.13735
▁주민	-9.13774
▁밝혀졌다	-9.1378
퍼센트	-9.13792
▁무장	-9.139
합니다	-9.13969
▁받아	-9.13994
승	-9.14016
▁했다고	-9.14161
▁온라인	-9.14216
▁계약	-9.14228
장을	-9.14245
▁2002	-9.14252
립	-9.14493
▁입은	-9.14504
)'	-9.14578
▁천	-9.14612
on	-9.14619
▁건	-9.14624
K	-9.14625
▁수단	-9.14647
▁규정	-9.14654
▁스타	-9.1467
▁31	-9.14712
우리	-9.148
현	-9.14828
등	-9.15028
▁안보	-9.15134
▁입었다	-9.15164
▁표	-9.15172
▁특히	-9.15286
▁인간	-9.153
박	-9.15434
엔	-9.15544
▁그들의	-9.15559
▁대신	-9.15611
▁난	-9.15715
▁수입	-9.15811
퍼	-9.15923
▁국내	-9.16028
▁경기에서	-9.16043
▁제재	-9.16071
k	-9.16114
자들은	-9.16163
▁갈	-9.16256
▁일을	-9.16304
▁수치	-9.1631
▁LA	-9.16514
됐	-9.16602
▁마을	-9.16717
▁말한다	-9.16735
▁살고	-9.16853
▁헤	-9.16857
▁이상이	-9.16951
▁대회	-9.16997
▁번	-9.17019
▁만나	-9.17021
▁항공	-9.17127
범	-9.17236
▁홍콩	-9.17338
▁작은	-9.17395
▁마련	-9.17463
▁암	-9.17471
▁여자	-9.17477
▁직원	-9.17631
로서	-9.17682
▁관계자가	-9.17684
▁최종	-9.17803
골	-9.1783
월에	-9.18062
▁체	-9.18159
▁일이	-9.18191
▁심각한	-9.18201
▁정당	-9.18244
▁푸틴	-9.1825
▁열차	-9.18261
▁담당	-9.18415
표	-9.18739
▁필요하다	-9.18789
▁있기	-9.18959
▁경고했다	-9.19104
▁연합	-9.19105
▁메시지	-9.19169
▁밝힌	-9.19172
▁연료	-9.19182
▁대의원	-9.19186
▁걸	-9.19261
▁사임	-9.1934
▁중인	-9.19418
▁가치	-9.19494
▁없을	-9.19631
곳	-9.19747
▁개선	-9.19747
▁파업	-9.19866
복	-9.19877
▁주도	-9.19954
▁플로리다	-9.20013
링	-9.20088
▁부대	-9.2017
▁관리들	-9.2026
▁명이	-9.20273
▁반응	-9.20327
▁무장세력	-9.20364
▁아기	-9.20369
달	-9.20378
말	-9.20396
▁아무	-9.20407
절	-9.20512
▁주식	-9.20524
▁발표한	-9.20551
▁환자	-9.20785
▁캐나다	-9.21033
▁광고	-9.21122
▁개최	-9.21146
▁지명	-9.2153
▁마이클	-9.21636
집	-9.2164
▁주말	-9.21681
▁벌였다	-9.21744
▁동부	-9.21843
▁원인	-9.21863
▁라디오	-9.22121
쳐	-9.22127
▁f	-9.22248
▁변호사	-9.22252
▁비해	-9.22266
록	-9.22323
▁사실	-9.22339
▁얼마	-9.22402
▁시험	-9.22468
es	-9.22473
격	-9.22635
▁기록했다	-9.22637
▁외국인	-9.22648
▁대만	-9.22651
▁편	-9.22734
▁이라크에서	-9.23051
▁자유	-9.23071
▁구성	-9.23175
▁서로	-9.2329
▁미국인	-9.23517
들에	-9.23537
▁화요일	-9.23586
채	-9.23622
▁지역의	-9.23623
외	-9.23692
▁힐	-9.23698
▁책임	-9.23898
H	-9.2392
▁이유	-9.2393
▁b	-9.24036
톤	-9.24145
▁중동	-9.24255
각	-9.24284
▁브라질	-9.24383
불	-9.24424
년부터	-9.24456
▁빈	-9.24481
하겠다	-9.24523
▁감시	-9.24543
▁헬기	-9.24555
센터	-9.24627
태	-9.24856
▁스미스	-9.24871
▁제한	-9.24874
▁여름	-9.24881
▁들어	-9.24894
▁작품	-9.24965
50	-9.25065
되기	-9.25102
이었던	-9.25168
하거나	-9.25188
▁해안	-9.25195
▁실시	-9.25315
▁케냐	-9.25364
▁커	-9.25375
▁U	-9.25406
▁실험	-9.25504
▁미국에서	-9.25564
음	-9.25671
▁재판	-9.25781
▁남편	-9.25927
▁학생	-9.25936
▁외국	-9.25956
▁짐바브웨	-9.25957
▁국영	-9.25988
▁내렸다	-9.26017
▁후보가	-9.26035
▁나는	-9.26099
▁거리	-9.26229
▁비용	-9.2634
▁각각	-9.26362
▁같이	-9.2645
▁식량	-9.26574
▁국회	-9.26586
▁양국	-9.26654
▁밖에	-9.26761
▁시아파	-9.26846
▁차례	-9.26884
▁K	-9.26896
▁야	-9.26941
았다	-9.26961
▁소송	-9.27061
b	-9.27078
주의	-9.27209
▁북	-9.27264
▁해군	-9.27265
액	-9.27332
▁평균	-9.27349
▁대변인이	-9.27386
▁권리	-9.27409
▁남성	-9.27439
▁특별	-9.27451
▁부분	-9.27472
거리	-9.27497
▁쇼	-9.27511
ch	-9.27593
▁교	-9.277
▁시즌	-9.27754
▁잡	-9.27969
▁배치	-9.27985
▁인상	-9.28017
열	-9.28045
▁찾아	-9.28101
▁국민들	-9.28163
쉬	-9.282
한다는	-9.28267
▁가스	-9.28268
▁올라	-9.28346
▁L	-9.28381
▁s	-9.28489
▁내려	-9.28647
▁엘	-9.28696
▁전달	-9.28729
▁총선	-9.28736
랑	-9.28788
▁버스	-9.28959
▁감	-9.28974
▁박	-9.28981
▁않아	-9.29
▁발견됐다	-9.29033
▁여론조사	-9.29036
▁과정에서	-9.29066
▁일본의	-9.29095
▁과거	-9.29245
▁US	-9.29249
▁약속	-9.29269
▁텍사스	-9.29328
시켜	-9.29355
▁정권	-9.29672
업체	-9.29685
▁처리	-9.29742
락	-9.29774
▁제품	-9.29854
▁경찰에	-9.29919
▁파병	-9.29936
▁강제	-9.29995
림	-9.30105
플	-9.30132
▁부상했다	-9.30203
▁웹사이트	-9.30217
이란	-9.30217
▁앤	-9.3022
▁다양	-9.30239
▁위원회	-9.30256
30	-9.30269
줄	-9.30344
▁몸	-9.3035
튼	-9.30358
▁담	-9.30447
회사	-9.30504
▁사건이	-9.3058
▁패	-9.30625
▁위성	-9.3064
▁공연	-9.30653
렸다	-9.30663
▁당신	-9.3073
있다	-9.30747
▁지나	-9.30805
▁무역	-9.30809
일까지	-9.30904
▁걸쳐	-9.30929
블	-9.31012
▁/	-9.31033
▁설명	-9.31059
목	-9.31121
▁센터	-9.31146
▁사이에	-9.31309
광	-9.31316
▁설치	-9.31327
▁다리	-9.31329
▁강화	-9.31354
▁자료	-9.31468
▁통제	-9.31534
▁수상	-9.31616
갈	-9.31703
▁기대	-9.31745
가지	-9.31755
▁항공사	-9.31774
▁500	-9.31885
▁부통령	-9.31985
개국	-9.32033
망	-9.32107
▁2007	-9.3218
기도	-9.32298
▁질	-9.32304
책	-9.32362
▁결정했다	-9.32494
▁평가	-9.32506
여명	-9.32528
상을	-9.32587
자가	-9.32655
▁헌법	-9.3277
▁선고	-9.32786
▁목표	-9.32876
리는	-9.3289
▁섬	-9.32962
▁주재	-9.32963
▁발전	-9.32967
▁제공	-9.32971
▁안정	-9.33172
▁대상으로	-9.3325
▁기소	-9.33271
머	-9.33286
대로	-9.33297
v	-9.33492
해왔다	-9.33519
▁이에앞서	-9.33549
▁논쟁	-9.3355
▁진압	-9.33775
▁것과	-9.33841
▁촬영	-9.3387
▁수출	-9.33871
▁그룹	-9.33878
입	-9.33902
▁유일	-9.34022
▁사퇴	-9.34098
▁바이러스	-9.34246
W	-9.34285
=2	-9.34339
▁되어	-9.34352
결	-9.34365
▁관계자들은	-9.34455
▁주민들	-9.34486
▁샤	-9.34502
▁The	-9.34578
▁성폭행	-9.34622
▁공습	-9.34636
▁인물	-9.34698
▁나이	-9.34746
▁외교	-9.3479
0	-9.34825
리아	-9.3502
▁희망	-9.35073
▁그런	-9.35169
▁알려진	-9.35173
9	-9.35243
▁대해서는	-9.35261
▁발견된	-9.35294
▁on	-9.35296
▁참석	-9.353
▁사과	-9.35409
▁한다는	-9.35438
동안	-9.35539
▁받는	-9.35579
쿠	-9.35677
힌	-9.357
▁차베스	-9.35711
▁압력	-9.35719
▁후세인	-9.35744
하였다	-9.35768
▁요청했다	-9.35942
성을	-9.36068
▁기지	-9.36157
샤	-9.36233
▁EU	-9.36287
▁하기	-9.36313
중인	-9.36367
▁완전	-9.36477
w	-9.36524
명으로	-9.36583
▁거부	-9.36617
라며	-9.36624
시키는	-9.3675
▁상대로	-9.36782
▁바란다	-9.36803
▁서부	-9.36842
▁그들이	-9.36878
▁왕	-9.36942
▁파괴	-9.36976
▁마약	-9.36992
령	-9.37054
자인	-9.37061
▁기사	-9.37298
것	-9.37309
▁변호사는	-9.3731
▁질문	-9.37454
▁익명	-9.37484
▁만들어	-9.37639
먼	-9.37706
▁후보는	-9.3789
▁대응	-9.37919
▁야후	-9.37927
▁생	-9.37952
▁왕자	-9.37961
▁병	-9.37967
장이	-9.37971
▁예상된다	-9.38022
▁총격	-9.38134
▁집단	-9.38246
▁복귀	-9.3847
이라크	-9.38591
합	-9.38624
▁불만	-9.38703
▁사는	-9.38767
▁귀	-9.38893
흐	-9.38966
▁이명박	-9.3903
▁밝혔습니다	-9.39035
▁크게	-9.39091
▁로마	-9.3918
▁아직까지	-9.39229
▁누	-9.39231
▁남한	-9.39297
백	-9.39329
▁있지	-9.39356
자들이	-9.39468
▁탑승	-9.39581
▁북핵	-9.39598
▁붕괴	-9.39617
▁전국	-9.39688
▁E	-9.39804
▁저장	-9.39807
▁받지	-9.39826
▁죽	-9.3984
ation	-9.39905
기로	-9.40332
은행	-9.40399
▁허가	-9.40547
▁책	-9.4059
un	-9.40639
▁이곳	-9.40651
▁인터뷰	-9.40664
▁요	-9.40685
언	-9.40725
▁인수	-9.40841
▁나온	-9.4085
▁사람은	-9.40869
▁놓	-9.40892
▁접근	-9.41011
일부터	-9.41126
사건	-9.41133
▁선정	-9.41143
▁중국은	-9.41267
▁합니다	-9.41278
▁인기	-9.41289
▁베네수엘라	-9.41418
▁이집트	-9.41445
500	-9.41477
▁하원	-9.41506
▁극	-9.41546
▁어머니	-9.41691
▁음식	-9.4173
른	-9.41734
▁추진	-9.41741
▁적이	-9.41824
ic	-9.41844
▁아니라고	-9.41854
▁따른	-9.41894
▁사실이	-9.41902
▁국무장관	-9.41908
▁여론	-9.41914
▁되	-9.41954
▁되고	-9.41974
▁세력	-9.42036
▁민주주의	-9.42091
▁넘	-9.42189
▁사람들을	-9.42233
▁살인	-9.42243
▁위해서는	-9.42349
▁암살	-9.42349
▁때까지	-9.42374
▁정부와	-9.42413
▁기관	-9.42489
▁부부	-9.4257
▁교수	-9.42597
▁마크	-9.42619
▁머리	-9.428
측은	-9.42927
▁시민	-9.43041
▁최악	-9.43058
▁권력	-9.43069
▁잠	-9.43082
▁쿠바	-9.43098
▁받게	-9.4312
▁일반	-9.4312
▁모델	-9.43338
▁문화	-9.43393
▁임기	-9.43425
▁2001	-9.43766
▁명령	-9.43851
▁신고	-9.43886
▁비판	-9.43962
▁장면	-9.44121
▁부모	-9.44261
▁무장단체	-9.44279
▁상원의원이	-9.44299
북	-9.44305
▁가졌다	-9.44403
▁매년	-9.44412
▁차이	-9.44472
▁못하고	-9.44588
▁의미	-9.44606
▁사원	-9.4463
▁선출	-9.44642
▁내부	-9.44658
▁유권자들	-9.44672
▁수색	-9.44759
▁진출	-9.44851
▁공격으로	-9.44992
페	-9.44995
▁남북	-9.45021
▁뿐	-9.45034
▁긴장	-9.45051
창	-9.45058
▁달리	-9.45239
▁계획이다	-9.45258
레이	-9.45279
▁도착	-9.45308
▁금	-9.45408
▁언급했다	-9.45421
▁일요일	-9.45428
▁고용	-9.45524
▁두고	-9.45604
▁보냈다	-9.45615
정부	-9.45749
▁참가	-9.45774
때	-9.45807
▁밀	-9.45818
▁강력한	-9.45873
re	-9.45882
그는	-9.45897
▁허용	-9.45912
▁필리핀	-9.4603
▁이끄는	-9.46031
▁목적	-9.46057
기구	-9.46099
▁도움이	-9.46115
ra	-9.46116
▁수많은	-9.46139
st	-9.46153
자회담	-9.46157
▁나왔다	-9.46195
▁확인했다	-9.46214
▁수십	-9.46294
▁테	-9.46316
엘	-9.46329
▁못한	-9.46341
되었다고	-9.46344
▁병사	-9.46362
▁사항	-9.46365
▁선수들	-9.46425
시키고	-9.46502
▁정부에	-9.46538
▁동료	-9.46618
단체	-9.46681
▁삼	-9.46682
▁쿠	-9.46691
▁강한	-9.46692
▁밝히지	-9.46737
하기도	-9.46757
▁개혁	-9.46783
만이	-9.46814
▁월요일	-9.46851
▁보고서는	-9.46919
▁집중	-9.46946
▁끝	-9.4704
▁거대	-9.47049
담	-9.47223
▁의료	-9.47264
▁오른	-9.47272
관계	-9.47298
▁향해	-9.47359
빌	-9.47363
▁퍼	-9.47407
하다고	-9.47408
▁구매	-9.47508
하지만	-9.47589
▁파리	-9.47594
이라	-9.4765
▁임명	-9.47655
▁중앙	-9.47679
10	-9.47684
▁사랑	-9.47687
▁항공기	-9.47961
만한	-9.47963
‘	-9.48159
▁통신	-9.48211
▁상대	-9.48251
랜드	-9.48344
리스	-9.48426
▁가자지구	-9.48427
20	-9.48487
▁군대	-9.48518
▁대사	-9.48525
▁탄	-9.48582
▁사형	-9.48584
▁80	-9.48659
▁관해	-9.49008
다른	-9.49029
스타	-9.49032
▁흑인	-9.49101
▁긴급	-9.4911
▁임시	-9.49116
▁칸	-9.49123
▁작년	-9.49193
▁접	-9.49259
씨	-9.49276
▁되었다	-9.49355
▁제거	-9.49514
규	-9.496
▁증시	-9.49635
▁중에	-9.49719
▁나머지	-9.49723
▁주지사는	-9.49853
▁태	-9.49887
▁위반	-9.49895
▁참여	-9.49897
▁지진	-9.49931
ID	-9.49957
협회	-9.50056
런	-9.50114
▁상황이	-9.50152
▁re	-9.50188
▁북한에	-9.50243
▁사우디	-9.50364
족	-9.50485
▁올랐다	-9.50487
향	-9.5056
악	-9.50593
▁주지사	-9.50654
▁막기	-9.50666
앙	-9.50675
▁부상자	-9.50714
왔다	-9.50961
▁목숨	-9.50985
▁뇌	-9.5103
▁소재	-9.51054
▁감염	-9.51058
▁숨지고	-9.51119
▁J	-9.51247
▁축구	-9.51437
항	-9.51488
▁게	-9.51611
▁대중	-9.5163
▁다음달	-9.51645
▁1000	-9.51892
▁되지	-9.51916
▁감사	-9.51969
ri	-9.51982
경기	-9.52015
▁교회	-9.52065
국가	-9.52171
▁희생자	-9.52177
▁국방장관	-9.52336
총	-9.52445
▁유권자	-9.52539
대의	-9.52626
▁c	-9.52627
▁전기	-9.52715
▁관광객	-9.52733
▁전력	-9.52745
ion	-9.52777
율	-9.52853
▁직원들	-9.52854
▁비밀	-9.52896
▁제임스	-9.52908
▁주장하고	-9.5291
▁어느	-9.52921
되면서	-9.52977
▁아내	-9.53013
변	-9.5302
▁후에	-9.53026
시키기	-9.53135
▁사람들에게	-9.53324
▁유명	-9.5334
▁받았다고	-9.53406
▁따라	-9.53471
▁가능한	-9.53612
▁학생들	-9.53631
▁제기	-9.53636
▁만큼	-9.53637
▁업체	-9.53658
▁소리	-9.5368
▁넘는	-9.53813
▁R	-9.53881
▁착륙	-9.54074
▁이라크전	-9.5413
▁질문에	-9.54137
▁외무부	-9.5421
▁충격	-9.54217
▁출발	-9.54221
▁제출	-9.54271
▁전시	-9.54371
리자	-9.54406
▁있다며	-9.54487
존	-9.54552
▁UN	-9.54578
▁시리아	-9.54619
빈	-9.54649
▁정도로	-9.54808
▁적어도	-9.54869
회의	-9.54878
▁수요일	-9.54959
▁대비	-9.54988
▁끝에	-9.54993
▁것이라	-9.55201
했다는	-9.55262
▁곳에서	-9.55499
클	-9.55501
▁작업을	-9.55543
▁만들	-9.55608
▁여당	-9.55617
▁해리	-9.55675
으로서	-9.55811
여명이	-9.55825
▁O	-9.55929
▁가까	-9.55975
사는	-9.56058
▁어떠한	-9.56197
▁패배	-9.56221
▁선두	-9.56239
▁연결	-9.56254
▁목	-9.56268
▁허리케인	-9.56279
▁캐	-9.56334
▁높이	-9.56436
▁제시	-9.56467
▁시기	-9.56547
▁교전	-9.56552
▁항의	-9.56673
▁혼란	-9.56681
▁고통	-9.56852
▁여성이	-9.56855
▁접촉	-9.56872
▁동결	-9.56903
▁자체	-9.56936
름	-9.56989
▁입고	-9.57086
▁방문한	-9.57129
▁보여주	-9.57172
▁이래	-9.5722
▁발생했다고	-9.57291
▁시행	-9.57321
▁수천명	-9.57334
▁칼	-9.57372
▁이달	-9.57506
▁교통	-9.57557
▁일자리	-9.57576
▁출마	-9.57583
▁집회	-9.57747
▁수행	-9.57847
▁선언	-9.57926
sp	-9.58016
▁관계자	-9.58035
▁수천	-9.58051
세기	-9.58074
▁유명한	-9.58105
장에서	-9.58127
자는	-9.582
▁없어	-9.58224
▁확대	-9.58224
▁압박	-9.58228
▁백	-9.58243
▁삶	-9.58293
▁제조	-9.58315
기간	-9.58337
▁발생해	-9.58522
▁청	-9.58529
▁전문가	-9.58556
▁팬들	-9.58558
▁합의했다	-9.58572
▁자리	-9.58625
▁씨	-9.58652
▁35	-9.58662
▁300	-9.58664
환	-9.5868
5%	-9.58779
5000	-9.58839
▁노동	-9.58871
겠다	-9.58904
▁신원	-9.58914
▁미군이	-9.58952
탈	-9.58953
▁영	-9.59014
▁사진을	-9.59049
▁오바마가	-9.59071
▁설립	-9.59128
▁종교	-9.59161
▁누구	-9.59212
▁사상	-9.59214
▁세금	-9.59426
칠	-9.59453
준	-9.59476
▁피해자	-9.59546
▁쓰	-9.59556
▁등의	-9.59597
▁어려움	-9.59601
▁찰스	-9.59635
▁승객	-9.59647
▁수백	-9.59662
▁아주	-9.59811
▁민	-9.59838
▁구호	-9.59846
▁표현	-9.59921
▁수익	-9.60009
▁해야	-9.60039
밀	-9.60041
▁비슷	-9.60076
▁행	-9.60081
애	-9.60137
▁인사	-9.6018
손	-9.6018
▁관광	-9.60243
▁외무장관	-9.60293
▁국립	-9.60304
대가	-9.60363
▁대해서	-9.60466
▁존스	-9.60587
▁병원에	-9.60635
▁마음	-9.60637
▁노조	-9.60667
▁지도자인	-9.60668
▁투	-9.60676
폭	-9.60791
▁대표는	-9.60808
▁총기	-9.60847
되었습니다	-9.60873
▁작업	-9.6097
▁로켓	-9.60977
▁파견	-9.60979
▁소말리아	-9.60993
▁유죄	-9.61069
▁체포됐다	-9.6107
▁be	-9.61071
▁이라크에	-9.61087
▁대화	-9.61147
▁것인지	-9.61147
▁추락	-9.61261
▁사이트	-9.61353
▁심장	-9.61388
is	-9.61461
▁주민들이	-9.61532
누	-9.61539
▁떠나	-9.61551
at	-9.61606
냐	-9.61631
▁그리스	-9.61636
▁마리	-9.61639
▁현장	-9.61664
▁않았지만	-9.61697
문제	-9.61725
▁가질	-9.61814
▁연장	-9.61919
▁자국	-9.6199
▁지도자들	-9.62012
▁소비자	-9.62022
▁능력	-9.62082
▁상당	-9.62083
▁공군	-9.6212
▁해제	-9.62139
▁나오	-9.6215
▁시간이	-9.62173
▁국	-9.62247
▁언론은	-9.62349
▁연구소	-9.62365
▁신뢰	-9.62409
▁숨진	-9.62442
월부터	-9.62481
▁적용	-9.62502
안을	-9.62536
▁수감	-9.62603
▁망명	-9.62604
▁판	-9.62668
▁고문	-9.62695
▁카운티	-9.6276
▁군인	-9.62798
축	-9.62831
▁나가	-9.62872
▁검토	-9.62943
능	-9.62966
▁사무실	-9.63042
▁보여	-9.63044
맨	-9.63105
▁게이츠	-9.63121
▁허	-9.63121
▁절차	-9.63144
▁경제적	-9.63376
되	-9.63395
▁폭력사태	-9.63445
▁카메라	-9.63461
받	-9.63535
▁목표로	-9.63553
▁용	-9.63579
▁지불	-9.63694
센	-9.63698
▁관련해	-9.63703
▁한반도	-9.6374
el	-9.63802
▁반대하는	-9.63834
▁걱정	-9.6384
▁말레이시아	-9.6384
싼	-9.6384
▁휴대폰	-9.63841
▁트럭	-9.63842
▁오르	-9.63858
▁그것은	-9.63889
▁대법원	-9.63925
턴	-9.63931
했는데	-9.63939
▁프로젝트	-9.63961
▁아베	-9.63984
▁사건은	-9.64019
ist	-9.64103
▁강력	-9.64121
▁전문	-9.64174
▁취소	-9.64178
슬	-9.64194
▁최고의	-9.64422
▁보이는	-9.64428
겠다고	-9.64549
▁청와대	-9.64565
▁아무런	-9.64576
▁여왕	-9.64577
섬	-9.64579
▁장소	-9.64598
▁내무부	-9.6462
▁물론	-9.64622
▁당선인	-9.64629
▁오래	-9.64657
기가	-9.64889
▁폐	-9.64903
▁받았	-9.64946
였습니다	-9.65023
지도	-9.65087
▁넣	-9.65088
▁시카고	-9.65105
▁개의	-9.65177
졌	-9.65186
▁구속	-9.65187
▁젊은	-9.65224
알	-9.65276
▁항상	-9.65323
▁뛰어	-9.65324
▁순간	-9.6536
▁주의	-9.65436
▁영어	-9.65445
스러운	-9.65455
ro	-9.65494
▁경찰관	-9.65568
▁위치	-9.65647
▁현대	-9.65738
드는	-9.65845
▁약물	-9.65877
▁등을	-9.65909
취	-9.65944
▁싶다	-9.65975
별	-9.65998
▁마드리드	-9.6603
▁들고	-9.66038
▁목요일	-9.66062
▁신화통신	-9.66066
▁지역을	-9.66096
▁관계자들	-9.66154
▁미래	-9.66228
▁집행	-9.66241
▁법안을	-9.66287
▁수석	-9.66323
▁자주	-9.66397
▁과정	-9.66412
중국	-9.66477
▁단계	-9.66524
랜	-9.66569
올	-9.66611
▁촉구	-9.6667
▁시작된	-9.66673
▁보장	-9.6668
▁확산	-9.6671
▁운행	-9.66776
▁따	-9.66787
▁밝혀지지	-9.66815
The	-9.6683
▁선거에서	-9.66844
이지만	-9.66853
관리	-9.66918
▁박물관	-9.66978
▁놓고	-9.67074
글	-9.67374
스터	-9.67416
▁만약	-9.67434
움	-9.67472
엄	-9.67506
돌	-9.67524
▁국제사회	-9.67538
▁법률	-9.67541
▁넘어	-9.67543
볼	-9.67592
방송	-9.67592
▁전략	-9.67593
▁창	-9.67622
다면	-9.67697
60	-9.67698
▁도중	-9.67709
순	-9.67724
▁기억	-9.67727
션	-9.67849
▁당했다	-9.67925
▁도전	-9.67929
▁정말	-9.67958
▁이전에	-9.68001
▁실패	-9.68066
착	-9.68119
평	-9.6812
▁분쟁	-9.68138
▁술	-9.68144
▁고려	-9.68158
▁평	-9.68176
▁죽음	-9.68218
▁효과	-9.68239
▁나타나	-9.68269
▁수니파	-9.6827
▁이수지	-9.68281
▁집권	-9.68301
▁판단	-9.68312
▁소식	-9.68364
▁있는지	-9.68383
▁좀	-9.68395
▁영상	-9.68515
었습니다	-9.68539
▁90	-9.68592
▁회담에서	-9.68626
슈	-9.68676
▁브	-9.68737
이것은	-9.6877
▁미군은	-9.68882
▁있음을	-9.68895
▁슈	-9.68898
▁조건	-9.68916
술	-9.6892
패	-9.68948
▁얼굴	-9.69027
▁연속	-9.69058
▁체포했다	-9.69102
et	-9.69117
▁베컴	-9.69277
)/	-9.69348
로써	-9.69414
▁가수	-9.69454
▁전자	-9.69619
▁저지	-9.69669
▁물질	-9.69688
롭	-9.6974
▁전까지	-9.69758
▁올메르트	-9.6979
▁아파트	-9.6979
▁애플	-9.69809
▁장기	-9.69812
il	-9.69814
▁만든	-9.69817
▁과학	-9.69861
▁소장	-9.69882
▁포기	-9.69891
▁잉글랜드	-9.69901
#	-9.69903
킨	-9.69985
▁윌리엄	-9.69987
▁기회	-9.70025
▁수정	-9.7022
▁연설에서	-9.70322
▁지지자들	-9.70329
▁도쿄	-9.7033
분기	-9.70356
수가	-9.70376
▁예측	-9.70468
렸	-9.70493
▁차기	-9.70527
▁사상자	-9.70632
▁찬성	-9.70633
▁분노	-9.70636
ment	-9.70722
갔다	-9.70813
▁프리	-9.70861
▁연합군	-9.7088
▁시대	-9.70921
▁급	-9.71182
▁겪고	-9.71334
▁직후	-9.71348
▁마무리	-9.71384
▁부정	-9.71403
▁홍보	-9.71422
▁씨는	-9.71429
▁당선	-9.71443
▁대형	-9.71458
▁공장	-9.71464
▁환영	-9.71473
▁곳에	-9.71587
▁한국은	-9.71615
만명이	-9.71616
▁자녀	-9.71692
마일	-9.71744
었으며	-9.71935
▁버지니아	-9.71957
씩	-9.71991
딘	-9.72114
▁블레어	-9.72115
▁핵심	-9.72237
▁분석	-9.72245
▁관	-9.72267
▁소녀	-9.72268
▁옷	-9.72299
▁주민들은	-9.72321
▁근무	-9.72397
▁사기	-9.72655
▁글	-9.72684
▁영국의	-9.72779
▁한미	-9.72791
as	-9.72832
▁고양이	-9.72903
▁성인	-9.72957
▁경계	-9.72971
▁신청	-9.72974
▁프로	-9.7299
▁선포	-9.73001
▁벤	-9.7302
▁근	-9.73028
▁그들	-9.73092
▁전통	-9.7314
▁마감	-9.73213
▁보이지	-9.73236
▁자연	-9.73282
▁소지	-9.73322
▁주가	-9.73333
▁뉴	-9.73407
▁가정	-9.73449
▁가능	-9.73481
ers	-9.735
해졌다	-9.73528
▁그러	-9.73652
▁스포츠	-9.73696
▁협의	-9.73696
▁비상사태	-9.737
▁스스로	-9.737
▁몇몇	-9.73704
▁머물	-9.73713
▁원자로	-9.73721
▁산불	-9.7373
▁나토	-9.73741
했는지	-9.73799
▁약간	-9.7381
▁이란이	-9.73821
▁때문	-9.73831
▁군부	-9.73842
▁병원에서	-9.73842
ol	-9.73881
▁맞아	-9.73975
▁유사	-9.74068
▁기념	-9.74169
id	-9.74258
▁하며	-9.74286
▁I	-9.74288
▁보이고	-9.74365
▁이밖에	-9.74496
▁빠른	-9.74496
▁탁신	-9.74497
▁처벌	-9.74501
▁빠르	-9.74505
▁BBC	-9.74506
▁감축	-9.74507
▁격	-9.74646
▁돌아가	-9.74658
cat	-9.74764
거래	-9.74782
한국	-9.74792
▁동시	-9.74797
시장	-9.74846
▁단지	-9.74848
▁실시된	-9.74913
▁완화	-9.75016
▁차지했다	-9.7505
▁않	-9.75054
▁보안관	-9.75067
▁대책	-9.75102
트는	-9.75103
▁실수	-9.75116
▁순	-9.75162
했	-9.75192
틀	-9.75247
▁높다	-9.75303
▁떨어져	-9.75303
▁협정	-9.75303
▁일어난	-9.75307
▁고속도로	-9.75312
▁절반	-9.75316
함으로써	-9.75322
▁조금	-9.7538
▁합	-9.75383
▁문서	-9.75405
▁난민	-9.75411
▁풀	-9.75474
▁올리	-9.75578
▁나무	-9.75721
▁보건	-9.75809
3%	-9.75828
▁증가했다	-9.75896
▁투입	-9.76035
▁지배	-9.76108
컵	-9.76109
겐	-9.76116
▁스피어스	-9.76117
joins	-9.76118
▁오랜	-9.7616
▁나타냈다	-9.76167
▁조작	-9.76195
▁알려지	-9.76214
▁내각	-9.76236
▁북한과	-9.76241
들도	-9.76274
▁받기	-9.76284
▁발생할	-9.76287
70	-9.76292
▁치안	-9.76317
▁의원이	-9.76334
철	-9.76357
스가	-9.76361
▁코소보	-9.76361
▁이미지	-9.76416
se	-9.7643
례	-9.76498
하길	-9.76565
200	-9.76634
▁아마	-9.76649
▁중이다	-9.76654
염	-9.76664
인지	-9.76665
▁울	-9.76689
몬	-9.76719
월까지	-9.76761
▁부인했다	-9.76776
▁성적	-9.76783
▁가량	-9.76896
▁윌리엄스	-9.76916
▁찾기	-9.76935
▁크리스토퍼	-9.76935
▁할리우드	-9.76935
▁민병대	-9.76936
cnn	-9.76937
자들	-9.76962
▁고래	-9.76992
▁소식을	-9.76997
▁보기	-9.77018
▁이와같	-9.77037
▁대화를	-9.77046
▁낮은	-9.77078
▁사망했으며	-9.77138
▁중심	-9.77167
▁매일	-9.77168
us	-9.77205
▁초기	-9.77208
▁않겠다	-9.77247
▁폭풍	-9.77264
ur	-9.77311
▁실제	-9.77316
▁국가들	-9.77371
op	-9.77422
▁그에게	-9.7743
▁70	-9.77479
새	-9.77505
랄	-9.77526
▁취	-9.77542
▁보낸	-9.7764
▁둔	-9.7766
▁동의	-9.77721
▁개봉	-9.77782
▁프라이머리	-9.77798
▁Korean	-9.77803
▁확실히	-9.77805
▁노래	-9.77836
▁의심	-9.77901
▁원조	-9.77918
▁의혹	-9.77927
▁오랫동안	-9.77938
표를	-9.77991
▁알게	-9.78013
▁보좌관	-9.78014
힐	-9.78087
▁말하고	-9.78145
▁위기에	-9.78176
▁유로	-9.78253
▁필	-9.78289
사를	-9.78307
▁굴	-9.78316
▁폭	-9.78332
▁집에서	-9.78344
니다	-9.78365
시설	-9.78389
킬	-9.78405
인들이	-9.78441
▁상황에서	-9.78445
▁제외	-9.78451
▁약속했다	-9.78476
▁등록	-9.78571
▁빠져	-9.78592
▁그렇게	-9.78595
▁개입	-9.78629
▁차지	-9.78651
▁대표팀	-9.78668
▁고든	-9.78684
▁크리스	-9.78766
침	-9.78782
▁후반	-9.7889
활동	-9.78936
테러	-9.78949
▁블로그에	-9.78999
▁이용해	-9.79026
▁소식통은	-9.7904
▁후보에	-9.79041
ate	-9.79199
견	-9.79209
▁독	-9.79223
ht	-9.79253
▁맺	-9.79257
주년	-9.793
▁나섰다	-9.79436
▁의한	-9.79449
2%	-9.79457
▁다쳤다	-9.79467
▁네덜란드	-9.7952
▁원유	-9.79536
▁화성	-9.79538
백만	-9.7958
▁참석한	-9.79582
▁민간	-9.79615
▁속에	-9.79625
▁기자회견	-9.79666
▁붙	-9.79669
▁후보로	-9.79675
▁단어	-9.79675
▁수백명	-9.79699
▁모습	-9.79715
▁월드컵	-9.799
▁중국이	-9.79939
▁경찰과	-9.79962
▁전반	-9.80071
상태	-9.80202
▁깊	-9.80205
장에	-9.80227
▁2009	-9.80257
▁무가베	-9.80284
://	-9.80287
▁먼저	-9.80291
▁하워드	-9.80291
▁담배	-9.80313
▁처	-9.80322
▁p	-9.80342
tp	-9.80343
▁콜	-9.80414
▁정신	-9.80447
▁남성이	-9.80451
▁대통령에게	-9.80566
▁휴가	-9.80584
▁색	-9.8059
▁바다	-9.80653
▁비상	-9.80693
▁w	-9.80738
▁방해	-9.80752
40	-9.80881
▁이끌	-9.80889
북한	-9.81045
▁작가	-9.81072
▁기회를	-9.81087
▁조정	-9.81091
▁학	-9.81136
▁찾는	-9.81138
▁캠프	-9.81138
Total	-9.81142
code	-9.81143
▁있었으며	-9.8115
▁배럴	-9.81154
▁철회	-9.81158
▁사례	-9.81181
▁박사	-9.81225
▁크리스마스	-9.81239
▁법적	-9.81259
▁150	-9.81285
▁대체	-9.81303
▁증명	-9.8133
자금	-9.81365
달러를	-9.81374
▁연구진	-9.81392
▁목소리	-9.81422
▁세르비아	-9.81454
성이	-9.81493
연합	-9.81534
낼	-9.8154
ce	-9.81541
허	-9.81552
이어	-9.81576
▁긴	-9.8167
▁구성된	-9.81707
▁위험한	-9.81736
▁날씨	-9.81768
▁못할	-9.81783
▁#	-9.81864
▁사용하는	-9.81921
▁비자	-9.81984
▁듯	-9.81999
▁알려져	-9.82005
▁태풍	-9.82005
▁외교부	-9.82036
▁교체	-9.82044
▁연루	-9.82062
전에	-9.82089
됐지만	-9.8212
▁우크라이나	-9.82125
▁지급	-9.82149
기에	-9.82152
▁그것	-9.82208
▁45	-9.82216
▁실종	-9.82226
▁다이애나	-9.82294
하려고	-9.82328
▁대표단	-9.82366
▁측	-9.8244
숙	-9.82446
▁무사	-9.82459
▁위원장은	-9.82469
ent	-9.8252
영화	-9.82629
▁주에서	-9.82645
▁400	-9.82709
▁시작됐다	-9.82784
▁집계	-9.82804
▁모하메드	-9.82871
la	-9.82877
▁돼	-9.82877
▁침체	-9.82879
▁진입	-9.82889
▁1999	-9.82898
▁손실	-9.82941
▁기후	-9.82954
었고	-9.83058
혈	-9.83107
▁의장	-9.83136
극	-9.83155
▁인정했다	-9.83196
시킨	-9.83225
▁농	-9.83265
ir	-9.83337
▁니콜라	-9.83381
▁홍수	-9.83413
▁실시한	-9.83646
이었다고	-9.83666
U	-9.83704
▁광	-9.83704
▁빨리	-9.83747
▁정확한	-9.83747
▁마이크	-9.83751
▁분위기	-9.83755
▁말한	-9.8376
▁질병	-9.83776
▁재정	-9.83781
ot	-9.83811
▁NASA	-9.83816
▁대피	-9.83869
마다	-9.83889
▁영향력	-9.83963
사가	-9.84013
▁조종사	-9.84029
▁어린	-9.84053
▁그린	-9.84122
▁본부	-9.84123
습	-9.84161
J	-9.84202
봉	-9.84207
▁수는	-9.84244
th	-9.84247
▁여성들	-9.843
인들은	-9.84383
▁웹사이트에	-9.84396
▁않기	-9.84407
▁증언	-9.84415
조치	-9.84448
▁당선자	-9.84455
베이	-9.84465
▁테러로	-9.84517
▁부패	-9.84564
▁악	-9.84577
▁응	-9.84584
▁하락했다	-9.84586
셔	-9.84606
쯤	-9.84631
▁부동산	-9.84632
▁엄마	-9.84633
▁규제	-9.84635
▁스티브	-9.84638
▁현장에	-9.84714
▁그중	-9.84722
▁선박	-9.84765
▁도착했다	-9.8484
▁위해서	-9.84847
▁통치	-9.8485
▁추정	-9.84898
▁얻었다	-9.84911
▁시상식	-9.84912
▁기자는	-9.8496
필	-9.85029
막	-9.85057
▁들었다	-9.85091
정책	-9.85194
▁직	-9.85269
▁있는데	-9.8532
람	-9.85328
80	-9.85358
닝	-9.85494
▁사무총장은	-9.8552
▁저녁	-9.85524
▁생명	-9.85526
▁자살폭탄테러	-9.85528
▁콘돌	-9.85529
▁장난감	-9.85529
▁바람	-9.85569
▁32	-9.85646
▁들어가	-9.85815
였다고	-9.85843
▁왜	-9.8589
▁정상회담	-9.85907
▁충분	-9.85924
▁작성	-9.85969
▁아부	-9.85981
▁태도	-9.85986
▁가격이	-9.86004
▁케	-9.86146
자로	-9.86198
▁레이	-9.86202
▁형	-9.86268
▁유세	-9.86299
▁시민들	-9.86308
▁문제로	-9.86314
▁상징	-9.86358
▁임	-9.86362
▁향	-9.86388
▁아바스	-9.86486
▁이웃	-9.86494
▁당한	-9.86548
▁지도부	-9.86564
▁인식	-9.86567
녀	-9.86826
▁취임	-9.86947
▁벨	-9.87086
▁가족들	-9.87087
▁강도	-9.87161
▁살해한	-9.87199
▁승무원	-9.87212
▁대상	-9.87216
명에	-9.8725
개월간	-9.87315
▁밝혀	-9.87333
▁토요일	-9.87335
2009.06	-9.87336
▁네팔	-9.87343
▁최소한	-9.87374
▁축하	-9.87435
레스	-9.87447
센트	-9.87462
▁운전	-9.87483
▁기타	-9.87578
▁방어	-9.87591
▁않으면	-9.87629
▁떨어졌다	-9.87656
지에	-9.87743
낸	-9.87823
▁m	-9.87835
▁자신들이	-9.87978
▁아직도	-9.87991
▁휴전	-9.88023
느	-9.88046
▁FBI	-9.88079
었다고	-9.88097
항공	-9.8814
위로	-9.88193
ve	-9.88206
▁최	-9.88214
▁피터	-9.88218
▁징역	-9.88231
▁주는	-9.88242
▁테이프	-9.88252
▁점령	-9.88286
▁서명	-9.88375
위에	-9.88379
▁지출	-9.88396
▁입국	-9.88401
▁반발	-9.88404
▁땅	-9.88406
경찰	-9.88424
▁받	-9.88453
▁시리즈	-9.88674
왕	-9.88771
▁일본은	-9.88779
쇼	-9.88844
▁아랍	-9.889
▁억류	-9.89038
▁진정	-9.89039
▁주로	-9.89097
같은	-9.89123
▁쿠르드	-9.89171
렛	-9.89178
젠	-9.89178
▁인질들	-9.89187
▁트	-9.89198
▁결론	-9.89215
ak	-9.89234
▁침해	-9.89248
▁소비	-9.8925
▁형성	-9.89262
▁사용할	-9.89307
▁내린	-9.89318
▁평양	-9.89353
▁만들었다	-9.89414
경제	-9.89441
▁지휘	-9.89482
주간	-9.89782
▁상황에	-9.89785
드리	-9.89872
▁교황	-9.89924
▁구입	-9.89935
들로	-9.90011
▁역	-9.90055
좌	-9.90102
▁준	-9.90111
▁쉽게	-9.90113
▁타격	-9.9016
ut	-9.90172
▁즉시	-9.90214
▁힐튼	-9.90314
▁통화	-9.90344
▁놀라	-9.90532
▁숨	-9.90538
▁요구하는	-9.90552
▁살아	-9.9058
▁잔	-9.90581
▁복제	-9.9066
▁사령관	-9.90845
▁오하이오	-9.90871
▁낮	-9.90896
▁움직임	-9.9094
▁요구한	-9.90944
▁전문가들	-9.90948
州	-9.91056
▁수반	-9.91056
▁한번	-9.91072
▁연락	-9.9108
▁유럽연합	-9.91083
▁기준	-9.911
▁결과가	-9.9118
▁한국과	-9.91183
▁수용	-9.91202
▁재산	-9.91208
▁의문	-9.91246
▁쉬	-9.9125
▁웹	-9.91297
▁팬	-9.91389
▁의장은	-9.91462
▁노출	-9.91503
▁것처럼	-9.91617
▁등이	-9.91659
오바마	-9.91759
필드	-9.91772
▁가는	-9.91883
▁모른다	-9.91949
4%	-9.91951
으면	-9.91968
▁엘리자베스	-9.92008
▁휴	-9.9201
대표	-9.92016
▁전망이	-9.92055
▁예방	-9.92159
▁토니	-9.9216
▁남북한	-9.92179
▁베이	-9.92212
15	-9.92226
냈다	-9.92238
▁중요하다	-9.92241
▁벌금	-9.92241
▁우주선	-9.92264
자와	-9.92303
▁속에서	-9.92333
▁상품	-9.92503
ck	-9.9251
▁짐	-9.92522
▁오픈	-9.92534
▁웨	-9.92535
▁진행되	-9.92575
▁방식	-9.92647
▁공화당의	-9.92788
▁국제적	-9.9285
▁동맹	-9.92858
▁유리	-9.92865
▁토론	-9.92871
▁협조	-9.9297
▁활용	-9.9297
▁론스타	-9.92974
▁심각	-9.9299
▁구글	-9.93003
▁끝난	-9.93006
▁잭슨	-9.9303
▁육군	-9.93035
▁소프트웨어	-9.93045
이드	-9.93055
▁대출	-9.93082
▁현장에서	-9.93091
▁매장	-9.9314
▁신용	-9.93163
▁자산	-9.93164
▁회담은	-9.93208
▁대북	-9.93237
▁장치	-9.93252
달하는	-9.93255
▁해당	-9.93277
▁범인	-9.93367
▁0	-9.9337
▁총선에서	-9.93384
▁이르는	-9.93403
▁스위스	-9.93474
▁찬	-9.93498
▁되면	-9.93508
▁소년	-9.93515
▁""	-9.9353
한다면	-9.93535
▁실제로	-9.93641
었던	-9.93654
푸	-9.93655
벌	-9.93675
▁잘못	-9.93745
▁대처	-9.93817
▁밝	-9.93851
서는	-9.93871
균	-9.93899
▁기구	-9.9393
;	-9.9394
▁김정일	-9.93941
▁핵실험	-9.93945
▁즉	-9.93946
▁페르베	-9.93951
▁갖추	-9.93952
▁축제	-9.93994
▁자격	-9.94003
▁해고	-9.94023
함에따라	-9.94045
▁신경	-9.94057
▁우선	-9.94102
▁영국군	-9.94114
▁조사하고	-9.94141
▁시위자들	-9.94152
▁개정	-9.94219
▁대사는	-9.94254
▁임신	-9.94416
검	-9.94525
▁h	-9.94818
▁송	-9.94822
ies	-9.94822
▁동원	-9.94877
덴	-9.94895
멘	-9.94909
▁기독교	-9.94921
▁사이클론	-9.94928
▁1997	-9.94939
▁is	-9.9494
▁지도	-9.9496
스와	-9.9498
▁신속	-9.95004
▁귀국	-9.95005
▁공공	-9.95024
▁아래	-9.95061
▁공식적으로	-9.95063
▁이틀	-9.95141
▁동물원	-9.95173
▁결혼식	-9.95191
▁일부는	-9.95448
▁소유	-9.95473
▁심리	-9.95492
▁지연	-9.955
▁추방	-9.95526
▁주고	-9.95533
▁클럽	-9.95631
▁못하	-9.95652
▁슬	-9.95653
▁갖	-9.95695
▁법안	-9.95711
▁요구를	-9.95725
▁지지자	-9.95731
▁체포된	-9.95796
▁영국에서	-9.95843
▁모습이	-9.95888
▁North	-9.95911
▁뉴질랜드	-9.95911
▁헤럴드	-9.95911
▁매들린	-9.95911
▁1998	-9.95931
▁구제	-9.96072
▁아르헨티나	-9.961
▁구체적인	-9.96172
▁나와	-9.96173
▁걸어	-9.9623
쳤다	-9.96246
▁총리와	-9.96256
스키	-9.96288
▁양측	-9.96298
▁성공했다	-9.96322
▁이해	-9.96402
▁마치	-9.96536
▁빛	-9.96547
▁인하	-9.96602
시키	-9.96654
▁확정	-9.96666
충	-9.96715
지르	-9.96742
▁예산	-9.96791
▁포함되어	-9.96859
치는	-9.96885
▁CBS	-9.96911
▁드러났다	-9.96911
▁있으나	-9.96923
▁경험	-9.96929
▁의도	-9.96936
▁혹	-9.96941
린다	-9.96957
▁가입	-9.96959
25	-9.96968
▁의료진	-9.96988
▁수용소	-9.96991
▁나달	-9.97006
▁올렸다	-9.97022
▁압둘라	-9.97033
7%	-9.97037
▁지지하는	-9.97039
▁대단	-9.97128
19	-9.97162
겨	-9.97214
기관	-9.97258
였으며	-9.97295
▁희생	-9.97384
▁경매	-9.97442
▁성화	-9.97451
▁화	-9.97554
▁중국과	-9.9756
▁킹	-9.97565
황	-9.97609
▁중이라고	-9.97629
▁포드	-9.97728
▁회담에	-9.97754
▁길이	-9.97899
▁언제	-9.97899
▁얘기	-9.97921
▁캠페인	-9.97921
▁변경	-9.97976
▁강경	-9.98046
▁이곳에서	-9.98066
조사	-9.98089
▁손상	-9.98162
▁좋아	-9.98455
웠다	-9.98463
▁달성	-9.98644
만큼	-9.98823
들어	-9.98905
▁그와	-9.98933
!	-9.98941
▁싱가포르	-9.98941
▁좋지	-9.98941
▁케네디	-9.98941
▁리버풀	-9.98942
▁경선에서	-9.98949
▁주인공	-9.9896
▁불참	-9.98964
▁폭행	-9.98964
▁에이즈	-9.98969
kg	-9.98974
▁미국에	-9.98987
▁만드는	-9.98992
▁민주화	-9.98995
▁지수는	-9.99008
▁실행	-9.99014
▁지진으로	-9.99045
▁루이스	-9.99053
▁보수	-9.99086
▁몰	-9.99207
▁포함해	-9.99211
▁곳으로	-9.99228
당한	-9.99239
▁소개	-9.99246
▁학대	-9.99262
▁지적	-9.99262
▁진술	-9.99281
대에	-9.99336
렉	-9.99342
률	-9.99428
▁중요	-9.99441
▁대부분은	-9.99444
▁터	-9.99495
▁주석	-9.9952
▁안보리	-9.99545
▁그래	-9.99568
▁이혼	-9.99689
▁스티븐	-9.99712
둔	-9.9972
▁작	-9.99785
▁부문	-9.99841
공격	-9.99883
▁투자자들	-9.99905
▁충	-9.99906
시아	-9.99932
▁최신	-9.99942
▁우라늄	-9.99972
▁드라마	-9.99974
▁DNA	-9.99976
▁벌어진	-9.99978
▁않도록	-9.9999
▁음반	-9.9999
▁1980	-10.0002
▁반정부	-10.0003
▁행진	-10.0005
▁열린우리당	-10.0015
▁맨체스터	-10.0015
▁맞서	-10.0019
▁저는	-10.0024
▁테러가	-10.0031
x	-10.0042
▁경기에	-10.0044
부시	-10.0054
▁수백만	-10.0062
▁요구하고	-10.0071
▁터키군	-10.0074
회사인	-10.0075
찬	-10.0087
▁속도	-10.0088
계획	-10.0094
욕	-10.0096
▁휘발유	-10.0101
▁페일린	-10.0101
▁첼시	-10.0102
▁가득	-10.0102
▁질환	-10.0103
▁음모	-10.0104
▁때문이다	-10.011
▁떠	-10.0111
▁벌인	-10.0114
▁포르투갈	-10.0114
▁잔해	-10.012
▁장식	-10.0121
▁집에	-10.0122
▁장관이	-10.0125
▁자세	-10.0129
▁회담이	-10.013
▁언급하지	-10.0136
▁중에는	-10.0136
▁조사에서	-10.0138
있	-10.0139
▁유치	-10.0157
▁공개했다	-10.0168
▁분리	-10.0172
▁문제는	-10.0175
▁회원국	-10.0186
▁펜실베이니아	-10.0191
▁MS	-10.0192
▁라이	-10.0198
우스	-10.0199
칸	-10.0202
군이	-10.0203
EU	-10.0203
▁무릎	-10.0207
▁믿고	-10.0207
▁훨씬	-10.0207
죠	-10.0207
▁국제유가	-10.0207
▁향후	-10.0208
▁1990	-10.021
▁장비	-10.0212
▁거절	-10.0217
위원회는	-10.0218
▁베트남	-10.0222
▁전면	-10.024
▁해결하기	-10.0242
▁폐지	-10.0247
▁250	-10.0254
▁협회	-10.0255
ia	-10.0257
ap	-10.026
▁지시	-10.0262
▁불안	-10.0272
▁한국군	-10.0273
▁공원	-10.0278
lo	-10.028
▁용의자들	-10.0288
▁거주하는	-10.029
주일	-10.029
라운드	-10.0291
▁이들이	-10.0298
▁소니	-10.0299
▁페더러	-10.0313
▁샌프란시스코	-10.0313
▁검색	-10.0313
▁로봇	-10.0313
▁운항	-10.0313
▁묘사	-10.0316
▁밀란	-10.0317
▁영토	-10.0318
▁예정이며	-10.0325
겼다	-10.0331
▁추적	-10.0331
▁희생자들	-10.0334
▁주간	-10.0336
▁악화	-10.0339
▁외부	-10.0341
▁평화적	-10.0342
▁목격자들	-10.0347
▁단체는	-10.0354
까	-10.0361
▁지하	-10.0361
▁추측	-10.0361
▁하다	-10.0364
▁학생들이	-10.037
되면	-10.0382
어야	-10.0385
▁워싱턴에서	-10.0389
▁불리는	-10.0393
▁타이	-10.0394
▁생존자	-10.0399
ly	-10.04
▁주장하는	-10.0404
▁편지	-10.0404
척	-10.0414
▁밖으로	-10.0421
▁콘서트	-10.0421
▁반기문	-10.0421
▁맨유	-10.0422
▁나쁜	-10.0422
오늘	-10.0422
▁선거운동	-10.0423
▁폭우	-10.0425
▁대결	-10.0428
▁방문했다	-10.0429
▁시절	-10.0431
라도	-10.0431
▁기본	-10.0437
스코	-10.0442
▁이것이	-10.0445
▁있	-10.0445
텔	-10.0446
▁꿈	-10.0451
ig	-10.0458
▁랭킹	-10.046
▁치르	-10.0467
학교	-10.0468
▁내에	-10.047
▁푸	-10.0471
▁전개	-10.048
▁무대	-10.0485
▁노동자	-10.0487
개발	-10.0489
▁방문할	-10.0492
▁계획에	-10.0503
슨은	-10.0513
근	-10.0514
TV	-10.0515
델	-10.0518
▁방지	-10.0524
▁며칠	-10.0527
웰	-10.0527
럴	-10.0527
팅	-10.0528
▁South	-10.0529
▁온난화	-10.0529
▁아카데미	-10.0529
▁세계대전	-10.0529
▁금요일	-10.0529
▁이메일	-10.053
암	-10.0531
▁접속	-10.0532
▁둘러	-10.0532
▁소환	-10.0533
▁입양	-10.0534
▁방법으로	-10.0538
▁밑	-10.054
▁토론회	-10.0542
▁쥐	-10.0544
▁잃었다	-10.0549
려는	-10.055
▁면	-10.0552
▁솔	-10.0555
▁향하	-10.0558
▁바그다드에서	-10.0561
▁심슨	-10.057
▁장애	-10.0584
▁진행된	-10.0586
▁잡지	-10.0588
▁당선인은	-10.0588
▁목격자	-10.0594
▁충분한	-10.0595
▁계획이	-10.0601
▁것보다	-10.0606
▁파악	-10.061
▁의원들은	-10.0634
▁생각하고	-10.0636
닉	-10.0639
현지시각	-10.0639
▁특파원	-10.0639
▁9.11	-10.0639
▁영변	-10.064
▁존재	-10.0642
▁학살	-10.0643
▁리비아	-10.0643
곡	-10.0644
▁성향	-10.0644
▁말합니다	-10.0651
▁니	-10.0652
브라	-10.0653
▁회사들	-10.0653
▁주식시장	-10.0654
▁참	-10.0655
▁밖에서	-10.0658
▁아니	-10.0663
▁의무	-10.0663
▁정부군	-10.0665
▁선물	-10.0666
▁앨범	-10.0671
▁이란은	-10.0674
▁취할	-10.0678
사회	-10.068
통신	-10.0681
▁성과	-10.0682
운동	-10.0685
▁내전	-10.0694
▁자기	-10.0695
였	-10.0698
▁지켜	-10.0699
됐고	-10.0701
▁CIA	-10.071
▁수집	-10.0716
▁고객	-10.0727
▁예상했다	-10.0731
달러에	-10.0742
""	-10.0742
▁다니	-10.0743
선수	-10.0743
송	-10.0748
딩	-10.0749
▁사무총장	-10.0751
▁허락	-10.0752
▁리콜	-10.0752
▁화산	-10.0752
▁저항	-10.0753
▁카페	-10.0755
▁중국에서	-10.0757
▁특별한	-10.0758
▁출시	-10.076
▁분야	-10.0763
▁원하는	-10.0766
▁체니	-10.0772
모든	-10.0773
▁마시	-10.0779
▁기도	-10.078
▁이익	-10.0792
▁보상	-10.0796
▁해변	-10.0797
로운	-10.0799
▁레이스	-10.0803
▁경기장	-10.0805
벨	-10.0819
▁존슨	-10.0819
그들은	-10.082
▁파타	-10.0824
est	-10.0825
▁논란	-10.0825
▁이번주	-10.0832
▁생존	-10.0859
헤	-10.086
픽	-10.0863
▁유나이티드	-10.0863
▁실망	-10.0865
▁대부분이	-10.0865
▁않았으며	-10.0865
▁사살	-10.0865
제를	-10.0875
으로써	-10.0877
▁예비	-10.088
▁지키	-10.0883
▁에드	-10.0887
6%	-10.0889
▁철도	-10.089
▁늘	-10.0892
세계	-10.0893
▁아일랜드	-10.0904
de	-10.0908
▁de	-10.0919
▁모양	-10.0922
▁입원	-10.0929
▁보면	-10.093
▁사건과	-10.0935
▁기업들	-10.0942
▁바라고	-10.0955
려고	-10.0958
니아	-10.0964
▁총재	-10.0965
▁확신	-10.0968
안에	-10.0969
▁환	-10.0969
국인	-10.097
▁챔피언	-10.0976
▁나서	-10.0976
▁찾고	-10.0976
▁쿠데타	-10.0976
▁헤즈볼라	-10.0976
▁대다수	-10.0977
▁봄	-10.0978
▁덮	-10.098
▁핵시설	-10.0981
▁여기	-10.0981
▁기능	-10.0981
▁격차	-10.0982
완	-10.0983
귀	-10.0983
폰	-10.0983
▁프	-10.0986
▁서방	-10.0987
▁수요	-10.0989
▁사건으로	-10.0989
장관은	-10.1001
▁처음이다	-10.1004
▁발표된	-10.101
▁유가	-10.1012
▁티	-10.1014
▁육	-10.1021
▁모여	-10.1027
년에는	-10.1032
▁달라	-10.1049
im	-10.1056
▁차드	-10.1057
cm	-10.1058
▁폭발물	-10.1059
주의자	-10.1063
트리	-10.1063
▁가까이	-10.1071
▁전투기	-10.1079
▁경찰서장	-10.108
▁공격이	-10.1086
▁Iraq	-10.1089
젤	-10.109
▁황	-10.1091
▁멸종	-10.1091
▁with	-10.1091
▁여자친구	-10.1091
▁겨울	-10.1092
▁장례식	-10.1093
▁마틴	-10.1094
▁체결	-10.1096
▁걸릴	-10.1096
▁복구	-10.1097
▁만날	-10.1097
▁심문	-10.11
▁이송	-10.1116
▁파티	-10.1117
▁힘들	-10.1121
100	-10.1127
ow	-10.1129
▁톰	-10.1129
▁통합	-10.113
▁견	-10.1137
스크	-10.1141
ry	-10.1142
니는	-10.1145
물을	-10.115
법원	-10.1161
▁강조	-10.1166
▁시점	-10.1178
▁강타	-10.118
장관	-10.1182
▁부르	-10.1183
▁샤리프	-10.1184
▁의회의	-10.1187
상의	-10.1187
▁현재까지	-10.119
▁사인	-10.1193
으	-10.1198
▁국왕	-10.1205
갑	-10.1205
▁남아	-10.1205
▁알래스카	-10.1207
▁다르푸르	-10.1208
▁특정	-10.121
했기	-10.1213
▁답	-10.1214
▁동반	-10.1216
▁일환으로	-10.1216
대통령	-10.1221
▁업무	-10.1223
▁무력	-10.1224
째	-10.1225
▁다이아몬드	-10.123
▁절대	-10.1231
▁마르	-10.1245
▁CEO	-10.1248
▁탈	-10.125
▁수감자	-10.125
▁st	-10.1253
▁라고	-10.1253
▁추정되는	-10.1257
대학	-10.1258
▁37	-10.1259
▁요원	-10.1261
▁최초로	-10.1263
▁웨스트	-10.1263
▁신호	-10.1272
왔	-10.1275
▁제도	-10.1291
되어야	-10.1292
▁둘	-10.1292
찰	-10.1298
82	-10.1306
잡	-10.1311
▁알아	-10.1316
▁다우존스	-10.1325
▁달라이라마	-10.1325
▁설득	-10.1325
▁교환	-10.1327
▁식당	-10.133
▁행복	-10.133
▁오염	-10.1331
▁탐사	-10.1332
▁사용되	-10.1336
▁치러진	-10.1336
▁보통	-10.1336
▁일주일	-10.1337
▁36	-10.134
▁사실상	-10.134
쓰	-10.134
폴	-10.1344
▁잠시	-10.1347
▁현상	-10.1348
▁파산	-10.1349
생활	-10.1351
▁전해	-10.1351
▁대통령에	-10.1355
V	-10.1355
▁이스라엘과	-10.1355
▁즐	-10.1361
▁되기	-10.1362
▁머	-10.1372
▁니콜	-10.1375
익	-10.1375
▁아이들이	-10.1377
▁상점	-10.138
▁FTA	-10.1383
▁이스라엘군	-10.1383
▁통신은	-10.1387
▁내용이	-10.1393
▁여사	-10.1394
원제	-10.1398
▁제안했다	-10.1403
▁엔	-10.1417
스카	-10.1426
▁보고했다	-10.143
▁가자	-10.1432
▁근거	-10.1434
▁광산	-10.1435
▁업계	-10.1441
탑	-10.1444
]	-10.1444
▁더불어	-10.1444
▁발굴	-10.1445
▁바꾸	-10.1446
▁돌아	-10.1447
▁않지만	-10.1448
▁어려운	-10.1448
▁묻	-10.1449
▁커피	-10.145
▁결정은	-10.1451
▁시작한	-10.1452
▁50%	-10.1455
차전	-10.1456
▁강요	-10.1457
선거	-10.1459
▁경보	-10.1464
300	-10.1469
▁경찰서	-10.1473
▁헌	-10.1475
▁크	-10.1481
▁이하	-10.1483
▁된다고	-10.1485
되며	-10.1486
관은	-10.1486
대회	-10.1488
▁말라	-10.1489
▁회원	-10.1492
제도	-10.1493
뉴스	-10.1499
▁법정	-10.1499
▁밝히고	-10.1512
▁폐기	-10.1512
▁협상이	-10.1517
▁FARC	-10.1523
▁목적으로	-10.1527
내가	-10.1531
주는	-10.1535
▁깨	-10.1536
▁외교적	-10.1538
▁직면	-10.1545
회담	-10.1554
닥	-10.1558
넬	-10.1564
▁스리랑카	-10.1565
▁에드워즈	-10.1565
▁갑자	-10.1565
▁북극	-10.1566
▁출석	-10.1567
연맹	-10.1567
▁매각	-10.157
후드	-10.157
▁시위에	-10.1571
▁도입	-10.1571
▁일본이	-10.1574
▁적은	-10.1575
▁신임	-10.1579
▁거두	-10.158
▁일본에서	-10.1584
▁시장에서	-10.1585
▁계속되고	-10.1591
▁고대	-10.1591
▁서울에서	-10.1597
▁낸	-10.1599
▁스키	-10.1599
▁적절한	-10.1599
▁영화제	-10.1603
400	-10.1608
▁감행	-10.1618
▁사전	-10.1627
▁있어서	-10.1629
▁수상자	-10.163
▁감정	-10.1636
▁상승했다	-10.1639
▁다수	-10.1641
업자	-10.1642
▁교도소	-10.1644
Ch	-10.165
자들의	-10.1652
▁다우	-10.1655
▁투어	-10.1661
▁지점	-10.1663
▁책임자	-10.1666
▁의지	-10.1668
▁시드	-10.1673
펠	-10.1674
▁본사	-10.1675
▁Re	-10.1677
▁48	-10.1677
▁늘어	-10.1677
멸	-10.1687
▁방글라데시	-10.1687
▁오스트리아	-10.1687
▁칠레	-10.1687
▁NBC	-10.1688
▁단순	-10.1689
▁합동	-10.169
▁성관계	-10.1692
▁대기	-10.1692
▁의식	-10.1693
▁기존	-10.1693
사의	-10.1693
▁넓	-10.1694
▁됩니다	-10.1694
▁윌	-10.1695
▁의회는	-10.1699
▁것이라며	-10.1699
▁노동자들	-10.1704
▁샌	-10.1707
▁보유	-10.1708
▁아동	-10.1714
뿐	-10.1715
▁국회의원	-10.1717
▁북측	-10.1718
했음	-10.1722
▁식	-10.1724
▁호세	-10.1727
▁소수	-10.173
사태	-10.173
▁그림	-10.1739
▁부근에서	-10.1744
j	-10.1745
▁무시	-10.175
-1	-10.1756
▁오브	-10.1758
▁만족	-10.1762
▁중부	-10.1763
▁세상	-10.1769
te	-10.1778
만약	-10.1779
▁소식이	-10.1781
▁실시되	-10.1783
▁승리했다	-10.1795
▁이것	-10.1797
▁야생	-10.1801
▁벗어나	-10.1803
▁회	-10.1805
▁노스캐롤라이나	-10.181
▁봉쇄	-10.181
▁합류	-10.1813
▁노력하고	-10.1814
▁폭동	-10.1814
▁치열	-10.1814
ational	-10.1814
▁부담	-10.1818
▁후원	-10.1818
검사	-10.1819
▁화학	-10.1819
▁고소	-10.182
▁버마	-10.1825
기술	-10.1828
최	-10.1828
▁부과	-10.183
▁많다	-10.1833
▁美	-10.1834
정도	-10.184
▁복용	-10.184
둘	-10.1841
이슬람	-10.1842
▁공산당	-10.1845
빠진	-10.1846
▁부여	-10.1847
▁각국	-10.1848
▁중독	-10.1852
세력	-10.1855
시티	-10.1861
▁로한	-10.1861
년이	-10.1863
▁얻어	-10.1872
▁가했다	-10.1874
되자	-10.1874
▁식품	-10.1874
▁해병대	-10.1876
부대	-10.1877
▁조성	-10.1885
▁행성	-10.1888
▁말까지	-10.189
▁린	-10.1892
▁공항에서	-10.1895
▁일간	-10.1896
▁테러리스트	-10.1897
18	-10.1901
▁크기	-10.1908
혼	-10.1913
▁내놓	-10.1916
▁순찰	-10.1918
장치	-10.1918
▁의회에	-10.1929
▁블랙	-10.1935
▁없으며	-10.1935
▁마카오	-10.1935
▁흡연	-10.1935
▁검거	-10.1935
▁카르자이	-10.1935
▁청소년	-10.1936
▁농축	-10.1936
▁가옥	-10.1936
▁하늘	-10.1937
▁모인	-10.1938
▁대항	-10.1942
▁재무장관	-10.1943
▁소설	-10.1945
ma	-10.1947
▁보관	-10.1949
조원	-10.1949
▁공중	-10.1951
▁나이지리아	-10.1953
세인	-10.1954
▁측정	-10.1955
으려	-10.1956
▁세우	-10.1964
참	-10.1965
택	-10.1969
롤	-10.197
파키스탄	-10.197
▁현실	-10.1971
▁만화	-10.1972
▁워	-10.1979
▁조사에	-10.1996
▁명단	-10.2008
▁북쪽	-10.2024
▁전날	-10.2025
▁나갈	-10.2032
분의	-10.2042
조직	-10.2044
▁증가하고	-10.2046
수를	-10.2047
▁환자들	-10.2047
▁자리에서	-10.206
▁네트워크	-10.2062
▁훌륭	-10.2062
▁훼손	-10.2062
▁습격	-10.2062
▁파예드	-10.2062
▁카스트로	-10.2062
▁복잡	-10.2062
더라도	-10.2062
▁이끌어	-10.2063
잔	-10.2063
▁목록	-10.2064
▁취재	-10.2065
▁시드니	-10.2068
▁최선	-10.2068
▁페루	-10.207
▁구출	-10.2072
all	-10.2073
▁개방	-10.2074
▁보복	-10.2077
▁말하는	-10.2082
가격	-10.2082
걸	-10.2086
지구	-10.209
▁고등학교	-10.2095
▁있었고	-10.2097
트라	-10.21
칼	-10.2101
▁내릴	-10.2102
▁방화	-10.2105
▁야기	-10.2107
상황	-10.2108
릭	-10.2108
버그	-10.2113
▁탐	-10.2122
▁숙	-10.2122
ne	-10.2127
▁사드르	-10.2129
▁태평양	-10.2132
어스	-10.2133
▁공격에	-10.2135
당국	-10.2136
관련	-10.2136
▁기다리고	-10.2138
▁선언했다	-10.2152
▁기반	-10.2169
해주	-10.217
금을	-10.2172
▁이유는	-10.2176
괴	-10.2183
▁왕세자	-10.2184
▁항소	-10.2189
▁북동부	-10.219
▁스웨덴	-10.219
▁혜택	-10.219
▁숫자	-10.219
▁남아공	-10.2192
▁순방	-10.2193
▁상처	-10.2197
▁거뒀다	-10.2197
▁발병	-10.2199
▁했지만	-10.2201
▁모색	-10.2201
▁체제	-10.2201
▁이루	-10.2204
▁움직이	-10.2204
▁유감	-10.2205
▁삼성	-10.2206
▁불러	-10.2214
12	-10.2225
맥	-10.2229
빙	-10.2231
콘	-10.2231
▁대답	-10.224
▁그동안	-10.2242
▁분석가	-10.2247
드라	-10.2251
▁이주	-10.2253
데이	-10.226
슬리	-10.226
이션	-10.226
▁설	-10.2263
바이	-10.2268
지난	-10.2271
▁의회에서	-10.2275
▁음	-10.2275
▁성공적	-10.2282
원은	-10.2283
▁지도자들은	-10.2295
▁사라	-10.2296
화를	-10.2298
탕	-10.2306
▁베이징에서	-10.2309
▁놀	-10.2309
▁델	-10.2313
▁주제	-10.2317
▁되찾	-10.232
▁명확	-10.232
▁이렇게	-10.232
▁정확히	-10.232
멋진	-10.232
▁덴마크	-10.232
▁출동	-10.2322
▁고향	-10.2324
도시	-10.2324
▁지진이	-10.2327
▁사담	-10.2329
▁진실	-10.2329
▁2010	-10.233
▁작동	-10.2332
▁고발	-10.2333
▁특사	-10.2336
된다고	-10.2338
▁현금	-10.2341
▁로비	-10.2341
▁스테	-10.2341
▁이뤄지	-10.2349
웨	-10.2352
▁지속	-10.2353
풍	-10.2354
킹	-10.236
▁10%	-10.2362
▁탈출	-10.2364
▁올린	-10.2364
싱	-10.2365
▁거부했다	-10.2365
캐	-10.2367
▁시내	-10.2371
드시	-10.2376
▁목사	-10.2384
▁명은	-10.2392
▁AC	-10.2396
▁반군이	-10.24
▁카드	-10.2411
▁본선	-10.2421
▁표시	-10.2421
▁했으며	-10.2422
됐을	-10.2424
▁말리키	-10.2427
스티	-10.2438
결과	-10.2443
▁플레이	-10.2445
켓	-10.2447
▁세포	-10.245
웅	-10.2451
▁마찬가지	-10.2451
▁will	-10.2452
▁커플	-10.2454
▁레알	-10.2454
▁자극	-10.2456
▁입증	-10.2457
▁수영	-10.2457
▁만난	-10.2461
▁일리노이주	-10.2461
▁챔피언스리그	-10.2462
▁승	-10.2463
▁주지	-10.2464
▁선발	-10.2465
츠는	-10.2467
▁실패했다	-10.2468
▁끼	-10.2468
▁유력	-10.2469
▁군인들	-10.247
건의	-10.247
▁중지	-10.2474
십	-10.2481
▁발생했으며	-10.2481
▁제공하는	-10.2485
듯	-10.2488
▁대가로	-10.2493
ill	-10.2493
▁형태	-10.2497
정보	-10.2504
현재	-10.2507
웨이	-10.2507
▁시위대는	-10.2508
명에게	-10.2519
90	-10.2521
▁600	-10.2527
▁보이	-10.2529
행위	-10.2529
로스	-10.2531
▁권한	-10.2534
▁공화국	-10.2538
▁콘	-10.2541
▁빅	-10.2557
▁클레	-10.2558
리가	-10.2563
▁답변	-10.2563
객	-10.2568
전에서	-10.2576
▁방침	-10.2581
▁붉은	-10.2583
▁남동부	-10.2585
▁예루살렘	-10.2585
▁청문회	-10.2585
▁엄청	-10.2585
▁새끼	-10.2586
▁마치고	-10.2587
▁분열	-10.2589
▁함	-10.259
짜리	-10.2592
▁임금	-10.2592
▁노예	-10.2595
▁소요	-10.2597
▁배경	-10.2597
▁IAEA	-10.2599
▁Japan	-10.2601
사인	-10.2607
PA	-10.2608
드로	-10.2613
▁있다면	-10.2617
지금	-10.2617
압	-10.2623
▁이양	-10.2623
▁블	-10.2625
▁초점	-10.2626
▁진화	-10.2627
그룹	-10.2636
600	-10.264
연구소	-10.2641
ter	-10.2642
▁항	-10.2642
시키려	-10.2654
▁발생하지	-10.2657
▁안에서	-10.2662
천만	-10.2675
▁결정에	-10.2678
지수	-10.2679
▁보안군	-10.2684
▁대회에서	-10.2685
▁끌어	-10.2686
▁보인다고	-10.2689
자들에게	-10.2693
▁얻기	-10.2694
▁수업	-10.2696
▁체계	-10.27
▁외교관	-10.2703
▁an	-10.2704
해줄	-10.2707
▁대선에서	-10.2709
▁노벨	-10.2709
▁차관	-10.271
적이고	-10.2712
▁사장은	-10.2714
▁하면	-10.2715
기업	-10.2718
▁장군	-10.2719
▁외교통상부	-10.272
▁활주로	-10.272
▁폴란드	-10.272
▁완벽	-10.272
닷컴	-10.272
▁진전	-10.2721
▁다니엘	-10.2721
99	-10.2726
▁근처	-10.2729
▁멀	-10.2729
▁철	-10.2729
▁38	-10.2733
▁그것이	-10.2735
▁받아야	-10.2737
▁이중	-10.2739
▁중순	-10.2746
▁보석	-10.2749
▁바이	-10.2749
아이	-10.275
age	-10.275
▁봉사	-10.276
셀	-10.2762
▁열대	-10.2763
산업	-10.2765
▁어린이들	-10.2767
곤	-10.2767
▁낙	-10.2772
▁인사들	-10.2773
▁결의안	-10.2773
▁이행	-10.2774
홍	-10.2776
자리	-10.2776
▁사장	-10.28
▁납치된	-10.2806
쳤	-10.2812
▁군정	-10.2814
▁측근	-10.2821
▁폭격	-10.2825
▁복	-10.2837
▁원한다	-10.2841
▁위원회는	-10.2841
▁흔들	-10.2841
당국은	-10.2842
▁의학	-10.2843
▁절	-10.2852
▁계	-10.2852
켄	-10.2857
▁인디애나	-10.2857
▁잃은	-10.2857
▁리조트	-10.2857
▁삭제	-10.2857
▁관찰	-10.2858
▁타이틀	-10.2858
▁아이디어	-10.2858
▁있었지만	-10.2858
▁크루즈	-10.2859
▁복무	-10.2859
▁관영	-10.2859
▁합병	-10.286
▁모기지	-10.286
▁생긴	-10.286
▁철군	-10.2862
▁아니면	-10.2863
▁고립	-10.2864
▁PC	-10.2864
▁무죄	-10.2866
▁분명히	-10.2866
▁대량	-10.287
▁표했다	-10.2873
▁구금	-10.2873
됐었다	-10.2874
▁견해	-10.2877
▁런던에서	-10.2877
6000	-10.2878
▁발간	-10.2879
수록	-10.2881
▁과학자	-10.2881
▁노대통령	-10.2886
▁방향	-10.2888
▁난사	-10.2888
▁공유	-10.2888
▁높아지	-10.2889
▁뉴욕에서	-10.2891
▁부정적	-10.2893
BC	-10.2894
▁싸움	-10.2896
▁유전자	-10.2897
▁기상	-10.2902
육	-10.2902
▁-	-10.2903
▁폭탄이	-10.2905
▁윈	-10.2905
▁실적	-10.2905
칭	-10.2907
▁시장에	-10.2911
접	-10.2913
팔	-10.2915
▁데이	-10.2916
▁빙하	-10.2925
▁달러에	-10.2925
▁피해가	-10.2928
▁신체	-10.2931
▁수상했다	-10.2934
ity	-10.2935
▁요인	-10.2938
▁수감자들	-10.2941
▁지시했다	-10.2941
▁위원장	-10.2943
하고자	-10.2947
치를	-10.2949
▁하던	-10.2951
보다는	-10.2956
▁부서	-10.2957
▁증권	-10.2959
▁방송국	-10.2959
피트	-10.2961
이던	-10.2966
▁주지사가	-10.2978
▁보고서에서	-10.2983
닌	-10.2986
징	-10.2992
▁라스베이거스	-10.2996
▁봤다	-10.2996
▁태어난	-10.2996
▁토마스	-10.2996
▁운송	-10.2996
사고	-10.2997
▁은퇴	-10.2998
▁회동	-10.2999
▁채택	-10.2999
▁청구	-10.3004
▁일반적으로	-10.3005
▁계획이라고	-10.3006
▁돌아오	-10.3008
▁갖게	-10.301
ine	-10.3014
▁위조	-10.3016
▁서신	-10.3017
▁안전한	-10.3019
▁총격전	-10.302
▁크라이슬러	-10.3022
▁캘리포니아주	-10.3031
분간	-10.3033
▁누리	-10.3034
주에서	-10.3036
▁십	-10.3036
▁경영	-10.3038
▁크레	-10.3041
11	-10.3041
영국	-10.3042
▁고어	-10.3047
▁기대하고	-10.3054
대한	-10.3058
▁리그	-10.3068
17	-10.3077
ance	-10.3078
▁의미한다	-10.3084
▁지역으로	-10.3096
명도	-10.3106
▁여성의	-10.3109
▁트리	-10.3113
▁나누	-10.3113
▁싶어	-10.3114
▁한국에서	-10.3115
▁방법이	-10.3119
▁재단	-10.3122
▁성화봉송	-10.3127
력이	-10.3132
ay	-10.3134
▁교사	-10.3135
▁값	-10.3135
▁맞춰	-10.3137
▁앓고	-10.3137
▁협박	-10.3137
▁사우디아라비아	-10.3137
▁심지어	-10.3137
▁보여줬다	-10.3137
▁면담	-10.3138
▁하원의원	-10.3138
▁데이터	-10.3139
▁응급	-10.3139
800	-10.3141
▁보낼	-10.3142
▁2012	-10.3142
▁카불	-10.3144
▁거쳐	-10.3147
▁재난	-10.3154
겠지만	-10.3154
▁유발	-10.3155
▁하게	-10.3157
▁실종된	-10.316
▁기금	-10.3161
▁보유하고	-10.3162
▁이루어지	-10.3166
▁선거에	-10.3168
▁시청	-10.3168
▁주기	-10.317
되었고	-10.3175
▁콩고	-10.3175
틴	-10.3176
▁무선	-10.318
▁위로	-10.3182
궁	-10.3186
▁승리한	-10.3187
▁혁명	-10.3201
▁이사회	-10.3203
▁영장	-10.3204
man	-10.3206
▁뼈	-10.3207
▁자세한	-10.321
700	-10.3217
▁죄	-10.3231
일본	-10.3232
장인	-10.3241
▁사회적	-10.3243
▁생각하는	-10.3257
타운	-10.3257
들로부터	-10.3264
▁호텔에서	-10.3267
비아	-10.3271
▁주목	-10.3272
핑	-10.3275
▁나오는	-10.3278
▁태양	-10.3279
넷	-10.3279
▁바르셀로나	-10.3279
릿	-10.3279
▁엄격	-10.3279
▁휴대전화	-10.3279
▁케이블	-10.328
▁1994	-10.3282
▁논평	-10.3283
▁하와이	-10.3283
원을	-10.3284
▁해결책	-10.3285
▁마쳤다	-10.3285
▁전역	-10.3285
▁단속	-10.3285
▁명예	-10.3286
현지	-10.3288
▁형제	-10.3289
▁계획은	-10.329
▁무료	-10.329
리스트	-10.3291
▁대학교	-10.3293
▁신발	-10.3297
▁치러	-10.3298
▁추정된다	-10.3299
▁획득	-10.33
▁도달	-10.3303
르는	-10.3303
▁앞에	-10.3305
▁그리	-10.331
▁만들어진	-10.3315
기지	-10.3317
대사	-10.3318
▁누군가	-10.332
때문에	-10.3327
▁못하게	-10.3328
▁클린턴이	-10.3335
군은	-10.3339
폐	-10.3342
▁상태에	-10.3348
▁경제에	-10.3348
▁조합	-10.335
협상	-10.335
카운티	-10.3352
▁사용한	-10.3361
ive	-10.3364
▁전쟁에	-10.3364
국장은	-10.3366
되었던	-10.3369
련	-10.3371
사항	-10.3381
베나	-10.3382
▁것이고	-10.3382
▁경쟁자	-10.3385
지역에서	-10.3387
▁책임이	-10.3392
작전	-10.3395
▁3000	-10.3397
▁빚	-10.3401
▁초대	-10.3405
해진	-10.3412
▁동성애자	-10.3412
▁찾을	-10.3424
▁쓰나미	-10.3424
▁에어버스	-10.3425
▁외환은행	-10.3425
▁급등	-10.3426
▁디자인	-10.3428
▁측은	-10.3429
▁두바이	-10.3433
▁펼쳤다	-10.3436
▁시각	-10.3437
▁여권	-10.3439
▁중심부	-10.344
▁신중	-10.3444
▁도시에서	-10.3444
▁못한다	-10.3445
▁동티모르	-10.3446
▁간단	-10.3446
▁녹	-10.3447
▁골프	-10.3448
▁사령관은	-10.3452
▁기계	-10.3453
▁참석했다	-10.3455
▁이후로	-10.3456
▁주한미군	-10.3459
▁보트	-10.3462
▁한때	-10.3469
▁비교	-10.3473
▁논란이	-10.3475
▁끝나	-10.3476
▁국장	-10.3477
▁잇	-10.3478
돼있다	-10.3484
진다	-10.3484
▁펜	-10.3486
원이	-10.3489
▁공간	-10.3494
세가	-10.3495
▁물가	-10.35
▁마비	-10.3502
▁말하며	-10.3503
▁회의에서	-10.3506
스타인	-10.3516
▁홀	-10.3517
▁운동을	-10.352
▁비용이	-10.3529
▁분명	-10.3531
▁해양	-10.3533
▁발생하는	-10.3535
▁의석	-10.3539
▁신부	-10.3543
험	-10.3544
▁당신이	-10.3544
활	-10.3549
스톤	-10.3549
▁곡	-10.3557
이기	-10.3559
▁테러범	-10.356
▁지정	-10.3561
네스	-10.357
▁그렇지	-10.3571
▁일으킨	-10.3571
▁불능화	-10.3571
킬로미터	-10.3571
▁송환	-10.3572
▁저지른	-10.3573
▁(=	-10.3574
▁증	-10.3578
▁기밀	-10.3578
▁나올	-10.358
▁이루어졌다	-10.358
▁공포	-10.3588
▁자문	-10.3591
▁존중	-10.3595
▁점차	-10.3598
▁첫번째	-10.3601
▁앨	-10.3601
▁파손	-10.3606
▁출	-10.3606
▁케리	-10.3612
되었으며	-10.3614
▁우리당	-10.3616
▁피트	-10.362
▁이곳에	-10.362
▁중재	-10.3623
▁응답자	-10.3626
▁주한	-10.3628
ver	-10.3628
▁차관보는	-10.3634
▁일으키	-10.3637
▁감독이	-10.3641
되었	-10.3641
▁지켜보	-10.3643
▁하이	-10.3643
▁마감했다	-10.3657
▁주인	-10.3666
▁민주	-10.367
널	-10.3671
▁물건	-10.368
▁망	-10.368
식을	-10.3682
학자	-10.3683
▁높아	-10.3684
▁지목	-10.3694
▁못해	-10.3694
▁몰아	-10.3698
▁제기했다	-10.3708
▁아이오와	-10.3709
▁리처드	-10.371
제대로	-10.3711
오는	-10.3712
▁죽은	-10.3713
라스	-10.3718
▁레스토랑	-10.3721
▁선거캠프	-10.3721
▁옆에	-10.3721
▁plan	-10.3721
▁흥분	-10.3721
qu	-10.3721
▁배출	-10.3722
▁우리나라	-10.3723
▁생일	-10.3724
▁시티	-10.3726
▁받았으며	-10.3727
▁종류	-10.3727
▁특수	-10.3728
▁*	-10.3729
▁노동당	-10.3729
▁개표	-10.3732
▁자유를	-10.3734
▁유출	-10.3734
▁세계은행	-10.3736
▁표명	-10.374
▁여학생	-10.3741
▁김대중	-10.3742
▁발전소	-10.3745
▁아니었다	-10.3747
our	-10.3749
▁검사는	-10.375
▁공약	-10.3753
▁것이었다	-10.3754
▁우주비행사	-10.3759
▁답했다	-10.376
▁광장	-10.3764
물이	-10.3767
다시	-10.3777
▁가구	-10.378
▁상어	-10.3781
▁목격	-10.3786
▁역사적	-10.3788
▁중국에	-10.3789
▁법안이	-10.3795
▁주문	-10.3804
이스라엘	-10.3807
파운드	-10.3807
펜	-10.3808
규모	-10.3809
-2	-10.3809
측이	-10.3809
▁비판했다	-10.3815
이었으며	-10.3819
번째로	-10.3833
▁국방	-10.3835
▁발언에	-10.3837
▁130	-10.3839
▁주장에	-10.3841
▁42	-10.3846
▁방영	-10.3846
79	-10.3847
▁특	-10.385
▁백악관은	-10.3851
놓	-10.3852
▁압둘	-10.3854
▁지지율	-10.3855
탁	-10.3863
65	-10.3867
▁가슴	-10.3872
▁곤잘레스	-10.3872
0,000	-10.3872
▁헨리	-10.3872
▁핵프로그램	-10.3873
▁숀	-10.3874
▁강풍	-10.3875
▁인생	-10.3877
▁테스트	-10.3877
▁경영진	-10.3877
▁백인	-10.3877
▁조기	-10.3878
▁1970	-10.388
-3	-10.3881
▁프로그램에	-10.3884
▁지상	-10.3885
▁당수	-10.3886
▁세워	-10.3887
▁예전	-10.3891
▁보도에따르면	-10.3891
▁요소	-10.3899
▁불길	-10.3899
▁만났다	-10.39
▁일리노이	-10.39
▁기자들에게	-10.3901
▁차단	-10.3901
디스	-10.3902
▁다루	-10.3903
조차	-10.3905
쪽	-10.3908
▁고객들	-10.3908
▁법원에	-10.3913
▁그래서	-10.3915
▁사망자수	-10.3918
세트	-10.3922
▁외곽	-10.3924
▁미국측	-10.3925
ang	-10.3926
▁뿐만아니라	-10.3929
▁따라서	-10.3941
▁없었	-10.3942
ant	-10.3949
▁개장	-10.3957
▁800	-10.3957
▁지속적	-10.396
홀	-10.396
▁총장은	-10.3961
Y	-10.3961
▁중간	-10.3965
▁자원	-10.3973
▁왔	-10.3982
세로	-10.3984
▁이민	-10.3984
▁선전	-10.3987
45	-10.3994
▁극복	-10.4
국제	-10.4001
47	-10.4005
▁사용자	-10.4005
ba	-10.4008
퇴	-10.401
시위	-10.4017
롱	-10.4023
▁이라크와	-10.4024
▁나스닥	-10.4026
▁북서부	-10.4026
▁와인하우스	-10.4026
▁침입	-10.4027
▁출입	-10.4027
▁패션	-10.4027
▁들어갔다	-10.4028
▁자유롭	-10.4028
▁화장실	-10.4028
▁직업	-10.4028
▁ABC	-10.4028
▁진영	-10.4031
▁산림	-10.4032
▁사막	-10.4033
시대	-10.4034
▁화면	-10.4036
▁40%	-10.4038
위의	-10.4041
▁쓴	-10.4042
▁올려	-10.4042
▁해임	-10.4053
▁인류	-10.4055
▁논의하기	-10.406
▁얼음	-10.406
▁사용될	-10.4064
차량	-10.407
▁열어	-10.4071
▁짓	-10.4073
▁가능하다	-10.408
해질	-10.4083
co	-10.4085
▁집으로	-10.4085
▁리드	-10.409
▁말해	-10.4092
▁돼지	-10.4092
▁두번째	-10.4098
시에	-10.4098
음을	-10.4099
▁보지	-10.4099
헌	-10.4109
얼	-10.411
▁세대	-10.4112
▁감지	-10.4113
▁재건	-10.4114
▁셀	-10.4117
▁근로자	-10.4119
95	-10.4122
역을	-10.4122
러시아	-10.4126
▁경비	-10.413
▁걸리	-10.4132
아야	-10.4133
▁결과는	-10.4134
미군	-10.4137
▁전원	-10.414
▁리치	-10.4142
석을	-10.4145
▁아프가니스탄에서	-10.4145
one	-10.4146
▁베르	-10.4149
▁시민들이	-10.4151
▁생각했다	-10.4154
▁혐의에	-10.4165
비치	-10.4168
달라고	-10.4178
▁건축	-10.4178
16	-10.4179
▁요르단	-10.418
▁President	-10.4182
▁궤도	-10.4182
▁떠났다	-10.4182
▁블라디미	-10.4182
▁없지만	-10.4182
컬	-10.4182
▁촉발	-10.4182
▁활약	-10.4182
▁둘러싸	-10.4182
▁라이벌	-10.4183
▁언어	-10.4183
▁받아들이	-10.4183
▁대륙	-10.4183
▁자치정부	-10.4184
▁급증	-10.4185
▁법무부	-10.4185
간에	-10.4186
▁주었다	-10.4187
▁맞추	-10.4187
▁축소	-10.4188
국이	-10.419
▁왕실	-10.419
▁성격	-10.4191
▁불편	-10.4195
부는	-10.4196
국은	-10.4197
▁다우지수	-10.4199
▁해적	-10.4199
▁스코틀랜드	-10.4202
▁공모	-10.4207
▁직전	-10.421
▁백악관에서	-10.4212
▁연안	-10.4215
▁주최	-10.4219
페이스	-10.4219
▁북미	-10.4227
▁홈	-10.4232
▁라이트	-10.4233
▁맥주	-10.4236
▁시기에	-10.4236
▁홍	-10.4236
▁독도	-10.4243
▁세금을	-10.4243
▁폭락	-10.4249
▁가해	-10.4251
▁도착한	-10.4256
▁자신에게	-10.4259
소를	-10.4262
▁연금	-10.4264
▁개시	-10.4265
▁대치	-10.4268
▁등장	-10.427
▁보내는	-10.4272
▁나타내	-10.4273
희	-10.4276
▁맡은	-10.4276
놀	-10.4278
우주	-10.4279
▁진술했다	-10.4279
뿐만아니라	-10.4282
▁55	-10.4283
▁농장	-10.4284
▁결의안을	-10.4286
▁즉각	-10.4299
▁거주	-10.4302
▁윤	-10.4302
▁프레	-10.4304
안보	-10.4309
▁불과	-10.4317
적이	-10.4321
▁영국인	-10.4327
효	-10.4332
춘	-10.4337
뜨	-10.4338
▁상업	-10.4339
니스	-10.4341
▁샤라포바	-10.4341
▁일찍	-10.4341
렘	-10.4341
▁남서부	-10.4341
▁리차드	-10.4341
▁가택연금	-10.4341
▁받아들일	-10.4341
▁동쪽	-10.4341
▁겨냥	-10.4341
▁천주교	-10.4341
▁패트릭	-10.4342
▁거듭	-10.4342
▁수석대표	-10.4342
▁빈곤	-10.4342
▁잡고	-10.4345
▁구축	-10.4347
▁적극적	-10.4355
▁낸시	-10.4355
▁일어나	-10.4357
▁스타일	-10.4358
▁들여	-10.4359
▁자사	-10.4365
즉각적인	-10.4369
▁정신적	-10.4374
▁해산	-10.4374
▁위에	-10.4376
▁주장하며	-10.4381
ight	-10.4383
▁전환	-10.4389
▁120	-10.4406
▁지내	-10.4409
량이	-10.4414
됐으나	-10.4418
▁만들고	-10.442
▁일제	-10.4421
▁모스크바	-10.4422
리고	-10.4424
▁앉아	-10.4425
트로	-10.4426
▁무엇	-10.4426
▁꾸	-10.4427
▁at	-10.443
▁자제	-10.443
▁한국에	-10.4432
▁논	-10.4434
윈	-10.4438
▁의원들	-10.4441
▁사법	-10.4442
몰	-10.4443
▁부근	-10.4446
ast	-10.4447
국의	-10.4449
▁프레스	-10.445
▁감염된	-10.4452
▁병사들	-10.4454
▁즐기	-10.4457
▁메이	-10.446
매우	-10.4461
▁조약	-10.4462
▁소득	-10.4462
▁싸	-10.4475
▁눈에	-10.4475
▁애도	-10.4478
▁공항에	-10.4479
투표	-10.4481
▁오바마와	-10.4485
▁벌였	-10.4489
▁월드	-10.4493
▁전역에	-10.4493
▁수송	-10.4497
틸	-10.4501
▁쌍둥이	-10.4502
▁알코올	-10.4502
▁상하이	-10.4503
▁탄핵	-10.4503
▁영웅	-10.4503
▁다섯	-10.4503
▁케빈	-10.4504
▁비난하고	-10.4506
▁사람에게	-10.4507
▁입법	-10.451
▁폭파	-10.451
▁상태로	-10.4512
버리	-10.4514
▁오사마빈라덴	-10.4515
▁거리에	-10.4517
▁카터	-10.4521
▁초반	-10.4523
▁것인가	-10.4527
▁혼	-10.4527
▁묵	-10.4529
▁이재민	-10.4531
▁달려	-10.4535
▁헬	-10.4538
▁나토군	-10.4538
▁공사	-10.4538
▁공개된	-10.454
▁던지	-10.4541
▁보호하기	-10.4542
▁들어오	-10.4543
ail	-10.4544
▁타임스	-10.4546
▁확실한	-10.4549
▁예술	-10.455
▁날아	-10.4554
▁국민들에게	-10.4554
▁선보	-10.4555
▁회사가	-10.4556
▁폭스	-10.4559
▁금리	-10.4566
뉴	-10.4566
▁투표에서	-10.4572
▁Co	-10.4581
버렸다	-10.4587
▁동기	-10.4591
▁대상이	-10.4592
▁시장이	-10.4595
▁평가했다	-10.4595
▁이론	-10.4597
돼야	-10.46
▁인근에	-10.4601
미터	-10.4607
▁떨어졌	-10.4608
답	-10.4608
농	-10.4609
▁여행객	-10.461
덕	-10.4612
▁하락세	-10.4612
▁증가한	-10.4613
동맹	-10.4615
냈	-10.4619
▁연관	-10.4631
의회	-10.4634
라드	-10.4636
▁에이	-10.4636
▁와인	-10.4637
▁가져	-10.4637
14	-10.4638
PS	-10.4639
럼	-10.4639
▁친구들	-10.464
▁포로	-10.4649
▁범	-10.4652
▁완전한	-10.4663
바르	-10.4665
촉	-10.4665
콤	-10.4666
▁디지털	-10.4666
▁마이애미	-10.4666
▁미시시피	-10.4666
▁유튜브	-10.4666
▁캄보디아	-10.4666
▁비타민	-10.4666
▁오딩가	-10.4666
▁천연가스	-10.4666
▁침몰	-10.4666
▁날짜	-10.4667
▁지하철	-10.4667
▁로이터	-10.4668
▁새벽	-10.4668
▁급격	-10.4668
▁소련	-10.4669
▁사찰단	-10.4669
▁산사태	-10.4669
▁채널	-10.4669
▁감금	-10.4671
▁엔진	-10.4673
▁게재	-10.4673
▁보험	-10.4675
▁분류	-10.4675
▁취임식	-10.4678
▁전세계적으로	-10.4682
▁상공	-10.4684
▁쌀	-10.469
av	-10.4694
▁증상	-10.4694
었지만	-10.4695
▁경력	-10.4696
졌으며	-10.4697
나무	-10.4699
▁미칠	-10.47
세이	-10.4708
▁원화	-10.4709
▁연구팀	-10.4722
텐	-10.4723
▁전부터	-10.4723
위기	-10.4725
▁관광객들	-10.4725
▁줄어들	-10.4726
▁예수	-10.4727
mp	-10.4728
▁75	-10.4729
러스	-10.473
▁장면이	-10.4732
ts	-10.4733
▁열리	-10.4741
▁가상	-10.4747
▁딕	-10.475
▁옮겨	-10.475
▁록	-10.4759
장의	-10.4761
안전	-10.4762
64	-10.4765
납	-10.4768
▁상승세	-10.477
삼	-10.4774
▁인종	-10.4776
짓	-10.4779
▁걸린	-10.4782
▁44	-10.4788
▁단체들	-10.4788
▁합의했다고	-10.4788
가족	-10.4788
▁코트	-10.4789
▁34	-10.4803
▁33	-10.4818
▁이사	-10.4819
▁의존	-10.4822
▁연주	-10.4828
▁쇼핑	-10.4832
▁비핵화	-10.4833
▁뿌리	-10.4833
▁쓰촨성	-10.4833
▁좋다	-10.4833
▁결선투표	-10.4833
▁호랑이	-10.4833
▁사냥	-10.4833
▁근육	-10.4834
즈는	-10.4834
▁이뤄졌다	-10.4834
▁경호	-10.4837
▁다윈	-10.4837
▁보는	-10.4837
▁포경	-10.4838
▁받으며	-10.4838
▁소집	-10.4841
▁재무부	-10.4841
▁유럽의	-10.4844
▁오늘날	-10.4846
▁부채	-10.4846
▁대립	-10.4847
버스	-10.485
▁공개적으로	-10.4852
▁마무	-10.4854
▁가동	-10.4854
년만에	-10.4855
▁호소	-10.4857
▁조각	-10.4862
▁참여한	-10.4863
▁칼리	-10.4863
▁문제들	-10.4864
▁디즈니	-10.4864
ca	-10.4874
13	-10.4875
께	-10.4879
▁형사	-10.4886
▁휘	-10.4891
준다	-10.4892
금지	-10.4894
▁제조업체	-10.4894
▁권고	-10.4895
▁방식으로	-10.4901
▁기다리	-10.4904
점으로	-10.4911
스턴	-10.4917
▁화물	-10.4922
유로	-10.4931
▁차량에	-10.4933
lu	-10.4933
보호	-10.4933
▁내리	-10.4934
▁만들기	-10.4934
▁축	-10.4937
▁부총리	-10.4937
▁연구에	-10.4937
▁이라크군	-10.4937
▁월요일에	-10.4942
점이	-10.4943
▁했었다	-10.4944
벽	-10.4949
ens	-10.4958
▁나오지	-10.4958
▁올랐	-10.4963
▁전복	-10.4963
군의	-10.4965
▁이에따라	-10.4975
ain	-10.4975
▁공정	-10.4981
▁언론에	-10.4981
68	-10.4987
첼	-10.4988
▁최저	-10.4989
마자	-10.4991
Z	-10.4999
얀	-10.5
켈	-10.5001
▁늦게	-10.5002
▁블라고예비치	-10.5002
▁인플레이션	-10.5002
▁토네이도	-10.5002
▁필라델피아	-10.5002
▁골키퍼	-10.5002
▁알렉산더	-10.5002
▁키바키	-10.5002
▁리히터	-10.5002
▁원숭이	-10.5002
▁스캔들	-10.5002
▁오히려	-10.5002
▁갖춘	-10.5003
▁탄압	-10.5003
▁영업	-10.5005
▁보스턴	-10.5005
당신	-10.5006
▁무엇보다	-10.5007
▁만남	-10.5009
▁물품	-10.5013
▁자본	-10.5015
▁반영	-10.502
▁차량이	-10.5031
▁가족과	-10.5039
사와	-10.504
ear	-10.5043
▁상상	-10.5044
플레	-10.5056
▁표명했다	-10.5058
▁일간지	-10.5059
▁유대인	-10.506
▁노선	-10.5061
.8%	-10.5061
▁주연	-10.5062
▁소문	-10.5064
▁g	-10.5065
지수는	-10.5076
▁소위	-10.5076
▁그대로	-10.5077
▁들어간	-10.5077
▁한국이	-10.5082
포드	-10.5088
▁아르	-10.5092
▁국민들이	-10.5093
▁노인	-10.5096
▁사람들과	-10.5099
▁것임	-10.5099
해왔	-10.5102
▁키스	-10.5104
▁세계적	-10.5106
▁호수	-10.5109
해야만	-10.511
▁털	-10.5121
▁입수	-10.5121
▁기록한	-10.5128
꺼	-10.5128
벤	-10.513
솔	-10.5131
▁기소됐다	-10.5133
▁맞이	-10.5153
위인	-10.5156
▁정치인	-10.5161
▁일본과	-10.5165
이상	-10.5166
▁공대	-10.5167
구를	-10.5167
▁년간	-10.5171
훈	-10.5173
▁이스라엘은	-10.5174
▁파트너	-10.5174
랙	-10.5174
▁이슬라마바드	-10.5175
밍	-10.5175
▁마이크로소프트	-10.5175
▁화이트	-10.5175
▁은신처	-10.5175
▁남자친구	-10.5175
▁있었으나	-10.5176
아나	-10.5176
▁에도	-10.5177
▁블루	-10.5178
▁징역형	-10.5179
▁종결	-10.5179
▁통일부	-10.518
▁아프간에서	-10.5182
▁로저	-10.5182
ard	-10.5185
▁다음날	-10.5185
사진	-10.5186
▁체코	-10.5187
▁투르	-10.5189
리그	-10.5189
▁지휘관	-10.5191
▁젊은이들	-10.5191
▁초청	-10.5192
▁소형	-10.5193
▁보여준다	-10.5195
▁중대한	-10.5195
▁총상	-10.5196
▁산타	-10.5204
▁정식	-10.5205
▁52	-10.5212
▁밥	-10.5212
▁시체	-10.5215
▁증시는	-10.5216
받았다	-10.5216
▁확인됐다	-10.522
▁라이언	-10.5221
▁알카에다와	-10.5225
▁가족들이	-10.5225
▁조사에따르면	-10.5228
▁뒤에	-10.5231
었는지	-10.5234
▁보고서에	-10.5235
라인	-10.5236
▁사태에	-10.5237
디아	-10.5237
ell	-10.5239
▁51	-10.5241
▁관여	-10.5244
▁근로자들	-10.5246
분에	-10.5248
▁러시아는	-10.525
▁해병	-10.5254
▁홍수로	-10.5263
▁공격은	-10.5267
▁가게	-10.5272
▁제공할	-10.5272
▁부상으로	-10.5281
▁운영하	-10.5283
▁했습니다	-10.5284
▁세력이	-10.5292
▁경험이	-10.5292
▁진행자	-10.5294
▁문제의	-10.5299
z	-10.53
▁비행사	-10.5301
▁이식	-10.5307
X	-10.5307
햄	-10.5308
▁출판	-10.5309
▁구조대원들	-10.5312
라이트	-10.5326
므로	-10.5331
▁시한	-10.5336
▁구역	-10.5336
▁일치	-10.5341
▁통계	-10.5341
▁얻을	-10.5348
▁코미디	-10.5349
▁후진타오	-10.535
▁선관위	-10.535
▁펀드	-10.535
▁택시	-10.5351
▁국제공항	-10.5352
▁출생	-10.5352
▁원칙	-10.5352
▁남극	-10.5353
▁황금	-10.5353
▁소탕	-10.5353
▁1996	-10.5354
장과	-10.5355
▁가담	-10.5358
측에	-10.5358
▁브랜드	-10.5359
▁체중	-10.536
성에	-10.5361
▁배후	-10.5362
▁진단	-10.5363
▁음주	-10.5364
▁보고서에따르면	-10.5365
▁화재로	-10.5369
▁물러나	-10.537
▁기온	-10.5374
▁일으켰다	-10.5376
▁성장률	-10.5377
단은	-10.5378
▁결과에	-10.5379
▁화해	-10.5385
▁법무장관	-10.5388
▁th	-10.5392
▁중앙일보	-10.5394
▁부산	-10.5394
으면서	-10.5394
▁쓸	-10.5396
▁일어났다	-10.5397
▁사실은	-10.5411
▁공기	-10.5417
▁화상	-10.5417
▁날개	-10.5422
▁받는다	-10.5422
▁행정	-10.5426
AN	-10.5426
ty	-10.5431
▁변호사가	-10.5436
▁의사들	-10.5438
▁낼	-10.5439
▁풍	-10.5442
▁급속	-10.5444
▁위협이	-10.5446
▁사용했다	-10.5446
▁직장	-10.5449
▁하나인	-10.545
▁이란에	-10.5454
▁결승	-10.5454
▁웃	-10.5458
바로	-10.5459
▁양국간	-10.5464
▁여성과	-10.5466
▁여론조사에서	-10.5469
▁이란과	-10.5469
시킨다	-10.5476
▁신문사	-10.5476
시스템	-10.549
▁남쪽	-10.5492
▁갔다	-10.5493
▁바라	-10.5496
▁보잉	-10.5498
념	-10.5499
▁밝히	-10.55
국민	-10.5501
▁~	-10.5505
▁기대한다	-10.5506
▁대피했다	-10.5508
▁발생하고	-10.5509
▁폭발이	-10.5511
77	-10.5512
▁내무부는	-10.5515
▁PPP	-10.5516
▁코스	-10.5521
었으나	-10.5526
▁뭄바이	-10.5529
▁연쇄	-10.5529
▁탱크	-10.5529
룸	-10.5529
▁섭취	-10.5529
▁교통사고	-10.553
▁과격	-10.553
▁구멍	-10.553
▁할머니	-10.5531
▁가졌	-10.5531
▁소규모	-10.5532
▁1993	-10.5532
▁폭설	-10.5532
▁아이폰	-10.5533
▁줄리아니	-10.5533
▁정지	-10.5533
▁라덴	-10.5533
▁벨기에	-10.5535
▁사생활	-10.5535
▁관측	-10.5535
▁보존	-10.5537
▁경호원	-10.5539
레나	-10.5542
▁감바리	-10.5543
▁구조대	-10.5543
▁조류	-10.5547
▁악어	-10.5549
▁초안	-10.5551
▁정치인들	-10.5552
▁가방	-10.5556
▁꼭	-10.5559
▁에어	-10.5563
▁수퍼	-10.5564
▁여사는	-10.5565
▁벽	-10.5566
▁46	-10.5569
않게	-10.5575
75	-10.5578
▁제작한	-10.5579
▁주장한	-10.5589
정부는	-10.5589
▁피부	-10.5595
▁방송사	-10.56
▁국적	-10.5602
▁올라가	-10.5607
▁수리	-10.5611
na	-10.5613
▁n	-10.5615
▁투쟁	-10.5616
▁자신과	-10.562
▁근처에서	-10.5621
겠습니다	-10.5622
▁맡고	-10.5626
▁참석할	-10.5627
작업	-10.5629
▁700	-10.5629
▁남부에서	-10.5632
▁통신이	-10.5636
▁1%	-10.5641
많은	-10.5644
▁살았	-10.5645
▁자택	-10.5647
▁아메리카	-10.5647
▁관계에	-10.5651
▁GM	-10.5657
▁생기	-10.5661
▁수립	-10.5665
콜	-10.5672
▁펼쳐	-10.5687
▁비난하는	-10.5696
▁주위	-10.5699
ong	-10.5699
▁착수	-10.57
▁선포했다	-10.5704
만개	-10.5707
▁극장	-10.5708
▁출산	-10.5708
▁파도	-10.5708
▁기쁘다	-10.5711
▁China	-10.5711
▁돕기	-10.5711
▁무슬림	-10.5711
▁밴드	-10.5711
▁재검토	-10.5711
▁횡령	-10.5711
▁쓰레기	-10.5711
▁테일러	-10.5711
▁다시한번	-10.5711
▁가벼	-10.5711
민감한	-10.5712
사업	-10.5712
▁포럼	-10.5712
▁지붕	-10.5712
▁침공	-10.5713
▁예멘	-10.5713
▁농업	-10.5713
▁1991	-10.5714
▁사용하지	-10.5715
▁결함	-10.5716
▁번째로	-10.5718
▁판정	-10.5721
um	-10.5725
▁반복	-10.5725
▁적발	-10.5725
▁신사	-10.5727
▁제출했다	-10.5729
▁하나로	-10.5729
데스	-10.5729
▁미국인들이	-10.573
▁재임	-10.5731
▁수사관	-10.5731
▁개정안	-10.5734
▁마친	-10.5735
ood	-10.5735
▁종식	-10.5736
▁맛	-10.5737
▁비교적	-10.5739
▁진행되는	-10.574
▁상호	-10.574
▁뇌물	-10.5745
▁모리	-10.5746
▁든	-10.5746
▁늘어나	-10.5753
Ma	-10.5757
▁피랍	-10.5761
▁모아	-10.5762
▁곳이다	-10.5762
있었다	-10.5767
▁북쪽으로	-10.5767
▁생물	-10.5773
▁In	-10.5777
▁인원	-10.5784
▁재판관	-10.5789
▁민족	-10.5795
보는	-10.5799
▁근거로	-10.5799
▁생각하지	-10.5802
▁압	-10.5807
▁해도	-10.5808
▁스톤	-10.581
▁중이었다	-10.5832
▁해안에서	-10.5834
tor	-10.5835
▁회견	-10.5836
▁세계적으로	-10.5843
▁이용하는	-10.5846
특	-10.5847
▁구체적	-10.5848
▁물이	-10.5849
조건	-10.585
▁소식통이	-10.5854
▁기자들	-10.5855
▁처해	-10.5857
▁따르	-10.5858
마르	-10.5861
왔으며	-10.5863
7000	-10.5865
▁적십자	-10.5865
▁수상한	-10.5865
▁전통적	-10.5873
▁지수	-10.5873
▁맡	-10.5874
▁순위	-10.5874
▁후보자	-10.5875
▁여성들이	-10.5875
▁총회	-10.5882
▁관계당국	-10.5884
▁예상되	-10.5887
▁센	-10.5889
신문	-10.5893
Q	-10.5896
▁DVD	-10.5896
▁광범위	-10.5896
▁안전보장이사회	-10.5896
▁협약	-10.5896
▁메르켈	-10.5896
▁스트레스	-10.5896
▁월스트리트	-10.5896
▁봉송	-10.5896
지원	-10.5896
▁발휘	-10.5896
▁파나마	-10.5897
▁억제	-10.5898
▁싸우	-10.59
▁정찰	-10.5901
▁성직자	-10.5903
▁차별	-10.5903
▁신규	-10.5904
▁물에	-10.5907
▁사우스캐롤라이나	-10.591
▁반박	-10.5911
▁제목	-10.5912
▁이륙	-10.5912
▁조명	-10.5914
호가	-10.5915
▁자행	-10.5917
▁고장	-10.5918
▁결과로	-10.5919
▁치명적인	-10.5919
▁중단했다	-10.592
▁혼자	-10.5921
▁가족이	-10.5921
▁다가	-10.5922
▁뉴햄프셔	-10.5923
▁빼	-10.5923
▁거짓말	-10.5924
잘못된	-10.5934
▁피해자들	-10.5934
혔다	-10.5935
▁레드	-10.5939
▁성당	-10.5941
▁요리	-10.5942
▁예정인	-10.5943
▁납	-10.5944
▁승리로	-10.5945
▁차지하고	-10.5945
▁많아	-10.5948
▁정상화	-10.5952
▁확실	-10.5964
▁환호	-10.5967
▁여러분	-10.5967
▁수십명	-10.597
▁미디어	-10.5972
▁t	-10.5974
▁서안	-10.5976
▁단체가	-10.5977
▁정전	-10.598
장으로	-10.5986
▁보여주고	-10.5989
▁맞는	-10.5992
▁IOC	-10.5994
▁St	-10.5995
▁계속될	-10.5997
이었습니다	-10.6004
▁칭	-10.6004
▁미치는	-10.6006
▁미군과	-10.6008
자유	-10.6009
▁완	-10.6016
▁경관	-10.6017
화된	-10.6019
▁지점에서	-10.6019
mm	-10.6019
킨스	-10.602
▁데에	-10.6026
▁연행	-10.6026
어로	-10.6029
▁먼	-10.603
▁적절	-10.6038
원들은	-10.6039
▁나왔	-10.604
▁합의한	-10.6042
커스	-10.6044
닐	-10.6046
▁국경지역	-10.6059
교육	-10.606
민주당	-10.6061
▁출연한	-10.6063
▁군은	-10.6065
쉽	-10.608
▁쏟아	-10.6083
▁`	-10.6083
▁품	-10.6084
▁다큐멘터리	-10.6084
왈	-10.6084
▁nuclear	-10.6084
▁식료품	-10.6084
▁왼쪽	-10.6084
▁전당대회	-10.6084
▁쿠웨이트	-10.6084
▁과반수	-10.6084
▁국제원자력기구	-10.6084
▁over	-10.6084
▁균형	-10.6085
▁위안부	-10.6085
▁롬니	-10.6085
▁척	-10.6085
▁난민촌	-10.6085
▁일어날	-10.6085
▁완료	-10.6086
▁출두	-10.6087
▁귀환	-10.6087
▁팝	-10.6087
▁표준	-10.6087
▁검은	-10.6088
▁이름이	-10.6088
▁손에	-10.6088
▁검문소	-10.6089
▁탑승객	-10.6089
▁1995	-10.609
▁사용해	-10.609
▁항구	-10.6091
▁화려	-10.6091
▁잭	-10.6092
▁인민	-10.6092
▁동생	-10.6093
▁비율	-10.6094
▁조언	-10.6094
분만에	-10.6095
▁최고치	-10.6097
▁숲	-10.6099
▁공산주의	-10.6102
▁보일	-10.6103
▁39	-10.6106
▁모임	-10.611
▁지원할	-10.6116
▁스타디움에서	-10.6122
▁중단할	-10.6123
▁나에게	-10.6126
▁조용	-10.6128
▁총재는	-10.6128
46	-10.613
▁있어야	-10.613
▁냈다	-10.6131
▁수배	-10.6132
▁골드	-10.6133
ie	-10.6134
어져	-10.6135
▁군사적	-10.6137
380	-10.6138
▁흘	-10.6139
▁하미	-10.614
▁당국에	-10.6141
에게서	-10.6144
▁얼	-10.6158
▁달러화	-10.6164
단계	-10.6167
▁주장한다	-10.6169
▁쓰고	-10.6171
▁펼치	-10.6174
▁선원	-10.6174
▁입을	-10.6196
▁실시할	-10.6201
스럽게	-10.6202
▁충돌이	-10.6204
▁달린	-10.6204
▁무게	-10.6214
▁연구원들	-10.6214
▁후보인	-10.622
▁정원	-10.6224
기록	-10.6224
▁일어났	-10.6225
▁보냈	-10.6226
원들이	-10.6239
끼	-10.624
▁64	-10.624
▁제정	-10.6245
휴	-10.6246
않	-10.6247
ho	-10.6248
▁운전자	-10.6248
돈	-10.6254
전선	-10.6256
▁월가	-10.6262
▁해리포터	-10.6263
첸	-10.6273
잉	-10.6273
둥	-10.6273
님	-10.6274
랭	-10.6276
▁듣고	-10.6277
▁먹이	-10.6277
▁않았던	-10.6277
▁없게	-10.6277
▁없고	-10.6277
▁에콰도르	-10.6277
▁이산화탄소	-10.6277
▁캐릭터	-10.6277
▁펠로시	-10.6277
▁확장	-10.6277
▁받아들여	-10.6277
▁매니저	-10.6277
▁퇴임	-10.6277
▁흥미	-10.6277
▁붙잡	-10.6277
▁득표율	-10.6278
▁플라	-10.6278
▁낮추	-10.6279
▁급락	-10.6279
▁쉽지	-10.6279
▁복역	-10.628
▁떠난	-10.6281
▁레이건	-10.6282
▁케이트	-10.6285
▁일련	-10.6285
비용	-10.6288
▁범행	-10.6288
져야	-10.6288
▁조지아주	-10.6288
▁상영	-10.6289
▁AT	-10.629
▁당초	-10.6291
▁뛰	-10.6297
▁인력	-10.6298
▁운영하고	-10.6299
▁매체	-10.63
▁권	-10.63
▁후보와	-10.63
▁코끼리	-10.6305
▁침대	-10.6308
▁l	-10.6308
▁조치는	-10.6308
▁승려들	-10.6308
84	-10.6309
▁신조	-10.6314
▁부상당	-10.6317
▁다르다	-10.632
▁아난	-10.632
▁남성은	-10.6321
버린	-10.6321
▁부위	-10.6322
▁노리	-10.6322
▁생산량	-10.6323
▁계속되는	-10.6325
시켰다고	-10.6329
▁기차	-10.633
▁텍사스주	-10.6334
▁운전사	-10.6336
▁어렵다	-10.6338
▁회원국들	-10.6338
식이	-10.634
▁공개됐다	-10.6343
▁창문	-10.6345
▁발표하고	-10.6347
▁세부	-10.6351
▁자랑	-10.6351
긍정적인	-10.6354
▁촬영한	-10.6355
▁늘리	-10.6355
병원	-10.6356
▁전달했다	-10.6358
되거나	-10.6363
▁조건으로	-10.6364
스케	-10.6371
der	-10.6375
▁확신한다	-10.6375
▁론	-10.6378
▁무어	-10.6379
스테	-10.6381
▁만일	-10.6381
▁요금	-10.6389
▁하루에	-10.6389
▁긍정적	-10.6395
▁발견되었다	-10.6407
▁보게	-10.6407
▁뉴욕시	-10.6411
▁소식에	-10.6412
상으로	-10.6415
▁지도자가	-10.6417
▁한나라당은	-10.642
▁미국인들	-10.6424
▁발견한	-10.6427
▁인근에서	-10.643
공사	-10.643
▁회담의	-10.6438
역사적인	-10.6443
쪽으로	-10.6444
▁작업에	-10.6449
IAEA	-10.6452
▁일본에	-10.6453
48	-10.6454
▁행사에	-10.6455
ab	-10.6466
럽	-10.6467
행사	-10.6468
▁우리에게	-10.6469
▁거절했다	-10.6469
렐	-10.647
넨	-10.6473
▁from	-10.6473
▁샌디에이고	-10.6473
▁일으킬	-10.6473
▁외무성	-10.6473
▁여겨지	-10.6473
▁마라톤	-10.6473
▁정의	-10.6473
▁어깨	-10.6473
▁졸업	-10.6474
▁상륙	-10.6474
▁용납	-10.6474
▁교도소에	-10.6474
▁생방송	-10.6475
▁창출	-10.6477
▁탄생	-10.6477
▁끝날	-10.6478
▁몰려	-10.6478
▁드러냈다	-10.6479
전쟁	-10.648
▁분량	-10.6481
▁방출	-10.6483
▁거부권	-10.6483
▁분석가들은	-10.6484
▁1960	-10.6484
▁이뤄진	-10.6486
▁음성	-10.6486
타임	-10.6489
▁밝혀진	-10.6489
▁발포	-10.6492
▁최저치	-10.6492
위안	-10.6493
▁알렸다	-10.6496
속도로	-10.6497
▁진보	-10.6497
▁모건	-10.6499
▁방문하는	-10.6502
라면	-10.6503
▁마리아	-10.6505
▁최근에	-10.6506
▁부모들	-10.651
▁오하이오주	-10.6511
시오	-10.6514
▁서장	-10.6515
▁증세	-10.6515
▁상태이다	-10.6518
▁비난하며	-10.6524
▁기여	-10.6525
63	-10.6527
▁포함돼	-10.6528
▁테니스	-10.6529
▁예정이었다	-10.6531
to	-10.6532
▁스턴	-10.6534
▁식사	-10.6536
▁자택에서	-10.6547
▁무장대원	-10.6556
▁깊이	-10.656
▁유럽에서	-10.6563
▁정책에	-10.6563
▁브리	-10.6569
▁거부하	-10.657
IC	-10.6573
▁동의했다	-10.6576
워터	-10.658
정부가	-10.659
BA	-10.6592
▁싱	-10.6603
▁틀	-10.6607
줬다	-10.6609
▁수여	-10.661
▁보조	-10.661
씨가	-10.6619
min	-10.6622
▁상태에서	-10.6622
▁석	-10.663
35	-10.6631
지역에	-10.6637
21	-10.6638
▁토지	-10.6641
▁전사	-10.6644
▁용기	-10.6645
률이	-10.6646
▁화요일에	-10.6648
▁치러지	-10.665
김	-10.6656
NASA	-10.6657
롬	-10.6666
▁여지	-10.667
앞으로	-10.6672
▁느낄	-10.6673
▁자카르타	-10.6673
▁프리미어리그	-10.6673
▁휩쓸	-10.6673
▁new	-10.6673
▁줄기세포	-10.6673
▁유혈사태	-10.6673
▁특징	-10.6673
▁샘플	-10.6673
▁탐험	-10.6673
▁로딕	-10.6673
▁앤드류	-10.6674
▁계좌	-10.6674
수술	-10.6674
▁국가들은	-10.6674
▁축출	-10.6675
▁MBC	-10.6675
▁밝혔지만	-10.6675
▁빌딩	-10.6675
▁표결	-10.6677
연방	-10.6677
▁하락한	-10.6679
▁실업률	-10.6679
26	-10.668
▁다국적군	-10.668
▁클라	-10.6681
▁서울시	-10.6681
▁서양	-10.6685
▁불리	-10.6687
▁원래	-10.6689
▁로스	-10.669
▁선임	-10.669
▁발행	-10.6693
▁외국인들	-10.6698
▁법안은	-10.6699
에이커	-10.6699
▁겨	-10.6699
▁벗	-10.67
▁테러와	-10.67
.9%	-10.6703
▁문제와	-10.6704
▁동일한	-10.6704
▁방법은	-10.6706
▁교황은	-10.6712
▁돌고래	-10.6716
▁소유하고	-10.6718
▁무리	-10.6718
▁해당하는	-10.6719
▁한국인들	-10.6725
버트	-10.6727
▁2500	-10.6742
▁소매	-10.6743
▁코커스	-10.6752
었을	-10.6753
포트	-10.6754
▁외치	-10.6755
▁5%	-10.6756
▁심의	-10.6762
▁기부	-10.6767
▁국가에서	-10.6772
▁국기	-10.6774
당했다	-10.6776
▁지지한다	-10.6782
고문	-10.6786
▁실종자	-10.679
▁학교에	-10.6792
객들	-10.68
▁얻고	-10.6802
▁로드	-10.6808
▁멜	-10.6818
▁아들이	-10.6818
▁페이지	-10.6819
▁발표됐다	-10.6822
어진	-10.6826
▁알지	-10.6827
▁해주	-10.6829
▁바라는	-10.683
▁국가로	-10.683
▁세트	-10.6832
▁실시했다	-10.6834
▁가리	-10.6838
▁일본인	-10.6845
▁유전	-10.6848
▁마을에서	-10.6853
89	-10.6855
▁pro	-10.6858
56	-10.6862
▁해상	-10.6863
됩니다	-10.6864
핵	-10.6865
앤	-10.6866
54	-10.6866
▁자리에	-10.6866
힘	-10.6867
1000	-10.6867
쾌	-10.6874
직원	-10.6874
튜	-10.6874
감독	-10.6876
기자	-10.6876
헨	-10.6877
▁항공우주국	-10.6877
▁멤버	-10.6877
▁애완견	-10.6877
▁윔블던	-10.6877
▁프랭크	-10.6877
▁힘입어	-10.6877
넌	-10.6877
▁마흐디	-10.6877
▁예를들어	-10.6877
▁좌절	-10.6877
▁검증	-10.6877
▁서식지	-10.6877
▁정거장	-10.6877
▁잇따	-10.6877
▁노르웨이	-10.6877
▁브리핑	-10.6877
▁암컷	-10.6877
2006.01	-10.6877
2007.11	-10.6878
▁돌파	-10.6878
▁화합	-10.6879
▁녹음	-10.6879
▁않았으나	-10.6879
▁밝혔으며	-10.688
▁부부가	-10.688
▁영화배우	-10.688
▁쿠퍼	-10.6881
▁포착	-10.6881
▁오마르	-10.6881
▁외환	-10.6882
24	-10.6882
▁내려졌다	-10.6882
▁종료	-10.6883
▁선수가	-10.6883
▁통증	-10.6885
미국은	-10.6885
▁상원의원과	-10.6887
▁매달	-10.6887
▁백신	-10.6888
▁도망	-10.6888
4000	-10.6889
▁리처드슨	-10.6891
▁개편	-10.6891
▁이슬람교	-10.6895
▁키우	-10.6895
▁격렬한	-10.69
▁접전	-10.6901
▁재직	-10.6902
▁열렸다	-10.6904
▁사설	-10.6905
▁양측은	-10.6908
▁잡스	-10.6908
▁HIV	-10.6912
렸으며	-10.6915
우디	-10.6917
▁as	-10.6918
▁협상에	-10.6919
본부	-10.6924
▁투명	-10.6925
▁청사	-10.6929
소리	-10.693
▁장악	-10.693
▁부실	-10.693
▁화장	-10.6932
▁최대의	-10.694
▁위대	-10.694
▁1500	-10.6942
내용	-10.6943
▁보이며	-10.6943
▁판다	-10.6946
▁포장	-10.6948
▁득점	-10.6949
▁가족은	-10.6951
▁법안에	-10.6951
▁정권이	-10.6958
39	-10.6963
스에서	-10.6964
▁파운드	-10.6965
이런	-10.6966
▁중심가	-10.6968
▁촉구하	-10.6969
하우스	-10.6971
▁투표에	-10.6972
▁not	-10.6972
▁요청을	-10.6975
▁소식은	-10.6977
▁추세	-10.6981
▁기울이	-10.6988
ure	-10.6993
▁곤	-10.6996
▁NATO	-10.7
▁소식통	-10.7003
▁FRB	-10.7005
▁상승한	-10.7006
▁목표는	-10.7011
▁지분	-10.7013
▁생각이	-10.7018
98	-10.7021
▁후보들	-10.7038
겼	-10.7039
▁65	-10.7039
▁전부	-10.7043
▁수면	-10.7044
▁막아	-10.7046
ta	-10.7047
▁운명	-10.7048
▁장착	-10.705
▁장군은	-10.7051
▁온도	-10.7055
▁움직	-10.706
▁카라	-10.7061
▁팀이	-10.7062
과학	-10.7064
켜	-10.7064
응	-10.7065
ary	-10.7066
혹	-10.7068
디는	-10.7068
▁커지	-10.707
900	-10.7073
▁잡아	-10.7074
▁프라이머리에서	-10.7076
폭탄	-10.7078
프랑스	-10.7079
▁이용한	-10.7079
연구	-10.7082
럭	-10.7082
짝	-10.7085
▁않았고	-10.7085
▁없습니다	-10.7085
▁피라미드	-10.7085
▁마돈나	-10.7085
▁배터리	-10.7085
▁객실	-10.7085
▁데이빗	-10.7085
▁침략	-10.7085
▁몰고	-10.7086
▁여섯	-10.7086
▁라파엘	-10.7086
▁졸리	-10.7086
▁빠지	-10.7086
2005.09	-10.7087
▁낙태	-10.7087
▁his	-10.7087
▁비틀즈	-10.7087
▁탈락	-10.7087
▁1992	-10.7088
▁자선단체	-10.7088
▁금액	-10.7089
▁회의에	-10.709
▁물러	-10.709
▁테러조직	-10.7091
▁세웠다	-10.7092
▁산책	-10.7093
▁인형	-10.7095
평화	-10.7097
수는	-10.7098
▁살해했다	-10.71
▁고무	-10.71
▁전국적으로	-10.71
▁4000	-10.7101
▁고급	-10.7101
▁government	-10.7102
▁본토	-10.7102
▁않는다면	-10.7102
▁강행	-10.7107
▁보급	-10.7108
▁58	-10.7108
▁아마디	-10.7108
▁불구	-10.711
▁피살	-10.7112
▁자동	-10.7113
▁승무원들	-10.7113
▁상당히	-10.7114
▁30%	-10.7119
▁남용	-10.7119
▁유산	-10.7125
▁담은	-10.7126
▁단체인	-10.7126
▁약화	-10.713
mo	-10.7133
카르	-10.7134
▁BA	-10.7136
▁감소했다	-10.7139
▁댄	-10.7144
▁방향으로	-10.7144
76	-10.7146
▁등으로	-10.7147
▁일이다	-10.7152
▁카르	-10.7156
▁제리	-10.7156
▁플로리다주	-10.7158
▁다이	-10.716
▁88	-10.7164
▁사실에	-10.7168
저는	-10.7168
▁이로	-10.7178
iz	-10.7179
지방	-10.7186
▁손해	-10.7189
복을	-10.7201
ite	-10.7207
사이	-10.7208
▁유인	-10.7218
▁약세	-10.7219
▁건물이	-10.7223
▁처한	-10.7234
▁국가들이	-10.7235
▁포함됐다	-10.7241
▁53	-10.7241
22	-10.7245
티스	-10.7245
회를	-10.7247
▁sh	-10.7248
혔	-10.7249
▁지지자들이	-10.7253
때까지	-10.7253
tion	-10.7253
로우	-10.7254
▁흔	-10.726
▁글로	-10.7268
▁유도	-10.7276
▁엘리	-10.7276
▁취하	-10.728
▁강세	-10.7284
촌	-10.7292
카드	-10.7293
풀	-10.7296
탈레반	-10.7296
리안	-10.7297
▁관타나모	-10.7298
▁오토바이	-10.7298
▁우주왕복선	-10.7298
▁울포위츠	-10.7298
▁준결승	-10.7298
▁파바로티	-10.7298
▁플라스틱	-10.7298
社	-10.7298
툴	-10.7298
▁자유무역협정	-10.7298
▁퍼거슨	-10.7298
▁경기부양책	-10.7298
▁벌써	-10.7298
▁헌법재판소	-10.7299
▁롤링	-10.7299
▁넘겨	-10.73
▁저희	-10.73
음악	-10.73
▁드러내	-10.7301
▁점검	-10.7302
▁영양	-10.7303
per	-10.7303
▁오른쪽	-10.7304
▁NK	-10.7305
▁상대방	-10.7306
▁집권당	-10.731
▁실업	-10.7311
▁매출	-10.7313
▁멀리	-10.7315
▁연계	-10.7315
▁죽음을	-10.7317
▁군함	-10.7317
▁제시했다	-10.732
▁실린	-10.7323
▁표면	-10.7325
▁도심	-10.7327
▁수위	-10.7327
▁41	-10.7328
▁존경	-10.7329
▁운동가들	-10.7331
▁요구하며	-10.7337
▁모금	-10.7337
▁촉진	-10.7339
▁지원하는	-10.7347
▁햄	-10.735
통제	-10.735
▁법원에서	-10.7352
후보	-10.7358
▁다음주	-10.736
▁이틀간	-10.7366
▁로브	-10.7368
▁중요성	-10.7369
▁내려진	-10.7371
(1	-10.7373
▁딸이	-10.7376
ph	-10.7379
▁자치	-10.7385
▁제보	-10.7387
위성	-10.7391
▁남자는	-10.7392
코프	-10.7396
96	-10.7398
▁참여할	-10.74
▁갈라	-10.7412
▁유지하고	-10.7412
▁각자	-10.7416
▁대학생	-10.7417
▁계속된	-10.7418
제품	-10.7422
타르	-10.7425
▁브라운은	-10.7425
▁전역에서	-10.7431
▁여부에	-10.7431
▁UEFA	-10.7436
▁대학에서	-10.7441
분께	-10.7441
▁나이트	-10.7442
▁본다	-10.7443
▁인질들을	-10.7446
▁못했	-10.7451
▁대전	-10.7453
▁기소된	-10.7464
내내	-10.7469
▁제공한	-10.7469
줬	-10.7474
▁계기	-10.7481
▁향상	-10.7494
▁용의자로	-10.7494
▁승객들	-10.7498
소한	-10.75
▁콜로라도	-10.7502
▁제출한	-10.7505
▁뉴욕주	-10.7505
웬	-10.7511
컴	-10.7512
칙	-10.7513
값	-10.7514
▁북부에	-10.7515
▁Obama	-10.7515
▁경기침체	-10.7515
▁루아얄	-10.7515
▁뮤지컬	-10.7515
▁싶지	-10.7515
▁옮기	-10.7515
▁허커비	-10.7515
▁아테네	-10.7515
톨	-10.7515
▁게릴라	-10.7515
▁옐친	-10.7515
▁징후	-10.7515
▁포르노	-10.7515
▁시라크	-10.7515
▁불가리아	-10.7516
▁2005.10	-10.7516
▁벽돌	-10.7516
▁본격적	-10.7516
▁공룡	-10.7516
▁관람	-10.7516
`	-10.7517
▁있었습니다	-10.7518
▁살아남	-10.7518
서비스	-10.7519
▁탄광	-10.7519
▁함유	-10.7519
베르토	-10.7522
▁형식	-10.7528
▁조절	-10.7529
▁국방성	-10.7531
▁자신감	-10.7532
American	-10.7532
▁점거	-10.7534
▁남편이	-10.7535
▁공판	-10.7535
▁실무	-10.7535
▁위원	-10.7537
▁연간	-10.7537
▁승부	-10.754
▁소동	-10.7541
▁기분	-10.7542
▁통보	-10.7542
▁접수	-10.7542
▁지지하고	-10.7543
▁벌어졌다	-10.7543
▁한국은행	-10.7546
▁얼마전	-10.7546
▁지대	-10.7551
▁사용하고	-10.7552
▁1,000	-10.7552
▁희망한다	-10.7552
▁범위	-10.7555
▁7000	-10.7555
대에서	-10.7557
▁케이	-10.7558
▁냉	-10.7559
▁동성	-10.7559
▁호소했다	-10.7559
▁발표했습니다	-10.7563
▁좋아하는	-10.7563
▁사체	-10.7564
▁신분	-10.7565
▁겸	-10.7567
▁노력이	-10.7567
▁갖는	-10.7571
▁140	-10.7573
▁고려하고	-10.7579
▁뱀	-10.7581
아직	-10.7584
▁PKK	-10.7587
▁데일리	-10.7589
▁취한	-10.7591
자료	-10.7592
▁떨어지	-10.7592
▁제이	-10.7594
베리	-10.7594
▁몸에	-10.7597
▁곰	-10.7602
▁경사	-10.7604
▁나선	-10.761
나와	-10.7613
▁성명은	-10.7613
▁브로	-10.7618
▁승인했다	-10.7622
▁도시인	-10.7625
램	-10.7628
▁테러리스트들	-10.7629
▁베를린	-10.7629
▁불어	-10.7631
▁탄도	-10.7633
▁포함된	-10.7635
▁거주하	-10.7642
▁해소	-10.7646
▁지원하고	-10.7646
55	-10.7658
▁Y	-10.7661
▁래	-10.7664
국으로	-10.7664
▁수행하	-10.7667
28	-10.7671
▁직원이	-10.7679
out	-10.7681
과정	-10.7688
▁대통령직	-10.7689
▁떼	-10.7695
에르	-10.7697
▁동맹국	-10.7702
▁그레	-10.7703
▁타임	-10.7713
▁조사한	-10.7715
58	-10.7718
▁대법원장	-10.7718
IS	-10.7723
▁V	-10.7727
▁열고	-10.7729
퀴	-10.7731
룰	-10.7733
늘	-10.7734
▁매춘	-10.7734
▁금메달	-10.7738
▁디자이너	-10.7738
▁먹는	-10.7738
▁아닙니다	-10.7738
▁지지선언	-10.7738
▁카트리나	-10.7738
▁징계	-10.7738
▁보이콧	-10.7738
▁이자율	-10.7738
▁개막	-10.7738
▁멈추	-10.7738
2006.08	-10.7739
멜	-10.7739
▁알렉스	-10.774
▁디스크	-10.774
▁막대한	-10.774
강전에서	-10.7741
▁떠날	-10.7741
▁흘러	-10.7741
▁사이클	-10.7743
▁경향	-10.7743
▁핵개발	-10.7745
아프간	-10.7745
▁오스카	-10.7745
어떤	-10.7746
▁상담	-10.7746
▁않으며	-10.7746
▁정착	-10.7746
▁인터	-10.7747
85	-10.7748
사령관	-10.7748
금융	-10.7748
way	-10.7749
▁인공	-10.7749
사람	-10.775
▁플레이어	-10.7751
▁애리조나	-10.7752
▁래리	-10.7752
▁준수	-10.7753
▁서류	-10.7754
▁장교	-10.7755
▁통과시켰다	-10.7755
▁쏘	-10.7755
▁미첼	-10.7756
▁발발	-10.7759
▁도청	-10.7761
▁러드	-10.7761
ish	-10.7763
생산	-10.7764
▁선수로	-10.7765
▁포함하여	-10.7767
▁탄소	-10.7768
▁참석하지	-10.7773
▁정계	-10.7779
▁챔피언십	-10.7786
부를	-10.779
▁밝혔	-10.7791
▁흔적	-10.7799
▁정보부	-10.7799
▁기상청	-10.7803
▁취해	-10.7805
▁서서	-10.7818
▁시인	-10.7822
▁확산되고	-10.7824
인데	-10.7826
▁보도에	-10.7826
▁De	-10.7826
▁160	-10.7829
BO	-10.783
▁56	-10.783
▁지도자는	-10.783
스런	-10.7831
▁59	-10.7831
▁테러에	-10.7839
업자들	-10.7839
▁바스라	-10.7839
▁부당	-10.7841
2000	-10.7842
위원	-10.7849
야드	-10.7856
▁WHO	-10.7857
▁무고	-10.7859
명인	-10.7859
원인	-10.7868
▁했으나	-10.7869
▁취했다	-10.7869
▁불이	-10.787
▁정상회담을	-10.787
▁레바논군	-10.7874
▁43	-10.7876
▁영화에	-10.7882
다란	-10.7886
▁모르	-10.7888
▁풀어	-10.7889
44	-10.789
학과	-10.7893
▁어렵	-10.7893
▁건강이	-10.7896
업계	-10.79
▁미국으로	-10.79
▁원인이	-10.7903
요원	-10.7905
▁옥	-10.7909
▁아메리칸	-10.7912
▁게리	-10.7913
▁철저	-10.7913
▁일이라고	-10.7914
▁건너	-10.7919
죄	-10.792
▁포인트	-10.7921
상에서	-10.7929
여성	-10.7929
▁당해	-10.7933
▁메일	-10.7937
91	-10.794
29	-10.7943
▁악화되	-10.7944
▁필요로	-10.7946
ess	-10.7948
▁준비하고	-10.795
▁정상들	-10.795
널리	-10.7951
해달라	-10.7953
▁유기	-10.7957
▁장관과	-10.7959
▁에베레스트	-10.7962
▁아름다	-10.7964
겁	-10.7964
▁베네딕	-10.7965
▁오클라호마	-10.7965
▁이브라힘	-10.7965
▁찾지	-10.7965
▁최첨단	-10.7965
▁히틀러	-10.7965
셨	-10.7965
▁로드리게스	-10.7965
▁심장마비	-10.7965
▁의약품	-10.7965
▁평화유지군	-10.7965
▁압바스	-10.7965
▁따뜻	-10.7965
▁빼앗	-10.7965
▁중남미	-10.7965
▁아마디네자드	-10.7965
▁스크린	-10.7965
▁2008.10	-10.7965
▁인터폴	-10.7965
▁터널	-10.7966
▁가짜	-10.7966
▁품목	-10.7966
2007.12	-10.7966
▁NBA	-10.7967
▁술집	-10.7968
▁연례	-10.7969
▁거짓	-10.7969
▁들어갈	-10.7969
▁1989	-10.797
▁세탁	-10.797
▁이루어진	-10.797
▁계산	-10.7971
▁새롭	-10.7971
▁풍부	-10.7972
▁동물들	-10.7973
▁구름	-10.7974
▁벗어	-10.7974
▁채취	-10.7974
▁조항	-10.7976
▁단행	-10.7976
자동차	-10.7977
년과	-10.7979
범죄	-10.798
▁발급	-10.7981
▁회수	-10.7982
▁대대적	-10.7985
▁휴대	-10.7987
▁에티오피아	-10.7988
▁뿐이다	-10.799
회전	-10.7995
▁암호	-10.7997
▁언급하며	-10.7998
▁보건부	-10.8004
▁임대	-10.8005
▁되며	-10.8007
관이	-10.8009
▁73	-10.8009
▁5000	-10.8011
▁해체	-10.8011
▁테러단체	-10.8013
▁변호	-10.8015
▁신장	-10.8015
▁하나는	-10.8015
▁결승전에서	-10.8017
동물	-10.8019
▁신화	-10.8023
▁곳이	-10.8025
교회	-10.8025
▁침	-10.8028
▁경비원	-10.8037
▁트레	-10.8039
▁러	-10.8039
▁사진이	-10.804
ha	-10.8043
▁당국자들	-10.8043
▁달간	-10.8044
▁있을지	-10.8045
▁공격했다	-10.8047
▁여행객들	-10.8048
곳에	-10.8048
▁미스	-10.805
▁가로	-10.8051
노조	-10.8052
용으로	-10.8054
04	-10.8055
▁문구	-10.8064
▁동료들	-10.8071
67	-10.8074
▁조지아	-10.8075
old	-10.8081
▁경매에	-10.8083
▁법정에서	-10.8086
▁r	-10.809
▁벌여	-10.8091
▁요원들	-10.8091
▁총장	-10.8095
▁불가능	-10.8105
▁기업의	-10.8106
▁코치	-10.8108
▁열기	-10.8112
▁모르는	-10.8114
▁선거법	-10.8117
더스	-10.812
▁넘기	-10.812
93	-10.8123
자들과	-10.8127
▁프라	-10.813
▁up	-10.8134
▁경로	-10.8135
▁지식	-10.8144
▁조사할	-10.8146
룬	-10.8149
▁일어나는	-10.8169
▁의상	-10.8171
▁착용	-10.8172
▁학교에서	-10.8175
▁휩싸	-10.8178
선에	-10.8178
▁소방	-10.8179
▁브라이언	-10.8185
▁달한다	-10.8187
os	-10.8187
▁잠재적	-10.8189
▁알려	-10.8189
흉	-10.8189
낭	-10.8197
▁플래	-10.8197
▁느낌	-10.8197
5,000	-10.8197
·	-10.8197
▁고이즈미	-10.8197
▁뉴올리언스	-10.8197
▁망원경	-10.8197
▁성추행	-10.8197
▁쇠고기	-10.8197
▁시나리오	-10.8197
▁우울증	-10.8197
▁조승희	-10.8197
▁기숙사	-10.8197
▁노트북	-10.8197
▁두려움	-10.8197
▁again	-10.8197
▁허드슨	-10.8197
▁무승부	-10.8197
▁수류탄	-10.8197
▁활발	-10.8198
▁무너지	-10.8198
▁목격했다	-10.8198
▁당부했다	-10.8198
▁등에	-10.8198
▁저항세력	-10.8198
▁교섭	-10.8198
▁남아프리카	-10.8198
▁맥캔	-10.8198
▁맨	-10.8199
▁옹호	-10.82
▁무덤	-10.82
▁받아왔다	-10.8201
▁해서	-10.8202
▁아니지만	-10.8203
▁사육	-10.8204
논	-10.8205
▁소행성	-10.8206
▁타밀	-10.8206
▁구호단체	-10.8206
▁체류	-10.8206
▁모술	-10.8207
▁하면서	-10.8208
연패	-10.8208
▁붙여	-10.8208
▁밀려	-10.821
▁바탕	-10.821
▁고위급	-10.821
▁착수했다	-10.8212
▁낮아	-10.8212
▁있은	-10.8213
ome	-10.8214
해리포터	-10.8214
PPP	-10.8215
▁목사는	-10.8216
▁돌려	-10.8217
▁열심	-10.8217
▁유통	-10.8218
▁저질렀다	-10.8218
▁위하여	-10.8219
▁구류	-10.8219
▁모래	-10.822
▁전반적인	-10.822
▁빠졌다	-10.822
▁사라졌다	-10.822
▁예약	-10.8222
▁가중	-10.8228
▁모터	-10.8228
ese	-10.8232
주전	-10.8234
▁경비대	-10.8234
▁미술	-10.8235
▁경쟁력	-10.8239
▁움직임은	-10.824
▁좁	-10.8241
▁모자	-10.8243
▁작업이	-10.8243
▁바위	-10.8244
▁동성애	-10.8252
▁X	-10.8253
인들에게	-10.8256
▁범인이	-10.8256
ke	-10.8258
▁정리	-10.8258
49	-10.8259
▁보인	-10.8259
▁양국은	-10.8261
▁2%	-10.8264
▁듀	-10.827
▁우세	-10.8275
▁입지	-10.8275
키로	-10.8276
oo	-10.8277
▁가을	-10.8277
▁중심지	-10.8279
곳에서	-10.8279
▁은행에	-10.8279
▁담당자	-10.8283
브레	-10.8283
점에	-10.8283
▁희	-10.8283
▁상을	-10.8283
▁사면	-10.8284
▁향한	-10.8285
▁e	-10.8286
▁때문이라	-10.8288
▁느끼고	-10.8289
ag	-10.829
▁상금	-10.8291
▁메리	-10.8294
▁공안	-10.8294
▁턱	-10.8296
▁나타내는	-10.8299
▁군인들이	-10.8301
27	-10.8303
▁수행할	-10.8305
▁힘들다	-10.8309
▁시인했다	-10.831
▁가족들과	-10.8318
▁부검	-10.832
has	-10.8324
'(	-10.8325
▁추구하	-10.8326
게임	-10.8326
▁맞고	-10.8327
▁회장이	-10.8328
▁슈퍼	-10.833
▁성공한	-10.8331
▁입었	-10.8334
▁4%	-10.8337
▁66	-10.8339
▁반대로	-10.8351
▁포트	-10.8354
▁인권단체	-10.8359
▁변호인	-10.8361
▁섹스	-10.8365
▁부족하다	-10.8368
▁예술가	-10.8369
▁남성들	-10.837
▁49	-10.8371
호주	-10.8373
▁아프	-10.8373
▁62	-10.8375
푸르	-10.8379
어질	-10.8381
▁방문해	-10.8381
▁분야에서	-10.8382
▁출연했다	-10.8386
▁지역인	-10.8395
▁바르	-10.8397
▁시작했다고	-10.84
▁제작사	-10.8407
▁크리스티	-10.8411
▁지불하	-10.8412
▁하자	-10.8412
ti	-10.8414
▁스파이	-10.8422
▁행위에	-10.8424
pr	-10.8427
▁out	-10.843
▁기아	-10.8432
▁독일인	-10.8433
틱	-10.8435
▁높게	-10.8436
▁뉴델리	-10.8436
▁위스콘신	-10.8436
▁유죄판결	-10.8436
▁자르다리	-10.8436
▁출구조사	-10.8436
▁펼친	-10.8436
▁플루토늄	-10.8436
▁확률	-10.8436
박근혜	-10.8436
찌	-10.8436
▁도요타	-10.8436
▁삭감	-10.8436
▁국립공원	-10.8436
▁빅토리아	-10.8436
▁알바니아	-10.8436
▁talks	-10.8437
▁부사장	-10.8437
▁점수	-10.8437
▁숨졌으며	-10.8438
▁농민들	-10.8438
▁증강	-10.8439
▁1987	-10.8439
▁중앙은행	-10.8439
▁남학생	-10.8439
카를로스	-10.8439
▁취급	-10.844
▁교외	-10.844
▁압도적	-10.8441
▁물고기	-10.8441
▁송금	-10.8442
▁항의하	-10.8443
▁델타	-10.8443
ence	-10.8444
▁하원의장	-10.8444
됐는지	-10.8444
▁완성	-10.8445
▁이내에	-10.8445
▁예배	-10.8447
▁왕세자비	-10.8447
▁are	-10.8448
▁복원	-10.8448
▁업적	-10.8448
▁비서실장	-10.8448
▁모른다고	-10.845
▁포터	-10.8452
▁후송	-10.8453
▁양쪽	-10.8456
▁부지	-10.8457
▁총통	-10.8457
da	-10.8461
최근	-10.8461
▁맡았다	-10.8462
▁물체	-10.8464
▁배제	-10.8468
▁대가	-10.8468
62	-10.8469
▁사용자들	-10.847
▁도살	-10.8473
▁2-1	-10.8475
▁남아있다	-10.8476
▁영국과	-10.8476
▁게시	-10.8476
▁미래에	-10.8476
▁묻는	-10.8478
▁차질	-10.848
베르	-10.8481
▁대서양	-10.8482
▁도디	-10.8488
▁사고는	-10.8491
▁안내	-10.8492
▁양보	-10.8495
▁상관	-10.8495
▁선고했다	-10.8497
▁인터넷에	-10.8501
▁남자아이	-10.8508
레이크	-10.8508
▁두려워	-10.8509
▁대리인	-10.8512
▁퀸	-10.8514
▁써	-10.8514
▁제공했다	-10.8516
▁오바마에	-10.8517
▁상당수	-10.8521
▁의원들이	-10.8525
▁크다	-10.8538
▁정기	-10.8541
▁고위관리	-10.8542
▁남아있는	-10.8546
▁파리에서	-10.8547
▁제치	-10.8549
▁일에	-10.8552
▁암시	-10.8554
▁제시한	-10.8555
▁도착할	-10.8556
▁웨인	-10.8559
▁건강에	-10.8562
▁도구	-10.8564
된다면	-10.8565
▁남부에	-10.8569
▁압수	-10.8569
▁익	-10.8569
▁정기적	-10.8578
크리	-10.858
▁상황이다	-10.8582
해준	-10.8588
▁테리	-10.8591
▁참가자들	-10.8592
▁내렸	-10.8594
▁진지	-10.8602
메르	-10.8607
해지고	-10.8617
▁체포되었다	-10.862
▁베리	-10.8626
▁당황	-10.8628
오르	-10.8628
▁신도들	-10.8638
▁강진이	-10.864
▁시작으로	-10.8641
▁씨가	-10.8641
르게	-10.8644
▁나타났	-10.8646
▁지위	-10.8649
상은	-10.8651
우드	-10.8653
빠	-10.866
일부	-10.8664
▁판결이	-10.8665
프라	-10.8671
▁피난	-10.8674
구가	-10.8674
흑	-10.8677
▁일대	-10.8678
놈	-10.8678
▁visit	-10.8679
▁나눴다	-10.8679
▁메드베데프	-10.8679
▁않았습니다	-10.8679
▁앞섰다	-10.8679
▁잃어버	-10.8679
▁최루탄	-10.8679
▁하이브리드	-10.8679
븐	-10.8679
▁첩보	-10.868
▁해수면	-10.868
▁온실가스	-10.868
▁에드워드	-10.868
됨에따라	-10.868
▁교착상태	-10.868
▁글로벌	-10.868
▁권총	-10.8681
▁Roh	-10.8681
▁its	-10.8681
▁우간다	-10.8681
▁급습	-10.8681
▁아마존	-10.8682
▁금융위기	-10.8682
▁이뤄질	-10.8682
▁호송	-10.8683
▁에릭	-10.8684
대와	-10.8684
▁갈등	-10.8685
▁데리고	-10.8686
▁추격	-10.8686
▁사과했다	-10.8687
▁석방됐다	-10.8687
▁지역사회	-10.8688
▁줄이기	-10.8689
▁국정원	-10.8689
▁연출	-10.869
▁실현	-10.869
▁정밀	-10.869
▁뚫	-10.8693
▁60%	-10.8695
▁포스트	-10.8695
▁톰슨	-10.8695
▁매매	-10.8695
▁개체수	-10.8696
시장에서	-10.8697
년전	-10.8698
▁수색작업	-10.8699
▁물어	-10.8701
▁보증	-10.8702
▁부처	-10.8702
▁오리	-10.8703
편의	-10.8704
싸	-10.8704
▁드러	-10.8705
▁부분이	-10.8705
▁부품	-10.8706
8000	-10.8708
▁군사력	-10.8708
▁고안	-10.8709
port	-10.8709
팔레스타인	-10.871
▁실려	-10.871
▁해저	-10.8711
▁사용된	-10.8716
▁가난한	-10.8718
▁시사	-10.872
▁위험성	-10.8721
▁Ar	-10.8725
MDC	-10.8727
▁20%	-10.8728
경찰이	-10.873
97	-10.8732
열차	-10.8733
주가	-10.8733
▁남성의	-10.8737
▁공개하지	-10.8739
키는	-10.8741
▁관객	-10.8741
▁밝혀내	-10.8743
▁너무나	-10.8746
▁얻게	-10.8747
간다	-10.8752
tr	-10.8752
▁재미있	-10.8754
▁패스	-10.8757
▁열었다	-10.8757
▁상세	-10.8758
▁경험을	-10.8759
▁방송에	-10.876
69	-10.8764
▁남측	-10.8769
▁셰	-10.8769
▁MD	-10.8772
▁이름으로	-10.8776
▁화가	-10.8779
▁토대	-10.8782
ice	-10.8782
▁위원장이	-10.8785
▁출신으로	-10.8785
▁가고	-10.8785
▁연구원은	-10.8789
▁해적들	-10.8789
▁노스	-10.8794
▁un	-10.8794
▁건물에	-10.88
▁인정하지	-10.8805
AP	-10.8809
▁Ca	-10.8811
▁판매량	-10.8814
▁됐	-10.8819
번호	-10.8819
하에	-10.8823
▁이슈	-10.8825
?”	-10.8825
▁담당자는	-10.8834
▁응답	-10.8837
수사	-10.8841
▁종교적	-10.8841
▁관중	-10.885
스텔	-10.8852
▁중이며	-10.8857
▁방콕	-10.8857
월드	-10.8861
▁필립	-10.8871
▁차지하는	-10.8871
▁외상	-10.888
▁v	-10.8882
받고	-10.8882
31	-10.8887
▁일하고	-10.8887
▁개인적	-10.89
▁까	-10.8906
▁폰	-10.8906
▁금리를	-10.8908
▁아는	-10.891
일에는	-10.8922
인권	-10.8923
졸	-10.8928
▁데이비스	-10.8929
▁IBM	-10.8929
▁국가비상사태	-10.8929
▁국제우주정거장	-10.8929
▁먹고	-10.8929
▁메릴랜드	-10.8929
▁서브프라임	-10.8929
눌	-10.8929
FIFA	-10.8929
▁바티칸	-10.8929
▁파파라치	-10.8929
▁깨끗	-10.8929
▁주유소	-10.893
▁윈도우	-10.893
▁퇴진	-10.893
▁치솟	-10.893
▁좌석	-10.893
▁자전거	-10.893
▁야생동물	-10.893
▁행렬	-10.893
▁켈리	-10.893
▁바꿀	-10.893
time	-10.893
▁데뷔	-10.8931
▁인접	-10.8931
▁국민투표	-10.8932
▁긴밀	-10.8932
▁동참	-10.8933
▁다룬	-10.8934
▁가택	-10.8934
▁유괴	-10.8935
▁서식하	-10.8935
▁설계	-10.8935
▁2008.12	-10.8936
▁단독	-10.8937
▁절약	-10.8938
▁재배치	-10.8938
▁어려	-10.8941
▁위생	-10.8941
▁추모	-10.8941
▁통행	-10.8942
성근	-10.8943
▁연임	-10.8945
ee	-10.8947
▁상병	-10.8948
당시	-10.8952
▁무슨	-10.8954
▁야구	-10.8954
▁불교	-10.8958
▁61	-10.8964
딸	-10.8967
▁미리	-10.8968
▁출장	-10.8969
▁진전이	-10.897
환경	-10.8972
▁지구에	-10.8972
언론	-10.8974
▁미성년자	-10.8974
▁방법에	-10.8976
▁IMF	-10.8978
유엔	-10.898
▁준다	-10.899
연승	-10.8991
▁절도	-10.8992
~2	-10.8993
▁공격한	-10.8996
▁조선	-10.9002
▁권고했다	-10.9003
▁동영상에서	-10.9004
res	-10.9006
▁연구에서	-10.9007
▁돌아와	-10.9008
벨리	-10.901
▁공정한	-10.901
▁내정	-10.9012
▁카리	-10.9012
▁주에	-10.9012
▁양성	-10.9012
▁공개한	-10.9016
▁궁	-10.9017
▁이뤄	-10.9021
▁고조	-10.9022
▁반전	-10.9022
▁69	-10.9029
▁일원	-10.9036
▁지나가	-10.9036
▁안으로	-10.9036
▁전격	-10.9039
▁활동에	-10.904
▁경주	-10.9042
▁하에	-10.9043
05	-10.9044
▁사라지	-10.9045
▁광부	-10.9047
ER	-10.9054
▁매수	-10.9058
▁국가에	-10.9058
▁휴일	-10.9059
받은	-10.906
▁결정적인	-10.9061
북한이	-10.9067
월에는	-10.9074
▁탈레반이	-10.9074
▁우즈	-10.9077
▁나치	-10.908
▁살아있	-10.9085
마크	-10.9091
▁세운	-10.9091
▁수감된	-10.9093
▁여기에	-10.9095
▁김치	-10.9101
연대	-10.9102
▁클	-10.9103
달러로	-10.9105
까지도	-10.9106
▁공무원	-10.9107
차원	-10.9108
▁폴리	-10.9116
▁관객들	-10.9123
▁업체들	-10.9126
▁68	-10.9128
oll	-10.9132
미니	-10.9133
▁고조되	-10.9135
▁맞은	-10.9137
▁국민의	-10.9141
▁서쪽	-10.9151
sh	-10.9151
치료	-10.9154
▁거부한	-10.9158
▁오바마를	-10.9159
52	-10.917
▁참가한	-10.9174
▁네바다	-10.9174
▁담고	-10.9184
▁이스라엘에	-10.9184
▁유해	-10.9184
▁72	-10.9185
쿨	-10.9186
▁Minister	-10.9186
▁꺾고	-10.9186
▁믿는다	-10.9186
▁아웅산수치	-10.9186
▁인명피해	-10.9186
▁저렴	-10.9186
▁창기라이	-10.9186
▁최우선	-10.9186
랩	-10.9186
▁선거관리위원회	-10.9186
▁세속주의	-10.9186
▁모니터	-10.9186
▁언덕	-10.9186
▁아스날	-10.9186
▁내무장관	-10.9186
▁시티그룹	-10.9186
▁AIG	-10.9187
▁앨런	-10.9187
▁포셋	-10.9187
▁돌아갈	-10.9188
▁교착	-10.9189
▁국무총리	-10.9189
▁후임	-10.9189
▁1986	-10.9189
▁산맥	-10.919
쳤으며	-10.9191
바라데이	-10.9191
▁개막식	-10.9191
▁창설	-10.9191
▁역임	-10.9192
▁회계	-10.9193
▁연말	-10.9193
▁존스턴	-10.9193
▁않습니다	-10.9194
▁환율	-10.9195
▁의심되는	-10.9195
▁현상이	-10.9195
▁던진	-10.9198
▁약혼	-10.9198
▁시민권	-10.9199
▁행동에	-10.92
▁심판	-10.9202
▁by	-10.9202
▁모집	-10.9202
▁못했지만	-10.9202
▁수컷	-10.9205
▁재활용	-10.9205
▁파커	-10.9206
▁던졌다	-10.9208
▁파월	-10.9209
▁구조작업	-10.921
▁시골	-10.9211
▁54	-10.9212
▁걸렸다	-10.9212
▁주거	-10.9213
▁의견이	-10.9213
▁소년이	-10.9213
▁돌아왔다	-10.9214
▁종파	-10.9214
▁여러번	-10.9218
투데이	-10.9221
▁윌슨	-10.9223
▁적합한	-10.9223
▁정유	-10.9224
▁도난	-10.9224
컨	-10.9225
▁불가능하다	-10.9228
▁리버	-10.9228
윤	-10.9231
▁진행될	-10.9234
▁투표율	-10.9234
분경	-10.9234
▁출전하지	-10.9238
▁미국인들은	-10.9239
담당	-10.924
▁전해지	-10.9244
팬	-10.9245
▁불과하다	-10.9246
▁원자력	-10.9247
▁해석	-10.9249
▁산하	-10.925
호를	-10.925
▁발견되지	-10.9252
▁덜	-10.9253
▁엑	-10.9254
▁느끼	-10.9256
▁주류	-10.9263
▁루니	-10.9264
▁관련하여	-10.9264
▁납치한	-10.9271
점에서	-10.9279
▁학생들에게	-10.9281
▁대로	-10.9287
▁달아	-10.9288
트릭	-10.929
하러	-10.9291
▁알라	-10.9294
▁꽃	-10.9294
분야	-10.9296
▁학생이	-10.9299
▁말이	-10.93
▁유물	-10.9303
▁찾아내	-10.9303
▁지원금	-10.9307
▁피하기	-10.9308
▁소비자들	-10.9311
세포	-10.9312
83	-10.9316
▁군과	-10.9321
▁계속할	-10.9324
▁독재	-10.9326
▁하거나	-10.9327
▁전범	-10.9328
▁알바	-10.9331
▁호주에서	-10.9339
▁이어지	-10.9344
▁교도소에서	-10.9346
▁간부	-10.936
▁내일	-10.9363
▁합의에	-10.9366
▁주권	-10.9369
▁간에	-10.9371
쟁	-10.9372
▁재무	-10.9376
▁거리에서	-10.9378
▁진행중	-10.938
명에서	-10.938
▁전체가	-10.9384
▁취하고	-10.9385
▁국회에서	-10.939
팀이	-10.9397
군과	-10.9399
체제	-10.9399
▁매력	-10.9401
▁이적	-10.9416
▁기각	-10.9418
▁해안에	-10.9422
▁의제	-10.9424
세르	-10.9427
▁지속되	-10.9432
사이트	-10.9436
▁위치해	-10.9436
▁대변	-10.9436
해서는	-10.9439
▁방송에서	-10.9439
43	-10.944
첨	-10.944
▁윈프리	-10.9444
▁똑같	-10.9446
▁반대하고	-10.9447
정치	-10.9448
혜	-10.9448
회에서	-10.9449
꼬	-10.9449
뷰	-10.9449
왓	-10.9449
▁Seoul	-10.9449
▁맨해튼	-10.9449
▁박격포	-10.9449
▁스타벅스	-10.9449
▁없애	-10.9449
▁찾았다	-10.9449
▁토크쇼	-10.9449
▁호나우두	-10.9449
▁후지모리	-10.9449
껏	-10.9449
둑	-10.9449
뻐	-10.9449
캄	-10.9449
▁켄터키	-10.9449
head	-10.9449
▁음주운전	-10.9449
WTO	-10.9449
▁고유가	-10.9449
▁포획	-10.945
▁가져올	-10.945
▁돌아올	-10.945
▁이들에게	-10.9451
▁기획	-10.9451
▁가끔	-10.9451
▁자동차업계	-10.9451
▁워렌	-10.9452
▁자발적	-10.9452
▁안드레	-10.9453
▁참배	-10.9453
▁드레스	-10.9454
▁결합	-10.9454
▁직접적	-10.9455
▁연구결과	-10.9455
▁클라크	-10.9455
▁맞았다	-10.9455
▁독감	-10.9455
▁처형	-10.9456
▁카라치	-10.9456
▁설정	-10.9457
▁로켓포	-10.9457
▁마찰	-10.9458
▁포경선	-10.9459
▁매입	-10.946
▁치매	-10.9461
▁던져	-10.9462
▁예선	-10.9462
▁개헌안	-10.9463
▁밀러	-10.9463
▁재배	-10.9465
이제	-10.9465
▁넣었다	-10.9466
▁상사	-10.9466
▁부결	-10.9468
CC	-10.9468
▁피랍된	-10.9469
▁반등	-10.9471
▁약탈	-10.9472
▁초에	-10.9473
▁기증	-10.9474
정권	-10.9475
▁선호	-10.9476
▁부속	-10.9481
▁전형적	-10.9481
부분	-10.9481
▁서브	-10.9483
▁소유주	-10.9489
▁일시적	-10.9491
▁정체	-10.9492
▁이득	-10.9492
▁해방	-10.9495
빅	-10.9499
말리키	-10.9499
FBI	-10.9499
▁펄	-10.9499
▁사살했다	-10.95
뉴욕	-10.9501
시즌	-10.9502
보고서	-10.9502
▁강간	-10.9503
몬드	-10.9505
▁con	-10.9506
▁기울	-10.9507
▁줄리	-10.951
▁죽이	-10.9515
▁재판에서	-10.9516
▁대우	-10.9517
▁콰	-10.9517
었	-10.9518
▁FDA	-10.9518
▁방문은	-10.9518
▁업무를	-10.9524
▁명성	-10.9528
▁대비해	-10.9529
▁하비	-10.9541
▁일단	-10.9547
▁재정적	-10.9551
ial	-10.9552
▁내리는	-10.9553
▁배상	-10.9555
▁정부군과	-10.9556
▁쪽	-10.956
▁내지	-10.9562
ress	-10.9566
▁분석했다	-10.9568
자들에	-10.9569
전략	-10.9572
▁표시했다	-10.9577
▁쌍	-10.958
▁다르	-10.9584
▁아미	-10.9586
▁개성	-10.9586
▁출신인	-10.9588
▁무샤라프는	-10.9589
▁춤	-10.959
▁국무	-10.9598
▁단장	-10.9601
▁로이	-10.9603
받아	-10.9606
▁간주	-10.9608
▁결심	-10.9608
부의	-10.961
▁선택했다	-10.9612
율이	-10.9614
▁스토	-10.9616
▁못하다	-10.9619
▁기원	-10.9621
▁북부에서	-10.9622
▁평화상	-10.9623
▁수락	-10.9623
▁르	-10.9626
▁사무	-10.963
▁호텔에	-10.9631
▁아시아에서	-10.9634
▁끝내	-10.9638
▁크기의	-10.9638
▁대통령으로	-10.9643
장비	-10.9645
▁제작자	-10.9647
학생	-10.9649
▁벌어지	-10.965
▁라인	-10.9655
구조	-10.9657
▁탈레반측	-10.966
▁변화에	-10.9668
▁만났	-10.967
감시	-10.9671
▁보유한	-10.9685
바리	-10.9687
▁소유한	-10.9687
▁클린턴에	-10.9688
▁맡았	-10.9691
▁수사에	-10.9694
be	-10.9697
▁입어	-10.9699
▁위장	-10.9699
▁뉴저지	-10.9705
▁영화에서	-10.9706
▁파키스탄군	-10.9707
냥	-10.9715
▁클린턴과	-10.9715
섭	-10.9716
덤	-10.9716
까요	-10.9717
팩	-10.9719
딜	-10.9719
▁Bush	-10.9719
▁러닝메이트	-10.9719
▁애완동물	-10.9719
▁유람선	-10.9719
▁활성화	-10.9719
끔찍한	-10.9719
▁라호르	-10.9719
▁비공식	-10.9719
▁하버드	-10.9719
▁섹시	-10.9719
▁라모스	-10.9719
▁기다려	-10.9719
▁남아프리카공화국	-10.9719
▁알제리	-10.9719
▁넬슨	-10.972
▁슈퍼볼	-10.972
▁브레이크	-10.972
▁밝혀냈다	-10.9721
▁머레이	-10.9721
유지	-10.9722
▁아빠	-10.9724
▁외쳤다	-10.9724
▁은행들	-10.9726
▁미셸	-10.9726
▁연령	-10.9726
하드	-10.9727
▁생명체	-10.9727
▁진료	-10.9727
▁가르	-10.9728
▁불안정	-10.9729
▁만료	-10.9729
▁승점	-10.973
▁대테러	-10.9731
▁연구원	-10.9732
▁케이시	-10.9733
▁사안	-10.9735
▁발매	-10.9735
▁tr	-10.9737
▁교내	-10.9739
▁응원	-10.9739
▁특사는	-10.9741
▁리오	-10.9743
▁사이버	-10.9743
▁연대	-10.9744
▁기념식	-10.9744
▁걸려	-10.9748
▁유행	-10.9749
▁사회당	-10.975
con	-10.9751
▁말에	-10.9751
▁거친	-10.9752
▁유럽과	-10.9753
▁사라진	-10.9756
▁단식	-10.976
▁화제	-10.9762
▁실패한	-10.9766
같이	-10.9767
▁생성	-10.9769
▁먼지	-10.9769
▁행동이	-10.977
▁있음	-10.977
▁피신	-10.977
아버지	-10.9772
▁공직	-10.9772
떼	-10.9772
▁기분이	-10.9773
년형	-10.9773
▁이어졌다	-10.9775
▁버지니아주	-10.9775
착륙	-10.9777
▁지지자들에게	-10.9777
잘	-10.9777
그것은	-10.9777
▁받아들이지	-10.9778
3000	-10.9779
▁남쪽으로	-10.978
▁병력이	-10.978
▁상자	-10.978
였고	-10.9781
▁수사관들은	-10.9784
▁인도분	-10.9785
진압	-10.9786
▁소화	-10.9787
변화	-10.9795
▁산소	-10.9796
▁예측했다	-10.9798
▁지방에서	-10.9802
교수	-10.9803
▁템	-10.9803
문서	-10.9809
▁성분	-10.981
▁거래됐다	-10.9816
▁그랜드	-10.9818
체계	-10.9818
▁프랑스에서	-10.9822
▁성명서	-10.9827
▁이라크인	-10.9831
▁일어나지	-10.9833
올해	-10.9839
이었지만	-10.9839
▁확인하기	-10.9839
▁이민자들	-10.984
▁근처에	-10.984
▁즐기는	-10.9843
득	-10.9844
▁민주당이	-10.9844
▁차지한	-10.9846
▁강타한	-10.9847
라이브	-10.9848
▁war	-10.985
▁이른	-10.9861
▁눈물	-10.9863
▁약속한	-10.9867
▁느끼는	-10.9868
▁아프간에	-10.9868
▁폭력사태로	-10.9873
▁최고위	-10.9875
▁본드	-10.9879
▁총리직	-10.9881
▁명단에	-10.9884
▁양자	-10.9891
방식	-10.9901
53	-10.9909
▁전용	-10.9918
▁성공을	-10.9918
▁57	-10.9919
▁소속의	-10.9921
▁포기하	-10.9925
▁이라크내	-10.9926
▁위협에	-10.9928
MS	-10.9928
78	-10.9929
평방	-10.9933
▁매케인이	-10.9936
▁대안	-10.9939
▁파키스탄에서	-10.994
티드	-10.9943
37	-10.9945
프리	-10.9945
건설	-10.9946
▁노대통령은	-10.9946
마라	-10.9948
▁취소했다	-10.9951
▁소비자들이	-10.9951
▁재해	-10.9955
▁계속하고	-10.9957
able	-10.9966
▁가즈니	-10.9967
그들이	-10.9974
워드	-10.9975
▁신원이	-10.9976
TA	-10.9977
리오	-10.9981
▁파크	-10.9984
▁목요일에	-10.9985
▁철수시키	-10.9986
08	-10.9986
건물	-10.9988
▁민간인들	-10.999
슐	-10.9993
▁바지	-10.9995
▁언급한	-10.9997
겔	-10.9997
▁듣지	-10.9997
▁디트로이트	-10.9997
▁럼스펠드	-10.9997
▁스탈린	-10.9997
▁억만장자	-10.9997
▁최고경영자	-10.9997
▁텔레비전	-10.9997
▁피츠버그	-10.9997
▁헬리콥터	-10.9997
닛	-10.9997
잎	-10.9997
▁브루니	-10.9997
▁딜러	-10.9997
▁덴버	-10.9997
▁돌아다니	-10.9997
▁낭비	-10.9997
▁코카인	-10.9997
▁티벳	-10.9997
▁고등법원	-10.9997
2007.09	-10.9998
▁텐트	-10.9998
▁왜곡	-10.9998
▁친환경	-10.9998
▁동굴	-10.9999
▁복합	-10.9999
▁생겨	-10.9999
▁처방	-11
▁대선주자	-11
▁요르단강	-11
▁장벽	-11
▁절감	-11.0001
▁구호품	-11.0003
▁위축	-11.0004
▁불황	-11.0005
▁치른	-11.0005
ian	-11.0006
▁유혈	-11.0006
▁70%	-11.0006
▁출국	-11.0006
▁소총	-11.0008
▁보수당	-11.0008
▁느낀다	-11.0009
▁추천	-11.001
▁반환	-11.0012
▁수요일에	-11.0015
▁유골	-11.0015
▁문제점	-11.0016
▁고속	-11.0016
실질적인	-11.0018
▁아랍에미리트	-11.0019
▁다가오	-11.0021
▁라울	-11.0022
▁합의문	-11.0023
▁배포	-11.0025
▁첫날	-11.0025
달라	-11.0026
▁파편	-11.0026
▁전하고	-11.0027
▁개발한	-11.003
▁분야에	-11.0031
▁그곳에서	-11.0033
▁없다며	-11.0034
▁비평	-11.0034
▁중점	-11.0035
▁휴식	-11.0035
▁밀어	-11.0035
이라면	-11.0035
▁그들에게	-11.0036
▁과제	-11.0038
마트	-11.0039
기때문에	-11.004
▁해왔다	-11.004
▁달러가	-11.004
▁비난한	-11.0043
▁호전	-11.0044
밤	-11.0046
▁명백한	-11.005
▁유명하다	-11.0051
▁아라비아	-11.0051
▁집회에	-11.0054
▁샤리프는	-11.0055
▁아니며	-11.0055
몽	-11.0057
▁재고	-11.0057
▁구타	-11.0058
핀	-11.0061
아메리칸	-11.0061
대는	-11.0063
잠	-11.0063
유럽	-11.0063
클린턴	-11.0064
▁이른다	-11.0065
▁제프	-11.0067
▁구단	-11.0072
로프	-11.0073
레오	-11.0074
mb	-11.0074
▁상위	-11.0075
건강	-11.0081
▁리비	-11.0081
▁방문에	-11.0082
▁심화	-11.0082
▁시작될	-11.0084
▁종이	-11.0091
▁장성	-11.0096
▁조직원	-11.0101
여행	-11.0101
티아	-11.0105
▁선적	-11.0106
▁조치로	-11.0108
▁반미	-11.0112
▁중단됐다	-11.0114
▁군중들	-11.0117
수단	-11.0119
▁언론과	-11.0121
▁무엇이	-11.0123
▁원주민	-11.0126
▁연구가	-11.0128
블리	-11.0129
▁전합니다	-11.013
▁취하지	-11.0137
문화	-11.0147
▁입수한	-11.0153
사실	-11.0156
▁인정받	-11.016
소득	-11.0162
▁법적으로	-11.0163
▁페리	-11.0164
되도록	-11.0168
▁통해서	-11.017
▁복장	-11.0172
▁Ro	-11.0173
▁편집	-11.0176
▁순례	-11.018
▁투기	-11.0183
▁형태로	-11.0187
차이	-11.0188
▁확산되	-11.0196
▁원하지	-11.0214
▁들어와	-11.0215
▁덧붙	-11.0217
▁참여했다	-11.022
▁선박이	-11.0227
▁남성과	-11.0228
보드	-11.0229
▁71	-11.0234
▁An	-11.0235
▁명백	-11.0237
▁난민들	-11.0253
▁미라	-11.0254
▁피고인	-11.0255
▁측이	-11.0256
리어	-11.0256
▁남자들	-11.0256
죄로	-11.0258
94	-11.0261
▁기본적	-11.0263
▁음료	-11.0265
▁봉	-11.0266
▁청소	-11.0277
호프	-11.0277
▁종합	-11.0277
▁발생했	-11.0277
라니	-11.0279
▁지역이	-11.0281
덩	-11.0283
▁끝났다	-11.0283
▁느껴	-11.0283
▁버냉키	-11.0283
▁브래드	-11.0283
▁스튜디오	-11.0283
▁규칙	-11.0283
▁유수프	-11.0283
▁침묵	-11.0283
▁바하마	-11.0283
▁take	-11.0283
▁태우고	-11.0283
▁부양책	-11.0283
▁휴스턴	-11.0284
▁스콧	-11.0284
▁안토니오	-11.0284
▁놀랄	-11.0284
▁쓰는	-11.0284
▁자녀들	-11.0285
기금	-11.0286
▁가혹	-11.0286
▁반체제	-11.0287
▁국방위원장	-11.0287
ide	-11.0287
(2	-11.0288
▁집필	-11.0288
▁새겨	-11.0289
▁부활	-11.0289
▁금속	-11.029
▁90%	-11.0292
▁화석	-11.0292
▁가기	-11.0293
▁장거리	-11.0294
▁CD	-11.0294
▁장소에서	-11.0295
▁네바다주	-11.0297
▁처분	-11.0298
▁보조금	-11.0298
▁추문	-11.03
▁한달	-11.03
▁모았다	-11.03
▁대령	-11.0302
▁개설	-11.0304
▁움직임이	-11.0312
▁예선전	-11.0315
▁지나치	-11.0316
▁환수	-11.0317
▁구경	-11.0317
▁밝히며	-11.032
▁아민	-11.0322
▁시청자들	-11.0324
구역	-11.0326
▁피어	-11.0326
▁병사들이	-11.0329
▁지질	-11.0331
▁당일	-11.0332
▁입원했다	-11.0339
▁어디	-11.0339
▁무산	-11.0343
▁가족들에게	-11.0343
▁웨이	-11.0349
옥	-11.0349
▁나체	-11.0351
▁해역	-11.0352
▁증언했다	-11.0355
▁제외하고	-11.0359
▁CDC	-11.036
▁의자	-11.036
재판소	-11.0361
▁된다면	-11.0362
po	-11.0365
▁생각해	-11.0371
▁공무원들	-11.0371
코트	-11.0373
▁대선에	-11.0375
▁탈북자	-11.0375
me	-11.0377
▁바닥에	-11.0382
▁지고	-11.0385
air	-11.0389
▁선원들	-11.0389
▁서한	-11.039
▁선출된	-11.0392
▁밝히기	-11.04
▁과도	-11.04
▁47	-11.0401
87	-11.0402
리나	-11.0406
터키	-11.0412
.6%	-11.0412
스탄	-11.043
▁엠	-11.0431
▁AI	-11.0433
▁같	-11.0436
타스	-11.0443
▁치를	-11.0443
▁조씨	-11.0445
▁일으키는	-11.0445
▁할지	-11.0446
ga	-11.045
▁대회에	-11.045
▁강화할	-11.0451
▁배심원	-11.0451
▁부인하고	-11.0455
베스	-11.0455
▁이송됐다	-11.0461
▁모두에게	-11.0468
비행기	-11.0468
▁대답했다	-11.0468
▁중반	-11.0469
리언	-11.047
▁확인하고	-11.0473
▁착용하	-11.0476
▁돌입	-11.0477
▁상원에서	-11.0479
▁명령했다	-11.0481
퍼스	-11.0486
혐의로	-11.0488
▁롤	-11.0492
▁유지할	-11.0494
▁군중	-11.0499
ame	-11.05
▁대리	-11.0503
ick	-11.0504
▁발표는	-11.0505
▁추락한	-11.0508
▁고수	-11.0513
▁결정이	-11.0516
▁경찰청	-11.0517
▁주말에	-11.0519
발전	-11.0519
예프	-11.0523
▁재판이	-11.0531
▁컨	-11.0531
룩	-11.0532
▁나아	-11.0533
단체가	-11.0534
▁국가인	-11.0535
▁갖기	-11.0536
▁이외	-11.055
▁부르는	-11.055
US	-11.055
73	-11.0551
어졌다	-11.0555
하였으며	-11.0557
▁재선	-11.0558
▁재활	-11.056
▁경제학자	-11.0562
▁부리	-11.0564
▁구제금융	-11.0565
▁180	-11.0574
셉	-11.0574
첩	-11.0574
중이다	-11.0575
셋	-11.0575
즘	-11.0576
ai	-11.0576
▁내셔널	-11.0577
▁military	-11.0577
▁괜찮	-11.0577
▁끊임없	-11.0577
▁뒷받침	-11.0577
▁마이스페이스	-11.0577
▁마케팅	-11.0577
▁애틀랜타	-11.0577
▁에르도간	-11.0577
▁풀려났다	-11.0577
▁호날두	-11.0577
맘	-11.0577
▁기준금리	-11.0577
▁브리트니	-11.0577
▁퇴역	-11.0577
▁1-0	-11.0577
▁좌파	-11.0577
▁나눠	-11.0577
▁전쟁이	-11.0577
▁바바라	-11.0577
▁신용카드	-11.0578
▁요즘	-11.0578
▁램	-11.0578
▁세인트	-11.0578
▁감바	-11.0578
▁밝혔으나	-11.0578
▁무소속	-11.0579
▁화염	-11.0579
▁Day	-11.0579
▁조짐	-11.0579
▁170	-11.058
되었는데	-11.058
▁코스피	-11.0581
▁영광	-11.0581
얼리	-11.0581
▁돌아온	-11.0582
▁월터	-11.0582
▁잡았다	-11.0583
▁도핑	-11.0583
ook	-11.0585
▁제작된	-11.0586
▁한다면	-11.0587
▁레이저	-11.0587
▁대기업	-11.0588
▁때문입니다	-11.0588
▁금연	-11.0588
▁소유권	-11.0589
▁들어온	-11.0589
▁사우스	-11.0589
▁히트	-11.0589
▁나와즈	-11.059
▁타결	-11.059
▁배심원단	-11.0593
▁닭	-11.0594
있으며	-11.0595
▁우승자	-11.0595
▁급진	-11.0596
▁비극	-11.0597
▁배급	-11.0599
9000	-11.0599
ber	-11.0601
▁투자자	-11.0602
이기도	-11.0603
▁멈	-11.0606
▁쉬운	-11.0606
▁당연	-11.0608
▁주주들	-11.061
▁포위	-11.061
36	-11.0611
▁교육부	-11.0611
▁식수	-11.0612
▁헐	-11.0614
▁보좌관들	-11.0616
▁mo	-11.0617
▁리더	-11.0617
▁예정되어	-11.0617
▁내용에	-11.0619
세대	-11.0619
▁대폭	-11.062
▁석방된	-11.0621
▁앞선	-11.0621
지오	-11.0622
▁스카이	-11.0622
▁장기간	-11.0623
▁구간	-11.0627
▁약품	-11.0628
▁하산	-11.0629
▁보호하고	-11.0629
▁여유	-11.0631
▁미치지	-11.0632
▁있었기	-11.0632
▁활동이	-11.0632
▁사회에	-11.0633
▁여아	-11.0635
권이	-11.0636
▁저지르	-11.0637
▁클로	-11.0638
▁전시회	-11.0638
▁복지	-11.0639
▁연방정부	-11.0639
▁77	-11.0642
▁8%	-11.0646
물질	-11.0647
▁참사	-11.0651
축구	-11.0654
▁가자지구에서	-11.0654
▁좋아한다	-11.0655
▁있기를	-11.0655
▁시카고에서	-11.0655
▁의장이	-11.0655
▁발달	-11.0659
▁su	-11.066
또	-11.0661
공장	-11.0666
▁전쟁에서	-11.0671
사람들이	-11.0673
▁확신했다	-11.0673
▁회견에서	-11.0675
관광	-11.0676
포르	-11.0679
▁남기	-11.068
나라	-11.0681
증권	-11.0683
위원장은	-11.0684
▁확인되	-11.0685
▁적극	-11.0687
▁빌리	-11.069
▁반도	-11.0694
▁죽었다	-11.0696
▁나아가	-11.0699
▁칼라	-11.07
▁슛	-11.0707
▁금년	-11.0708
▁여사와	-11.071
인치	-11.0714
▁중심에	-11.0718
▁논의했다	-11.0719
▁독재자	-11.0726
▁적자	-11.0731
가량	-11.0731
▁통신사	-11.0735
▁제공하고	-11.0735
▁파손됐다	-11.0736
▁재판에	-11.0737
41	-11.0737
▁제조업	-11.0738
▁강화하고	-11.0739
였지만	-11.074
▁것이기	-11.0745
▁도주	-11.0748
머리	-11.075
타이거	-11.0757
▁주소	-11.0758
▁78	-11.0762
▁가족에게	-11.0767
▁추락했다	-11.0767
▁일어나고	-11.0769
09	-11.0771
▁판결에	-11.0774
▁에스	-11.0777
▁내리고	-11.0777
시키며	-11.078
▁보도한	-11.0786
▁분쟁이	-11.0789
▁과정에	-11.0791
▁폭로	-11.0792
▁바닥	-11.0793
▁AS	-11.0796
▁성지	-11.0798
▁다수의	-11.0799
▁생산하는	-11.0799
▁전파	-11.0803
조정	-11.0804
민주	-11.0806
up	-11.0808
되었지만	-11.0812
▁관광지	-11.0815
▁76	-11.0816
▁달러로	-11.0816
▁특이	-11.082
▁잃었	-11.0821
▁사임했다	-11.0824
▁러시아와	-11.0824
▁줄이는	-11.0827
▁평양에서	-11.0828
▁요청할	-11.0829
▁국회에	-11.0834
▁확인된	-11.0838
Al	-11.0838
달간	-11.0839
▁작용	-11.0841
▁중계	-11.0844
부족	-11.0844
▁pre	-11.0848
▁사람과	-11.0857
ung	-11.0858
세트에서	-11.0859
▁전임	-11.0861
▁개최된	-11.0866
ub	-11.0867
▁입학	-11.0875
끔	-11.0877
▁득표	-11.0879
▁프랑스와	-11.0879
통신은	-11.088
옐	-11.088
▁Show	-11.088
긋	-11.088
▁가즈프롬	-11.088
▁골든글로브	-11.088
▁끌려	-11.088
▁떨어질	-11.088
▁베탕쿠르	-11.088
▁비즈니스	-11.088
▁시애틀	-11.088
▁썼다	-11.088
▁애니메이션	-11.088
▁엘리베이터	-11.088
▁원자바오	-11.088
▁일으켜	-11.088
▁테러지원국	-11.088
렁	-11.088
▁식민지	-11.088
▁아칸소	-11.088
▁되돌아	-11.088
▁캔자스	-11.088
▁맥케인	-11.088
▁혈액	-11.088
▁양키스	-11.088
▁고릴라	-11.088
▁트로피	-11.088
▁북극곰	-11.088
▁유적지	-11.088
▁인도주의적	-11.088
▁크레이그	-11.088
▁멸종위기	-11.0881
▁몸값	-11.0881
▁숨겨	-11.0881
▁농민	-11.0882
▁떠올	-11.0882
▁가죽	-11.0882
▁차원에서	-11.0882
▁출범	-11.0882
▁적응	-11.0883
▁운반	-11.0883
▁1988	-11.0883
▁군사작전	-11.0883
▁대략	-11.0883
▁저택	-11.0883
▁개념	-11.0884
▁논문	-11.0884
▁폭등	-11.0884
▁남녀	-11.0884
▁패리스	-11.0885
▁역설	-11.0885
▁하여	-11.0886
▁모험	-11.0886
▁참모	-11.0889
▁영감	-11.0889
▁입었으며	-11.089
▁거둔	-11.0891
▁탐사선	-11.0892
▁받아들였다	-11.0895
▁창조	-11.0895
업체들	-11.0896
▁지낸	-11.0897
▁편안	-11.0897
▁평소	-11.09
▁때마다	-11.0901
▁설문	-11.0902
▁그곳에	-11.0902
▁일상	-11.0902
▁입력	-11.0903
▁대원들	-11.0904
▁안된다	-11.0904
▁연방준비제도이사회	-11.0904
▁New	-11.0904
▁겪었다	-11.0906
▁신병	-11.0908
▁1950	-11.0908
▁분실	-11.0908
▁주장했지만	-11.0908
▁기술자	-11.0909
▁줬다	-11.0911
▁관점에서	-11.0911
▁알려주	-11.0912
▁타이어	-11.0917
▁열려	-11.0917
▁팜	-11.0918
있거나	-11.0919
▁베어	-11.0921
▁파문	-11.0921
▁가져다	-11.0922
▁여단	-11.0922
▁조사는	-11.0928
▁여야	-11.0935
▁기권	-11.0937
▁공조	-11.0939
▁폴슨	-11.0941
슬러	-11.0943
▁라파	-11.0945
벨트	-11.0946
▁권위	-11.0948
▁유용	-11.0949
봐야	-11.095
▁3%	-11.0952
▁자정	-11.0954
▁붕괴된	-11.0957
ah	-11.0958
▁선장	-11.096
▁기록하며	-11.0966
▁맹	-11.0967
▁손자	-11.0968
셰	-11.0968
[	-11.0969
아프리카	-11.0971
캔	-11.0972
레즈	-11.0972
알카에다	-11.0973
스페인	-11.0973
페이지	-11.0974
▁끄	-11.0974
섹스	-11.0975
rea	-11.0975
모어	-11.0977
대부분	-11.0983
▁들어가는	-11.0983
▁공학	-11.0984
▁싶어한다	-11.0984
▁안전에	-11.0985
▁이해할	-11.0986
천명	-11.0987
주택	-11.0992
▁원치	-11.0992
작업을	-11.0998
▁명시	-11.0999
시경	-11.1
▁비치	-11.1001
▁요청한	-11.1002
▁dis	-11.1003
▁현지경찰	-11.1004
해져	-11.1009
▁시일	-11.1009
▁물었다	-11.101
탈리아	-11.1011
▁데비	-11.1012
▁사용한다	-11.1013
▁제공하기	-11.1014
59	-11.1017
수준	-11.1021
▁인도네시아에서	-11.1023
▁go	-11.1024
▁요구에	-11.1028
▁열렸	-11.1031
▁필요성을	-11.1045
▁성사	-11.1047
low	-11.1051
▁추구	-11.1054
▁쳐	-11.1057
▁아바	-11.1058
▁미끄러	-11.1063
▁회사에	-11.1064
▁작성한	-11.1067
▁주차	-11.1068
▁FA	-11.1071
▁유지하기	-11.1073
▁루이	-11.1074
▁보였다고	-11.1078
▁지도자들과	-11.1079
▁교전이	-11.1084
▁토레	-11.1086
▁남아있	-11.1093
▁비만	-11.11
▁나타난	-11.1111
▁나빠	-11.1114
▁안나	-11.1117
▁국회의원들	-11.1117
야당	-11.112
▁친척	-11.1128
▁지원하기	-11.1128
▁시위자	-11.1135
▁목적이	-11.1146
▁방문객들	-11.1148
▁이래로	-11.1149
▁부문에서	-11.1149
▁벌어졌	-11.1154
▁관리자	-11.1156
▁조국	-11.116
▁연예	-11.1164
▁에디	-11.1181
day	-11.1183
▁끝나는	-11.1183
▁헤이	-11.1184
쁜	-11.1188
▁중동평화	-11.1189
흡	-11.119
▁2-0	-11.1192
▁구호물품	-11.1192
▁국회의사당	-11.1192
▁다운로드	-11.1192
▁머리카락	-11.1192
▁베어스턴스	-11.1192
▁슬픔	-11.1192
▁에스토니아	-11.1192
▁티셔츠	-11.1192
▁펭귄	-11.1192
▁흰색	-11.1192
홉	-11.1192
▁베이루트	-11.1192
▁have	-11.1192
▁그린피스	-11.1192
▁니케이	-11.1192
▁착취	-11.1192
▁추산했다	-11.1192
▁오렌지	-11.1192
▁대한민국	-11.1193
▁원문기사	-11.1193
▁2008.11	-11.1193
WFP	-11.1193
▁간호사	-11.1193
▁덕분에	-11.1193
2007.07	-11.1193
▁소탕작전	-11.1193
▁맥도날드	-11.1193
▁취득	-11.1193
▁마사지	-11.1193
▁바꿔	-11.1193
▁칭찬	-11.1193
2007.08	-11.1193
2006.02	-11.1193
▁진흙	-11.1193
▁면접	-11.1194
▁동유럽	-11.1194
2006.05	-11.1195
▁troops	-11.1195
▁오늘밤	-11.1195
▁같습니다	-11.1195
▁평화협상	-11.1196
▁명칭	-11.1196
▁발효	-11.1197
▁하얀	-11.1197
▁탈레반과	-11.1198
위원장	-11.12
▁금융시장	-11.12
▁근교	-11.12
2006.10	-11.1201
▁전체에	-11.1203
▁아이돌	-11.1203
▁받았지만	-11.1204
▁기습	-11.1204
▁볼튼	-11.1204
▁모르겠다	-11.1205
▁현행	-11.1207
▁마침	-11.1208
돌프	-11.1208
▁포도	-11.1208
▁플로	-11.1209
▁회부	-11.121
▁인체	-11.121
▁상반기	-11.121
▁외출	-11.1211
▁영원	-11.1215
▁다이애나비	-11.1215
▁죄수	-11.1217
▁테마	-11.1218
▁인기가	-11.1219
▁보호하는	-11.1219
▁코피	-11.122
▁느꼈다	-11.1221
▁조속	-11.1222
▁묘지	-11.1224
▁미셀	-11.1225
▁뒤집	-11.1226
▁예보	-11.1228
▁복수	-11.1228
▁제프리	-11.1228
▁예상보다	-11.1231
▁제압	-11.1236
▁참여하지	-11.1236
▁지도자로	-11.1237
▁격리	-11.1237
▁죽어	-11.1237
▁알렌	-11.1238
하자는	-11.1239
▁호화	-11.1239
▁이룩	-11.124
▁결의안에	-11.1241
나갈	-11.1242
▁시판	-11.1243
▁면제	-11.1244
▁채권	-11.1245
▁적십자사	-11.1245
▁부유	-11.1249
▁기리	-11.1249
▁시달리고	-11.125
▁참석해	-11.125
▁확실하지	-11.125
▁서약	-11.125
▁참여하는	-11.1251
대책	-11.1253
▁과시	-11.1255
▁제방	-11.1259
▁선고받	-11.126
▁줄여	-11.1261
▁지문	-11.1262
▁괴한	-11.1263
▁비유	-11.1264
▁출연해	-11.1266
▁거주지	-11.1266
▁했고	-11.1267
▁2,000	-11.1268
▁폭격기	-11.1269
▁올리고	-11.127
▁전염	-11.1271
▁경제학자들	-11.1272
▁투표할	-11.1273
ext	-11.1277
▁중령	-11.1277
▁머리에	-11.1281
▁주최측은	-11.1283
르트	-11.1284
굴	-11.1288
털	-11.129
▁자크	-11.1293
▁이어질	-11.1294
▁실어	-11.1296
▁OPEC	-11.1297
23	-11.1299
▁제약	-11.1299
니까	-11.13
마이어	-11.1303
▁드립니다	-11.1304
▁상의	-11.1306
▁실력	-11.131
▁불평	-11.1312
▁오프라	-11.1313
▁정치적으로	-11.1314
▁15%	-11.1316
배우	-11.1327
▁청년	-11.1331
▁행사에서	-11.1332
▁성전	-11.1332
▁당국과	-11.1342
▁아크	-11.1343
▁For	-11.1346
▁사제	-11.1347
▁정신과	-11.1347
적이며	-11.1348
▁인정한	-11.135
투어	-11.1355
▁불화	-11.1355
▁제일	-11.136
론자들	-11.1369
▁김씨	-11.1369
로서는	-11.1375
스틴	-11.1383
해졌	-11.1398
▁가한	-11.14
략	-11.1404
▁건수	-11.1405
▁심사	-11.1405
▁나간	-11.1406
▁미만	-11.1412
▁어머니와	-11.1413
구간	-11.1424
하르	-11.1425
▁클리	-11.1426
▁선언한	-11.1428
▁지구에서	-11.1434
NU	-11.1434
▁킨	-11.1437
버릴	-11.1439
▁몽	-11.1442
리틀	-11.1444
▁no	-11.1445
▁감시단	-11.1449
살인	-11.1451
▁전설	-11.1451
▁속한	-11.1454
▁서울에	-11.1461
▁유니	-11.1463
▁회원들	-11.1464
▁미치	-11.1466
기위해	-11.147
회의에서	-11.1471
En	-11.1473
▁중단하고	-11.1479
▁마을에	-11.1481
92	-11.1481
▁미시간	-11.1484
▁열정	-11.1491
AU	-11.1493
▁자금이	-11.1497
ust	-11.1498
▁부통령이	-11.1501
융	-11.151
쁘	-11.1511
▁풀려	-11.1513
▁참석하기	-11.1513
스트리트	-11.1515
▁AFP	-11.1515
▁Secretary	-11.1515
▁로스앤젤레스	-11.1515
▁모가디슈	-11.1515
▁뮌헨	-11.1515
▁불렀다	-11.1515
▁상관없이	-11.1515
▁오케스트라	-11.1515
▁유니세프	-11.1515
▁이르기까지	-11.1515
▁이르렀다	-11.1515
▁재확인	-11.1515
▁정해지지	-11.1515
▁칸다하르	-11.1515
▁트라볼타	-11.1515
▁항생제	-11.1515
▁황우석	-11.1515
▁매머드	-11.1515
▁무너져	-11.1515
▁브리티시	-11.1515
▁집무실	-11.1515
▁어두운	-11.1515
▁되풀이	-11.1515
▁대주교	-11.1515
▁유조선	-11.1515
▁중산층	-11.1515
마누엘	-11.1515
▁국가주석	-11.1515
▁세비야	-11.1515
▁흐름	-11.1515
▁브루스	-11.1515
▁효력	-11.1516
▁히드로	-11.1516
사령부	-11.1516
(25)	-11.1516
▁맞붙	-11.1516
▁잔혹	-11.1516
▁크로커	-11.1516
▁벌어들	-11.1516
▁캐롤	-11.1517
▁침범	-11.1517
▁공군기지	-11.1517
▁가속화	-11.1518
▁1981	-11.1519
▁다행히	-11.1521
▁밤새	-11.1522
▁피닉스호	-11.1523
▁염려	-11.1524
▁풍선	-11.1525
▁1/4	-11.1526
▁2011	-11.1526
▁가축	-11.1527
▁아기들	-11.1527
▁라이프	-11.1527
▁다녀	-11.1529
▁감량	-11.1529
▁계열사	-11.153
▁가결	-11.1531
▁요새	-11.1532
▁패한	-11.1532
▁사용하기	-11.1533
▁없었던	-11.1533
▁난동	-11.1533
▁제패	-11.1534
▁놓여	-11.1536
▁인계	-11.1536
▁줄이고	-11.1538
더미	-11.1538
직에서	-11.154
▁정치범	-11.154
▁폐기물	-11.1542
▁레이더	-11.1543
▁프린스	-11.1544
▁정상회의	-11.1545
▁우리베	-11.1547
▁크로아티아	-11.1548
▁소란	-11.155
시켜야	-11.1551
▁정교	-11.1551
▁지니	-11.1551
전문	-11.1552
▁장기적	-11.1552
▁천문학자들	-11.1557
▁되었습니다	-11.156
▁페르	-11.156
공항	-11.1563
▁초래	-11.1563
▁개최되	-11.1566
▁입구	-11.1567
▁닐	-11.1567
▁방치	-11.1571
▁감원	-11.1571
▁전송	-11.1576
무라	-11.1578
▁연방수사국	-11.1578
▁나란	-11.158
▁채우	-11.1582
다리	-11.1582
▁자라	-11.1583
▁비전	-11.1584
▁걸었다	-11.1584
▁의원들에게	-11.1585
▁BDA	-11.1585
▁노동부	-11.1587
▁성공회	-11.1592
▁정오	-11.1593
▁버전	-11.1594
▁똑	-11.1596
▁검토하	-11.1597
86	-11.1597
▁63	-11.1597
▁1200	-11.1598
▁개인적으로	-11.16
▁경찰에따르면	-11.1601
▁시계	-11.1603
▁81	-11.1605
▁대조	-11.1608
son	-11.1608
▁말하면서	-11.1608
▁제공해	-11.1612
주기	-11.1615
▁세기	-11.1617
▁국정	-11.1618
▁사업가	-11.1618
ise	-11.162
렌스	-11.162
▁확보했다	-11.1621
▁덕	-11.1623
톱	-11.1625
▁한쪽	-11.1625
▁조사하기	-11.1628
▁넣어	-11.1628
FARC	-11.1628
공화국	-11.163
아메리카	-11.163
검찰	-11.163
개혁	-11.1631
방안	-11.1632
▁시위로	-11.1635
NS	-11.1637
▁경기도	-11.1638
▁팔려	-11.1639
사람들은	-11.164
▁선정됐다	-11.164
▁서명했다	-11.1646
▁프레드	-11.1647
▁do	-11.1647
act	-11.1655
▁부상자들	-11.1656
▁결승전	-11.1658
▁신도	-11.166
▁가정에	-11.166
Po	-11.1661
▁기소했다	-11.1661
▁허위	-11.1662
무역	-11.1662
▁all	-11.1662
▁공부	-11.1663
▁바다로	-11.1668
▁총격으로	-11.1669
part	-11.1675
▁위협했다	-11.1676
▁모스크바에서	-11.1678
▁기적	-11.1679
베라	-11.168
▁증진	-11.1682
▁수만명	-11.1683
=	-11.1683
▁가서	-11.1685
▁To	-11.1688
▁장악하	-11.169
▁제트	-11.169
▁해외에서	-11.1692
▁사진들	-11.1699
▁단계에	-11.1701
그린	-11.1701
▁정보국	-11.1702
▁시작되	-11.1707
▁동맹국들	-11.1708
▁동해	-11.1708
▁미소	-11.171
▁주교	-11.171
▁고려해	-11.1713
▁관계자들과	-11.1714
▁출전한	-11.1717
▁시점에서	-11.1719
▁아내와	-11.1719
▁차관보	-11.1719
▁당국자	-11.1719
▁증인	-11.1721
군데	-11.1736
▁금지하고	-11.1737
▁학생들과	-11.1738
▁탈출했다	-11.1739
▁공격수	-11.1743
▁지지도	-11.1745
▁기자들이	-11.1746
▁캔	-11.1747
▁우드	-11.1747
NA	-11.1751
놓고	-11.1757
▁Be	-11.1758
▁지수가	-11.1759
▁ex	-11.176
파크	-11.177
▁주가가	-11.177
있던	-11.1773
▁효율적	-11.1781
시까지	-11.1782
▁힐튼이	-11.1782
▁라이브	-11.1784
▁지지율이	-11.1787
▁보내기	-11.1789
▁주인이	-11.1795
▁참가했다	-11.1796
33	-11.1796
▁등급	-11.1797
▁혼란에	-11.1806
▁가려	-11.181
▁불가피	-11.1816
▁판결했다	-11.1818
학년	-11.1822
스럽다	-11.1825
▁드는	-11.1833
▁오픈에서	-11.1844
▁광우병	-11.1848
▁글래스고	-11.1848
▁상파울루	-11.1848
▁싶었	-11.1848
▁야스쿠니	-11.1848
▁왕복선	-11.1848
▁잃지	-11.1848
▁좋게	-11.1848
▁카자흐스탄	-11.1848
▁커뮤니티	-11.1848
down	-11.1848
▁Foreign	-11.1848
▁수퍼대의원	-11.1848
▁스튜어트	-11.1848
▁우주정거장	-11.1848
▁인종차별	-11.1848
윗	-11.1848
킴	-11.1848
▁당나귀	-11.1848
▁몸무게	-11.1848
▁무너진	-11.1848
▁부작용	-11.1848
▁예언자	-11.1848
▁마라도나	-11.1848
▁카지노	-11.1848
인디아나	-11.1848
▁닉슨	-11.1849
▁교과서	-11.1849
▁모로코	-11.1849
▁쇼핑몰	-11.1849
▁동북아	-11.1849
▁State	-11.1849
▁수비수	-11.1849
▁힌두교	-11.185
▁양육권	-11.185
▁있었는지	-11.185
▁침투	-11.185
▁연휴	-11.1851
▁도와주	-11.1851
▁쿠르드족	-11.1851
▁높아졌다	-11.1851
▁농담	-11.1851
▁필리스	-11.1852
▁활기	-11.1852
▁풍경	-11.1852
▁호킹	-11.1853
▁회색	-11.1853
▁임박	-11.1853
ISS	-11.1853
▁연극	-11.1853
줘야	-11.1854
▁워너	-11.1854
▁유효	-11.1854
▁회피	-11.1855
▁하더라도	-11.1855
▁버튼	-11.1856
▁할아버지	-11.1856
▁재벌	-11.1857
▁헌신	-11.1858
코드	-11.186
▁침수	-11.186
▁토양	-11.186
▁지닌	-11.1861
▁가자지구에	-11.1861
▁자바	-11.1861
▁900	-11.1861
▁종양	-11.1861
학자들	-11.1861
▁국무장관이	-11.1862
▁추출	-11.1863
▁기름	-11.1865
▁지속될	-11.1865
▁번지	-11.1865
▁아시	-11.1865
▁조종	-11.1865
▁나가는	-11.1865
▁극단주의자들	-11.1865
▁후퇴	-11.1866
▁차림	-11.1867
▁베스트	-11.1868
▁전대통령	-11.1869
▁복사	-11.1869
▁말하지	-11.187
▁부른	-11.187
▁이례적	-11.1871
▁구단주	-11.1871
▁책정	-11.1871
▁일축했다	-11.1871
▁크고	-11.1873
▁유예	-11.1875
▁환경에	-11.1876
▁소식통들	-11.1879
▁꺼	-11.1884
▁교량	-11.1885
▁문신	-11.1886
▁감면	-11.1886
▁재발	-11.1887
▁구형	-11.1887
▁강연	-11.1887
▁확실하다	-11.1888
▁협상단	-11.1893
▁소방관	-11.1897
▁본국	-11.1909
▁보낸다	-11.1909
▁동전	-11.1911
▁지키기	-11.1911
▁특별히	-11.1915
▁면적	-11.1917
느냐	-11.1918
▁수십억	-11.1918
폴리스	-11.1922
만여	-11.1925
▁누르고	-11.1931
line	-11.1936
▁설치된	-11.1937
아이들	-11.1938
라트	-11.1938
▁녹화	-11.194
시민	-11.1942
▁포기했다	-11.1942
▁장려	-11.1944
▁파손되	-11.1944
ore	-11.1949
▁통일	-11.195
ever	-11.1951
내려	-11.1958
▁수용할	-11.1959
▁2009.01	-11.196
빛	-11.1969
죽	-11.1969
UEFA	-11.1972
CIA	-11.1973
코스	-11.1973
▁벌어지고	-11.1977
▁취임한	-11.1978
▁추진하고	-11.1978
시키는데	-11.1979
▁변호사들	-11.1986
▁물리치	-11.1989
ile	-11.1993
▁여자아이	-11.2001
잡지	-11.2002
▁시작되었다	-11.2006
▁발리	-11.2009
국가들	-11.2012
▁군부대	-11.2012
연구원	-11.2013
노프	-11.2015
▁포함된다	-11.2016
▁시작되는	-11.2019
74	-11.2024
여부	-11.2025
▁이베이	-11.2026
▁인명	-11.2026
▁향했다	-11.2026
▁연기했다	-11.2031
▁구상	-11.2033
일째	-11.2036
▁표현했다	-11.204
▁군복	-11.2041
▁경찰서에	-11.2042
▁해명	-11.2043
그러	-11.2044
피아	-11.2045
▁과장	-11.2045
▁무장대원들	-11.2048
▁중상	-11.2048
▁돌리	-11.2051
전문가	-11.2053
▁Mo	-11.2054
▁가할	-11.2058
지도자	-11.206
사단	-11.2063
▁학위	-11.2064
▁밝혔었	-11.2064
▁반지	-11.2067
데르	-11.2068
▁북부지역	-11.207
▁호위	-11.2071
▁세관	-11.2072
are	-11.2072
▁독자	-11.2079
▁문자	-11.2079
▁시상식에서	-11.2083
▁비교해	-11.2089
ger	-11.2089
▁시설에	-11.2089
▁아이들에게	-11.2091
▁사이트에	-11.2094
▁파일	-11.2098
07	-11.21
▁측면	-11.2108
42	-11.2115
▁취소됐다	-11.2118
▁확인해	-11.2118
▁74	-11.2119
81	-11.2127
▁의혹에	-11.2131
▁산악	-11.2141
tic	-11.2146
▁구하기	-11.215
▁호흡	-11.2151
차관	-11.2151
▁감옥에	-11.2158
▁보호할	-11.2159
▁펜실베니아	-11.2167
▁지냈	-11.2174
▁윤리	-11.2174
▁모욕	-11.2176
▁신문에	-11.2176
▁루이지애나	-11.218
▁매사추세츠	-11.2182
▁가난	-11.2183
줘	-11.2188
▁승자	-11.2188
▁시위대와	-11.2188
샬	-11.2189
멍	-11.2191
삭	-11.2192
텍	-11.2193
&#8226;	-11.2193
▁Party	-11.2193
▁protest	-11.2193
▁났다	-11.2193
▁뉴캐슬	-11.2193
▁동계올림픽	-11.2193
▁매코맥	-11.2193
▁맥코맥	-11.2193
▁미드필더	-11.2193
▁세계보건기구	-11.2193
▁악영향	-11.2193
▁암스트롱	-11.2193
▁촛불	-11.2193
▁친선경기	-11.2193
▁포괄적	-11.2193
돔	-11.2193
엽	-11.2193
▁도널드	-11.2193
▁빠뜨	-11.2193
넥	-11.2193
랫	-11.2193
▁아스널	-11.2193
▁제니퍼	-11.2193
▁종신형	-11.2193
▁총기난사	-11.2193
▁바쿠바	-11.2193
▁흥행	-11.2193
PML	-11.2193
▁안락사	-11.2193
▁3-0	-11.2193
▁린제이	-11.2193
▁election	-11.2193
▁여파로	-11.2193
▁하트	-11.2193
▁꼬리	-11.2194
▁중서부	-11.2194
▁퇴장	-11.2194
▁속옷	-11.2194
2006.06	-11.2194
▁기후변화	-11.2194
▁수하물	-11.2194
▁둘째	-11.2194
▁계곡	-11.2194
▁도미니카	-11.2195
2008.06	-11.2195
▁여배우	-11.2195
역대	-11.2195
▁환경보호	-11.2196
▁Kim	-11.2196
▁내장	-11.2196
▁대피령	-11.2197
▁뒤따	-11.2197
ncy	-11.2197
▁허블	-11.2198
▁면역	-11.2198
▁만찬	-11.2198
▁몰래	-11.2198
▁승객들이	-11.2198
▁정보기관	-11.2198
▁연방법원	-11.2199
▁받았으나	-11.2199
2006.12	-11.2199
▁품질	-11.22
▁불안감	-11.22
▁성행위	-11.2201
▁맹세	-11.2201
▁국가안보	-11.2201
▁아끼	-11.2201
▁아닐	-11.2202
▁존드로	-11.2203
▁복권	-11.2203
▁피셔	-11.2203
▁해킹	-11.2203
▁외교관계	-11.2206
▁배제하지	-11.2206
▁격려	-11.2207
▁공백	-11.2209
▁식물	-11.2209
▁USA	-11.221
▁가르치	-11.221
▁취약	-11.221
▁과실	-11.2211
▁교토	-11.2215
▁산악지역	-11.2215
▁코너	-11.2219
▁후보들은	-11.2222
밀리에	-11.2222
자회담에	-11.2225
▁크라우	-11.2226
▁청소년들	-11.2233
▁버진	-11.2234
▁대학살	-11.2235
▁알았다	-11.2236
▁둔화	-11.2236
▁붐	-11.2237
▁산타클로스	-11.2237
▁성경	-11.2238
▁일반적인	-11.2242
▁혼다	-11.2243
▁생겼다	-11.2243
▁남미	-11.2245
▁결장	-11.2246
▁선거전	-11.2248
▁요트	-11.2251
▁아카데미상	-11.2251
▁도시로	-11.2254
▁빙	-11.2255
▁아이티	-11.2259
▁말했지만	-11.2263
▁효율	-11.2263
▁운하	-11.2263
▁Center	-11.2269
▁아이들과	-11.227
▁돌보	-11.2272
▁leader	-11.2276
▁여기서	-11.2276
▁아사	-11.2277
▁홀리	-11.2277
▁장악한	-11.2279
▁총선에	-11.228
▁생존자들	-11.2281
▁빗	-11.2285
▁포기하지	-11.2286
▁리서치	-11.2293
DR	-11.2293
▁짜	-11.2293
▁기반으로	-11.2299
▁숨기	-11.23
▁단서	-11.23
아웃	-11.2302
▁파악하	-11.2303
일에도	-11.2303
▁사정	-11.2305
▁광대	-11.2311
▁단일	-11.2313
▁끈	-11.2317
▁현안	-11.2318
▁칼로	-11.2318
bu	-11.2319
▁67	-11.2319
▁저널	-11.2321
▁만나기	-11.2324
▁부진	-11.2324
▁25%	-11.2325
FRB	-11.2329
▁comm	-11.233
책임자	-11.233
▁관료	-11.2334
▁연예인	-11.2336
2008	-11.2338
등급	-11.2341
▁부장관	-11.2341
▁캐리	-11.2344
▁강진	-11.2347
폭력	-11.2349
해진다	-11.235
▁7%	-11.2351
재판	-11.2353
AT	-11.2353
▁당국자는	-11.2354
▁환영했다	-11.2366
모두	-11.2367
▁이해하	-11.2374
▁350	-11.2376
▁피의자	-11.2379
▁du	-11.238
▁유입	-11.2384
▁어린이들이	-11.2389
▁시작해	-11.2391
비행	-11.2392
▁동부지역	-11.2397
▁손님	-11.2404
▁있었	-11.2412
▁지연되	-11.2413
▁기한	-11.2416
▁있었을	-11.2416
▁광부들	-11.2418
▁듯한	-11.2419
병력	-11.2421
▁처음에	-11.2429
▁민주당원	-11.243
▁유세에서	-11.2434
▁공세	-11.2435
▁중단시키	-11.2456
역사	-11.2458
▁새해	-11.2465
▁장소로	-11.2467
방위	-11.2471
▁반대했다	-11.2471
ator	-11.2474
▁얼음이	-11.2475
▁공산	-11.2475
▁들었	-11.2479
▁페레	-11.248
▁주지사와	-11.2482
▁남편과	-11.2488
ney	-11.2489
▁움직임에	-11.2495
▁일으켰	-11.2497
the	-11.25
▁추정되	-11.2515
▁부근에	-11.2519
왔지만	-11.2519
겠	-11.252
▁경영자	-11.2521
▁불확실	-11.2522
▁조사단	-11.2524
▁제공한다	-11.2528
32	-11.2532
헤드	-11.254
픈	-11.2542
뒀	-11.2547
얄	-11.2549
흙	-11.2549
▁이루어	-11.2549
•	-11.255
▁House	-11.255
▁모하마드	-11.255
▁미네소타	-11.255
▁사형집행	-11.255
▁생중계	-11.255
▁슈워제네거	-11.255
▁승용차	-11.255
▁않았을	-11.255
▁오키나와	-11.255
▁유럽축구연맹	-11.255
▁재정경제부	-11.255
▁침팬지	-11.255
▁탔다	-11.255
▁터미널	-11.255
▁퍼트레이어스	-11.255
▁펼칠	-11.255
▁피추시킨	-11.255
▁호르몬	-11.255
▶	-11.255
뻔	-11.255
헴	-11.255
7,000	-11.255
▁냄새	-11.255
▁클루니	-11.255
팍	-11.255
▁뉴욕타임스	-11.255
▁갤런당	-11.255
▁깃발	-11.255
▁페이스북	-11.255
▁북동쪽	-11.255
NEW	-11.255
▁첨단	-11.255
▁지중해	-11.255
▁영부인	-11.255
▁염두	-11.255
▁앗아	-11.255
(32)	-11.2551
▁북서쪽	-11.2551
▁미망인	-11.2551
▁방사능	-11.2551
▁무하메드	-11.2551
▁노왁	-11.2551
▁같았다	-11.2551
▁타이완	-11.2552
illion	-11.2552
▁패널	-11.2553
2006.07	-11.2553
▁공략	-11.2553
▁동영상에	-11.2553
▁알자와히리	-11.2553
▁say	-11.2553
▁면밀	-11.2553
▁2005.1	-11.2554
▁녹색	-11.2554
▁메이저	-11.2554
▁조셉	-11.2554
▁완공	-11.2555
▁나쁘	-11.2555
새로	-11.2555
▁페리노	-11.2555
▁밀림	-11.2556
▁왔습니다	-11.2556
2007.10	-11.2556
▁교황청	-11.2557
▁라틴	-11.2557
▁준장은	-11.2557
리프	-11.2557
fire	-11.2557
▁요격	-11.2557
▁주치의	-11.2557
▁항복	-11.2557
▁냉전	-11.2558
▁어디서	-11.256
▁건립	-11.256
▁787	-11.256
▁제라드	-11.2561
▁적대적	-11.2561
▁토론토	-11.2561
▁행방	-11.2562
자회담에서	-11.2562
▁변함	-11.2563
놨다	-11.2563
▁세균	-11.2563
tions	-11.2564
▁총알	-11.2565
▁들리	-11.2565
▁발목	-11.2565
▁강사	-11.2566
▁어려워	-11.2567
▁타입	-11.2567
▁번역	-11.2568
▁크리스티나	-11.257
▁병역	-11.2571
▁중단하라	-11.2572
▁후보에게	-11.2574
▁비준	-11.2575
▁탄약	-11.2576
▁우연	-11.2577
▁미하	-11.2578
imp	-11.2579
▁대피소	-11.2579
▁사법부	-11.258
▁보상금	-11.2582
▁정통	-11.2584
▁통역	-11.2585
▁진행됐다	-11.2588
▁무장괴한	-11.259
▁off	-11.2597
▁제트기	-11.2599
▁유포	-11.2599
▁그럼	-11.2599
▁누드	-11.26
워진	-11.2601
▁순찰대	-11.2602
브리지	-11.2602
▁빵	-11.2604
▁갖는다	-11.2604
▁자리잡고	-11.2608
ors	-11.2611
▁브레	-11.2611
▁임명된	-11.2614
나갔다	-11.2615
▁무시하고	-11.2616
단지	-11.2616
▁않자	-11.2617
▁하나이다	-11.262
▁많지	-11.2621
▁인도에서	-11.2624
▁임원	-11.2625
▁그라운드	-11.2626
▁독일에서	-11.2627
▁110	-11.2629
▁팬들에게	-11.2629
▁고마	-11.2632
▁그쳤다	-11.2632
▁신고했다	-11.2632
00	-11.2634
ical	-11.2635
▁Sa	-11.2636
▁기내	-11.2637
▁로라	-11.2637
▁군용	-11.2641
▁상승으로	-11.2642
▁전례	-11.2643
▁자선	-11.2654
사이드	-11.2658
▁사회주의	-11.2658
비오	-11.2659
▁발부	-11.266
바다	-11.2663
▁확인하는	-11.2664
▁든다	-11.267
▁기자들과	-11.2672
▁광장에	-11.2674
-5	-11.2677
ease	-11.2678
카트	-11.2679
▁지속된	-11.2679
▁신비	-11.2679
대통령은	-11.2686
짐	-11.2691
▁IT	-11.2692
▁집안	-11.2692
▁고고학자들	-11.2695
OS	-11.2697
NATO	-11.2699
쥐	-11.27
미얀마	-11.2701
민족	-11.2707
▁묘	-11.2714
▁제품에	-11.2715
아시아	-11.272
▁미친	-11.272
▁지표	-11.273
▁가하고	-11.2731
▁피해지역	-11.2732
▁다음과	-11.2737
▁불안한	-11.2738
▁동일	-11.2752
▁소유자	-11.2761
었기	-11.2762
▁지역이다	-11.2763
꾼	-11.2763
▁반군과	-11.2766
학회	-11.2767
▁금지하는	-11.2768
▁우주인	-11.2779
▁장관들	-11.2779
사르	-11.2785
▁목격한	-11.2796
AS	-11.2796
▁근무하	-11.2797
▁공원에서	-11.2798
▁국가들과	-11.2799
▁예상되는	-11.2801
버렸	-11.2806
요원들	-11.2808
ther	-11.281
▁제안한	-11.2814
▁제조사	-11.2821
그녀는	-11.2824
▁반대한다	-11.2831
제작	-11.2832
34	-11.2836
법에따라	-11.2841
프린	-11.2843
▁관광객들은	-11.2848
▁KT	-11.2852
▁방한	-11.2853
▁싶어하	-11.2853
만여명	-11.2863
처리	-11.2868
La	-11.2873
▁전설적	-11.2874
▁부탁	-11.2876
▁박탈	-11.2876
▁적합	-11.2879
▁수행한	-11.2889
어지고	-11.2891
▁물리	-11.2894
red	-11.2901
디어	-11.2903
▁86	-11.2905
▁걸려있	-11.2906
▁지르	-11.2908
ner	-11.2909
▁재미	-11.2911
▁편집자	-11.2912
▁피닉스	-11.2912
▁줄기	-11.2916
엇	-11.2917
▁갑작스	-11.2917
▁명에	-11.292
뮤	-11.2921
▁200806.0	-11.2921
▁그루지아	-11.2921
▁그루지야	-11.2921
▁넘어섰다	-11.2921
▁놀랐다	-11.2921
▁만장일치	-11.2921
▁메사추세츠	-11.2921
▁박테리아	-11.2921
▁없기	-11.2921
▁캠벨	-11.2921
▁캥거루	-11.2921
▁케르비엘	-11.2921
▁클리블랜드	-11.2921
▁탈라바니	-11.2921
▁프로듀서	-11.2921
둬	-11.2921
띠	-11.2921
믹	-11.2921
셈	-11.2921
팰	-11.2921
International	-11.2921
▁work	-11.2921
▁마흐무드	-11.2921
▁벨몬트	-11.2921
▁블룸버그	-11.2921
▁김계관	-11.2921
▁스피처	-11.2921
▁오징어	-11.2921
▁이스탄불	-11.2921
▁겁니다	-11.2921
▁앙겔	-11.2921
▁비영리	-11.2921
▁실업수당	-11.2921
▁셰이크	-11.2921
▁피아노	-11.2921
▁year	-11.2921
▁닥터	-11.2921
▁셔츠	-11.2921
▁다뤄	-11.2921
▁월드시리즈	-11.2921
▁뉴멕시코	-11.2921
▁자서전	-11.2921
▁흡수	-11.2921
▁김선일	-11.2921
▁하리리	-11.2921
▁습관	-11.2921
▁빨간색	-11.2922
2007.05	-11.2922
▁구조조정	-11.2922
▁무엇인지	-11.2923
▁전염병	-11.2923
▁심사위원	-11.2923
▁압승	-11.2923
▁디스커버리호	-11.2923
▁후계자	-11.2923
▁불쾌	-11.2924
▁두뇌	-11.2924
▁간섭	-11.2924
▁다짐	-11.2925
▁모르지만	-11.2925
▁평결	-11.2925
▁꽤	-11.2925
▁국영방송	-11.2926
▁영입	-11.2926
▁평범	-11.2926
▁격추	-11.2926
▁사마라	-11.2927
▁선데이	-11.2927
▁놓았다	-11.2927
▁올랐으며	-11.2927
▁결백	-11.2928
▁데니스	-11.2929
▁벌금형	-11.2929
▁감추	-11.293
▁악재	-11.293
천억	-11.2931
▁남았다	-11.2931
▁LG	-11.2931
▁국왕이	-11.2932
▁안겨	-11.2933
▁담겨있다	-11.2933
▁시도한	-11.2935
▁고백	-11.2935
▁장관급	-11.2936
▁참전	-11.2937
▁곡물	-11.2937
▁육상	-11.2938
▁국토	-11.2938
▁주어진	-11.2938
▁잠재	-11.2939
▁생각합니다	-11.2939
▁분출	-11.294
▁지침	-11.2943
▁악화될	-11.2943
▁보았다	-11.2944
▁독점	-11.2944
▁공개되지	-11.2945
▁것이냐	-11.2948
▁벽에	-11.2949
▁공통	-11.295
▁걸프	-11.2951
▁면에서	-11.2952
▁십대	-11.2953
▁초래할	-11.2955
▁서버	-11.2955
▁부인과	-11.2957
▁불가피하다	-11.2957
▁기초	-11.2958
▁소감	-11.2959
▁건물에서	-11.2959
▁이용하여	-11.296
▁아버지와	-11.2962
▁공방	-11.2963
천억원	-11.2965
▁사무실에서	-11.2966
▁안건	-11.2968
클레	-11.2968
▁주당	-11.2972
▁위에서	-11.2973
▁법정에	-11.2975
▁안심	-11.2976
하려면	-11.2976
▁개조	-11.2985
▁상정	-11.2986
▁과도한	-11.2992
▁장착된	-11.2993
▁조카	-11.2996
▁리타	-11.2997
▁파견된	-11.2998
▁비방	-11.3
▁콩	-11.3007
▁위치하	-11.3011
▁발생했던	-11.3011
▁측에	-11.3012
회장	-11.3013
▁암살된	-11.3013
▁인적	-11.3014
일만에	-11.3019
▁지목했다	-11.3024
▁들어있는	-11.3025
▁상아	-11.3027
▁샘	-11.3027
제국	-11.3027
▁상태였다	-11.3028
▁납치됐다	-11.3029
부문	-11.3032
▁도쿄에서	-11.3033
총리는	-11.3039
sk	-11.3042
Pro	-11.3046
▁사원에서	-11.305
▁환영한다	-11.3052
▁칩	-11.3054
▁유아	-11.306
ling	-11.3061
조지	-11.3067
▁보여주기	-11.3069
▁오해	-11.3071
▁고려할	-11.3072
▁교회에서	-11.3075
꾸	-11.3077
묘	-11.3081
헬	-11.3081
노동	-11.3082
▁다음으로	-11.3083
탐	-11.3085
떨어진	-11.3086
▁이겨	-11.3088
미사일	-11.3089
경기장	-11.3089
▁여진이	-11.309
▁맡아	-11.3091
레이트	-11.3092
no	-11.3092
▁것이지만	-11.3094
▁모르고	-11.3094
처음	-11.3095
▁폐쇄했다	-11.3096
▁관해서	-11.3098
장애	-11.3108
대사관	-11.3111
▁예비선거	-11.3133
▁내게	-11.3136
▁이사는	-11.3137
▁단기	-11.3146
▁웹사이트에서	-11.3158
▁분리주의	-11.3158
시기	-11.316
리노	-11.316
▁국민에게	-11.3162
▁유지하는	-11.3164
▁떨어지는	-11.3164
▁이탈	-11.3165
실장	-11.3168
▁경제학	-11.3171
▁그때	-11.3173
▁개최지	-11.3175
▁목소리로	-11.3178
ern	-11.3184
▁릭	-11.3187
빌리	-11.3189
▁[	-11.3192
▁85	-11.3195
▁실직	-11.3198
과정에서	-11.32
▁일상적	-11.3205
▁전략적	-11.3213
▁핀	-11.3216
▁양상	-11.3221
대학교	-11.3221
▁안되	-11.3223
▁통상	-11.3243
▁공개할	-11.3244
▁미트	-11.3244
▁녹아	-11.3248
▁진행할	-11.3252
▁치명적	-11.3261
▁시리아와	-11.3261
용의자	-11.3263
▁8000	-11.3266
▁펼쳤	-11.3274
졌지만	-11.3279
land	-11.3291
▁대장	-11.33
▁머무	-11.33
렬	-11.3303
버거	-11.3303
쇠	-11.3303
▁논의하고	-11.3303
4,000	-11.3305
▁first	-11.3305
▁과테말라	-11.3305
▁구스마오	-11.3305
▁높였다	-11.3305
▁늘어났다	-11.3305
▁댈러스	-11.3305
▁알렉산드	-11.3305
▁애틀란타	-11.3305
▁에탄올	-11.3305
▁여동생	-11.3305
▁인플루엔자	-11.3305
▁자메이카	-11.3305
▁조선중앙통신	-11.3305
겹	-11.3305
무장혁명군	-11.3305
▁Court	-11.3305
▁YORK	-11.3305
▁agree	-11.3305
▁나타낸	-11.3305
▁따돌리	-11.3305
▁세실리아	-11.3305
▁수하르토	-11.3305
▁열렬한	-11.3305
▁정동영	-11.3305
▁토마토	-11.3305
▁뉴욕증시	-11.3305
▁애쓰고	-11.3305
▁좌익	-11.3305
▁비공개	-11.3305
▁검찰총장	-11.3305
▁이벤트	-11.3305
▁하반기	-11.3305
▁검출	-11.3305
(23)	-11.3306
▁터뜨	-11.3306
▁러셀	-11.3306
▁결렬	-11.3306
▁ETA	-11.3307
▁과잉	-11.3307
▁코미디언	-11.3307
▁열쇠	-11.3307
▁돌아갔다	-11.3307
▁혼합	-11.3307
▁호주오픈	-11.3307
▁참패	-11.3308
▁태양열	-11.3308
2006.09	-11.3308
▁레논	-11.3308
▁펠리	-11.3308
▁노리에가	-11.3308
▁블록	-11.3308
▁연합뉴스	-11.3309
▁뜨거	-11.3309
▁주장해	-11.3309
▁메뉴	-11.3309
▁냉동	-11.3309
▁워커	-11.3309
▁계층	-11.3311
▁유혹	-11.3311
▁이른바	-11.3311
▁글렌	-11.3311
▁삼림	-11.3311
▁설교	-11.3312
▁밀집	-11.3312
▁당장	-11.3313
▁머피	-11.3313
▁영예	-11.3313
▁규명	-11.3314
▁사진기자	-11.3314
▁광경	-11.3315
▁매춘부	-11.3317
▁제이미	-11.3317
▁바퀴	-11.3317
▁방북	-11.3317
▁연이	-11.3318
▁메달	-11.3318
▁지폐	-11.3319
▁만든다	-11.332
▁80%	-11.332
▁폭풍우	-11.3321
▁도왔다	-11.3324
▁SK	-11.3325
순위	-11.3326
▁격분	-11.3326
▁맡게	-11.3327
▁시술	-11.3328
아주	-11.333
▁시도했다	-11.333
▁농구	-11.3331
▁악성	-11.3331
▁올릴	-11.3332
▁거주자	-11.3333
▁당원	-11.3335
▁부각	-11.3336
▁야간	-11.3336
▁오락	-11.3336
▁홈페이지에	-11.3337
▁석상	-11.3338
▁위법	-11.3338
▁국면	-11.3339
▁자매	-11.3339
▁자유당	-11.3339
▁가두	-11.3339
▁장난	-11.334
▁노동력	-11.3343
▁시범	-11.3343
▁발견돼	-11.3343
▁감옥	-11.3346
▁대도시	-11.3349
반군	-11.3351
▁방위	-11.3352
▁내주	-11.3353
▁호흡기	-11.3355
▁비자금	-11.3362
▁우파	-11.3363
총리	-11.3366
분기에	-11.3366
▁미니	-11.3367
▁레저	-11.3372
▁방문객	-11.3373
▁9%	-11.3377
▁구제안	-11.3377
▁경위	-11.3379
▁후임자	-11.3387
▁마련하기	-11.339
▁각료	-11.3391
ting	-11.3394
▁결과에따르면	-11.3396
년째	-11.3398
▁내정자	-11.3398
▁철저한	-11.3399
▁입원한	-11.3403
▁섞	-11.3405
▁살해하겠다	-11.3407
▁강조하고	-11.3409
▁매트	-11.3416
▁굿	-11.3417
▁고전	-11.3422
UN	-11.3423
▁음와	-11.3425
▁대표들은	-11.3428
▁폭발했다	-11.3428
ster	-11.3437
▁내년에	-11.3445
▁돌입했다	-11.3446
▁사랑하는	-11.3448
▁대원	-11.3449
▁줄어	-11.3449
글리	-11.3452
▁빌라	-11.3454
드레	-11.346
▁결승에서	-11.3465
▁테러범들	-11.3466
▁구조대원	-11.3468
▁갇혀	-11.3473
▁찬사	-11.3477
▁수반과	-11.3479
▁참가자	-11.3479
▁박수	-11.348
실적	-11.348
예비선거	-11.3482
2005.1	-11.3482
태평양	-11.3483
New	-11.3484
올림픽	-11.3484
큰	-11.3486
월드컵	-11.3486
▁큐	-11.3489
▁내리기	-11.3489
슈퍼	-11.3489
DH	-11.349
티브	-11.3501
에너지	-11.3501
능력	-11.3505
작품	-11.3505
EC	-11.3506
그런	-11.3508
조합	-11.351
▁블로그	-11.3511
조각	-11.3514
▁말했으며	-11.3514
▁일부에서는	-11.3515
▁시민단체	-11.3517
▁기어	-11.3524
▁수의사	-11.3525
▁전제	-11.3541
▁기념일	-11.3545
위권	-11.3547
스텐	-11.3547
▁줄어들고	-11.3549
▁코커스에서	-11.3551
▁강화했다	-11.3551
되게	-11.3559
▁나갔다	-11.3562
▁톱	-11.357
io	-11.3574
▁중유	-11.3587
▁국경지역에	-11.3598
▁거치	-11.3605
▁하원에서	-11.3612
▁주최측	-11.3615
▁안다	-11.3617
▁마련했다	-11.3619
▁여성에게	-11.3622
▁결의안은	-11.3626
▁주문했다	-11.3629
PF	-11.3643
▁보였	-11.3649
▁지명자	-11.3651
▁재판소	-11.3653
▁범죄자들	-11.3654
FA	-11.3655
모토	-11.3655
▁아니고	-11.3674
▁아담	-11.3683
지요	-11.3685
▁여행사	-11.3685
▁유명인사	-11.3687
▁개헌	-11.369
▁살리	-11.3691
▁요한	-11.3694
랍	-11.3698
흥	-11.3698
옹	-11.3701
▁숙박	-11.3702
콕	-11.3704
톡	-11.3705
▁200806.1	-11.3705
▁BMW	-11.3705
▁FTSE	-11.3705
▁갤럭시	-11.3705
▁단백질	-11.3705
▁라왈핀디	-11.3705
▁보건복지부	-11.3705
▁부딪혀	-11.3705
▁아웅산수지	-11.3705
▁안타까	-11.3705
▁웨스트버지니아	-11.3705
▁집행유예	-11.3705
▁초등학교	-11.3705
▁카톨릭	-11.3705
▁크누트	-11.3705
▁횟수	-11.3705
뇨	-11.3705
듬	-11.3705
딱	-11.3705
룽	-11.3705
벡	-11.3705
찔	-11.3705
▁곤돌라	-11.3705
▁농작물	-11.3705
▁로페즈	-11.3705
▁마닐라	-11.3705
▁싱가폴	-11.3705
▁조코비치	-11.3705
▁퍼레이드	-11.3705
▁페널티킥	-11.3705
▁내비쳤다	-11.3705
▁무너졌다	-11.3705
▁뱅크	-11.3705
▁원정경기	-11.3705
▁작곡가	-11.3705
▁카라카스	-11.3705
▁카리스마	-11.3705
▁콜레라	-11.3705
▁수족관	-11.3705
▁종업원	-11.3705
▁1/3	-11.3705
▁동남아시아	-11.3705
▁빠질	-11.3705
▁빈민가	-11.3705
▁도덕적	-11.3706
▁살모넬라균	-11.3706
▁원내대표	-11.3706
▁대지진	-11.3706
▁검진	-11.3706
▁모바일	-11.3706
▁월마트	-11.3706
▁낙찰	-11.3707
▁신용위기	-11.3707
▁가자시티	-11.3707
2008.09	-11.3707
▁티켓	-11.3707
▁꾸준	-11.3707
▁관광산업	-11.3707
▁부정선거	-11.3707
▁이끌었던	-11.3708
▁밀접	-11.3708
▁결승골	-11.3708
▁면허	-11.3708
▁배럭	-11.3709
▁삼엄	-11.371
▁울머	-11.371
▁부회장	-11.371
▁남겼다	-11.371
▁오스틴	-11.371
▁입찰	-11.3711
▁결별	-11.3712
▁삼았다	-11.3712
▁이정인	-11.3712
▁기둥	-11.3712
▁개발도상국	-11.3712
▁당분간	-11.3713
▁비싸	-11.3713
▁발견되	-11.3713
▁사찰	-11.3713
▁경제성장률	-11.3713
▁몸집	-11.3713
▁세레나	-11.3713
▁태양계	-11.3714
▁포스터	-11.3714
▁숨지게	-11.3714
▁밀매	-11.3714
▁도착했을	-11.3714
▁1984	-11.3715
▁직무	-11.3717
▁권유	-11.3717
▁2014	-11.3718
▁연립	-11.3718
▁연구조사	-11.3718
▁번영	-11.3718
▁외각	-11.3721
▁봐	-11.3722
▁상반	-11.3722
▁보수파	-11.3722
▁DC	-11.3724
투자	-11.3725
▁피플	-11.3725
▁가이드	-11.3725
▁원격	-11.3727
국민들	-11.3727
▁보석금	-11.3727
▁재생	-11.3733
▁생물학자	-11.3733
▁발작	-11.3733
게이트	-11.3736
▁더이상	-11.3737
▁우방	-11.3737
▁95%	-11.3738
▁시사회	-11.3738
▁이끌었다	-11.374
▁육성	-11.3742
펠드	-11.3743
▁감독상	-11.3748
▁줄어들었다	-11.3749
▁보류	-11.375
▁정상적으로	-11.3751
▁비극적	-11.3751
▁후보작	-11.3751
▁일기로	-11.3755
단체인	-11.3755
▁와서	-11.3756
▁심정	-11.3759
▁관심사	-11.3759
▁피난민	-11.3762
▁실내	-11.3763
▁밀수	-11.3764
▁1800	-11.3765
▁댐	-11.3766
▁크리스티아	-11.3766
320	-11.3767
▁사이즈	-11.3768
▁1-1	-11.3769
▁번식	-11.3776
▁고정	-11.3776
▁질서	-11.3779
▁자회사	-11.378
▁이룬	-11.3784
느라	-11.3785
▁101	-11.3791
▁판사들	-11.3792
▁前	-11.3793
▁대처하기	-11.3794
▁투표권	-11.3796
▁명인	-11.3799
정신	-11.38
▁언제든	-11.3802
▁3,000	-11.3803
▁입장권	-11.3803
▁연관된	-11.3808
▁닷	-11.3809
▁수잔	-11.3814
▁was	-11.3822
▁방콕에서	-11.3825
▁방사	-11.3832
▁납치했다	-11.3833
▁친구들과	-11.3833
▁뿐이라	-11.3834
▁사망했고	-11.3835
▁범죄자	-11.3836
▁잡혀있	-11.3855
▁식으로	-11.3856
▁퇴원	-11.3859
▁제기한	-11.386
mer	-11.3866
▁포기할	-11.3867
▁Sp	-11.3868
▁정비	-11.3869
적이지	-11.387
▁기록적인	-11.3875
폭발	-11.3875
▁정부로부터	-11.3875
▁World	-11.3877
▁발생하기	-11.3878
▁될지	-11.3879
정상	-11.3887
▁지정된	-11.3894
눈	-11.3898
▁유대	-11.3898
WHO	-11.39
IOC	-11.3901
사드르	-11.3901
춤	-11.3901
오픈	-11.3904
▁베를린에서	-11.3906
펴	-11.3906
주민들	-11.3907
▁살해됐다	-11.3907
분쟁	-11.3909
▁사무소	-11.3915
▁알파	-11.392
▁감기	-11.392
▁펼치고	-11.3925
▁발표하지	-11.3928
MD	-11.393
▁수감됐다	-11.3933
정말	-11.3934
▁바스라에서	-11.3934
▁임신한	-11.3935
▁고위관리는	-11.3946
▁발생한다	-11.3946
천여	-11.3946
▁알리기	-11.3948
▁감행했다	-11.3953
여개	-11.3955
▁동원해	-11.3956
▁해변에서	-11.3972
▁통신과	-11.3982
▁거라고	-11.3986
▁자랑스럽	-11.3986
방법	-11.3988
▁기념하기	-11.4
▁영구	-11.4015
▁남지	-11.4016
▁용인	-11.4016
▁파괴됐다	-11.4019
▁통근	-11.402
▁당원들	-11.4024
▁그날	-11.4025
▁보아	-11.4025
장소	-11.4025
▁의뢰	-11.4025
▁행한	-11.4028
피크	-11.4029
▁에는	-11.4037
▁양곤	-11.4039
-4	-11.4042
▁조달	-11.4043
▁복용한	-11.4045
▁위반한	-11.4046
▁이어진	-11.4049
주재	-11.4053
▁국세청	-11.4054
▁획득했다	-11.4061
▁이목	-11.4061
▁퍼지	-11.4064
하겠지만	-11.407
▁나르	-11.4088
▁홈페이지	-11.4089
▁고리	-11.409
▁어디에	-11.409
▁누르	-11.4091
▁에바	-11.4098
▁125	-11.4098
▁주사	-11.4103
▁필수	-11.4106
▁버몬트	-11.4107
획	-11.4114
▁경제성장	-11.4115
2007.06	-11.4122
▁SUV	-11.4122
▁가톨릭	-11.4122
▁국가보안법	-11.4122
▁대중교통	-11.4122
▁대통합민주신당	-11.4122
▁동점골	-11.4122
▁리얼리티	-11.4122
▁마호메트	-11.4122
▁무크타다	-11.4122
▁베테랑	-11.4122
▁브로드웨이	-11.4122
▁사카쉬빌리	-11.4122
▁얀코비치	-11.4122
▁엉덩이	-11.4122
▁올바른	-11.4122
▁이데올로기	-11.4122
▁추수감사절	-11.4122
▁캠퍼스	-11.4122
▁컨퍼런스	-11.4122
▁프리메라리가	-11.4122
▁합참의장	-11.4122
궐	-11.4122
돋	-11.4122
캣	-11.4122
쿤	-11.4122
▁금융제재	-11.4122
▁저작권	-11.4122
▁페르난도	-11.4122
뭉	-11.4122
캘	-11.4122
▁백화점	-11.4122
▁임산부	-11.4122
▁의구심	-11.4122
▁제네바	-11.4122
▁횡단	-11.4122
▁휴양지	-11.4122
▁두개골	-11.4122
▁링컨	-11.4122
▁팔루자	-11.4122
▁최우수	-11.4122
▁뮤직	-11.4122
▁번호판	-11.4122
▁테이블	-11.4122
▁도메인	-11.4122
터무니	-11.4122
▁억압	-11.4122
▁엄중	-11.4122
▁뒤덮	-11.4122
▁활력	-11.4122
▁이소연	-11.4122
▁와중에	-11.4122
▁소수민족	-11.4122
▁미사	-11.4123
▁쟁점	-11.4123
▁아지즈	-11.4123
▁낙관적	-11.4123
▁농촌	-11.4123
호르타	-11.4123
▁범람	-11.4123
▁근접	-11.4124
▁홈런	-11.4124
▁홀랜드	-11.4124
▁궁금	-11.4125
▁액수	-11.4125
Brit	-11.4126
▁표적이	-11.4126
▁지뢰	-11.4126
▁계절	-11.4126
▁흉기	-11.4126
▁제재조치	-11.4127
▁초대형	-11.4128
▁자치구	-11.4128
▁창립	-11.4128
2006.11	-11.4129
▁평생	-11.4129
▁없었지만	-11.4129
▁inter	-11.413
▁피델	-11.4132
▁심장병	-11.4132
▁상업적	-11.4132
▁석방했다	-11.4136
▁디에고	-11.4136
▁포격	-11.4136
ark	-11.4136
▁바이오	-11.4137
▁완수	-11.4137
▁지칭	-11.4137
▁극심	-11.4138
▁시작하기	-11.4139
▁비율이	-11.4139
▁에이미	-11.4139
▁페퍼	-11.4139
▁750	-11.414
▁많았다	-11.4141
이라도	-11.4141
▁천연	-11.4142
▁고집	-11.4142
▁제어	-11.4142
▁전반적으로	-11.4142
▁울프	-11.4142
회사들	-11.4143
▁터진	-11.4144
▁감안	-11.4145
▁질식	-11.4146
▁대담	-11.4148
▁동행	-11.4149
▁드문	-11.4149
▁걸음	-11.4151
▁분명하다	-11.4152
▁이끈	-11.4152
▁조업	-11.4153
만톤	-11.4154
▁영역	-11.4154
▁반격	-11.4155
▁단호	-11.4155
▁보수적인	-11.4156
▁인용하여	-11.4156
▁원장은	-11.4158
▁휩싸였다	-11.4158
▁건조	-11.4159
▁사격	-11.4159
▁예금	-11.416
▁인파	-11.4161
▁작용할	-11.4164
▁상임	-11.4165
▁풍자	-11.4166
ami	-11.4167
▁지하드	-11.4168
▁가즈니주	-11.4168
▁맺었다	-11.417
▁호우	-11.4171
▁국민당	-11.4171
되었으나	-11.4172
▁여정	-11.4173
▁상원의원직	-11.4174
cent	-11.4174
▁치타	-11.418
▁행운	-11.4181
▁공장에서	-11.4182
▁두목	-11.4182
▁한반도에서	-11.4182
▁미쳤다	-11.4183
▁관세	-11.4183
▁43%	-11.4185
▁취해야	-11.4186
▁후임으로	-11.4186
▁1600	-11.4188
▁줄었다	-11.4189
▁he	-11.4189
▁NFL	-11.4194
▁발견했으며	-11.4203
oint	-11.4203
▁빚어	-11.4205
▁후보자들	-11.4206
▁넘어서	-11.4206
▁mor	-11.4207
그녀	-11.4212
▁최상	-11.4212
▁앤더슨은	-11.4222
▁구입한	-11.4223
▁심각하다	-11.4224
▁발사된	-11.4224
▁열리기	-11.4225
▁필립스	-11.4227
▁올드	-11.4228
▁어선	-11.4229
▁공주	-11.4231
▁명명	-11.4233
베키	-11.4234
▁배아	-11.4237
▁공급받	-11.424
▁구분	-11.4241
▁불과했다	-11.4242
▁쉐	-11.4243
▁일종	-11.4244
▁APEC	-11.4245
▁노르	-11.4253
나마	-11.4254
▁의원들과	-11.4259
▁경찰청장	-11.4264
▁투자가들	-11.4268
▁지지율로	-11.4269
▁거물	-11.4269
십만	-11.427
▁파르	-11.4273
▁차지할	-11.4279
월말	-11.4279
▁결정될	-11.4299
▁만족한다	-11.4299
▁과다	-11.4301
▁개혁안	-11.4301
▁맞이하	-11.4304
▁헤르	-11.4309
▁무혐의	-11.4312
▁루스	-11.4313
▁흔들리	-11.4317
AC	-11.4325
엠	-11.4334
딕	-11.4335
콩	-11.4336
몇	-11.4336
인터넷	-11.4337
▁제작자들	-11.4339
뼈	-11.4339
ash	-11.4346
▁잡기	-11.4347
▁접근할	-11.4348
▁홀에서	-11.4348
▁세번째	-11.4361
▁맡기	-11.4362
식품	-11.4362
연설	-11.4366
▁인정하고	-11.4366
▁들어가기	-11.437
▁교도	-11.4376
▁관료들	-11.4388
▁표기	-11.4395
▁가사	-11.4402
▁미군측	-11.4425
AM	-11.4428
중앙	-11.443
▁지사	-11.4435
자루	-11.4443
pose	-11.4444
▁감자	-11.4444
▁클럽에서	-11.4452
▁고국	-11.4459
▁난자	-11.4459
▁괴한들	-11.4462
조약	-11.4473
▁합의안	-11.4476
▁par	-11.4477
▁통과할	-11.4483
▁내야	-11.4485
Con	-11.4496
화물	-11.4497
마른	-11.4497
ni	-11.4497
▁소방관들	-11.4506
▁보여준	-11.4512
▁맞지	-11.4517
▁겪었	-11.4519
▁저자	-11.4527
▁중재자	-11.4531
▁일반인들	-11.4533
▁못하면	-11.4537
사법	-11.4538
▁브랜	-11.4539
▁다국적	-11.4541
▁콜린	-11.4543
▁테네시	-11.4546
롯	-11.4552
▁퇴직	-11.4553
▁Vi	-11.4554
▁오프	-11.4556
▁said	-11.4557
▁그린스펀	-11.4557
▁급상승	-11.4557
▁낙하산	-11.4557
▁닌텐도	-11.4557
▁루마니아	-11.4557
▁몬타나	-11.4557
▁무책임	-11.4557
▁버시바우	-11.4557
▁브뤼셀	-11.4557
▁앨라배마	-11.4557
▁없음	-11.4557
▁엔데버호	-11.4557
▁엔터테인먼트	-11.4557
▁여객선	-11.4557
▁오차범위	-11.4557
▁짝짓기	-11.4557
▁쫓겨	-11.4557
▁콘크리트	-11.4557
▁콜레스테롤	-11.4557
▁타블로이드	-11.4557
▁프란시스	-11.4557
늄	-11.4557
옌	-11.4557
OECD	-11.4557
▁무차별	-11.4557
▁벤자민	-11.4557
촨	-11.4557
▁보스니아	-11.4557
▁자이툰	-11.4557
▁저녁식사	-11.4557
▁힉스	-11.4557
▁검열	-11.4557
WWF	-11.4557
▁수마트라	-11.4557
▁유태인	-11.4557
▁안젤리	-11.4557
▁가볍	-11.4557
(27)	-11.4557
(29)	-11.4557
▁기번스	-11.4557
▁의료보험	-11.4557
=31	-11.4557
▁황교수	-11.4557
▁과학적	-11.4558
▁LPGA	-11.4558
▁싱글	-11.4558
▁무엇인가	-11.4558
▁get	-11.4559
▁나중에	-11.4559
▁별도로	-11.4559
▁냉각	-11.4559
▁아르빌	-11.4559
▁state	-11.4559
▁자살폭탄	-11.4559
▁줄어든	-11.4559
▁토끼	-11.4559
▁자본주의	-11.456
▁Star	-11.456
▁보도자료	-11.456
▁동맹관계	-11.456
▁간첩	-11.4561
▁통계청	-11.4561
▁토로했다	-11.4561
▁이루어질	-11.4561
▁평창	-11.4562
▁싸울	-11.4562
2008.0	-11.4562
▁Gr	-11.4562
▁사냥꾼	-11.4563
▁총격사건	-11.4563
▁철거	-11.4563
▁신념	-11.4563
▁앙리	-11.4563
▁보였지만	-11.4564
▁친밀	-11.4565
ZA	-11.4565
▁늘어난	-11.4565
light	-11.4567
▁증산	-11.4567
▁팔렸다	-11.4567
▁테네시주	-11.4567
▁관행	-11.4568
▁중태라	-11.4568
▁친절	-11.4568
데요	-11.4569
▁단절	-11.4569
▁누설	-11.4569
▁우편	-11.4569
▁지나친	-11.457
▁매사추세츠주	-11.4571
▁납부	-11.4571
▁샤론	-11.4571
▁테러공격	-11.4571
▁한국전쟁	-11.4572
▁받았습니다	-11.4572
▁모닝	-11.4572
▁재능	-11.4572
▁911	-11.4575
▁책임감	-11.4575
▁동남	-11.4575
▁서열	-11.4575
▁태어났다	-11.4576
▁잔디	-11.4577
▁분양	-11.4577
▁불경기	-11.4578
▁HD	-11.4578
▁감동	-11.4578
▁관계자에따르면	-11.4578
▁뉴저지주	-11.458
▁급파	-11.4582
▁만행	-11.4582
▁강화하기	-11.4583
▁변동	-11.4583
▁2~3	-11.4585
▁증가시키	-11.4586
살짜리	-11.4586
▁동요	-11.4587
▁도박	-11.4587
▁상속	-11.4588
▁사절	-11.4589
▁탈세	-11.4594
▁테크	-11.4594
▁대승	-11.4594
▁섬유	-11.4595
학자인	-11.4595
▁참수	-11.4595
▁신설	-11.4596
▁생선	-11.4596
▁요구해	-11.4596
▁상징적인	-11.4597
▁들어보	-11.4598
▁말았다	-11.4599
GM	-11.46
▁태아	-11.4601
▁탈당	-11.4602
▁충돌했다	-11.4603
▁대신해	-11.4606
▁불거	-11.4608
▁보행	-11.4608
▁로즈	-11.4609
▁버크	-11.4611
▁외모	-11.4611
▁신종	-11.4612
▁윤리적	-11.4612
케르	-11.4613
▁설립자	-11.4613
▁반란	-11.4614
▁항해	-11.4614
▁말라위	-11.4616
▁일이었다	-11.4616
▁양호	-11.4619
▁비행선	-11.4621
▁피터슨	-11.4621
겼으며	-11.4622
▁교통부	-11.4623
▁총살	-11.4623
▁재계	-11.4624
▁억류된	-11.4625
▁스노	-11.4628
▁서쪽으로	-11.4628
▁답변했다	-11.4631
됐기	-11.4631
▁무관	-11.4632
▁쉴	-11.4633
▁기대된다	-11.4637
▁유타	-11.4639
▁끝나지	-11.4639
▁봉인	-11.464
▁카디	-11.4641
▁말했었다	-11.4642
런스	-11.4642
클린	-11.4645
▁양당	-11.4647
▁일어	-11.4647
▁효과적인	-11.4648
▁450	-11.465
포스	-11.4652
▁공격하기	-11.4653
▁내리지	-11.4654
▁서부지역	-11.4658
▁직면한	-11.4659
▁주둔군	-11.466
▁실종됐다고	-11.4661
조차도	-11.4661
▁발사했다	-11.4662
▁의뢰인	-11.4662
▁덩어리	-11.4663
▁불가능한	-11.4664
▁진정시키	-11.4665
▁부상했으며	-11.4667
▁허용하는	-11.4667
▁의미하는	-11.4671
▁di	-11.4672
▁허리	-11.4673
▁전술	-11.4679
▁일조	-11.4685
▁입장이다	-11.4686
▁ban	-11.4693
▁근거지	-11.4693
eep	-11.4693
▁나라들	-11.4709
▁생각된다	-11.4711
▁230	-11.4713
▁작품상	-11.4718
▁순례객	-11.4719
▁참가하는	-11.4723
리터	-11.4723
▁결승전에	-11.4724
▁끝내고	-11.4724
▁수습	-11.4727
▁살상	-11.4738
▁지불할	-11.4739
▁참가국들	-11.4741
PD	-11.4741
▁도달했다	-11.4745
▁이동했다	-11.4746
▁시선	-11.4749
form	-11.4749
▁마르코	-11.4759
▁소행	-11.477
▁제조회사	-11.4773
▁주도하고	-11.4775
eac	-11.4778
▁법무	-11.4784
▁내용이다	-11.4786
쌍	-11.4786
사무소	-11.479
즐	-11.479
▁경고하고	-11.4791
한나라당	-11.4792
티베트	-11.4792
투쟁	-11.4792
클럽	-11.4792
FTA	-11.4793
카메라	-11.4794
특별	-11.4794
▁이견	-11.4796
반응	-11.4796
into	-11.4797
▁보도된	-11.4797
▁대학생들	-11.4797
▁실시됐다	-11.48
▁추정하	-11.4803
방향	-11.4806
▁지미	-11.4809
외교	-11.4809
스위스	-11.4811
▁치료제	-11.4813
▁리사	-11.4824
전화	-11.484
▁올렸	-11.4841
▁안개	-11.4842
▁서울대	-11.4844
▁심리학	-11.4846
▁경상	-11.4847
▁후안	-11.4849
▁피랍됐	-11.4852
▁시작한다	-11.4853
▁모였다	-11.4853
▁수행했다	-11.4866
▁두려워하	-11.487
ron	-11.4873
▁엔지니어	-11.4884
▁마련된	-11.4895
▁주립	-11.4897
▁모여들	-11.491
아무	-11.492
이어서	-11.494
▁연기됐다	-11.4941
▁파견했다	-11.4942
공원	-11.4944
▁승려	-11.4948
▁사망했	-11.4949
▁천명	-11.4976
▁크로	-11.4977
컷	-11.4977
▁America	-11.4977
Com	-11.4978
▁담겨	-11.4981
▁해치	-11.4983
정치적	-11.4983
▁가나	-11.4996
▁위반했다	-11.5
▁검문	-11.5001
▁나온다	-11.5001
▁발령	-11.5006
▁도착해	-11.5008
▁남겨	-11.5009
훔	-11.5009
▁빨간	-11.501
펀	-11.5011
갱	-11.5011
앵	-11.5011
▁president	-11.5011
파이낸셜	-11.5011
2007.03	-11.5011
Australia	-11.5011
United	-11.5011
▁Association	-11.5011
▁BBK	-11.5011
▁England	-11.5011
▁issue	-11.5011
▁국제사면위원회	-11.5011
▁내다봤다	-11.5011
▁대량살상무기	-11.5011
▁돈세탁	-11.5011
▁로맨틱	-11.5011
▁롱고리아	-11.5011
▁몰디브	-11.5011
▁부정부패	-11.5011
▁선거캠페인	-11.5011
▁손해배상	-11.5011
▁슈나이더	-11.5011
▁스탠리	-11.5011
▁신행정수도	-11.5011
▁아이슬란드	-11.5011
▁애널리스트	-11.5011
▁언색호	-11.5011
▁자이언트	-11.5011
▁좋았다	-11.5011
▁찍었다	-11.5011
▁플레이오프	-11.5011
▁혐오	-11.5011
덱	-11.5011
밭	-11.5011
셜	-11.5011
썩	-11.5011
츄	-11.5011
▁가금류	-11.5011
▁참모총장	-11.5011
▁카메론	-11.5011
▁클레이코트	-11.5011
▁황박사	-11.5011
▁솔로몬	-11.5011
▁전화통화	-11.5011
▁크리켓	-11.5011
Human	-11.5011
▁올랜도	-11.5011
▁갱신	-11.5011
▁유시프	-11.5011
▁그렇다면	-11.5011
▁태어나	-11.5011
▁몬테	-11.5011
▁프리킥	-11.5011
▁탑재	-11.5011
▁선진국	-11.5011
▁정부청사	-11.5012
▁진원지	-11.5012
▁발레리	-11.5012
▁라시드	-11.5012
(24)	-11.5012
▁접어들	-11.5012
(21)	-11.5012
▁리더십	-11.5012
▁페인트	-11.5012
▁퇴치	-11.5012
▁격돌한	-11.5012
▁설문조사	-11.5012
▁선제골	-11.5012
▁쓰러졌	-11.5012
▁공동성명	-11.5013
▁삼성그룹	-11.5013
▁소요사태	-11.5013
▁다툼	-11.5013
▁푸켓	-11.5013
▁Lee	-11.5013
▁이틀째	-11.5013
▁불쾌감	-11.5014
▁이행하	-11.5014
▁곳곳에서	-11.5014
▁있겠지만	-11.5014
▁수백만명	-11.5015
▁반도체	-11.5015
▁51%	-11.5016
▁당첨	-11.5016
▁페트로	-11.5016
▁지방선거	-11.5016
▁곤란	-11.5016
▁투항	-11.5016
▁물러난	-11.5017
▁근본주의	-11.5017
▁짙	-11.5017
▁고등	-11.5017
링턴	-11.5018
▁평등	-11.5018
후쿠다	-11.5018
▁기념품	-11.5019
▁다룰	-11.5019
▁헌터	-11.502
▁발송	-11.502
▁단축	-11.502
▁터너	-11.502
▁감각	-11.5021
▁대기권	-11.5022
▁미술관	-11.5023
▁금지령	-11.5024
▁울리	-11.5024
▁늘려	-11.5024
▁검시관	-11.5025
▁이용자들	-11.5025
▁정교회	-11.5025
▁크라	-11.5027
▁출간	-11.5027
▁솜	-11.5027
▁해산물	-11.5028
▁인천	-11.5029
▁일삼	-11.5029
▁마텔	-11.5029
▁성능	-11.503
▁본래	-11.503
▁무패	-11.5031
▁북경	-11.5032
▁프로디	-11.5032
▁온천	-11.5032
▁황제	-11.5033
▁방침이다	-11.5034
▁웃음	-11.5034
▁방위군	-11.5035
▁감염자	-11.5037
▁지난밤	-11.5037
▁고기	-11.5037
▁빈번	-11.5038
▁재료	-11.5039
▁바스크	-11.5039
▁교역	-11.504
▁공범	-11.504
▁하스	-11.504
시께	-11.5041
▁콜린스	-11.5041
▁Ri	-11.5044
▁순회	-11.5044
▁끌어들이	-11.5044
정당	-11.5045
▁온실	-11.5046
▁비정부	-11.5048
▁판매되	-11.5048
▁풀어주	-11.5051
▁영아	-11.5054
▁선동	-11.5055
ull	-11.5056
▁역전	-11.5056
▁표한다	-11.5058
▁구조됐다	-11.5059
▁딴	-11.5059
▁노벨상	-11.5059
▁연정	-11.506
므	-11.506
▁린치	-11.5061
▁낮게	-11.5063
학생들	-11.5064
▁용서	-11.5064
▁나이키	-11.5065
▁현직	-11.5067
재단	-11.5069
▁샤프	-11.5071
▁상실	-11.5071
▁3-1	-11.5072
▁주차장에서	-11.5073
▁240	-11.5074
▁자란	-11.5075
▁결과에따라	-11.5076
▁공표	-11.5076
▁피고인들	-11.5078
▁저자인	-11.5078
▁42%	-11.508
▁반감	-11.5082
▁주입	-11.5085
▁연상	-11.5089
▁배정	-11.5089
▁보호소	-11.5092
▁피우	-11.5092
▁발표하면서	-11.5095
▁알아내	-11.5096
관리국	-11.5097
▁숨졌	-11.5097
▁시사했다	-11.51
▁외계인	-11.5101
▁투수	-11.5102
▁판명	-11.5109
▁연어	-11.5116
▁190	-11.5119
▁비중	-11.5121
▁경유	-11.5123
▁확신하	-11.5125
판매	-11.5129
▁들어서	-11.5129
▁영해	-11.5129
▁확인하지	-11.5132
▁전통적으로	-11.5133
▁내려오	-11.5133
▁필요성	-11.5135
reat	-11.5139
▁밝혀지	-11.5152
용품	-11.5153
▁관여한	-11.5155
▁아랍어	-11.5156
▁아카	-11.5157
tter	-11.5163
▁외교관들	-11.5174
▁FC	-11.5182
▁배달	-11.5186
▁분명한	-11.5186
보트	-11.5191
▁진상	-11.5192
▁앤드	-11.5197
해줬다	-11.5198
▁직위	-11.5206
▁본즈	-11.5207
▁상표	-11.5212
▁주립대학	-11.5217
하트	-11.5221
▁쓰지	-11.5233
▁고민	-11.5235
▁외곽에서	-11.5237
▁압수했다	-11.5239
▁무서	-11.5241
▁신성	-11.5244
▁조직원들	-11.5245
▁서있	-11.5249
▁펴	-11.5252
▁사실이다	-11.5259
▁왕위	-11.526
따	-11.5261
큐	-11.5264
2008.12	-11.5266
시리즈	-11.5268
무샤라프	-11.5268
▁계속됐다	-11.5269
흔	-11.5269
ix	-11.5271
카우	-11.5271
웨스트	-11.5274
모델	-11.528
걸스	-11.5281
나이트	-11.5281
결정	-11.53
▁있으면	-11.5306
▁악명	-11.5307
▁이혼했다	-11.5308
집단	-11.5308
코르	-11.5309
▁잡혀	-11.5322
▁파괴된	-11.5323
수퍼	-11.5336
상품	-11.5336
▁정국	-11.534
38	-11.5341
▁헤어	-11.5344
▁여진	-11.5347
웃으며	-11.5353
▁당선된	-11.5363
LA	-11.5373
▁있을까	-11.5373
▁앤더슨	-11.5374
▁숨지	-11.5374
요금	-11.5381
운영	-11.5387
적당한	-11.5388
혁명	-11.5399
마저	-11.5402
▁여러분들	-11.5409
▁얻었	-11.541
▁참가국	-11.5411
군사	-11.5413
▁실종됐다	-11.5417
▁선보였	-11.5418
▁자원봉사	-11.5425
▁한국측	-11.543
▁격렬	-11.5434
▁항의했다	-11.5441
▁남부지역	-11.5446
다소	-11.5449
▁금지된	-11.545
하기위해	-11.5465
▁영화화	-11.5469
▁납치범들	-11.5477
붕	-11.5482
뷔	-11.5484
갤	-11.5485
봇	-11.5486
PGA	-11.5487
그렇다	-11.5487
툰	-11.5487
윙	-11.5487
쯔	-11.5487
NYMEX	-11.5487
inancial	-11.5487
world	-11.5487
▁death	-11.5487
▁high	-11.5487
▁minister	-11.5487
▁가라앉	-11.5487
▁가로질러	-11.5487
▁가이트너	-11.5487
▁농산물	-11.5487
▁높았다	-11.5487
▁디얄라	-11.5487
▁라스무센	-11.5487
▁라우터바흐	-11.5487
▁레드삭스	-11.5487
▁로널드	-11.5487
▁믿음	-11.5487
▁밀리밴드	-11.5487
▁불필요	-11.5487
▁빈라덴	-11.5487
▁선생님	-11.5487
▁스콜세지	-11.5487
▁와지리스탄	-11.5487
▁유네스코	-11.5487
▁지구온난화	-11.5487
▁질렀다	-11.5487
▁코네티컷	-11.5487
▁콘텐트	-11.5487
▁테헤란	-11.5487
▁펌프	-11.5487
▁페르난데스	-11.5487
▁포틀랜드	-11.5487
▁푸에르토리코	-11.5487
덟	-11.5487
봅	-11.5487
하였으나	-11.5487
▁가석방	-11.5487
▁음란물	-11.5487
▁무중력	-11.5487
▁브라더스	-11.5487
▁졸릭	-11.5487
▁주미대사	-11.5487
WTI	-11.5488
ould	-11.5488
▁자부심	-11.5488
▁획기적	-11.5488
▁아메드	-11.5488
깜짝	-11.5488
▁본거지	-11.5488
▁오마바	-11.5488
▁텔레콤	-11.5488
▁비평가들은	-11.5488
▁남동쪽	-11.5488
▁위안화	-11.5488
▁나이로비	-11.5488
▁남서쪽	-11.5488
▁주니어	-11.5488
▁놀랍	-11.5488
▁딜리	-11.5488
▁지저스	-11.5488
▁소아과	-11.5488
▁강아지	-11.5488
▁블레이크	-11.5488
▁아이팟	-11.5488
▁인디언	-11.5488
▁떠오르	-11.5488
이건희	-11.5489
▁트레이드	-11.5489
ECB	-11.5489
▁포옹	-11.5489
▁화폐	-11.5489
▁납북	-11.549
▁may	-11.549
▁않으려	-11.549
▁완승	-11.549
▁왕궁	-11.549
▁재처리	-11.5491
▁점유율	-11.5491
▁불러일으키	-11.5491
▁맞춘	-11.5491
▁폐허	-11.5491
▁석탄	-11.5491
스테이트	-11.5491
2008.02	-11.5492
▁그린랜드	-11.5492
▁기차역	-11.5492
▁프라임	-11.5492
▁자유로운	-11.5492
▁외교정책	-11.5492
▁팔리	-11.5493
▁아바타	-11.5494
▁철강	-11.5494
▁우익	-11.5495
▁연습	-11.5495
▁주머니	-11.5495
▁소식통에따르면	-11.5495
▁난폭	-11.5495
▁1953	-11.5495
▁은폐	-11.5496
ja	-11.5496
▁사촌	-11.5497
▁청색	-11.5498
▁투병	-11.5499
▁1975	-11.5499
▁계단	-11.55
▁예외	-11.55
▁잠재력	-11.5501
▁함정	-11.5502
▁선언문	-11.5503
▁화물선	-11.5503
▁가졌으며	-11.5503
함으로서	-11.5504
▁긴장감	-11.5504
▁익사	-11.5504
▁증오	-11.5505
▁추모식	-11.5505
▁미시간주	-11.5506
▁선거자금	-11.5506
▁기부금	-11.5506
▁앞서있다	-11.5506
▁정글	-11.5507
▁우주센터	-11.5508
▁엔화	-11.5511
▁시청률	-11.5512
▁핵문제	-11.5512
▁유언	-11.5512
▁복부	-11.5513
▁변형	-11.5514
▁판결문	-11.5515
▁보험금	-11.5515
▁선정했다	-11.5515
▁분배	-11.5517
▁달렸다	-11.5519
▁공공장소에서	-11.5519
▁투하	-11.5519
▁원한다면	-11.552
▁합법적으로	-11.5521
▁대열	-11.5523
▁교정	-11.5525
▁시합	-11.5526
▁시작됐으며	-11.5526
▁지도력	-11.5528
▁붙였다	-11.5529
▁분리주의자들	-11.5532
▁2.5	-11.5535
▁경호원들	-11.5535
▁시작했고	-11.5536
▁들어왔다	-11.5536
▁루디	-11.554
▁레노	-11.5542
▁치우	-11.5543
▁전념	-11.5544
▁문화적	-11.5545
▁루즈	-11.5547
▁종전	-11.5551
▁의존하고	-11.5552
uk	-11.5553
환자	-11.5554
▁펜실베이니아주	-11.5558
▁취업	-11.5559
▁철학	-11.5563
▁팔아	-11.5564
▁내달	-11.5564
▁가계	-11.5564
▁의류	-11.5568
▁금주	-11.5568
▁의사당	-11.5569
▁결성	-11.5574
▁보건당국	-11.5579
▁이끌어내	-11.558
▁해법	-11.5583
▁지배하	-11.5584
▁여자들	-11.5587
▁목표물	-11.5587
▁치아	-11.559
▁수영장	-11.559
▁보험사	-11.559
▁양곤에서	-11.5592
▁알려졌	-11.5593
▁돌아간	-11.5596
▁이행할	-11.5599
▁하사	-11.5607
▁출판사	-11.5609
민들	-11.561
▁되려	-11.5612
▁220	-11.5613
▁시작했으며	-11.5614
▁후속	-11.5616
▁예상치	-11.5619
▁기록했으며	-11.5621
▁들어주	-11.5622
생물학	-11.5625
▁남부지역에서	-11.5629
▁중국인들	-11.5631
렸지만	-11.5631
▁하퍼	-11.5632
▁측면에서	-11.564
▁혼인	-11.564
▁입히	-11.5649
▁저명	-11.5655
▁비티	-11.5657
▁동상	-11.5664
▁제기되	-11.5666
코브	-11.5667
▁기업체	-11.567
▁주심	-11.5673
▁적게	-11.5677
꾼들	-11.5678
use	-11.5681
▁몰린	-11.5682
▁한국계	-11.5685
▁손님들	-11.569
▁손상된	-11.5692
하였고	-11.5694
AI	-11.5699
▁착용한	-11.571
▁Do	-11.571
▁완화하기	-11.5711
▁결심했다	-11.5713
프레스	-11.5715
▁떠나지	-11.5718
훈련	-11.572
▁호주군	-11.5721
▁앉아있	-11.5723
▁등록된	-11.5729
▁실리	-11.5737
기종	-11.5738
▁조사팀	-11.5745
▁순수	-11.5753
▁설립된	-11.5766
보좌관	-11.5767
슛	-11.5767
뒤	-11.5768
하마스	-11.5769
폭풍	-11.577
Korea	-11.5771
▁갇혀있	-11.5772
▁소방대원	-11.5773
헌법	-11.5775
▁폭락했다	-11.578
My	-11.578
▁임명했다	-11.5782
▁자식	-11.5782
남북	-11.5783
▁요구한다	-11.5788
88	-11.5788
▁고고학자	-11.5788
▁Te	-11.579
물리학	-11.5794
결국	-11.5797
▁퇴원했다	-11.5797
평화로운	-11.58
arly	-11.5806
모양	-11.5812
파업	-11.5816
▁충족	-11.583
▁중국정부	-11.5834
▁운전자들	-11.5837
식량	-11.5837
▁강화된	-11.5843
▁일본인들	-11.5845
자녀	-11.585
▁정직	-11.5863
시리아	-11.5868
▁간부들	-11.5871
보안	-11.5881
▁우주비행사들	-11.5881
ble	-11.5884
있지	-11.5886
하느냐	-11.5887
▁느끼지	-11.5889
▁변수	-11.5914
▁한국정부	-11.5919
륙	-11.5929
▁0.2	-11.5931
▁조화	-11.5934
▁민주적	-11.5934
MC	-11.5937
었음	-11.5938
▁심리학자	-11.5943
ous	-11.5945
노엘	-11.5946
▁기록됐다	-11.5947
▁본부장	-11.5952
▁AK	-11.5958
▁정규	-11.596
▁시달	-11.5962
▁태어났	-11.5965
▁우주비행	-11.5965
하원	-11.5974
시키다	-11.5977
▁메모리	-11.5977
▁미주리	-11.5977
욱	-11.5978
▁근본	-11.5984
▁얼룩	-11.5987
▁resign	-11.5987
▁갖췄다	-11.5987
▁얼어붙	-11.5987
life	-11.5987
▁UFO	-11.5987
▁WASHINGTON	-11.5987
▁peace	-11.5987
▁그랜드슬램	-11.5987
▁김경준	-11.5987
▁네그로폰테	-11.5987
▁맞교환	-11.5987
▁매카트니	-11.5987
▁베스트셀러	-11.5987
▁생태계	-11.5987
▁소렌스탐	-11.5987
▁식이요법	-11.5987
▁신용경색	-11.5987
▁신천옹	-11.5987
▁쓰러져	-11.5987
▁아라파트	-11.5987
▁아흐마디네자드	-11.5987
▁않았기	-11.5987
▁영유권	-11.5987
▁우비넨	-11.5987
▁윌리암	-11.5987
▁평론가들은	-11.5987
▁포츠머스	-11.5987
▁현수막	-11.5987
굽	-11.5987
배아줄기세포	-11.5987
푼	-11.5987
퓨	-11.5987
▁about	-11.5987
▁뉴욕상업거래소	-11.5987
▁훔쳐	-11.5987
콴	-11.5987
▁국가정보원	-11.5987
▁만델라	-11.5987
▁알자지라	-11.5987
▁해리왕자	-11.5988
▁start	-11.5988
▁마리화나	-11.5988
▁마스터스	-11.5988
▁갱단	-11.5988
▁눈보라	-11.5988
▁몰아넣	-11.5988
Two	-11.5988
▁프리츨	-11.5988
사관학교	-11.5988
UAE	-11.5988
▁2/3	-11.5988
▁매도프	-11.5988
▁파이프라인	-11.5988
▁발자국	-11.5988
▁추종자들	-11.5988
▁함부르크	-11.5988
▁이뤄져야	-11.5988
▁땅콩	-11.5988
▁있느냐	-11.5988
▁가르시아	-11.5988
▁혜성	-11.5988
▁에어웨이	-11.5989
▁파이프	-11.5989
▁프레슬리	-11.5989
▁봉착	-11.5989
▁투옥	-11.5989
2007.04	-11.5989
▁삭스	-11.5989
▁거세지	-11.5989
▁가져왔다	-11.599
▁퍼뜨	-11.599
▁참의원	-11.599
▁잡혔다	-11.599
▁창업자	-11.599
▁출항	-11.599
▁call	-11.5991
▁신분증	-11.5991
▁척추	-11.5991
▁동물보호	-11.5991
▁금연법	-11.5992
▁선고받았다	-11.5992
▁육박	-11.5992
▁위헌	-11.5993
▁지방법원	-11.5993
▁생물학적	-11.5993
▁우호적	-11.5993
▁피해여성	-11.5994
▁거슬러	-11.5994
▁침실	-11.5994
▁증권거래소	-11.5994
▁인준	-11.5996
▁이민법	-11.5996
▁일환	-11.5996
▁솔직하	-11.5996
▁사절단	-11.5996
▁인질극	-11.5997
▁연애	-11.5997
▁없었으며	-11.5998
▁바이든	-11.5999
▁독립국가	-11.5999
▁단언	-11.5999
▁버려진	-11.6
▁진열	-11.6
▁첫째	-11.6
ler	-11.6002
▁정황	-11.6003
rap	-11.6003
▁막았다	-11.6004
▁사탕	-11.6004
▁조사결과	-11.6005
▁몰리	-11.6005
▁기르	-11.6006
▁31%	-11.6006
▁사이먼	-11.6006
▁파타당	-11.6006
▁남긴	-11.6006
▁호박	-11.6007
▁카이로	-11.6007
▁승진	-11.6007
▁경색	-11.6009
▁하위	-11.6011
프라이스	-11.6011
▁조율	-11.6011
▁따내	-11.6012
▁체포됐으며	-11.6013
▁부착	-11.6013
보관소	-11.6014
▁버려	-11.6015
now	-11.6015
▁시몬	-11.6015
▁납치범	-11.6015
▁유머	-11.6015
▁투여	-11.6017
▁Dis	-11.6017
▁교실	-11.6017
▁데이트	-11.6017
▁콜로라도주	-11.6019
▁조립	-11.6022
▁정박	-11.6023
▁살리기	-11.6023
▁동거	-11.6023
▁크로스	-11.6025
▁만회	-11.6028
▁정부기관	-11.6028
▁물리적	-11.6028
▁아이오와주	-11.6029
▁힐러리경	-11.603
▁박차	-11.6031
▁인수위원회	-11.6033
▁만들어내	-11.6034
▁치료법	-11.6035
▁make	-11.6041
-8	-11.6043
▁합법적인	-11.6043
▁금융계	-11.6045
▁관광객들에게	-11.6046
▁다행	-11.605
▁따라잡	-11.6051
▁조각상	-11.6051
▁실었다	-11.6055
▁케이스	-11.6056
▁채무	-11.6058
▁태세	-11.6058
▁도피	-11.6059
▁문학	-11.6059
▁번개	-11.606
▁스위	-11.606
▁발표되지	-11.606
▁못했으며	-11.6065
▁1400	-11.6065
▁감염되	-11.6065
▁선제	-11.6066
▁실바	-11.6067
▁방문했	-11.6068
▁국제법	-11.6069
명씩	-11.6069
▁배역	-11.6073
▁돌아왔	-11.6074
▁끌어내	-11.6077
▁128	-11.6077
▁상승하며	-11.608
▁기각했다	-11.6082
▁토드	-11.6084
▁레이드	-11.6084
▁말했으나	-11.6085
▁comp	-11.6085
▁우주복	-11.6085
▁일본군	-11.6094
▁주목할	-11.6096
▁친척들	-11.6099
보리스	-11.6102
▁조그	-11.6104
▁Ge	-11.6105
▁추락해	-11.611
▁기용	-11.6119
▁전용기	-11.612
▁나타난다	-11.6121
▁연주자	-11.6123
멜라	-11.6127
▁집행위원	-11.6128
▁투표소	-11.6135
공학	-11.6142
▁자진	-11.6145
었었다	-11.6148
스버그	-11.6163
▁서울시장	-11.6165
▁처했다	-11.617
▁연행됐다	-11.6171
외국	-11.6175
▁주시하	-11.6184
▁왕국	-11.6186
▁위협받	-11.6186
▁박스	-11.6187
▁구속했다	-11.6191
▁바라보	-11.6197
▁히스	-11.6202
▁몰렸	-11.6213
▁지나간	-11.6218
▁죽였다	-11.6221
▁News	-11.6232
▁매력적	-11.6242
앞	-11.6255
▁고르	-11.6257
▁장점	-11.6259
▁이사장	-11.6262
▁벌여왔	-11.6269
▁노린	-11.6284
프로그램	-11.629
World	-11.629
붙	-11.6291
꽃	-11.6292
턱	-11.6292
▁기관들	-11.6293
끝	-11.6293
왜	-11.6294
다이애나	-11.6294
가능한	-11.6296
ally	-11.63
▁북한측	-11.6302
보험	-11.6306
▁노출되	-11.631
▁이루어져	-11.6311
소송	-11.6317
▁영화관	-11.6318
지휘	-11.6319
업무	-11.6323
▁높이기	-11.6323
▁구속됐다	-11.6324
▁민영	-11.6345
혈관	-11.6347
▁시청자	-11.6371
▁개정된	-11.6384
타카	-11.6387
▁동의한다	-11.6399
▁만들었	-11.64
친구	-11.6403
▁1.5	-11.6408
▁정보원	-11.6431
▁유대인들	-11.6433
연금	-11.6443
▁숨어	-11.6443
▁별개	-11.6462
ism	-11.6466
▁근본적	-11.6471
▁외계	-11.6473
▁위험하다	-11.6475
▁슈퍼대의원	-11.6479
▁나타냈	-11.648
ful	-11.6492
umb	-11.6502
▁악화된	-11.6503
ology	-11.6504
▁단계적	-11.6508
▁북한군	-11.6509
깃	-11.6511
룡	-11.6511
▁힌두	-11.6512
풋	-11.6514
2007.01	-11.6514
8,000	-11.6514
▁Bank	-11.6514
▁GNP	-11.6514
▁Life	-11.6514
▁foreign	-11.6514
▁가솔린	-11.6514
▁갤러리	-11.6514
▁국토안보부	-11.6514
▁꿀벌	-11.6514
▁낳았다	-11.6514
▁니스텔로이	-11.6514
▁디스플레이	-11.6514
▁뚜렷	-11.6514
▁매릴랜드	-11.6514
▁바랍니다	-11.6514
▁박정희	-11.6514
▁방코델타아시아	-11.6514
▁버틀러	-11.6514
▁불매운동	-11.6514
▁셰퍼드	-11.6514
▁싫어하	-11.6514
▁앙카라	-11.6514
▁애틀랜티스호	-11.6514
▁와이오밍	-11.6514
▁요하네스버그	-11.6514
▁중앙정보국	-11.6514
▁즐거움	-11.6514
▁초콜릿	-11.6514
▁토튼햄	-11.6514
▁투탕카멘	-11.6514
▁팽팽	-11.6514
▁핸드폰	-11.6514
▁헝가리	-11.6514
늬	-11.6514
뜯	-11.6514
럿	-11.6514
륭	-11.6514
벵	-11.6514
빔	-11.6514
인터내셔널	-11.6514
자르카위	-11.6514
콥	-11.6514
ject	-11.6514
▁금강산	-11.6514
▁버클리	-11.6514
▁키드먼	-11.6514
▁파란색	-11.6514
▁학부모	-11.6514
▁9/11	-11.6514
▁Wild	-11.6514
▁자민당	-11.6514
▁잠수함	-11.6514
▁재규어	-11.6514
▁노워크	-11.6514
▁딜런	-11.6514
▁미항공우주국	-11.6514
▁밀라노	-11.6514
▁중소기업	-11.6514
▁합법화	-11.6514
▁200809.1	-11.6514
▁순이익	-11.6514
▁나뉘어	-11.6514
▁영사관	-11.6514
▁선거유세	-11.6514
▁기다렸다	-11.6514
▁예정이었으나	-11.6514
▁조선일보	-11.6514
▁폭넓	-11.6514
▁홈구장	-11.6514
▁09:	-11.6514
▁원자재	-11.6514
▁사직서	-11.6514
dition	-11.6514
▁오사카	-11.6514
▁대운하	-11.6514
▁오페라	-11.6514
▁액션	-11.6514
▁하루종일	-11.6514
▁반짝이	-11.6514
▁나이트클럽	-11.6514
▁소령은	-11.6514
▁막바지	-11.6514
(33)	-11.6514
▁Prim	-11.6514
▁핑크	-11.6514
▁관절염	-11.6514
▁강원도	-11.6514
▁외딴	-11.6514
▁under	-11.6514
▁번화가	-11.6514
▁몸싸움	-11.6514
▁실질적으로	-11.6514
(26)	-11.6515
▁페라로	-11.6515
uff	-11.6515
▁연못	-11.6515
▁참혹	-11.6515
▁0.5%	-11.6515
▁혼잡	-11.6515
▁하이킹	-11.6515
▁휴이트	-11.6515
▁황폐	-11.6515
▁바오로	-11.6515
▁독특	-11.6516
▁로얄	-11.6516
갤론	-11.6516
▁게놈	-11.6516
▁want	-11.6516
▁흑자	-11.6516
▁재건축	-11.6516
▁2.13	-11.6516
▁틀림	-11.6516
▁체첸	-11.6517
▁잠비아	-11.6517
▁형벌	-11.6517
▁휘말	-11.6517
▁웰스	-11.6517
▁작별	-11.6517
action	-11.6518
▁내놓았다	-11.6518
▁넘겼다	-11.6518
▁쉽다	-11.6518
▁불빛	-11.6518
▁돌풍	-11.6519
▁정회장	-11.6519
▁가정집	-11.6521
▁막으려	-11.6521
▁아시안	-11.6521
▁스테판	-11.6521
▁크루	-11.6521
▁숨져	-11.6522
▁벤처	-11.6522
▁스몰	-11.6523
▁소방차	-11.6524
▁기원전	-11.6524
▁금융기관	-11.6524
메모리얼	-11.6525
▁야외	-11.6526
▁절단	-11.6526
▁해리슨	-11.6526
▁데이브	-11.6527
▁사라질	-11.6527
▁도착하자	-11.6527
▁만들어졌다	-11.6528
▁법규	-11.6528
▁라이더	-11.6528
▁들렸다	-11.6529
▁각료회의	-11.6529
▁법령	-11.653
▁저격	-11.653
▁며칠간	-11.6531
▁예정이지만	-11.6531
▁반란군	-11.6531
▁초드리	-11.6532
▁꾸미	-11.6532
▁미시건주	-11.6533
▁접종	-11.6533
▁사귀	-11.6534
▁곤경에	-11.6534
▁보였으며	-11.6535
▁사과문	-11.6535
▁허브	-11.6537
▁CO	-11.6537
▁속출	-11.6538
▁비틀	-11.6541
▁푸미	-11.6541
▁개체	-11.6542
▁벌인다	-11.6542
▁관제	-11.6543
▁생길	-11.6544
▁반세기	-11.6544
▁가져오	-11.6546
▁경감	-11.6547
▁쿠즈	-11.6547
▁형량	-11.6547
▁측에서는	-11.6548
▁만연	-11.6549
▁대통령궁	-11.6549
▁뒤이어	-11.655
▁들어있다	-11.6552
ony	-11.6554
▁테디	-11.6554
▁구성원	-11.656
▁표정	-11.6561
▁구두	-11.6562
▁100%	-11.6562
▁주장했었다	-11.6562
▁손길	-11.6563
▁장애물	-11.6563
▁점심	-11.6564
▁벤치	-11.6566
Thi	-11.6568
ound	-11.657
▁드러나	-11.6571
▁파워	-11.6572
▁친분	-11.6572
▁돌진	-11.6576
▁자원봉사자들	-11.6584
▁총력	-11.6588
▁거행	-11.6589
▁서구	-11.6589
▁날려	-11.6589
▁전사들	-11.6591
▁입원해	-11.6594
▁민족주의	-11.6594
▁포즈	-11.6598
▁포크	-11.6603
▁반경	-11.6603
▁회복세	-11.6604
▁리우	-11.6606
▁카카	-11.6609
▁은신	-11.6612
▁공개될	-11.6613
부르크	-11.6617
▁조사관	-11.6617
▁구속력	-11.6617
▁연관성	-11.662
▁들소	-11.6627
▁놓치	-11.6628
1945	-11.6631
▁연합통신	-11.6634
▁마루	-11.6636
▁어미	-11.6636
▁동력	-11.6639
▁책상	-11.6641
▁우수	-11.6642
▁버드	-11.6646
▁우표	-11.6647
side	-11.6647
dict	-11.6653
▁분주	-11.6656
▁신선	-11.6657
▁끝나기	-11.6659
▁다르지	-11.6661
▁유전적	-11.6661
▁작가들	-11.6661
▁이용했다	-11.6661
▁hel	-11.6663
스프링스	-11.6668
▁과거사	-11.6668
▁14%	-11.6672
All	-11.6674
▁당선됐다	-11.6676
▁본회의	-11.6678
▁가야	-11.6678
▁몰아내	-11.6682
2007	-11.6686
▁BE	-11.6691
▁수송기	-11.6691
먼트	-11.67
벨라	-11.6704
▁관여하	-11.6704
▁실직자	-11.6716
▁진압하기	-11.6718
였음	-11.6724
uck	-11.6735
▁추방된	-11.6758
▁따르지	-11.676
▁소원	-11.6766
머니	-11.6768
▁농부들	-11.677
그램	-11.678
데릭	-11.6781
▁시행되	-11.6782
ton	-11.6791
▁보니	-11.6801
▁등장하	-11.6805
휘	-11.6812
▁원주민들	-11.6815
▁차이나	-11.682
▁바라지	-11.6824
짜	-11.683
▁심리적	-11.6834
떠	-11.6846
▁동원됐다	-11.6847
▁신체적	-11.6847
곰	-11.6847
낙	-11.6848
톰	-11.6849
매케인	-11.685
tive	-11.6853
▁존재하지	-11.6863
행동	-11.687
▁자연적	-11.6871
납치	-11.6874
▁농부	-11.688
동료	-11.688
1983	-11.6886
공연	-11.6903
수익	-11.6903
▁1.6	-11.6909
▁힘들었	-11.6918
▁제품들	-11.6919
▁Sup	-11.692
▁걸렸	-11.6922
전문가들	-11.6924
소속	-11.6933
재정	-11.6936
쿠르	-11.6948
▁조심	-11.696
▁권했다	-11.6969
▁합법적	-11.6969
▁권장	-11.6976
▁효과적	-11.6979
▁7.9	-11.6987
▁소방서	-11.6999
중단	-11.7001
▁들어왔	-11.7004
▁통신원	-11.7005
▁주정부	-11.7036
▁Go	-11.7044
▁계열	-11.7048
▁고통스러	-11.7048
▁시달리	-11.705
뢰	-11.7057
륜	-11.7066
▁arrest	-11.7069
ISAF	-11.7069
▁Corp	-11.7069
▁RCTV	-11.7069
▁Russia	-11.7069
▁Science	-11.7069
▁Street	-11.7069
▁가깝게	-11.7069
▁개성공단	-11.7069
▁경기후퇴	-11.7069
▁리트비넨코	-11.7069
▁메르세데스	-11.7069
▁무하마드	-11.7069
▁베를루스코니	-11.7069
▁상임이사국	-11.7069
▁새크라멘토	-11.7069
▁샌안토니오	-11.7069
▁선거기부금	-11.7069
▁세골렌	-11.7069
▁심장질환	-11.7069
▁아제르바이잔	-11.7069
▁아프카니스탄	-11.7069
▁애슐리	-11.7069
▁앵커	-11.7069
▁옮겼다	-11.7069
▁유엔사무총장	-11.7069
▁정권인수팀	-11.7069
▁정확하게	-11.7069
▁제너럴	-11.7069
▁좋겠다	-11.7069
▁즈보나레바	-11.7069
▁지켜봤다	-11.7069
▁지켰다	-11.7069
▁찍힌	-11.7069
▁췌장암	-11.7069
▁쿠즈넷소바	-11.7069
▁푸에르타	-11.7069
▁핀란드	-11.7069
▁하드웨어	-11.7069
▁해안경비대	-11.7069
▁히스패닉	-11.7069
시켰으며	-11.7069
엑스파일	-11.7069
캇	-11.7069
커뮤니케이션	-11.7069
키티호크	-11.7069
햇	-11.7069
헝	-11.7069
흠	-11.7069
▁price	-11.7069
▁국제축구연맹	-11.7069
▁성매매	-11.7069
▁오리건주	-11.7069
▁화성탐사	-11.7069
▁forces	-11.7069
▁대니얼	-11.7069
▁로날드	-11.7069
국제올림픽위원회	-11.7069
▁깁슨	-11.7069
▁메신저	-11.7069
▁신생아	-11.7069
▁회교도	-11.7069
▁나타날	-11.7069
▁승부차기	-11.7069
EPL	-11.7069
▁대법관	-11.7069
▁추기경	-11.7069
▁카펠로	-11.7069
▁fund	-11.7069
▁하니야	-11.7069
USGS	-11.7069
▁law	-11.7069
▁게이머	-11.7069
▁아폴로	-11.7069
▁동성결혼	-11.707
▁뉴잉글랜드	-11.707
▁컨셉	-11.707
▁무자비	-11.707
▁비너스	-11.707
▁사형선고	-11.707
▁좌우	-11.707
▁캐롤라인	-11.707
▁괴물	-11.707
▁아로요	-11.707
▁그리핀	-11.707
▁묵념	-11.707
습니까	-11.707
▁즐겁	-11.707
▁희귀	-11.707
▁블랙워터	-11.707
▁적혀있	-11.707
▁항구도시	-11.7071
▁룰라	-11.7071
▁에밀리	-11.7071
▁빠져나가	-11.7071
▁바레인	-11.7071
▁test	-11.7071
▁탈퇴	-11.7071
▁스프레이	-11.7071
▁욕구	-11.7071
▁인내심	-11.7071
▁오스만	-11.7072
▁즐겨	-11.7072
▁쿠마르	-11.7072
▁벌어질	-11.7072
▁드라이브	-11.7072
▁잠자리	-11.7073
▁쏟아져	-11.7073
▁옮겨졌다	-11.7074
▁잠겨	-11.7074
dge	-11.7074
▁제이슨	-11.7074
▁묻혀	-11.7075
▁빙산	-11.7075
▁무효	-11.7075
▁디젤	-11.7075
▁꺼내	-11.7075
▁요구사항	-11.7076
▁순결	-11.7076
▁어윈	-11.7077
▁attacks	-11.7077
▁모여들었다	-11.7077
▁들어올	-11.7077
▁주어지	-11.7077
▁터져	-11.7078
▁연봉	-11.7078
▁환급	-11.7078
▁아이다호	-11.7078
▁중동평화회의	-11.7079
▁최후	-11.7079
▁호황	-11.7079
▁러브	-11.7079
▁난항	-11.708
▁그레이스	-11.708
▁의논	-11.7081
▁빅토	-11.7081
▁오닐	-11.7082
▁아흐메드	-11.7082
▁교도통신	-11.7083
▁버리고	-11.7083
▁루머	-11.7083
&#4	-11.7084
▁표범	-11.7084
▁지하실	-11.7084
▁이어갔다	-11.7084
▁누출	-11.7085
▁난처	-11.7085
▁과속	-11.7086
▁무척	-11.7086
▁JP	-11.7086
▁티모	-11.7088
▁집결	-11.7088
▁강철	-11.7089
▁밝혀질	-11.7089
▁않을까	-11.709
▁출산율	-11.709
▁마스크	-11.709
▁소유즈	-11.709
▁카누	-11.7091
▁과감	-11.7091
▁기대감	-11.7091
▁그런데	-11.7092
▁이르다	-11.7093
▁탈선	-11.7093
여건	-11.7095
/4	-11.7095
▁종사하	-11.7096
0%	-11.7096
▁가져야	-11.7097
▁제왕	-11.7097
Inter	-11.7098
▁전인대	-11.7098
▁오르기	-11.7098
▁제약회사	-11.7099
▁항공편	-11.71
-16	-11.7101
▁다름	-11.7102
▁스파이스	-11.7103
▁자체적으로	-11.7104
▁카렌	-11.7105
스러워	-11.7105
▁여러차례	-11.7105
▁삼바	-11.7105
▁안았다	-11.7107
▁골든	-11.7107
▁자동차업체	-11.7109
▁고층	-11.7111
▁수익금	-11.7112
▁펜실베니아주	-11.7112
▁비스타	-11.7113
▁선교	-11.7115
▁선박들	-11.7118
▁감당	-11.7118
▁알아야	-11.7119
▁코란	-11.7119
▁1930	-11.712
▁들어있	-11.7122
▁들려	-11.7123
▁사립	-11.7124
▁사료	-11.7127
▁수사팀	-11.7127
▁애정	-11.7128
▁사용하여	-11.7128
▁부양	-11.7132
▁제작진	-11.7133
▁티나	-11.7137
부적절한	-11.7138
▁정당화	-11.714
▁부패혐의	-11.7141
▁구직	-11.7145
ncer	-11.7147
▁벗어나기	-11.7148
메스	-11.7148
▁지냈다	-11.7148
▁친미	-11.7149
ship	-11.7149
▁저하	-11.715
▁가루	-11.7151
▁부의장	-11.7155
▁새우	-11.7158
▁지질학	-11.716
▁타마	-11.7167
▁위크	-11.7168
atch	-11.7168
▁원내	-11.7173
민주적인	-11.7178
▁의거	-11.7179
▁충성	-11.7181
▁예산안	-11.7184
▁일방적	-11.7188
했거나	-11.7193
▁부국장	-11.72
웃	-11.7201
▁축하하기	-11.7205
▁확정됐다	-11.7209
▁스티븐스	-11.7214
former	-11.7215
▁측근들	-11.7223
▁정부측	-11.7227
화씨	-11.7228
▁사용된다	-11.7239
▁운동화	-11.7246
군요	-11.7255
행해진	-11.7263
▁조사관들	-11.7264
▁편집장	-11.7276
▁노인들	-11.7285
▁수사관들	-11.7293
▁인종적	-11.7293
▁적군	-11.7296
▁물건들	-11.7302
▁다양성	-11.7312
▁넘었다	-11.7326
fter	-11.7328
▁자백	-11.7349
탈루	-11.7352
대원들	-11.7359
▁적었다	-11.7367
▁병장	-11.7382
▁생사	-11.7393
▁공화당원들	-11.7399
▁자백했다	-11.7402
1974	-11.7406
▁소행이라	-11.7407
렉스	-11.7418
▁되는데	-11.7423
▁같지	-11.7427
폭탄테러	-11.7436
잇	-11.7437
세르비아	-11.7438
캘리포니아	-11.7438
힐러리	-11.7438
랭킹	-11.7438
아일랜드	-11.744
미디어	-11.7445
자신의	-11.7452
해왔으며	-11.7456
누구	-11.7462
완전	-11.7463
특히	-11.747
▁자국민	-11.7471
▁교사들	-11.7472
▁희생됐다	-11.748
▁소매업	-11.7488
석유	-11.7497
▁관람객	-11.7501
▁운영되	-11.7504
▁You	-11.7515
▁별장	-11.7522
노동자	-11.7534
회복	-11.7556
az	-11.7561
▁우주국	-11.7561
▁sur	-11.7569
점이다	-11.7635
백만명	-11.7635
▁미시건	-11.7637
▁당사자	-11.7638
셸	-11.7643
▁바람직	-11.7652
옳	-11.7653
콧	-11.7655
핏	-11.7656
▁주차장	-11.7657
벳	-11.7657
▁살모넬라	-11.7657
켐	-11.7658
팽	-11.7658
EADS	-11.7658
employ	-11.7658
▁claim	-11.7658
▁official	-11.7658
▁people	-11.7658
▁strike	-11.7658
▁summit	-11.7658
▁two	-11.7658
▁걸림돌	-11.7658
▁검정색	-11.7658
▁고르바초프	-11.7658
▁늦추	-11.7658
▁독극물	-11.7658
▁르완다	-11.7658
▁리우데자네이루	-11.7658
▁메릴린치	-11.7658
▁몰랐다	-11.7658
▁민주노동당	-11.7658
▁바나프샤	-11.7658
▁블래터	-11.7658
▁빈민층	-11.7658
▁서둘러	-11.7658
▁스탤론	-11.7658
▁스필버그	-11.7658
▁아디다스	-11.7658
▁악천후	-11.7658
▁않았었다	-11.7658
▁암스테르담	-11.7658
▁에스트라다	-11.7658
▁예방접종	-11.7658
▁위태롭게	-11.7658
▁인신매매	-11.7658
▁조류독감	-11.7658
▁칠면조	-11.7658
▁트리폴리	-11.7658
▁헐리우드	-11.7658
▁확립	-11.7658
▁휴전협정	-11.7658
▁흩어져	-11.7658
英	-11.7658
뚝	-11.7658
띤	-11.7658
샨	-11.7658
쥬	-11.7658
팻	-11.7658
펙	-11.7658
퐁	-11.7658
2007.02	-11.7658
week	-11.7658
▁KBS	-11.7658
▁구소련	-11.7658
▁당뇨병	-11.7658
▁마스터즈	-11.7658
▁여중생	-11.7658
▁오래전부터	-11.7658
▁제퍼슨	-11.7658
▁즐거운	-11.7658
▁항공모함	-11.7658
▁핵연료	-11.7658
反	-11.7658
▁영업이익	-11.7658
▁정보통신부	-11.7658
▁쿼터백	-11.7658
▁불공정	-11.7658
▁낭독	-11.7658
▁하토야	-11.7658
▁다이어트	-11.7658
▁급성장	-11.7658
▁센트럴	-11.7658
▁오디오	-11.7658
▁존엄성	-11.7658
▁조세프	-11.7658
▁대성당	-11.7658
▁흥정	-11.7658
▁유동성	-11.7658
▁고아원	-11.7658
▁치뤄	-11.7658
▁깁스	-11.7658
▁루카스	-11.7658
▁개구리	-11.7658
▁다둘라	-11.7658
▁산체스	-11.7658
▁조심스럽게	-11.7658
▁Polic	-11.7658
▁강대국	-11.7658
▁징조	-11.7658
(36)	-11.7658
(31)	-11.7658
▁정착촌	-11.7658
▁인공위성	-11.7658
▁진상조사	-11.7658
▁플루	-11.7658
▁경수로	-11.7658
▁특혜	-11.7658
▁그만두	-11.7658
▁다이앤	-11.7658
▁로렌	-11.7658
▁클릭	-11.7659
▁북아일랜드	-11.7659
▁Burm	-11.7659
even	-11.7659
▁카펫	-11.7659
▁노숙자	-11.7659
▁유가족들	-11.7659
▁통합민주당	-11.7659
▁진짜	-11.7659
▁도망쳤다	-11.7659
▁역전승	-11.7659
▁블랙홀	-11.7659
▁기념행사	-11.7659
▁극도로	-11.766
▁사무국장은	-11.766
▁국영언론	-11.766
▁타계했다	-11.766
▁크리스틴	-11.766
▁출혈	-11.766
▁좁혀	-11.7661
▁부유층	-11.7661
▁Press	-11.7661
▁항의시위	-11.7661
▁총파업	-11.7661
▁리옹	-11.7661
▁More	-11.7661
▁식별	-11.7661
▁군복무	-11.7662
▁크랜	-11.7662
▁헬렌	-11.7662
▁절망	-11.7662
▁어워드	-11.7662
▁체험	-11.7662
▁십자가	-11.7662
▁Ex	-11.7662
▁관례	-11.7663
▁출현	-11.7663
▁몰락	-11.7663
▁무장조직	-11.7663
▁인텔	-11.7664
▁무효화	-11.7664
▁차세대	-11.7664
▁진척	-11.7664
▁이슬람교도들	-11.7665
▁손잡	-11.7665
▁카타르	-11.7665
▁양육	-11.7665
▁그래함	-11.7666
▁살인사건	-11.7667
▁통신망	-11.7667
▁올라왔다	-11.7667
▁베니스	-11.7667
▁소년병	-11.7668
▁실망감	-11.7668
▁물리학자	-11.7669
▁피켓	-11.7669
▁축복	-11.767
▁일축	-11.767
▁환경단체	-11.767
▁미주리주	-11.7671
▁돌렸다	-11.7671
▁기네스	-11.7671
▁평화롭	-11.7672
▁넘긴	-11.7672
린첨	-11.7672
▁제휴	-11.7672
▁근방	-11.7675
▁표본	-11.7675
▁절정	-11.7675
▁소실	-11.7677
▁urge	-11.7677
▁머무르	-11.7677
▁로렌스	-11.7677
org	-11.7677
▁상환	-11.7677
▁737	-11.7678
▁고등학생	-11.7679
▁보내졌다	-11.7679
▁명절	-11.768
▁오찬	-11.7681
▁재앙	-11.7681
▁상점들	-11.7682
▁국무회의	-11.7682
▁강탈	-11.7682
▁구제금융안	-11.7682
▁현저	-11.7683
▁휘트	-11.7684
▁귀중	-11.7684
▁의장직	-11.7685
구조대	-11.7685
▁최장	-11.7686
▁발령했다	-11.7687
▁견제	-11.7688
▁고독	-11.7689
디언	-11.7691
▁유타주	-11.7691
▁진동	-11.7694
▁임상	-11.7696
▁최적	-11.7696
▁SG	-11.7696
▁임원들	-11.7696
▁황소	-11.7697
▁조장하	-11.7699
▁개통	-11.77
▁베이비	-11.77
▁영하	-11.77
▁어류	-11.7701
▁진술서	-11.7702
▁싶다면	-11.7703
▁마샤	-11.7703
▁매설	-11.7704
▁불량	-11.7704
▁변호인단	-11.7706
▁공작	-11.7708
ness	-11.7709
▁소비자들에게	-11.7709
▁구사하	-11.771
▁점유	-11.7714
▁관용	-11.7715
▁지상군	-11.7715
군사훈련	-11.7715
other	-11.7716
▁바다위	-11.7718
▁망치	-11.7718
▁다량	-11.7718
▁정복	-11.772
▁car	-11.772
▁원형	-11.7725
▁왔었다	-11.7733
▁아담스	-11.7737
▁결선	-11.7738
▁주의보	-11.7741
▁이라크인들	-11.7742
▁부탁했다	-11.7745
▁집계됐다	-11.7766
▁보잉사	-11.7772
▁구조물	-11.7778
▁처사	-11.7778
▁숨어있	-11.779
됐음	-11.7792
▁태워	-11.7807
▁계획이었다	-11.7812
▁차이점	-11.7821
▁파괴되	-11.7835
▁해안지역	-11.7836
▁문화원	-11.7841
▁원석	-11.7845
▁개별	-11.7848
▁비슷하다	-11.7849
▁깨어	-11.785
▁악수	-11.7852
▁음식점	-11.7865
▁우리들	-11.7881
▁사망률	-11.7891
▁cont	-11.7892
▁정해진	-11.7904
베르트	-11.7917
극적으로	-11.7931
▁잠들	-11.7933
▁경찰관들	-11.7934
▁정보통	-11.7938
▁0.7	-11.7958
rel	-11.7959
ju	-11.7968
▁게르	-11.7973
▁참석자들	-11.7977
▁1,2	-11.7994
▁사라져	-11.7996
rop	-11.7996
▁혁신적	-11.7998
끈	-11.8014
▁작위	-11.8015
칩	-11.8059
드립니다	-11.806
깊	-11.8062
CEO	-11.8062
아프가니스탄	-11.8062
콜롬비아	-11.8063
심각한	-11.8063
민주주의	-11.8065
결혼	-11.8067
어머니	-11.8072
UC	-11.8076
담당자	-11.8076
그리고	-11.8083
득점	-11.8085
버락	-11.8089
전세계	-11.809
코리아	-11.8098
▁붕괴되	-11.8098
ld	-11.81
▁라벨	-11.8107
▁보이기	-11.8113
▁생겼	-11.8115
바라크	-11.8121
▁MP	-11.8135
▁살아있다	-11.8145
▁촉진시키	-11.8161
▁정신병	-11.8203
▁사라졌	-11.8204
▁자리잡	-11.8214
불안	-11.822
▁취하기	-11.8223
▁빠졌	-11.8226
▁자동차회사	-11.8237
▁작동되	-11.8239
▁극단주의	-11.825
▁메디컬	-11.8251
▁거뒀	-11.8254
USS	-11.8272
섯	-11.8277
▁불러일으	-11.8278
eneral	-11.8282
놔	-11.8283
▁이바노비치	-11.8283
HDA	-11.8283
UNHCR	-11.8283
▁Administration	-11.8283
▁Health	-11.8283
▁Securit	-11.8283
▁Senate	-11.8283
▁chief	-11.8283
▁demand	-11.8283
▁economic	-11.8283
▁건강검진	-11.8283
▁공상과학	-11.8283
▁깨달았다	-11.8283
▁떠올랐다	-11.8283
▁리투아니아	-11.8283
▁멜버른	-11.8283
▁물러났다	-11.8283
▁바랐다	-11.8283
▁볼티모어	-11.8283
▁불균형	-11.8283
▁불러일으켰다	-11.8283
▁블록버스터	-11.8283
▁스틸러스	-11.8283
▁시에라리온	-11.8283
▁언젠가	-11.8283
▁옥스포드	-11.8283
▁재결합	-11.8283
▁준이치로	-11.8283
▁찾으려	-11.8283
▁츠방기라이	-11.8283
▁퀘벡	-11.8283
▁평화협정	-11.8283
▁프랑크푸르트	-11.8283
▁플레이스테이션	-11.8283
▁햇볕	-11.8283
▁햇빛	-11.8283
▁휠체어	-11.8283
市	-11.8283
긍	-11.8283
늑	-11.8283
랏	-11.8283
쑤	-11.8283
윅	-11.8283
팡	-11.8283
퍼레이션	-11.8283
▁200809.0	-11.8283
▁ABN	-11.8283
▁Week	-11.8283
▁기울여야	-11.8283
▁나미비아	-11.8283
▁남동생	-11.8283
▁놀이공원	-11.8283
▁뇌졸중	-11.8283
▁볼드윈	-11.8283
▁부총재	-11.8283
▁비아그라	-11.8283
▁식품의약국	-11.8283
▁옵션	-11.8283
▁자페타	-11.8283
뚜	-11.8283
▁내보냈다	-11.8283
▁모레스모	-11.8283
▁청원서	-11.8283
▁카르발라	-11.8283
▁트러스트	-11.8283
▁패트로스	-11.8283
▁tax	-11.8283
▁남겨두고	-11.8283
▁노던록	-11.8283
▁부동층	-11.8283
▁탄원서	-11.8283
텀	-11.8283
▁구속영장	-11.8283
▁헬만드	-11.8283
▁흡입	-11.8283
▁전자메일	-11.8283
▁상무부	-11.8283
▁인수제안	-11.8283
▁사무차장	-11.8283
▁타디치	-11.8283
GDP	-11.8283
▁사로잡	-11.8283
▁스즈키	-11.8283
▁원동력	-11.8283
▁중질유	-11.8283
▁스콜스	-11.8283
▁산악지대	-11.8283
▁서두르	-11.8283
▁컬럼비아호	-11.8283
▁버나드	-11.8283
▁trans	-11.8283
▁산시성	-11.8283
▁포브스	-11.8283
▁로드아일랜드	-11.8283
▁수수료	-11.8283
▁때때로	-11.8283
count	-11.8283
▁엘리엇	-11.8283
▁프린트	-11.8283
▁자위대	-11.8283
▁trial	-11.8283
▁그려진	-11.8283
▁있으므로	-11.8283
▁해들리	-11.8283
▁다저스	-11.8283
▁이스마일	-11.8283
시드르	-11.8283
▁궁극적으로	-11.8283
▁축구팬들	-11.8283
▁액체	-11.8283
▁검역	-11.8283
net	-11.8283
▁슬픈	-11.8283
▁작가조합	-11.8284
으므로	-11.8284
▁노동조합	-11.8284
▁국가안보회의	-11.8284
▁레빈슨	-11.8284
▁Medic	-11.8284
▁벗겨	-11.8284
▁침착하	-11.8284
▁압델	-11.8284
▁six	-11.8284
▁철폐	-11.8284
▁언니	-11.8284
▁놓여있다	-11.8284
▁현대자동차	-11.8284
▁주변국들	-11.8284
▁추산되	-11.8285
▁Park	-11.8285
▁부활절	-11.8285
▁유대교	-11.8286
▁soldiers	-11.8286
▁당직자	-11.8286
▁예상됩니다	-11.8286
▁있냐	-11.8287
▁신흥	-11.8287
▁우주여행	-11.8287
▁집값	-11.8288
▁랜디	-11.8288
▁출처	-11.8288
▁계승	-11.8289
▁찾아냈다	-11.8289
▁차량폭탄	-11.8289
▁나눈	-11.829
ww	-11.829
▁장례	-11.829
▁키팅	-11.829
▁생애	-11.8291
▁스튜	-11.8291
▁합쳐	-11.8291
▁1.5%	-11.8291
▁알라위	-11.8291
▁불법행위	-11.8291
▁생물체	-11.8292
▁신기록	-11.8292
▁신자들	-11.8292
▁내륙	-11.8292
▁도발적	-11.8292
▁자동차산업	-11.8292
첸코	-11.8293
▁찰리	-11.8293
▁공헌	-11.8293
▁완구	-11.8294
써	-11.8294
▁코웰	-11.8294
NT	-11.8294
▁바꾼	-11.8295
▁오웬	-11.8295
▁1967	-11.8295
▁조롱	-11.8295
▁관통	-11.8296
▁지명되기	-11.8296
▁야채	-11.8297
▁희미	-11.8298
▁폭도들	-11.8298
▁흔들었다	-11.8298
▁흉내	-11.8298
▁레빈	-11.8298
▁생생	-11.8298
▁종목	-11.8299
▁단결	-11.8299
▁Air	-11.8299
▁폴락	-11.8299
▁거래되	-11.8301
▁골절	-11.8301
▁증파	-11.8302
▁용감	-11.8302
▁그레그	-11.8304
▁사무국	-11.8307
▁팬더	-11.8307
▁단편	-11.8307
▁법무상	-11.8307
▁당사자들	-11.8307
▁루이지애나주	-11.8308
▁찾아온	-11.8308
▁아델	-11.831
▁게시물	-11.831
▁거론하	-11.8311
▁자폭	-11.8311
▁풀려나	-11.8312
▁유명인사들	-11.8313
▁왕관	-11.8313
▁위함	-11.8313
▁강조하며	-11.8314
▁청산	-11.8314
▁줄리아	-11.8315
▁무력화	-11.8315
▁통제권	-11.8317
▁브라이언트	-11.8317
▁마술	-11.8318
▁연구자들	-11.8318
▁진심	-11.8318
▁돌아보	-11.8319
▁루터	-11.8319
▁애리조나주	-11.8321
▁배출량	-11.8321
짐에따라	-11.8323
▁격전	-11.8323
▁과오	-11.8328
▁가속	-11.8331
▁발판	-11.8332
▁증대	-11.8332
▁타워	-11.8338
▁돌파구	-11.8342
▁청년들	-11.8346
▁말해주	-11.8348
즉각적으로	-11.8349
▁간주되	-11.8349
▁생산업체	-11.835
▁난관	-11.8355
▁유로화	-11.8355
▁깨진	-11.8356
▁궁전	-11.8356
▁늘었다	-11.8357
다시피	-11.8364
▁맺어	-11.8368
▁등장한다	-11.8368
ating	-11.8368
▁박탈당	-11.8368
PR	-11.8381
▁통과시키	-11.8388
▁특성	-11.8391
▁중단시켰다	-11.8391
▁인내	-11.8392
▁요리사	-11.84
투성이	-11.8408
▁천국	-11.8424
ft	-11.8426
▁지방정부	-11.8439
바락	-11.8439
▁위력	-11.8448
▁하나였다	-11.8448
▁밝혀져	-11.8451
ift	-11.8451
cal	-11.8454
▁관람객들	-11.8454
▁해당한다	-11.8454
▁장갑	-11.8461
▁조각들	-11.8483
ina	-11.8493
long	-11.8497
▁부대변인	-11.8515
than	-11.852
▁이루어졌	-11.8538
프로스트	-11.8538
▁블로거	-11.8541
▁독자적	-11.8551
스러웠다	-11.8566
▁수출국	-11.8567
▁무장세력들	-11.8567
태국	-11.8595
cial	-11.8614
orn	-11.8625
EL	-11.8649
▁이송됐으	-11.8657
▁집중적	-11.8661
bur	-11.8716
레이즈	-11.872
못	-11.8722
듀	-11.8726
OPEC	-11.8727
PKK	-11.8728
홈	-11.8728
여객기	-11.8728
따라서	-11.8728
퀸	-11.8729
워싱턴	-11.8729
2009.01	-11.8729
레바논	-11.873
사르코지	-11.873
데일리	-11.8731
프레드	-11.8733
베컴	-11.8733
985	-11.8734
여러분	-11.8736
▁목장	-11.8743
등록	-11.8745
혁	-11.8755
▁간주하	-11.8765
▁존재한다	-11.8777
금치	-11.8787
▁떨어뜨	-11.8809
▁경찰국장	-11.8821
▁이재민들	-11.883
▁소녀들	-11.8834
▁스타디움	-11.8883
▁알려왔	-11.8884
▁저질렀	-11.8888
▁같아	-11.8901
거래소에서	-11.8938
▁콜롬	-11.8946
ough	-11.8946
▁kill	-11.8947
▁로빈	-11.8948
갓	-11.8949
▁California	-11.8949
▁래드클리프	-11.8949
▁파키스탄인민당	-11.8949
줌	-11.8949
6,000	-11.8949
People	-11.8949
usiness	-11.8949
▁2007~2008	-11.8949
▁DAX	-11.8949
▁IRNA	-11.8949
▁Iran	-11.8949
▁NHC	-11.8949
▁Research	-11.8949
▁Thai	-11.8949
▁Work	-11.8949
▁candidate	-11.8949
▁group	-11.8949
▁grow	-11.8949
▁market	-11.8949
▁굉장히	-11.8949
▁끊겼	-11.8949
▁다비덴코	-11.8949
▁대검찰청	-11.8949
▁멤피스	-11.8949
▁버킹엄	-11.8949
▁부드러운	-11.8949
▁사이언톨로지	-11.8949
▁슈퍼마켓	-11.8949
▁아르메니아	-11.8949
▁애틀랜틱	-11.8949
▁전비법안	-11.8949
▁출퇴근	-11.8949
▁칼데론	-11.8949
▁타임스퀘어	-11.8949
▁티크리트	-11.8949
▁프랑수아	-11.8949
▁하르툼	-11.8949
▁혹등고래	-11.8949
북대서양조약기구	-11.8949
엉	-11.8949
쟈	-11.8949
Black	-11.8949
ING	-11.8949
▁High	-11.8949
▁구제금융법안	-11.8949
▁국가평의회	-11.8949
▁루고보이	-11.8949
▁매몰된	-11.8949
▁무기징역	-11.8949
▁볼리비아	-11.8949
▁포유류	-11.8949
퀘	-11.8949
▁국제영화제	-11.8949
▁애완용	-11.8949
세컨드라이프	-11.8949
▁니제르	-11.8949
▁대배심	-11.8949
▁즐긴다	-11.8949
▁여기저기	-11.8949
▁파딜라	-11.8949
타이타닉	-11.8949
▁1972	-11.8949
▁메이도프	-11.8949
▁섭씨	-11.8949
▁트레일러	-11.8949
▁바이에른	-11.8949
▁핵폐기	-11.8949
▁아메바	-11.8949
▁재경부	-11.8949
▁금리인하	-11.8949
▁제레미	-11.8949
▁메케인	-11.8949
▁냉장고	-11.8949
▁리브니	-11.8949
스타워즈	-11.8949
▁모으고	-11.8949
▁버크헤드	-11.8949
▁파라오	-11.8949
하였는데	-11.8949
슬라브	-11.8949
▁불가사의	-11.895
솔직히	-11.895
▁사진작가	-11.895
▁올림피	-11.895
▁무언가	-11.895
▁말리부	-11.895
(41)	-11.895
(37)	-11.895
▁어쩔	-11.895
rug	-11.895
▁뛰어넘	-11.895
▁소비에트	-11.895
(22)	-11.895
house	-11.895
▁화학물질	-11.895
도날드	-11.895
▁알라스카	-11.895
▁비정상적	-11.895
▁바시르	-11.8951
▁아이튠	-11.8951
▁show	-11.8951
▁미뤄	-11.8951
▁home	-11.8951
▁용도로	-11.8951
▁군사행동	-11.8951
쿼터	-11.8951
▁메인주	-11.8951
▁CAC	-11.8952
▁남태평양	-11.8952
▁베이징올림픽	-11.8952
▁killed	-11.8952
▁1,500	-11.8952
rough	-11.8952
▁옳은	-11.8952
(30)	-11.8952
▁부모님	-11.8952
▁봉투	-11.8952
▁로리언	-11.8952
▁동아시아	-11.8952
▁부정행위	-11.8953
▁피난처	-11.8953
▁홈경기	-11.8953
▁불륜	-11.8953
▁마스리	-11.8953
▁포털	-11.8953
▁비밀요원	-11.8953
▁로지스	-11.8953
▁레코드	-11.8953
▁4.5%	-11.8953
▁십먼	-11.8954
▁콜롬보	-11.8954
▁놀라움	-11.8954
▁날카로	-11.8954
▁입후보	-11.8954
▁복음	-11.8954
▁스노우	-11.8954
▁우발적	-11.8954
▁푸른	-11.8955
▁FAA	-11.8955
▁XP	-11.8955
▁비웃	-11.8955
▁멜론	-11.8955
▁던졌	-11.8956
▁해산시키기	-11.8956
▁범죄행위	-11.8957
▁누구인지	-11.8957
▁일기장	-11.8957
▁정몽	-11.8957
▁빈센트	-11.8957
층짜리	-11.8957
▁축구스타	-11.8958
▁hit	-11.8958
▁자치권	-11.8958
기동대	-11.8958
▁기관총	-11.8958
▁아프리카연합	-11.8958
▁근절	-11.8958
▁하렐	-11.8959
▁에베레스트산	-11.8959
▁계급	-11.8959
▁운용	-11.896
▁최신작	-11.896
▁엔론	-11.896
▁인권문제	-11.8961
▁형편	-11.8961
▁놀란	-11.8961
had	-11.8961
▁폭발사고	-11.8961
▁신씨	-11.8963
▁도로변	-11.8963
▁우편물	-11.8963
▁야망	-11.8963
▁교각	-11.8963
▁만평	-11.8963
▁set	-11.8964
▁대국민	-11.8964
▁즉석	-11.8964
▁난입	-11.8964
▁로빈슨	-11.8964
▁보스톤	-11.8964
▁고심하	-11.8964
▁태생	-11.8964
▁절실	-11.8964
▁선례	-11.8966
▁은둔	-11.8966
▁번복	-11.8966
▁공공연	-11.8967
▁국회의장	-11.8967
▁경합	-11.8967
▁평온	-11.8968
▁거론되	-11.8968
▁들어설	-11.8972
▁버몬트주	-11.8973
▁상향	-11.8974
▁과연	-11.8975
▁담요	-11.8975
val	-11.8976
▁위독	-11.8976
▁설전	-11.8977
▁포탄	-11.898
▁건축물	-11.8981
▁연합정부	-11.8982
▁대피시켰다	-11.8984
▁설비	-11.8985
rious	-11.8987
▁생계	-11.8987
ween	-11.8991
▁궁지에	-11.8992
▁0.5	-11.8997
▁음료수	-11.8998
▁불확실성	-11.9004
하듯	-11.9008
▁소방당국	-11.9013
통합	-11.9019
정규직	-11.902
▁소실됐다	-11.9026
▁거주민	-11.9027
▁보험회사	-11.903
We	-11.9032
▁펼쳐진	-11.904
실질적	-11.9044
▁지원자들	-11.9047
▁꺼리	-11.9057
▁국세청장	-11.9061
▁제공되	-11.9071
VS	-11.9075
클래	-11.9076
▁보건장관	-11.908
겠는가	-11.9087
▁극복하	-11.909
학술	-11.9093
▁동의안	-11.91
▁방영되	-11.9101
▁거머쥐었	-11.9103
▁나누어	-11.9108
▁향상시키	-11.9113
▁휴회	-11.9132
▁군사정부	-11.9145
▁구성원들	-11.9159
▁관중들	-11.9192
▁활동가들	-11.9194
셰르	-11.9195
▁통상적	-11.9198
아갈	-11.9216
uni	-11.9225
▁경쟁자들	-11.9242
▁기술자들	-11.9289
▁관점	-11.9293
어지면서	-11.9311
▁교장	-11.9334
▁구매자들	-11.9402
김양	-11.941
맹	-11.942
▁힘들어	-11.9425
979	-11.9428
봐	-11.9436
흘	-11.9438
끄	-11.944
템	-11.9441
몸	-11.9442
숨	-11.9442
녹	-11.9444
코소보	-11.9444
라디오	-11.9444
넘	-11.9444
첫	-11.9444
뱀	-11.9445
바이러스	-11.9446
오프라	-11.9452
위험	-11.946
Tri	-11.9471
▁존재하	-11.9473
라이스	-11.9473
.25%	-11.9479
▁약화시키	-11.9486
▁각료들	-11.9507
▁미성년	-11.9537
▁인류학	-11.9556
▁천문학	-11.957
▁부적절	-11.9575
ham	-11.9583
▁제압하	-11.9588
~200	-11.9606
▁2.0	-11.9641
▁6.8	-11.9646
자와히리	-11.9658
쿼	-11.9661
탬	-11.9663
껴	-11.9664
애국전선	-11.9664
훌	-11.9664
(61)	-11.9664
▁constitution	-11.9664
▁economy	-11.9664
▁뉴욕타임즈	-11.9664
▁아름답	-11.9664
뚱	-11.9664
뜰	-11.9664
멕	-11.9664
(57)	-11.9664
Academy	-11.9664
NDO	-11.9664
SNCF	-11.9664
lobal	-11.9664
▁Control	-11.9664
▁IWC	-11.9664
▁Rights	-11.9664
▁Society	-11.9664
▁Union	-11.9664
▁problem	-11.9664
▁return	-11.9664
▁securit	-11.9664
▁support	-11.9664
▁withdraw	-11.9664
▁공동기자회견에	-11.9664
▁국가대표팀	-11.9664
▁나스랄라	-11.9664
▁남우주연상	-11.9664
▁네브라스카	-11.9664
▁다녔다	-11.9664
▁대기오염	-11.9664
▁대선예비후보	-11.9664
▁더글라스	-11.9664
▁독립선언	-11.9664
▁디카프리오	-11.9664
▁따돌렸다	-11.9664
▁만토바니	-11.9664
▁맛봤다	-11.9664
▁머물렀다	-11.9664
▁믿어지	-11.9664
▁바예스테로스	-11.9664
▁박스오피스	-11.9664
▁발렌시아	-11.9664
▁백과사전	-11.9664
▁벗어났다	-11.9664
▁분리독립	-11.9664
▁사우스다코타	-11.9664
▁산업자원부	-11.9664
▁시니오라	-11.9664
▁신시내티	-11.9664
▁아리조나	-11.9664
▁아쿠아리움	-11.9664
▁에메랄드	-11.9664
▁워싱턴포스트	-11.9664
▁잉그리드	-11.9664
▁카메룬	-11.9664
▁카스파로프	-11.9664
▁프란체스	-11.9664
▁홀로코스트	-11.9664
눕	-11.9664
랴	-11.9664
뭘	-11.9664
샵	-11.9664
샹	-11.9664
쿡	-11.9664
퉁	-11.9664
▁threaten	-11.9664
▁미식축구	-11.9664
▁옥수수	-11.9664
▁와코비아	-11.9664
▁최연소	-11.9664
갑작스럽게	-11.9664
펠릭스	-11.9664
▁견뎌	-11.9664
▁배트맨	-11.9664
▁쓰러진	-11.9664
어느때보다	-11.9664
▁크라이튼	-11.9664
▁라말라	-11.9664
▁은하계	-11.9664
▁인공심장	-11.9664
▁전두환	-11.9664
▁패터슨	-11.9664
▁비무장지대	-11.9664
▁퇴근	-11.9664
▁허덕이	-11.9664
▁놀이기구	-11.9664
▁분화구	-11.9664
▁사이언스	-11.9664
▁산티아고	-11.9664
▁우체국	-11.9664
▁알메이다	-11.9664
▁어둡	-11.9664
▁돌려보내	-11.9664
▁공청회	-11.9664
▁성범죄자	-11.9664
▁세르게이	-11.9664
RBS	-11.9664
▁보너스	-11.9664
▁퇴출	-11.9664
AIDS	-11.9664
▁삼성전자	-11.9664
▁아침식사	-11.9664
▁국가안보보좌관	-11.9664
▁도서관	-11.9664
외할머니	-11.9664
▁[[	-11.9664
▁결론지었다	-11.9664
▁떠다니	-11.9664
(38)	-11.9664
▁씨앗	-11.9664
▁민주변화운동	-11.9664
▁세비르	-11.9664
▁트레이시	-11.9664
▁크로포드	-11.9664
▁어쩌	-11.9664
▁추도식	-11.9664
▁헐값	-11.9664
▁리프트	-11.9664
다빈치	-11.9664
(52)	-11.9664
▁제국주의	-11.9664
▁종합병원	-11.9664
▁와일드	-11.9664
▁현명한	-11.9664
▁홍보담당자	-11.9664
▁켄트	-11.9664
▁김일성	-11.9664
▁업종	-11.9664
▁종지부	-11.9665
▁탐지기	-11.9665
▁재가동	-11.9665
갤런	-11.9665
▁탈옥	-11.9665
▁불상사	-11.9665
▁선거인단	-11.9665
▁어둠	-11.9665
▁빠져나갔다	-11.9665
▁낫다	-11.9665
▁구급차	-11.9665
▁온몸	-11.9665
▁천수이	-11.9665
▁버핏	-11.9665
▁사육사들	-11.9665
(19)	-11.9665
▁출몰	-11.9665
(40)	-11.9665
▁아름다움	-11.9666
▁건강보험	-11.9666
▁who	-11.9666
▁출근	-11.9666
▁패션쇼	-11.9666
했었지만	-11.9666
(20)	-11.9666
▁겨누	-11.9666
▁올라간다	-11.9666
▁고의적으로	-11.9666
▁주모자	-11.9667
▁갈망하	-11.9667
▁디즈니랜드	-11.9667
▁틸리	-11.9667
▁약물검사	-11.9667
ific	-11.9668
▁수감생활	-11.9668
▁교훈	-11.9668
▁봉급	-11.9668
sex	-11.9668
▁평의회	-11.9668
▁사형제도	-11.9668
▁베풀	-11.9669
2008.01	-11.9669
▁검은색	-11.9669
바레드	-11.9669
▁도미니	-11.9669
▁있었는데	-11.9669
▁잠정적	-11.967
▁cut	-11.967
▁별칭	-11.967
▁갑작스러	-11.967
▁노골적	-11.967
할로윈	-11.967
▁드럼	-11.967
▁휴먼	-11.967
▁채굴	-11.967
▁유명해졌다	-11.9671
▁압류	-11.9671
▁만들어낸	-11.9671
▁완강	-11.9671
▁청취	-11.9671
▁잃었으며	-11.9671
▁머독	-11.9671
▁감기약	-11.9671
▁City	-11.9671
▁싸워	-11.9671
▁대리모	-11.9672
▁사망원인	-11.9672
▁페드로	-11.9672
▁뉴먼	-11.9672
▁환경운동	-11.9672
▁마샬	-11.9672
AMA	-11.9672
reme	-11.9672
▁회생	-11.9672
▁마피아	-11.9672
▁가져온	-11.9672
▁MTV	-11.9673
▁축구협회	-11.9673
▁편견	-11.9673
▁필사적	-11.9673
플랜	-11.9673
▁월급	-11.9673
▁떨어지면서	-11.9674
▁터졌다	-11.9674
▁도와준	-11.9674
▁암살사건	-11.9674
▁축구선수	-11.9675
▁잠입	-11.9675
▁숙박비	-11.9675
▁애견	-11.9675
▁케이티	-11.9676
▁샤리아	-11.9676
▁담합	-11.9676
▁처방전	-11.9676
▁주택시장	-11.9677
▁과열	-11.9677
▁Iraqi	-11.9677
IJ	-11.9677
▁홀더	-11.9677
▁deal	-11.9677
▁담았다	-11.9678
▁화산재	-11.9678
▁합작	-11.9679
▁듀크	-11.9679
▁소도시	-11.9679
▁자궁	-11.968
▁정치활동	-11.968
▁요한슨	-11.9683
▁에릭슨	-11.9685
▁로케	-11.9687
▁인출	-11.9689
▁종교단체	-11.9691
▁친지들	-11.9695
▁카나리	-11.9697
▁보장받	-11.9697
▁않음	-11.9707
쥐스틴	-11.9708
프로축구	-11.9709
트루먼	-11.9709
▁보수주의자들	-11.9718
1977	-11.9719
무차관	-11.9725
부총리	-11.9726
▁근본주의자들	-11.973
▁용량	-11.9737
▁이민국	-11.9751
▁임시정부	-11.9758
▁소비량	-11.9759
▁office	-11.9795
▁거주지역	-11.9796
▁상무위원	-11.9808
dom	-11.9811
▁통과시킨	-11.9824
ater	-11.9831
1191	-11.9841
Big	-11.9854
▁산업지수	-11.9889
973	-11.99
▁사죄	-11.9916
개인적	-11.9929
▁관장	-11.9936
emi	-11.9936
유니티	-11.9937
▁프라하	-11.9941
▁초고속	-11.9956
▁소방대원들	-11.9982
▁2008.12.1	-11.999
▁인권단체들	-12.0025
▁교수들	-12.0042
▁감정적	-12.0057
▁요인들	-12.0068
범들	-12.0073
▁0.4	-12.0181
▁탈북자들	-12.0183
라이츠	-12.0192
쉐	-12.0209
굿	-12.0209
APEC	-12.0209
샘	-12.021
기상청	-12.0211
박물관	-12.0212
꿈	-12.0212
누군가	-12.0212
댄	-12.0212
백악관	-12.0213
싸움	-12.0213
앨범	-12.0213
마지막	-12.0213
마이클	-12.0214
night	-12.0214
사망자	-12.0215
테니스	-12.0218
경쟁	-12.0218
리서치	-12.0219
미국인들은	-12.0224
실험	-12.0224
▁lead	-12.0247
▁경영자들	-12.0265
▁받으면	-12.0369
▁중단하겠다	-12.0395
▁드러냈	-12.0409
▁검시	-12.0412
▁돌려받	-12.0426
▁디스커버리	-12.0428
듭	-12.0429
▁경기부양	-12.0432
Space	-12.0433
오피니언	-12.0433
▁Agency	-12.0433
▁유럽중앙은행	-12.0433
챈	-12.0433
퍽	-12.0433
place	-12.0433
▁Group	-12.0433
▁Israel	-12.0433
▁Microsoft	-12.0433
▁NHK	-12.0433
▁Washington	-12.0433
▁missile	-12.0433
▁sanction	-12.0433
▁system	-12.0433
▁가깝다	-12.0433
▁고혈압	-12.0433
▁굉장한	-12.0433
▁나뭇가지	-12.0433
▁노스다코타	-12.0433
▁듀프레	-12.0433
▁루프트한자	-12.0433
▁맨하탄	-12.0433
▁밀워키	-12.0433
▁발렌타인	-12.0433
▁보궐선거	-12.0433
▁북방한계선	-12.0433
▁브래들리	-12.0433
▁비디오테이프	-12.0433
▁사파테로	-12.0433
▁스머프	-12.0433
▁아틀레티코	-12.0433
▁알레르기	-12.0433
▁알츠하이머	-12.0433
▁엔터프라이즈	-12.0433
▁연방준비은행	-12.0433
▁월경작전	-12.0433
▁인수합병	-12.0433
▁조기총선	-12.0433
▁족자카르타	-12.0433
▁쫓아내	-12.0433
▁캄푸쉬	-12.0433
▁컨소시엄	-12.0433
▁코뿔소	-12.0433
▁코펜하겐	-12.0433
▁클랩튼	-12.0433
▁클리브랜드	-12.0433
▁통합러시아당	-12.0433
▁트럼프	-12.0433
▁파라마운트	-12.0433
▁폴란스키	-12.0433
▁해밀턴	-12.0433
▁해수욕장	-12.0433
▁행정명령	-12.0433
故	-12.0433
뎀	-12.0433
드림라이너	-12.0433
샴	-12.0433
샷	-12.0433
슬로바키아	-12.0433
쏠	-12.0433
씬	-12.0433
쥔	-12.0433
캐시미르	-12.0433
트랜스포머	-12.0433
Europe	-12.0433
John	-12.0433
▁Commission	-12.0433
▁capital	-12.0433
▁광저우	-12.0433
▁대북제재	-12.0433
▁비무장	-12.0433
▁서부텍사스산	-12.0433
▁스펙터	-12.0433
▁울프위츠	-12.0433
▁이슬라미야	-12.0433
▁천안문	-12.0433
▁테러리즘	-12.0433
▁휘두르	-12.0433
性	-12.0433
륨	-12.0433
싹	-12.0433
쪼	-12.0433
프로농구	-12.0433
▁시베리아	-12.0433
▁시트콤	-12.0433
▁에버튼	-12.0433
▁코리아타임즈	-12.0433
간담회에서	-12.0433
만배럴	-12.0433
언더파	-12.0433
Earth	-12.0433
▁서포터	-12.0433
▁스릴러	-12.0433
어리석은	-12.0433
▁3~4	-12.0433
▁복부비만	-12.0433
▁이스트우드	-12.0433
▁UCI	-12.0433
▁드물게	-12.0433
▁친인척	-12.0433
▁현충일	-12.0433
Green	-12.0433
▁라마디	-12.0433
▁배기가스	-12.0433
▁유니폼	-12.0433
▁혈압	-12.0433
▁임상실험	-12.0433
▁트레이너	-12.0433
▁카제미	-12.0433
▁차이나데일리	-12.0433
▁상여금	-12.0433
MLS	-12.0433
▁쓰러지	-12.0433
▁스프링스틴	-12.0433
▁카밀라	-12.0433
KGB	-12.0433
▁만수르	-12.0433
▁엘비스	-12.0433
▁붐비는	-12.0433
▁끼치지	-12.0433
▁루시디	-12.0433
▁착각	-12.0433
학저널	-12.0433
▁구덩이	-12.0433
▁주일미군	-12.0433
▁손가락	-12.0433
▁헬멧	-12.0433
▁의정서	-12.0433
▁조연상	-12.0433
▁혈통	-12.0433
됨으로써	-12.0433
▁그랜트	-12.0433
stem	-12.0433
▁미생물	-12.0433
▁에모리	-12.0433
▁rul	-12.0433
참전용사	-12.0433
▁어렸을	-12.0433
▁발리우드	-12.0433
▁로하스	-12.0433
(42)	-12.0433
▁민주변화	-12.0433
스피어	-12.0433
▁스트립	-12.0434
▁비서관	-12.0434
(35)	-12.0434
▁에어컨	-12.0434
▁선두주자	-12.0434
▁적임자	-12.0434
▁경신했다	-12.0434
(28)	-12.0434
▁메세지	-12.0434
▁클리닉	-12.0434
▁디아즈	-12.0434
▁집주인	-12.0434
▁클라우디	-12.0434
▁확실시되	-12.0434
▁스코어	-12.0434
▁폭죽	-12.0434
▁블랙베리	-12.0434
▁히잡	-12.0434
▁move	-12.0434
▁클린트	-12.0434
▁골드버그	-12.0434
▁얼룩말	-12.0434
▁give	-12.0435
나르기스	-12.0435
▁데이비스컵	-12.0435
1966	-12.0435
▁깨뜨	-12.0435
▁냉소적	-12.0435
▁곤봉	-12.0435
▁전자제품	-12.0435
▁현존하	-12.0435
▁rate	-12.0435
▁청중들	-12.0435
▁겸손	-12.0435
▁마땅	-12.0435
▁report	-12.0435
▁특검	-12.0435
▁권좌	-12.0435
▁완패	-12.0436
▁press	-12.0436
▁가르쳐	-12.0436
▁압축	-12.0436
Georg	-12.0436
▁Watch	-12.0436
▁장병들	-12.0436
▁과격단체	-12.0436
▁타깃	-12.0436
▁차량폭탄테러	-12.0437
▁훔쳤	-12.0437
▁보호구역	-12.0437
했어야	-12.0437
▁지켜볼	-12.0437
▁사흘	-12.0437
▁쇼핑센터	-12.0438
▁추락사고	-12.0438
▁61%	-12.0438
▁경범죄	-12.0438
▁학습	-12.0438
▁항목	-12.0439
▁폭염	-12.0439
▁서유럽	-12.0439
▁남아시아	-12.0439
▁성폭력	-12.0439
▁없었으나	-12.0439
▁금전적	-12.0439
▁3.5%	-12.0439
▁입혔다	-12.044
▁슈스터	-12.044
▁부흥	-12.044
▁슬림	-12.0441
▁유로스타	-12.0441
▁출품	-12.0441
▁붉은색	-12.0441
▁친근	-12.0442
▁38%	-12.0442
▁굴복	-12.0443
▁대슐	-12.0444
▁관절	-12.0444
▁특유	-12.0445
▁어부들	-12.0445
▁추산하	-12.0447
water	-12.0448
▁가리키	-12.045
▁교도관	-12.0451
clos	-12.0452
NSC	-12.0454
▁알프레	-12.0456
▁선호하	-12.0459
해보면	-12.0461
▁바람직하다	-12.0462
▁기상학자	-12.0467
▁돌봐	-12.0468
▁leg	-12.0472
▁최신호에	-12.0475
해지면서	-12.0477
Marin	-12.0478
▁슈퍼대의원들	-12.0484
TAM	-12.0488
▁시에나	-12.0488
▁행해지	-12.0489
클로버	-12.0492
▁주가지수	-12.0493
▁작용하	-12.0499
▁행정장관	-12.05
poll	-12.0508
▁조합원들	-12.0518
선수들	-12.0527
통계국	-12.0529
▁보수주의	-12.0529
▁글로리	-12.0543
▁중부지역	-12.0549
Live	-12.0551
▁상인들	-12.056
▁소방서장	-12.0571
▁외곽지역	-12.058
▁나와있	-12.059
▁심각해지	-12.0611
▁통근자들	-12.0638
well	-12.064
▁영구적	-12.0676
▁배심원들	-12.0735
▁쥐들	-12.0758
보호법	-12.0842
stro	-12.0872
▁세워졌	-12.0875
놓는다	-12.0881
nois	-12.0893
▁인기있	-12.0917
▁블로거들	-12.0928
▁행성들	-12.0958
▁Service	-12.0958
▁끝냈	-12.0965
▁제조업체들	-12.0974
팬들	-12.099
▁당선되	-12.099
▁연결하	-12.1017
▁스프링	-12.1023
▁개별적	-12.1025
뇌	-12.1039
엑	-12.1041
벗	-12.1042
빗	-12.1043
덜	-12.1044
FDA	-12.1044
▁장갑차	-12.1044
CDC	-12.1045
쓸	-12.1045
고등학교	-12.1046
웹	-12.1046
교도소	-12.1046
콰	-12.1046
닷	-12.1046
컴퓨터	-12.1046
일리노이	-12.1047
중요한	-12.1047
섞	-12.1048
▁추측되	-12.1049
테러범들	-12.1051
▁ris	-12.1061
부상자	-12.1069
라이언	-12.109
stra	-12.1092
976	-12.1121
▁악화시키	-12.1149
▁범인들	-12.117
▁무장괴한들	-12.1171
▁느꼈	-12.1187
war	-12.1248
▁개발도상국들	-12.1251
▁attack	-12.1255
▁증권거래	-12.1262
▁안토니	-12.1263
평했다	-12.1264
멧	-12.1266
컬럼비아	-12.1266
횡	-12.1266
숭	-12.1266
▁파키스탄무슬림리그	-12.1266
▁Heart	-12.1266
Church	-12.1266
YouTube	-12.1266
▁UCLA	-12.1266
▁program	-12.1266
▁공영방송	-12.1266
▁난투극	-12.1266
▁네델란드	-12.1266
▁댕기열	-12.1266
▁바뀌었다	-12.1266
▁보디가드	-12.1266
▁업데이트	-12.1266
▁오마이뉴스	-12.1266
▁융통성	-12.1266
▁콜럼버스	-12.1266
▁콜럼비아	-12.1266
▁쿠알라룸푸르	-12.1266
▁펀자브	-12.1266
삐	-12.1266
엿	-12.1266
젼	-12.1266
칫	-12.1266
Facebook	-12.1266
KCNA	-12.1266
Little	-12.1266
Wii	-12.1266
▁Clinton	-12.1266
▁EMI	-12.1266
▁ESTA	-12.1266
▁Government	-12.1266
▁PETA	-12.1266
▁TGV	-12.1266
▁Times	-12.1266
▁hostage	-12.1266
▁job	-12.1266
▁police	-12.1266
▁굶주림	-12.1266
▁까다로운	-12.1266
▁나폴리타노	-12.1266
▁노벨평화상	-12.1266
▁뇌종양	-12.1266
▁델라웨어	-12.1266
▁레슬링	-12.1266
▁레터맨	-12.1266
▁록펠러	-12.1266
▁롤러코스터	-12.1266
▁마르세유	-12.1266
▁맥클라렌	-12.1266
▁메탄가스	-12.1266
▁무너뜨리	-12.1266
▁바리케이드	-12.1266
▁부에노스아이레스	-12.1266
▁브란카토	-12.1266
▁선덜랜드	-12.1266
▁세계경제포럼	-12.1266
▁세계무역센터	-12.1266
▁수족구병	-12.1266
▁순조롭	-12.1266
▁스트라이커	-12.1266
▁스프린트	-12.1266
▁스피커	-12.1266
▁아틀란티스	-12.1266
▁여우주연상	-12.1266
▁오두막	-12.1266
▁오랑우탄	-12.1266
▁유니버셜	-12.1266
▁죄책감	-12.1266
▁츠요시	-12.1266
▁카트만두	-12.1266
▁컨텐츠	-12.1266
▁코카콜라	-12.1266
▁테스토스테론	-12.1266
▁템파베이	-12.1266
▁플랫폼	-12.1266
▁핵사찰단	-12.1266
▁행방불명	-12.1266
▁헨더슨	-12.1266
▁호나우지뉴	-12.1266
▁히말라야	-12.1266
新	-12.1266
교통안전위원회	-12.1266
넛	-12.1266
랠	-12.1266
벙	-12.1266
산업평균지수	-12.1266
쉘	-12.1266
엣	-12.1266
줍	-12.1266
IPCC	-12.1266
▁control	-12.1266
▁국제통화기금	-12.1266
▁메디슨	-12.1266
▁메트로폴리	-12.1266
▁불태우	-12.1266
▁스테로이드	-12.1266
▁스폰서	-12.1266
▁심사숙고	-12.1266
▁유투브	-12.1266
쿵	-12.1266
트래포드	-12.1266
▁가비알	-12.1266
▁노란색	-12.1266
▁애국심	-12.1266
▁의사소통	-12.1266
▁저질러	-12.1266
▁헤드폰	-12.1266
펜타곤	-12.1266
rank	-12.1266
▁강렬한	-12.1266
▁로버츠	-12.1266
▁팽창	-12.1266
선글라스	-12.1266
entral	-12.1266
▁2006.03	-12.1266
▁고래상어	-12.1266
▁극단적인	-12.1266
▁이병헌	-12.1266
▁모토로라	-12.1266
▁현기증	-12.1266
오피니언리서치	-12.1266
Change	-12.1266
▁목걸이	-12.1266
▁물대포	-12.1266
▁갓난	-12.1266
▁국유화	-12.1266
▁멜리사	-12.1266
▁짐바브웨아프리카민족	-12.1266
NLD	-12.1266
▁내버려	-12.1266
▁안테나	-12.1266
▁클래식	-12.1266
▁모니카	-12.1266
▁비엔나	-12.1266
▁불어넣	-12.1266
이었는데	-12.1266
▁빌라로사	-12.1266
▁제노아	-12.1266
▁징집	-12.1266
▁아세안	-12.1266
eague	-12.1266
▁비참한	-12.1266
▁에볼라	-12.1266
▁내보내	-12.1266
▁납세자들	-12.1266
▁레예스	-12.1266
▁플레임	-12.1266
▁불도저	-12.1266
▁오마하	-12.1266
▁욕설	-12.1266
▁튜브	-12.1266
▁좌초	-12.1266
▁갑판	-12.1266
불공평	-12.1266
▁어소시에이션	-12.1266
▁염증	-12.1266
▁맹렬	-12.1266
▁흉선	-12.1266
▁자랑스러워	-12.1266
▁플로렌스	-12.1267
▁산유국	-12.1267
▁Ill	-12.1267
▁훔치	-12.1267
▁리스본	-12.1267
▁아스카리	-12.1267
▁카우치	-12.1267
▁니가타	-12.1267
▁가오리	-12.1267
▁욕실	-12.1267
▁운전기사	-12.1267
▁왓슨	-12.1267
▁무작위	-12.1267
(59)	-12.1267
▁브라우	-12.1267
▁consumer	-12.1267
▁너머	-12.1267
▁마운트	-12.1267
▁익숙하	-12.1267
▁로스쿨	-12.1267
▁플래카드	-12.1267
▁유원지	-12.1267
▁양조장	-12.1267
▁부녀자	-12.1267
▁셀틱	-12.1267
▁웬디	-12.1267
(48)	-12.1267
▁히트곡	-12.1267
▁컨트리	-12.1267
▁무리뉴	-12.1267
(44)	-12.1267
▁호프만	-12.1268
▁good	-12.1268
▁비상대책	-12.1268
▁free	-12.1268
▁안와르	-12.1268
▁어려웠다	-12.1268
▁악몽	-12.1268
▁meeting	-12.1268
▁징수	-12.1268
▁윈스턴	-12.1268
▁탁자	-12.1268
▁선거운동본부	-12.1268
▁제주도	-12.1268
▁터뜨렸다	-12.1268
▁몰려들었	-12.1268
▁마지드	-12.1268
▁붙어있	-12.1268
▁로보트	-12.1269
▁사무엘	-12.1269
▁풍습	-12.1269
▁니켈	-12.1269
▁강제진압	-12.1269
▁끼치는	-12.127
▁가디언	-12.127
▁run	-12.127
▁기반시설	-12.127
▁다가왔다	-12.127
▁슈웨	-12.127
▁처해있다	-12.127
▁폰테	-12.1271
▁크리스마스트리	-12.1271
▁이해찬	-12.1271
=278	-12.1271
▁달려있다	-12.1271
▁펠트	-12.1271
▁용암	-12.1272
▁따냈다	-12.1272
▁49%	-12.1272
▁목욕	-12.1272
▁납품	-12.1273
▁결탁	-12.1273
▁잠겼다	-12.1273
ground	-12.1273
▁브랜슨	-12.1276
udi	-12.1278
▁남겨놓	-12.1283
▁율법	-12.1283
▁민감하	-12.1284
더러운	-12.1284
less	-12.1287
▁4~5	-12.1291
▁바에즈	-12.1291
었어요	-12.1296
▁cl	-12.1301
▁실정이	-12.1301
▁종합지수	-12.1303
wards	-12.1315
2009.0	-12.1322
▁vote	-12.133
▁모욕적	-12.1334
스프레	-12.1354
▁둔화되	-12.1356
▁투입되	-12.1364
▁영국인들	-12.1369
▁현명하	-12.1373
▁필수적	-12.1375
▁외교부장관	-12.1396
▁이슬람인들	-12.1407
▁취하겠다	-12.1415
▁열정적	-12.1459
▁연결시키	-12.1469
round	-12.1473
▁엔지니어들	-12.1508
▁충족시키	-12.1545
▁0.1	-12.1546
949	-12.1554
▁이뤄졌으	-12.1564
1.7%	-12.1573
대변인은	-12.1624
▁혁신	-12.1663
▁시민단체들	-12.1747
스토어	-12.175
ccess	-12.176
▁부끄러	-12.184
덩어리	-12.1951
3,000	-12.1952
냉	-12.1952
2,000	-12.1953
원자력	-12.1954
겸	-12.1954
옷	-12.1954
주한미군	-12.1955
멕시코	-12.1955
윌리엄	-12.1955
조종사	-12.1955
그것이	-12.1956
화요일	-12.1956
똑	-12.1956
희생자	-12.1957
이집트	-12.1958
묻	-12.196
▁주최하	-12.1966
소비자	-12.1976
클라라	-12.1986
▁생산되	-12.1995
일방적인	-12.2015
▁장려하	-12.2025
▁있겠	-12.2075
▁공공장소	-12.2115
▁toward	-12.2122
▁비서실	-12.2125
▁Africa	-12.2126
낫	-12.2174
Institute	-12.2175
Memorial	-12.2175
NTSB	-12.2175
Organization	-12.2175
▁Committee	-12.2175
▁announce	-12.2175
▁politic	-12.2175
▁곤살레스	-12.2175
▁교토의정서	-12.2175
▁되돌려	-12.2175
▁디와니야	-12.2175
▁보드랜더	-12.2175
▁보았습니	-12.2175
▁소용돌이	-12.2175
▁약물복용	-12.2175
▁집어넣	-12.2175
▁컵케이크	-12.2175
▁큐레이터	-12.2175
▁태즈메이니아	-12.2175
▁휴먼라이츠워치	-12.2175
다케시마	-12.2175
렝	-12.2175
뭇	-12.2175
ASEAN	-12.2175
Democrat	-12.2175
Federal	-12.2175
JAXA	-12.2175
▁French	-12.2175
▁IUCN	-12.2175
▁OLPC	-12.2175
▁Prevention	-12.2175
▁SARS	-12.2175
▁Taliban	-12.2175
▁York	-12.2175
▁envoy	-12.2175
▁illegal	-12.2175
▁invest	-12.2175
▁investigation	-12.2175
▁short	-12.2175
▁가브리엘	-12.2175
▁공정거래위원회	-12.2175
▁구테레스	-12.2175
▁기조연설	-12.2175
▁네브래스카	-12.2175
▁데이터베이스	-12.2175
▁라이베리아	-12.2175
▁레오나르도	-12.2175
▁몬태나	-12.2175
▁무사콸라	-12.2175
▁문자메시지	-12.2175
▁백만장자	-12.2175
▁브루클린	-12.2175
▁샌디에고	-12.2175
▁스페셜	-12.2175
▁아틀란타	-12.2175
▁아흐마드	-12.2175
▁압수수색	-12.2175
▁야누코비치	-12.2175
▁에스판디아리	-12.2175
▁여겨진다	-12.2175
▁연방대법원	-12.2175
▁원심분리기	-12.2175
▁유벤투스	-12.2175
▁유혈충돌	-12.2175
▁인테르팍스	-12.2175
▁자바코뿔소	-12.2175
▁전시작전통제권	-12.2175
▁조직폭력배	-12.2175
▁카디널스	-12.2175
▁카슈미르	-12.2175
▁콘테스트	-12.2175
▁크루그먼	-12.2175
▁크메르루즈	-12.2175
▁타지마할	-12.2175
▁트레제게	-12.2175
▁파르베즈	-12.2175
▁페르난데즈	-12.2175
▁펠프스	-12.2175
▁풍력발전기	-12.2175
▁프랑코	-12.2175
▁프리미엄	-12.2175
▁피츠제럴드	-12.2175
▁황열병	-12.2175
▁흑색종	-12.2175
궂	-12.2175
녕	-12.2175
송완영	-12.2175
시킴으로써	-12.2175
오퍼튜니티	-12.2175
▁Auto	-12.2175
▁dead	-12.2175
▁secret	-12.2175
▁교통체증	-12.2175
▁뇌물수수	-12.2175
▁라자스탄	-12.2175
▁마르티네즈	-12.2175
▁박스데일	-12.2175
▁버밍엄	-12.2175
▁불충분	-12.2175
▁삽입	-12.2175
▁스펜서	-12.2175
▁양귀비	-12.2175
▁치나왓	-12.2175
▁핵원자로	-12.2175
맙	-12.2175
Kurdis	-12.2175
▁고프섬	-12.2175
▁공동묘지	-12.2175
▁나가사키	-12.2175
▁동아태	-12.2175
▁반독점	-12.2175
▁영주권	-12.2175
▁거식증	-12.2175
▁농무부	-12.2175
▁상무장관	-12.2175
▁알레한드	-12.2175
▁파라과이	-12.2175
▁회계연도	-12.2175
▁Dae	-12.2175
▁나탄즈	-12.2175
▁라리자니	-12.2175
▁마들렌	-12.2175
▁수뇌부	-12.2175
▁친서방	-12.2175
▁숭배	-12.2175
▁앵커리지	-12.2175
▁Law	-12.2175
▁개회식	-12.2175
▁모레노	-12.2175
▁십자군	-12.2175
▁프로세서	-12.2175
▁동호회	-12.2175
▁미들턴	-12.2175
▁아티스트	-12.2175
▁언쟁	-12.2175
▁울타리	-12.2175
▁농경지	-12.2175
롤링스톤스	-12.2175
▁관방장관	-12.2175
▁DRM	-12.2175
▁고생물학자	-12.2175
▁비키니	-12.2175
▁외무상	-12.2175
KLM	-12.2175
MySpace	-12.2175
▁인권운동가	-12.2175
▁재구성	-12.2175
▁탬파	-12.2175
▁호기심	-12.2175
캐리비안	-12.2175
▁구치소	-12.2175
▁메수드	-12.2175
▁불사조	-12.2175
▁오름세	-12.2175
▁산토스	-12.2175
▁아파치	-12.2175
▁엄밀	-12.2175
▁도와줄	-12.2175
▁오클리	-12.2175
▁prim	-12.2175
▁총기소지	-12.2175
▁Music	-12.2175
▁밀어붙	-12.2176
▁국가안전보장회의	-12.2176
▁잔디코트	-12.2176
▁바우어	-12.2176
▁누워있	-12.2176
▁노스웨스트	-12.2176
▁켈러	-12.2176
▁general	-12.2176
▁럭비	-12.2176
▁국가원수	-12.2176
▁Spain	-12.2176
▁메이저리그	-12.2176
▁장래에	-12.2176
▁징크	-12.2176
▁선제공격	-12.2176
▁리브스	-12.2176
▁갑부	-12.2176
▁풀어줬다	-12.2176
▁아메리칸리그	-12.2176
▁붙잡혔다	-12.2176
▁성수기	-12.2177
▁쇼핑객들	-12.2177
▁도보로	-12.2177
▁007	-12.2177
▁사기꾼	-12.2177
▁매혹적	-12.2177
▁미립자	-12.2177
▁팩스	-12.2177
▁유대관계	-12.2177
▁0.6%	-12.2177
▁고속철	-12.2177
▁정전사태	-12.2177
▁파트너십	-12.2177
▁피아트	-12.2177
▁다이빙	-12.2177
▁arm	-12.2177
▁양로원	-12.2177
▁대명사	-12.2178
▁교묘	-12.2178
▁권익	-12.2178
▁일어났는지	-12.2178
▁데려가	-12.2178
▁옳다	-12.2178
power	-12.2179
▁특허	-12.2179
Meet	-12.2179
▁이글스	-12.2179
▁이정표	-12.2179
▁클래스	-12.218
했어요	-12.218
▁체이스	-12.2182
▁습성	-12.2184
▁난무하	-12.2191
▁사교적	-12.2192
▁플러	-12.2192
▁실용적	-12.2192
▁apolog	-12.2192
▁open	-12.2193
▁점진적	-12.2204
▁회상했	-12.2216
항소법원	-12.2242
▁예일대	-12.2267
▁India	-12.2268
▁주력하	-12.2286
▁원로들	-12.2292
Sea	-12.2369
rida	-12.2378
▁당황스럽	-12.2399
person	-12.2441
레일리	-12.2503
주지사	-12.2587
▁물리쳤	-12.2658
▁개발자들	-12.2662
▁택하	-12.2669
ormer	-12.2676
▁증진시키	-12.2691
▁고민하	-12.2757
▁살고있	-12.2782
Shi	-12.2835
▁환호하	-12.2839
前	-12.2952
BDA	-12.2953
off	-12.2953
Center	-12.2953
앨	-12.2953
챔피언십	-12.2954
돌고래	-12.2954
밥	-12.2954
윌	-12.2954
그래서	-12.2955
오랫동안	-12.2955
변호사	-12.2955
짐바브웨	-12.2956
텍사스	-12.2956
공화당	-12.2956
가자지구	-12.2957
▁법사위	-12.298
▁초래하	-12.3027
▁느낀	-12.3131
▁성직자들	-12.3137
▁않았으	-12.3141
▁염려하	-12.3147
▁아흐메	-12.3152
▁옹호하	-12.3164
왁	-12.3172
벼	-12.3173
▁Elect	-12.3174
onsumer	-12.3174
뉘	-12.3175
▁국내총생산	-12.3175
▁쿠르드노동자당	-12.3175
낀	-12.3175
Barack	-12.3175
Google	-12.3175
▁AEY	-12.3175
▁Council	-12.3175
▁Intel	-12.3175
▁Office	-12.3175
▁ambassador	-12.3175
▁dispute	-12.3175
▁expresse	-12.3175
▁human	-12.3175
▁public	-12.3175
▁ready	-12.3175
▁research	-12.3175
▁resume	-12.3175
▁school	-12.3175
▁spending	-12.3175
▁경각심	-12.3175
▁군사분계선	-12.3175
▁깃털	-12.3175
▁내려앉았다	-12.3175
▁네티즌	-12.3175
▁당혹감	-12.3175
▁도라에몽	-12.3175
▁도로매설폭탄테러	-12.3175
▁도마뱀	-12.3175
▁떠들썩	-12.3175
▁뚱뚱	-12.3175
▁레즈비언	-12.3175
▁류마티스	-12.3175
▁르윈스키	-12.3175
▁모래주머니	-12.3175
▁몽고메리	-12.3175
▁무그니예	-12.3175
▁무력충돌	-12.3175
▁미네아폴리스	-12.3175
▁밴쿠버	-12.3175
▁보르네오	-12.3175
▁사모펀드	-12.3175
▁상파울로	-12.3175
▁선댄스	-12.3175
▁스턴트맨	-12.3175
▁아유르베다	-12.3175
▁안타깝게	-12.3175
▁안타깝다	-12.3175
▁알루미늄	-12.3175
▁앞질렀다	-12.3175
▁양쯔강	-12.3175
▁연두교서	-12.3175
▁온두라스	-12.3175
▁은자메나	-12.3175
▁이매뉴얼	-12.3175
▁이슬라믹	-12.3175
▁인권탄압	-12.3175
▁자이언츠	-12.3175
▁전년동기	-12.3175
▁준우승	-12.3175
▁최루가스	-12.3175
▁추돌사고	-12.3175
▁컨디션	-12.3175
▁콘텐츠	-12.3175
▁크렘린	-12.3175
▁털어놨다	-12.3175
▁트리니다드	-12.3175
▁틀림없다	-12.3175
▁티모셴코	-12.3175
▁파브레가스	-12.3175
▁파이어폭스	-12.3175
▁페더라인	-12.3175
▁페덜라인	-12.3175
▁페샤와르	-12.3175
▁프랜시스	-12.3175
▁하룻밤	-12.3175
▁햄프셔	-12.3175
▁호주오픈테니스대회	-12.3175
▁히딩크	-12.3175
농축우라늄	-12.3175
센티미터	-12.3175
주택담보대출	-12.3175
펭	-12.3175
mission	-12.3175
▁2-0(6-46-	-12.3175
▁bomb	-12.3175
▁declar	-12.3175
▁detain	-12.3175
▁낙관론	-12.3175
▁식약청	-12.3175
▁신입생	-12.3175
▁앞당겨	-12.3175
▁처토프	-12.3175
▁캐스팅	-12.3175
난민고등판무관	-12.3175
ODM	-12.3175
▁2-0(7-6	-12.3175
▁country	-12.3175
▁경질유	-12.3175
▁공중보건	-12.3175
▁나침반	-12.3175
▁대한축구협회	-12.3175
▁메흐디	-12.3175
▁사탕수수	-12.3175
▁에라카트	-12.3175
▁오클랜드	-12.3175
▁탄자니아	-12.3175
▁털어놓	-12.3175
credit	-12.3175
▁볼프강	-12.3175
▁송유관	-12.3175
▁아인슈타인	-12.3175
▁이라와디	-12.3175
▁핵탄두	-12.3175
▁희박하다	-12.3175
▁법조계	-12.3175
▁불투명	-12.3175
▁요제프	-12.3175
▁토머스	-12.3175
▁Conf	-12.3175
▁불시착	-12.3175
▁비아컴	-12.3175
▁호르무	-12.3175
▁더블린	-12.3175
▁습득	-12.3175
▁코리아타임스	-12.3175
▁펑크	-12.3175
포토맥	-12.3175
▁군수품	-12.3175
▁놔두	-12.3175
▁솟아	-12.3175
▁아유브	-12.3175
▁유독성	-12.3175
▁로맨스	-12.3175
▁발코니	-12.3175
▁하누만	-12.3175
레키마	-12.3175
상공회의소	-12.3175
▁소더비	-12.3175
▁양키즈	-12.3175
▁오초아	-12.3175
헥타르	-12.3175
▁라보프	-12.3175
▁코레아	-12.3175
7.1%	-12.3175
▁Prosecutors	-12.3175
▁대참사	-12.3175
▁행정수도	-12.3175
▁야스오	-12.3175
▁고구려	-12.3175
▁오스본	-12.3175
▁장신구	-12.3175
▁시험발사	-12.3175
▁order	-12.3175
▁웨일즈	-12.3175
▁이회창	-12.3175
▁와이먼	-12.3175
▁욕망	-12.3175
▁쿠르조	-12.3175
▁앞장서	-12.3175
▁허친스	-12.3175
▁은하수	-12.3175
▁행자부	-12.3175
▁카다피	-12.3175
▁타리크	-12.3175
▁퇴거	-12.3175
▁빙붕	-12.3176
불가사리	-12.3176
▁흐른	-12.3176
▁되살리	-12.3176
▁미스터리	-12.3176
▁오피스	-12.3176
▁내세우	-12.3176
▁잉카	-12.3176
▁과체중	-12.3176
▁혈류	-12.3176
CES	-12.3176
SAG	-12.3176
▁나자프	-12.3176
▁Act	-12.3176
NGO	-12.3176
▁중무장	-12.3176
▁피로연	-12.3176
▁졸업생들	-12.3176
▁treat	-12.3176
▁여겨졌	-12.3176
▁욕조	-12.3176
깨	-12.4064
좁	-12.4065
낮	-12.4065
美	-12.4066
곧	-12.4067
펄	-12.4067
섹	-12.4272
툼	-12.4282
됨	-12.4284
냄	-12.4286
꼈	-12.4286
깅	-12.4286
옴	-12.4286
찮	-12.4286
같	-12.5077
땅	-12.5311
쉴	-12.5312
묵	-12.5313
갖	-12.5314
샌	-12.5316
좀	-12.5316
꼭	-12.5318
놨	-12.5491
즌	-12.5522
튠	-12.5534
둠	-12.5534
댈	-12.5536
삽	-12.5536
핼	-12.5536
휠	-12.5536
빼	-12.6741
댐	-12.6741
빵	-12.6742
뛰	-12.6742
맛	-12.6743
멀	-12.6743
쌀	-12.6744
즉	-12.6745
펫	-12.6962
팟	-12.6962
q	-12.6963
앗	-12.6963
탤	-12.6965
쳇	-12.6965
붐	-12.8409
팜	-12.8409
헐	-12.8409
넣	-12.8411
킥	-12.8631
깜	-12.8631
폼	-12.8631
펑	-12.8631
촛	-12.8632
낄	-12.8632
룻	-12.8632
귄	-12.8632
볕	-12.8632
셍	-12.8632
셴	-12.8632
딴	-13.0406
멈	-13.0409
잭	-13.0411
쓴	-13.0411
밑	-13.0412
삶	-13.0412
꿀	-13.0625
쩔	-13.0629
솟	-13.063
옵	-13.0632
싯	-13.0632
맡	-13.2909
쏘	-13.2909
숲	-13.2911
큼	-13.3113
꿔	-13.3125
눠	-13.3127
볍	-13.3129
쩌	-13.3129
숫	-13.3131
츨	-13.3131
헥	-13.3131
덧	-13.3132
닭	-13.6244
뚫	-13.6244
넓	-13.6245
*	-13.6245
뜻	-13.6246
룹	-13.644
깁	-13.6464
끗	-13.6464
걱	-13.6465
훼	-13.6465
덮	-14.1243
솜	-14.1244
빚	-14.1247
맺	-14.1248
밝	-14.1248
뤄	-14.1401
힉	-14.1463
많	-15.1158
짙	-15.1258
꽤	-15.1258
팝	-15.126
숀	-15.1261
봄	-15.1261
맴	-15.1262
끓	-15.1263
갚	-15.1264
쾰	-15.1265
찼	-15.1266
찢	-15.1267
잰	-15.1268
웸	-15.1269
샐	-15.127
깥	-15.1271
겉	-15.1272
팸	-15.1273
몹	-15.1274
꼴	-15.1275
씌	-15.1276
맷	-15.1277
뀐	-15.1278
깎	-15.1279
콸	-15.128
쏴	-15.1281
썹	-15.1282
슭	-15.1283
킷	-15.1284
챌	-15.1285
얇	-15.1286
씀	-15.1287
뀔	-15.1288
꽉	-15.1289
꽂	-15.129
±	-15.1291
뭐	-15.1292
댕	-15.1293
꿨	-15.1294
꾀	-15.1295
깐	-15.1296
얹	-15.1297
쐈	-15.1298
뱃	-15.1299
긱	-15.13
씻	-15.1301
뻗	-15.1302
렷	-15.1303
낚	-15.1304
꼼	-15.1305
$	-15.1306
잦	-15.1307
엎	-15.1308
숍	-15.1309
뭔	-15.131
맑	-15.1311
핫	-15.1312
핍	-15.1313
몫	-15.1314
짖	-15.1315
샀	-15.1316
낡	-15.1317
곁	-15.1318
컸	-15.1319
캡	-15.132
쏜	-15.1321
젭	-15.1322
싣	-15.1323
맵	-15.1324
닮	-15.1325
젖	-15.1326
쁨	-15.1327
릅	-15.1328
궈	-15.1329
탓	-15.133
캥	-15.1331
웍	-15.1332
굶	-15.1333
뮬	-15.1334
릇	-15.1335
횟	-15.1336
췌	-15.1337
틈	-15.1338
댓	-15.1339
붓	-15.134
́	-15.1341
챙	-15.1342
앰	-15.1343
닿	-15.1344
펌	-15.1345
흩	-15.1346
뮌	-15.1347
뤼	-15.1348
뿔	-15.1349
괜	-15.135
뤘	-15.1351
튀	-15.1352
꼽	-15.1353
굳	-15.1354
굉	-15.1355
녔	-15.1356
곱	-15.1357
랬	-15.1358
픔	-15.1359
밸	-15.136
닙	-15.1361
낌	-15.1362
띄	-15.1363
넹	-15.1364
밟	-15.1365
눴	-15.1366
싫	-15.1367
윔	-15.1368
괄	-15.1369
옛	-15.137
탔	-15.1371
썼	-15.1372
핸	-15.1373
딪	-15.1374
깝	-15.1375
잊	-15.1376
멤	-15.1377
벅	-15.1378
흰	-15.1379
갇	-15.138
췄	-15.1381
묶	-15.1382
뱅	-15.1383
닫	-15.1384
왼	-15.1385
렴	-15.1386
뀌	-15.1387
읽	-15.1388
깔	-15.1389
궤	-15.139
탱	-15.1391
탠	-15.1392
쌓	-15.1393
쫓	-15.1394
짧	-15.1395
쏟	-15.1396
뭄	-15.1397
뒷	-15.1398
걷	-15.1399
슴	-15.14
훨	-15.1401
릎	-15.1402
뽑	-15.1403
뿌	-15.1404
붉	-15.1405
앓	-15.1406
얘	-15.1407
옆	-15.1408
멋	-15.1409
꺾	-15.141
낳	-15.1411
곽	-15.1412
휩	-15.1413
돕	-15.1414
녁	-15.1415
듣	-15.1416
춰	-15.1417
끊	-15.1418
됩	-15.1419
젝	-15.142
늦	-15.1421
앉	-15.1422
슷	-15.1423
렵	-15.1424
쿄	-15.1425
밴	-15.1426
옮	-15.1427
봤	-15.1428
젊	-15.1429
챔	-15.143
촬	-15.1431
빨	-15.1432
찍	-15.1433
떻	-15.1434
렀	-15.1435
웠	-15.1436
겪	-15.1437
믿	-15.1438
펼	-15.1439
섰	-15.144
먹	-15.1441
렇	-15.1442
̋	-15.1443
잃	-15.1444
캠	-15.1445
싶	-15.1446
랐	-15.1447
끌	-15.1448
갔	-15.1449
켰	-15.145
밖	-15.1451
얻	-15.1452
쇄	-15.1453
좋	-15.1454
찾	-15.1455
떤	-15.1456
떨	-15.1456
높	-15.1457
맞	-15.1458
났	-15.1459
혐	-15.146
협	-15.1461
확	-15.1462
둡	-15.1463
없	-15.1463
뎌	-15.1464
았	-15.1464
