<unk>	0
<s>	0
</s>	0
▁이	-0
했다	-1
▁있	-2
에서	-3
▁대	-4
▁사	-5
▁지	-6
▁것	-7
▁그	-8
으로	-9
▁1	-10
▁수	-11
▁전	-12
▁2	-13
▁미	-14
▁“	-15
▁있다	-16
▁아	-17
▁한	-18
▁가	-19
▁주	-20
▁보	-21
▁시	-22
▁위	-23
▁경	-24
▁정	-25
▁말	-26
▁중	-27
▁인	-28
하고	-29
▁기	-30
00	-31
▁자	-32
라고	-33
하는	-34
▁밝	-35
다고	-36
▁부	-37
▁발	-38
▁일	-39
▁공	-40
▁관	-41
▁밝혔	-42
▁국	-43
들이	-44
▁오	-45
들은	-46
▁다	-47
▁유	-48
▁밝혔다	-49
▁말했다	-50
▁것이	-51
▁않	-52
▁미국	-53
▁의	-54
▁비	-55
▁상	-56
니다	-57
▁조	-58
▁하	-59
▁여	-60
▁제	-61
▁3	-62
▁소	-63
▁있는	-64
▁나	-65
통령	-66
▁연	-67
▁마	-68
▁모	-69
▁영	-70
▁동	-71
▁대통령	-72
으며	-73
▁선	-74
▁지난	-75
었다	-76
▁내	-77
에게	-78
▁해	-79
▁무	-80
▁그는	-81
▁최	-82
▁후	-83
▁고	-84
▁방	-85
▁당	-86
▁우	-87
▁바	-88
▁위해	-89
▁200	-90
▁알	-91
▁예	-92
▁파	-93
▁받	-94
▁북	-95
▁스	-96
▁대한	-97
시간	-98
▁결	-99
▁세	-100
현지	-101
▁없	-102
▁도	-103
▁총	-104
▁남	-105
▁회	-106
▁4	-107
▁정부	-108
▁통	-109
▁성	-110
▁전했다	-111
습니다	-112
지만	-113
했다고	-114
▁구	-115
▁5	-116
이다	-117
▁이번	-118
▁반	-119
▁개	-120
적인	-121
▁신	-122
▁불	-123
▁대해	-124
명이	-125
▁노	-126
▁어	-127
현지시간	-128
라크	-129
하기	-130
▁거	-131
▁계	-132
▁생	-133
▁장	-134
이라고	-135
▁만	-136
▁6	-137
▁또	-138
들을	-139
리는	-140
▁실	-141
까지	-142
▁프	-143
▁강	-144
▁포	-145
▁이라크	-146
▁차	-147
됐다	-148
▁폭	-149
▁경찰	-150
▁매	-151
명의	-152
▁올	-153
▁것으로	-154
들의	-155
▁사람	-156
▁"	-157
▁‘	-158
▁에	-159
▁서	-160
▁감	-161
▁때	-162
▁원	-163
▁재	-164
▁교	-165
▁것이라고	-166
▁안	-167
▁요	-168
▁문	-169
▁더	-170
하지	-171
▁있다고	-172
▁현	-173
러나	-174
▁진	-175
▁피	-176
▁북한	-177
▁중국	-178
한다	-179
▁19	-180
▁외	-181
▁것을	-182
▁달	-183
▁입	-184
▁자신	-185
았다	-186
였다	-187
▁열	-188
▁추	-189
▁사망	-190
▁한국	-191
in	-192
▁주장	-193
▁출	-194
▁발생	-195
적으로	-196
부터	-197
▁확	-198
에는	-199
▁많	-200
▁7	-201
▁로	-202
인은	-203
▁그러나	-204
▁군	-205
▁등	-206
▁약	-207
▁행	-208
▁민	-209
▁호	-210
▁테	-211
on	-212
시아	-213
하게	-214
▁다른	-215
▁카	-216
re	-217
▁같	-218
▁지역	-219
▁라	-220
▁8	-221
▁관계	-222
▁두	-223
▁영국	-224
an	-225
▁10	-226
▁예정	-227
▁증	-228
▁t	-229
▁발표	-230
▁분	-231
▁작	-232
▁대변	-233
▁투	-234
사는	-235
▁설	-236
장은	-237
리아	-238
▁한편	-239
er	-240
▁목	-241
바마	-242
▁집	-243
▁법	-244
기를	-245
라는	-246
▁되	-247
▁단	-248
▁타	-249
▁리	-250
▁문제	-251
▁베	-252
▁승	-253
들에게	-254
▁새	-255
졌다	-256
▁오바마	-257
▁살	-258
▁보도	-259
▁화	-260
▁과	-261
▁9	-262
▁이후	-263
▁배	-264
에따	-265
▁못	-266
▁C	-267
▁뉴	-268
▁후보	-269
▁일본	-270
에서는	-271
▁처	-272
▁참	-273
▁건	-274
자는	-275
▁A	-276
다는	-277
▁할	-278
▁관련	-279
▁판	-280
▁독	-281
ti	-282
▁치	-283
면서	-284
▁통해	-285
.0	-286
▁금	-287
▁심	-288
▁평	-289
▁들	-290
▁버	-291
▁세계	-292
▁적	-293
리고	-294
▁코	-295
하며	-296
▁많은	-297
스탄	-298
▁대통령은	-299
▁앞	-300
▁협	-301
▁'	-302
▁핵	-303
▁위한	-304
▁검	-305
▁체	-306
ar	-307
명을	-308
▁크	-309
▁언	-310
관은	-311
자가	-312
했으며	-313
▁병	-314
▁데	-315
사를	-316
▁국가	-317
레이	-318
▁부시	-319
▁클	-320
▁물	-321
▁벌	-322
▁운	-323
▁변	-324
▁가장	-325
▁합	-326
▁동안	-327
리가	-328
▁필	-329
▁저	-330
스트	-331
▁같은	-332
▁것이다	-333
▁사건	-334
스는	-335
▁시작	-336
▁대변인은	-337
▁산	-338
▁그의	-339
▁경제	-340
▁학	-341
▁공격	-342
▁테러	-343
된다	-344
문에	-345
▁이상	-346
▁영화	-347
원의	-348
▁항	-349
리를	-350
▁양	-351
자들은	-352
or	-353
들과	-354
▁브	-355
▁직	-356
▁12	-357
he	-358
▁계획	-359
▁보고	-360
▁아프	-361
al	-362
en	-363
▁임	-364
▁초	-365
▁될	-366
▁연구	-367
▁역	-368
▁아이	-369
혐의	-370
▁사용	-371
▁현재	-372
▁20	-373
▁민주	-374
▁주장했다	-375
▁것은	-376
지는	-377
▁선거	-378
▁한다	-379
000	-380
▁존	-381
▁국제	-382
달러	-383
▁T	-384
도록	-385
이트	-386
요일	-387
▁미군	-388
하다	-389
상을	-390
▁또한	-391
▁인터	-392
▁함	-393
▁뒤	-394
▁명	-395
▁조사	-396
▁지지	-397
스라	-398
▁했다	-399
▁돌	-400
되는	-401
▁발견	-402
었다고	-403
▁덧	-404
으나	-405
▁야	-406
▁덧붙	-407
▁혐의	-408
▁메	-409
▁시위	-410
▁최근	-411
▁계속	-412
▁일부	-413
레스	-414
했습니다	-415
▁경우	-416
▁보도했다	-417
▁포함	-418
▁토	-419
력을	-420
▁덧붙였다	-421
▁11	-422
▁S	-423
▁취	-424
▁및	-425
스라엘	-426
▁회담	-427
▁특	-428
▁요구	-429
▁않았다	-430
le	-431
▁사실	-432
라이	-433
원은	-434
▁여성	-435
▁페	-436
했던	-437
▁러	-438
▁생각	-439
▁경기	-440
▁태	-441
▁결정	-442
▁방문	-443
▁환	-444
장을	-445
st	-446
▁설명	-447
자들이	-448
▁(	-449
로운	-450
▁비난	-451
▁지도	-452
▁줄	-453
▁이스라엘	-454
▁자신의	-455
200	-456
▁박	-457
▁복	-458
리스	-459
키스탄	-460
▁당국	-461
▁탈	-462
▁몇	-463
르면	-464
니아	-465
▁레	-466
.”	-467
▁함께	-468
주의	-469
▁프로	-470
되고	-471
인이	-472
▁결과	-473
▁표	-474
보다	-475
▁가능	-476
▁당시	-477
▁활	-478
▁종	-479
▁이란	-480
사가	-481
입니다	-482
▁프랑	-483
해야	-484
▁모든	-485
▁논	-486
▁그리고	-487
에따르면	-488
▁게	-489
▁맞	-490
▁허	-491
▁석	-492
원이	-493
▁때문에	-494
시키	-495
회의	-496
▁파키스탄	-497
▁근	-498
▁음	-499
▁수도	-500
▁높	-501
▁하는	-502
▁15	-503
▁걸	-504
랜드	-505
▁N	-506
▁인도	-507
▁팔	-508
▁대선	-509
▁예정이다	-510
▁필요	-511
▁간	-512
▁모두	-513
▁있습니다	-514
▁F	-515
▁설명했다	-516
지를	-517
지고	-518
▁지원	-519
린턴	-520
▁드	-521
▁달러	-522
▁러시아	-523
번째	-524
자인	-525
에도	-526
▁새로운	-527
▁있으며	-528
▁정치	-529
▁충	-530
▁경찰은	-531
▁숨	-532
▁처음	-533
▁프랑스	-534
▁떨	-535
▁유엔	-536
부는	-537
at	-538
▁채	-539
▁정부는	-540
▁갖	-541
▁열린	-542
▁알려	-543
▁30	-544
왔다	-545
▁P	-546
은행	-547
▁사이	-548
▁클린턴	-549
es	-550
▁들어	-551
▁기록	-552
▁피해	-553
▁애	-554
▁본	-555
▁친	-556
서는	-557
기가	-558
장이	-559
▁기자	-560
▁있었다	-561
▁민주당	-562
▁떨어	-563
▁사고	-564
▁점	-565
▁o	-566
▁용	-567
▁찾	-568
▁철	-569
▁B	-570
▁규	-571
▁큰	-572
안을	-573
▁않았	-574
▁터	-575
원회	-576
라며	-577
▁없다	-578
▁아직	-579
▁I	-580
▁케	-581
.1	-582
▁좋	-583
▁블	-584
▁유럽	-585
▁M	-586
▁질	-587
▁2005	-588
▁폭탄	-589
▁않는	-590
▁백	-591
▁상황	-592
▁대표	-593
비아	-594
치를	-595
▁뉴욕	-596
▁담	-597
▁지난해	-598
▁휴	-599
▁대통령이	-600
▁우주	-601
▁플	-602
되어	-603
▁않을	-604
▁하고	-605
▁아니	-606
기에	-607
▁합의	-608
it	-609
리의	-610
▁곳	-611
▁s	-612
▁손	-613
▁U	-614
▁디	-615
▁압	-616
▁쿠	-617
▁그녀	-618
▁나타	-619
▁최고	-620
▁날	-621
▁16	-622
▁상원의	-623
▁준	-624
▁c	-625
▁식	-626
됐다고	-627
▁이에	-628
▁김	-629
▁무장	-630
▁권	-631
▁월	-632
▁청	-633
▁올해	-634
▁W	-635
▁온	-636
화를	-637
▁힐	-638
▁a	-639
▁시간	-640
▁199	-641
▁총리는	-642
▁있을	-643
그램	-644
▁이날	-645
부분	-646
▁있었	-647
▁체포	-648
▁침	-649
▁미국의	-650
▁따	-651
전을	-652
이며	-653
하여	-654
이고	-655
▁가족	-656
▁광	-657
정부	-658
▁the	-659
▁네	-660
▁접	-661
▁위치	-662
▁발생한	-663
▁속	-664
수는	-665
▁확인	-666
▁반대	-667
▁발표했다	-668
이는	-669
▁국민	-670
▁진행	-671
▁완	-672
▁첫	-673
거나	-674
과의	-675
자를	-676
▁부상	-677
tion	-678
▁K	-679
▁13	-680
.08	-681
▁끝	-682
▁원문	-683
▁정보	-684
동을	-685
▁25	-686
▁받고	-687
▁루	-688
스의	-689
▁18	-690
om	-691
▁대학	-692
▁비행	-693
성이	-694
▁f	-695
▁있다는	-696
ou	-697
▁소식	-698
is	-699
NN	-700
▁폐	-701
▁이미	-702
▁공개	-703
▁만들	-704
▁얻	-705
자의	-706
ic	-707
▁범	-708
이나	-709
▁다시	-710
▁이용	-711
▁잘	-712
이스	-713
▁증가	-714
에따라	-715
▁p	-716
▁14	-717
▁난	-718
▁각	-719
▁희	-720
▁주민	-721
운데	-722
▁다음	-723
▁to	-724
ed	-725
렸다	-726
▁대부분	-727
▁가운데	-728
▁of	-729
▁패	-730
▁아프간	-731
지역	-732
원을	-733
단체	-734
▁순	-735
▁이슬	-736
▁중단	-737
와의	-738
ing	-739
▁예상	-740
▁넘	-741
▁빠	-742
▁정부가	-743
사의	-744
▁항공	-745
성을	-746
타인	-747
정을	-748
▁밝혀	-749
▁의해	-750
▁사람들이	-751
▁워	-752
▁왕	-753
스가	-754
▁투표	-755
레반	-756
하면	-757
하면서	-758
▁방송	-759
)’	-760
▁트	-761
▁D	-762
▁전문	-763
▁주요	-764
▁막	-765
▁실시	-766
▁프로그램	-767
간의	-768
▁축	-769
▁내용	-770
▁2006	-771
▁된다	-772
▁된	-773
▁감독	-774
▁인해	-775
▁차량	-776
로부터	-777
▁콜	-778
인을	-779
▁누	-780
들에	-781
무장	-782
▁공화	-783
스를	-784
▁않은	-785
테러	-786
▁상태	-787
▁암	-788
▁지적	-789
▁해결	-790
▁L	-791
▁절	-792
▁병원	-793
▁외교	-794
▁납	-795
나는	-796
났다	-797
하려	-798
▁받아	-799
▁책	-800
▁그가	-801
▁이는	-802
▁in	-803
▁됐다	-804
▁언급	-805
는데	-806
▁혐의로	-807
▁E	-808
금을	-809
▁탈레반	-810
▁인터뷰	-811
▁홍	-812
했지만	-813
▁밀	-814
▁얼	-815
▁향	-816
▁우리	-817
장에서	-818
▁머	-819
▁의회	-820
▁농	-821
▁이어	-822
▁조지	-823
대로	-824
▁17	-825
▁여러	-826
▁언론	-827
▁중요	-828
위원회	-829
▁돌아	-830
▁전쟁	-831
▁독일	-832
▁폭발	-833
림픽	-834
▁국방	-835
▁대통령의	-836
동차	-837
드는	-838
▁도시	-839
▁2008	-840
▁변호	-841
무부	-842
위를	-843
▁정상	-844
▁급	-845
되지	-846
▁요청	-847
▁이슬람	-848
▁잡	-849
▁형	-850
디오	-851
▁단체	-852
개월	-853
레스타인	-854
km	-855
기로	-856
처럼	-857
▁살해	-858
▁골	-859
자로	-860
▁위치한	-861
▁평화	-862
▁있어	-863
사태	-864
▁받았다	-865
▁촉	-866
▁우려	-867
▁상승	-868
도로	-869
관이	-870
▁학생	-871
업체	-872
가는	-873
▁오늘	-874
▁캐	-875
▁이유	-876
▁없는	-877
명은	-878
ore	-879
▁승리	-880
▁참석	-881
▁강조	-882
▁석방	-883
▁에서	-884
▁명의	-885
▁제공	-886
▁연방	-887
▁TV	-888
▁판매	-889
▁죽	-890
▁남부	-891
il	-892
기는	-893
▁티	-894
▁헤	-895
▁50	-896
임을	-897
한다고	-898
▁소속	-899
▁추가	-900
▁공화당	-901
수가	-902
▁데이	-903
▁성공	-904
겠다고	-905
▁사실을	-906
▁브라	-907
▁팔레스타인	-908
▁탄	-909
격을	-910
▁개발	-911
▁관리	-912
▁방법	-913
되었다	-914
▁한다고	-915
▁모습	-916
이라며	-917
ro	-918
▁사진	-919
▁호주	-920
리카	-921
케인	-922
▁위협	-923
▁이들	-924
▁이를	-925
▁총리	-926
▁관계자는	-927
▁악	-928
했고	-929
▁금융	-930
▁않고	-931
▁당선	-932
▁떠	-933
▁힘	-934
냈다	-935
리포	-936
▁서울	-937
ent	-938
▁24	-939
▁보여	-940
▁자동차	-941
▁천	-942
▁생산	-943
▁하락	-944
▁인터넷	-945
▁''	-946
▁지적했다	-947
▁맥	-948
▁볼	-949
▁여행	-950
▁지금	-951
▁긴	-952
장에	-953
전에	-954
▁키	-955
▁b	-956
▁쓰	-957
▁구조	-958
▁베이	-959
자들을	-960
▁협상	-961
이었다	-962
▁군사	-963
▁매우	-964
▁용의	-965
▁인근	-966
이지	-967
▁당국은	-968
르는	-969
▁21	-970
▁마이	-971
▁터키	-972
대를	-973
업을	-974
▁기술	-975
▁보안	-976
▁인질	-977
러한	-978
▁보호	-979
▁올림픽	-980
▁측	-981
리에	-982
▁인정	-983
▁일어	-984
as	-985
de	-986
되었	-987
▁보인	-988
에서의	-989
▁없다고	-990
▁w	-991
▁위험	-992
▁주지	-993
▁사무	-994
▁최소	-995
▁H	-996
▁영향	-997
력이	-998
▁22	-999
▁반군	-1000
▁전문가	-1001
기사	-1002
▁회사	-1003
개의	-1004
▁23	-1005
▁정책	-1006
치는	-1007
▁100	-1008
▁27	-1009
▁받은	-1010
▁하지	-1011
권을	-1012
▁백악	-1013
년간	-1014
▁과학	-1015
▁잠	-1016
ation	-1017
▁경고	-1018
대의	-1019
센터	-1020
▁크리스	-1021
▁G	-1022
의를	-1023
▁납치	-1024
부를	-1025
있는	-1026
▁준비	-1027
▁검찰	-1028
회담	-1029
▁커	-1030
얀마	-1031
▁관광	-1032
▁공식	-1033
▁어떤	-1034
지에	-1035
▁외국	-1036
▁하지만	-1037
했으나	-1038
▁몰	-1039
▁의원	-1040
tic	-1041
▁폴	-1042
▁건물	-1043
▁R	-1044
▁편	-1045
음을	-1046
▁어린	-1047
하기로	-1048
▁이름	-1049
했었다	-1050
▁m	-1051
▁컴	-1052
보기	-1053
▁이와	-1054
▁있던	-1055
다드	-1056
▁공항	-1057
▁안전	-1058
▁오후	-1059
선을	-1060
▁노동	-1061
▁하나	-1062
샤라	-1063
▁도착	-1064
▁40	-1065
식을	-1066
▁받았	-1067
▁것에	-1068
대가	-1069
싱턴	-1070
▁자살	-1071
▁제작	-1072
도를	-1073
▁원문기사	-1074
인트	-1075
▁고위	-1076
▁바그	-1077
and	-1078
▁선수	-1079
▁와	-1080
신은	-1081
▁웹	-1082
▁은행	-1083
▁미얀마	-1084
ra	-1085
▁격	-1086
▁런	-1087
세를	-1088
퓨터	-1089
▁자유	-1090
▁북한의	-1091
▁번	-1092
페인	-1093
▁마지	-1094
회견	-1095
▁착	-1096
▁노력	-1097
▁보고서	-1098
▁극	-1099
카에	-1100
▁길	-1101
시켰	-1102
▁아시아	-1103
▁바그다드	-1104
▁건강	-1105
▁그들은	-1106
▁북한이	-1107
▁니	-1108
▁런던	-1109
▁지구	-1110
▁치료	-1111
▁인터뷰에서	-1112
▁북부	-1113
▁여론	-1114
자와	-1115
▁사회	-1116
▁컴퓨터	-1117
문을	-1118
▁시민	-1119
▁앞서	-1120
▁밖	-1121
▁엘	-1122
▁갖고	-1123
▁이러한	-1124
▁워싱턴	-1125
지지	-1126
▁학교	-1127
▁싶	-1128
▁정부의	-1129
▁강조했다	-1130
▁푸	-1131
나라	-1132
▁26	-1133
▁거래	-1134
▁조직	-1135
▁힐러	-1136
▁떨어진	-1137
장의	-1138
▁사태	-1139
하는데	-1140
th	-1141
▁오는	-1142
▁촉구	-1143
하다고	-1144
▁원문기사보기	-1145
씨는	-1146
탈리아	-1147
▁경찰이	-1148
▁있도록	-1149
었던	-1150
지가	-1151
▁놓	-1152
▁팀	-1153
▁연합	-1154
▁마지막	-1155
세계	-1156
▁기자회견	-1157
▁목표	-1158
국의	-1159
수를	-1160
▁창	-1161
▁미국이	-1162
▁발언	-1163
▁비난했다	-1164
있다	-1165
▁가진	-1166
▁도움	-1167
조사	-1168
▁현지	-1169
사일	-1170
▁스타	-1171
▁장관은	-1172
같은	-1173
▁논의	-1174
▁동물	-1175
▁차지	-1176
에서도	-1177
▁느	-1178
▁부인	-1179
▁잃	-1180
▁혼	-1181
회를	-1182
▁거부	-1183
ol	-1184
▁성명	-1185
▁수상	-1186
리포니아	-1187
BC	-1188
▁빌	-1189
▁윌	-1190
스타	-1191
▁가격	-1192
▁거의	-1193
▁오전	-1194
▁그녀는	-1195
▁면	-1196
국은	-1197
▁29	-1198
▁민간	-1199
▁연설	-1200
▁백악관	-1201
▁자신이	-1202
▁처음으로	-1203
▁빈	-1204
▁기업	-1205
▁유명	-1206
동안	-1207
▁공동	-1208
▁활동	-1209
했다는	-1210
으로부터	-1211
캘리포니아	-1212
▁재판	-1213
▁불구	-1214
▁판결	-1215
▁삼	-1216
군이	-1217
▁경쟁	-1218
▁규모	-1219
▁충돌	-1220
됐으며	-1221
마스	-1222
▁출신	-1223
▁타임	-1224
전히	-1225
▁결혼	-1226
▁국경	-1227
▁버락	-1228
하도록	-1229
▁Kore	-1230
군은	-1231
▁불법	-1232
▁CNN	-1233
▁지난달	-1234
▁2007	-1235
▁눈	-1236
▁밤	-1237
대한	-1238
▁남아	-1239
▁수감	-1240
카에다	-1241
▁198	-1242
▁돈	-1243
기도	-1244
▁수백	-1245
자들의	-1246
▁투자	-1247
샤라프	-1248
▁이탈리아	-1249
년에	-1250
가지	-1251
▁28	-1252
▁보내	-1253
니스탄	-1254
▁앞으로	-1255
▁소비	-1256
쳤다	-1257
▁통과	-1258
합니다	-1259
▁있지만	-1260
심을	-1261
▁금지	-1262
▁야당	-1263
▁헌	-1264
▁re	-1265
▁밝히	-1266
▁베이징	-1267
들도	-1268
▁관한	-1269
인들이	-1270
▁̋	-1271
사인	-1272
▁많이	-1273
사이트	-1274
센트	-1275
했을	-1276
▁레이	-1277
▁주둔	-1278
▁이상의	-1279
제를	-1280
▁AP	-1281
▁공급	-1282
▁참가	-1283
▁호텔	-1284
▁미국은	-1285
▁않는다	-1286
▁샤	-1287
▁만에	-1288
▁전망	-1289
▁환경	-1290
▁희생	-1291
▁북한은	-1292
ce	-1293
▁헬	-1294
▁부족	-1295
▁이전	-1296
이라는	-1297
▁보인다	-1298
▁늘	-1299
▁참여	-1300
▁캘리포니아	-1301
ig	-1302
▁유지	-1303
▁좋은	-1304
▁폭력	-1305
▁못했다	-1306
▁이들은	-1307
▁운영	-1308
▁슈	-1309
▁즉	-1310
▁지방	-1311
▁미사일	-1312
▁콘	-1313
▁퍼	-1314
베이	-1315
2005	-1316
▁라이	-1317
▁심각	-1318
▁사망했다	-1319
▁무샤라프	-1320
▁감소	-1321
▁사우	-1322
▁하루	-1323
▁문제를	-1324
규모	-1325
▁없이	-1326
▁출연	-1327
▁사람들은	-1328
안에	-1329
인의	-1330
▁대상	-1331
가니스탄	-1332
▁오바마는	-1333
▁수사	-1334
▁움	-1335
니는	-1336
▁아무	-1337
▁약속	-1338
▁귀	-1339
▁동영	-1340
▁친구	-1341
▁알카에다	-1342
ot	-1343
우리는	-1344
▁코리아	-1345
artic	-1346
감을	-1347
▁범죄	-1348
▁이루	-1349
졌다고	-1350
article	-1351
▁다이	-1352
▁회담을	-1353
▁몸	-1354
▁그를	-1355
원들이	-1356
un	-1357
▁h	-1358
스터	-1359
치가	-1360
▁낮	-1361
것은	-1362
▁바이	-1363
▁역사	-1364
▁우승	-1365
▁최초	-1366
▁구성	-1367
▁이곳	-1368
50	-1369
et	-1370
대에	-1371
▁알려졌다	-1372
드의	-1373
사회	-1374
어진	-1375
▁일으	-1376
▁스페인	-1377
▁중요한	-1378
▁불구하고	-1379
라도	-1380
원에	-1381
가를	-1382
,000	-1383
▁미국과	-1384
▁어린이	-1385
▁아프가니스탄	-1386
▁엄	-1387
▁움직	-1388
▁공격을	-1389
▁박사는	-1390
▁말했습니다	-1391
르코	-1392
세의	-1393
트는	-1394
▁번째	-1395
자들에게	-1396
▁갈	-1397
▁독립	-1398
▁지진	-1399
원들은	-1400
id	-1401
▁것입니다	-1402
▁웹사이트	-1403
▁너	-1404
▁징	-1405
▁이런	-1406
▁이야	-1407
▁역할	-1408
▁인용	-1409
▁장관	-1410
ec	-1411
▁응	-1412
▁반면	-1413
▁변화	-1414
▁매케인	-1415
▁사망한	-1416
ur	-1417
하자	-1418
▁남성	-1419
▁놀	-1420
▁맡	-1421
▁가자	-1422
▁폐쇄	-1423
▁for	-1424
▁봉	-1425
하던	-1426
▁내려	-1427
▁전투	-1428
▁직접	-1429
▁&	-1430
가가	-1431
기의	-1432
주는	-1433
▁대사	-1434
▁발사	-1435
▁부토	-1436
리에서	-1437
리다	-1438
후보	-1439
▁기소	-1440
▁유권	-1441
▁성명을	-1442
부가	-1443
▁말을	-1444
▁안보	-1445
▁전에	-1446
▁사망했다고	-1447
▁퇴	-1448
관계	-1449
기구	-1450
▁마을	-1451
▁목격	-1452
IN	-1453
’’	-1454
▁앤	-1455
▁짐	-1456
▁서비	-1457
▁2005.08	-1458
즈는	-1459
▁정도	-1460
▁특별	-1461
▁딸	-1462
당의	-1463
서를	-1464
▁추정	-1465
▁발생했다	-1466
▁펼	-1467
▁강화	-1468
▁회의	-1469
▁모습을	-1470
’(	-1471
▁쇼	-1472
인들은	-1473
▁힐러리	-1474
▁의하면	-1475
▁것이라는	-1476
▁대통령과	-1477
el	-1478
us	-1479
▁업	-1480
대는	-1481
바논	-1482
스템	-1483
▁확보	-1484
만달러	-1485
▁별	-1486
▁기간	-1487
원에서	-1488
▁조치를	-1489
▁혐의를	-1490
▁칼	-1491
▁보다	-1492
▁중심	-1493
▁통신	-1494
▁확실	-1495
▁가능성이	-1496
2005.08	-1497
베트	-1498
지구	-1499
▁나라	-1500
▁신문	-1501
▁알고	-1502
▁지나	-1503
▁최대	-1504
회에서	-1505
▁지역에서	-1506
였던	-1507
▁60	-1508
▁높은	-1509
▁더욱	-1510
▁어려	-1511
▁인권	-1512
▁전체	-1513
▁지난주	-1514
▁뜻	-1515
국이	-1516
▁경선	-1517
▁아버	-1518
▁인한	-1519
물을	-1520
이가	-1521
CNN	-1522
▁플로	-1523
포인트	-1524
▁성명에서	-1525
am	-1526
▁은	-1527
라인	-1528
▁과정	-1529
▁소유	-1530
▁운동	-1531
▁계획을	-1532
하겠다고	-1533
▁O	-1534
▁맨	-1535
▁뿐	-1536
▁웨	-1537
▁강력	-1538
▁수천	-1539
▁행사	-1540
▁데이비	-1541
해서	-1542
▁콜롬	-1543
▁총리가	-1544
▁않았다고	-1545
측은	-1546
▁개최	-1547
▁되는	-1548
▁의견	-1549
▁n	-1550
▁기대	-1551
▁석유	-1552
▁입장을	-1553
점을	-1554
▁것이며	-1555
▁문제가	-1556
SA	-1557
▁아침	-1558
▁이뤄	-1559
▁주택	-1560
▁우리는	-1561
▁캠	-1562
▁중앙	-1563
▁레바논	-1564
▁전세계	-1565
▁황	-1566
갔다	-1567
스와	-1568
시킬	-1569
자들	-1570
▁인쇄	-1571
▁한나라	-1572
▁팬	-1573
시코	-1574
▁때문	-1575
▁아니다	-1576
▁2004	-1577
▁글	-1578
두고	-1579
이를	-1580
이번	-1581
▁중국의	-1582
▁지역에	-1583
▁믿	-1584
슨은	-1585
훈련	-1586
▁일반	-1587
ay	-1588
▁겪	-1589
드가	-1590
▁마련	-1591
▁분석	-1592
리자	-1593
시켰다	-1594
▁폭탄테러	-1595
머니	-1596
▁담당	-1597
▁시도	-1598
차례	-1599
▁핵무	-1600
▁화재	-1601
소를	-1602
▁거주	-1603
▁건설	-1604
▁도로	-1605
▁영향을	-1606
▁먹	-1607
애나	-1608
트를	-1609
▁어제	-1610
▁위원	-1611
전에서	-1612
▁기자회견에서	-1613
▁J	-1614
부의	-1615
▁필요한	-1616
▁d	-1617
▁까지	-1618
▁선고	-1619
▁윌리	-1620
▁의료	-1621
멕시코	-1622
▁관련된	-1623
▁엔	-1624
라마	-1625
▁생활	-1626
▁수행	-1627
▁있었다고	-1628
▁풀	-1629
전이	-1630
드리	-1631
적이	-1632
▁너무	-1633
▁타고	-1634
ad	-1635
▁억	-1636
무현	-1637
▁개인	-1638
▁선택	-1639
▁시설	-1640
▁올라	-1641
▁재개	-1642
▁해외	-1643
었으며	-1644
▁남북	-1645
▁증거	-1646
년까지	-1647
▁없었다	-1648
사와	-1649
▁선언	-1650
▁사르코	-1651
▁실종	-1652
▁제조	-1653
너지	-1654
스에	-1655
▁교육	-1656
▁받을	-1657
한다는	-1658
▁한국의	-1659
JO	-1660
▁울	-1661
▁효	-1662
설명	-1663
스크	-1664
▁남자	-1665
▁있고	-1666
▁브라운	-1667
ri	-1668
는지	-1669
▁남편	-1670
▁여자	-1671
라이나	-1672
▁문제에	-1673
-1	-1674
INS	-1675
네시아	-1676
JOINS	-1677
▁탑	-1678
텍사	-1679
품을	-1680
▁육	-1681
▁독해	-1682
▁여객	-1683
▁연기	-1684
▁노무현	-1685
▁콜롬비아	-1686
5%	-1687
▁또는	-1688
▁소식통	-1689
▁티베트	-1690
▁독해설명	-1691
▁둘	-1692
▁망	-1693
신을	-1694
▁31	-1695
▁명이	-1696
▁비용	-1697
▁사상	-1698
▁산업	-1699
▁시장	-1700
▁역시	-1701
▁타이	-1702
(2	-1703
▁즐	-1704
▁히	-1705
▁결국	-1706
▁나오	-1707
▁주변	-1708
그러나	-1709
▁사건에	-1710
만에	-1711
▁이동	-1712
▁잔	-1713
스카	-1714
▁찾아	-1715
▁열리는	-1716
▁이유로	-1717
▁곧	-1718
▁끌	-1719
명과	-1720
무를	-1721
하이	-1722
▁해안	-1723
▁2003	-1724
위에	-1725
▁수준	-1726
▁이끌	-1727
▁주식	-1728
▁조사를	-1729
ve	-1730
▁이제	-1731
▁했다고	-1732
▁g	-1733
떻게	-1734
스코	-1735
▁동영상	-1736
▁지도자	-1737
▁인도네시아	-1738
ers	-1739
▁익	-1740
랐다	-1741
버트	-1742
제로	-1743
학교	-1744
▁의미	-1745
▁제안	-1746
▁관광객	-1747
▁감염	-1748
▁총선	-1749
▁출전	-1750
▁행동	-1751
▁피해를	-1752
▁찬	-1753
▁탐	-1754
▁내년	-1755
▁제기	-1756
▁철수	-1757
▁뇌	-1758
베스	-1759
▁비상	-1760
▁왔다	-1761
▁프리	-1762
▁플로리다	-1763
▁예정이라고	-1764
는다	-1765
이자	-1766
쪽으로	-1767
▁사람이	-1768
▁어떻게	-1769
▁붙	-1770
만이	-1771
▁자금	-1772
▁훈련	-1773
▁비디오	-1774
▁시스템	-1775
▁화요일	-1776
스로	-1777
▁아마	-1778
▁샌	-1779
술을	-1780
▁구호	-1781
▁얼마	-1782
▁책임	-1783
▁회복	-1784
▁201	-1785
▁정보를	-1786
약을	-1787
),	-1788
세력	-1789
정에	-1790
프는	-1791
▁바로	-1792
▁전달	-1793
▁제출	-1794
▁라이스	-1795
▁부상을	-1796
▁전문가들은	-1797
▁일을	-1798
▁보였다	-1799
▁윌리엄	-1800
ac	-1801
▁답	-1802
ist	-1803
▁게임	-1804
▁국영	-1805
▁드러	-1806
▁수십	-1807
▁음악	-1808
▁휴대	-1809
▁Korea	-1810
료를	-1811
▁기념	-1812
▁인구	-1813
무장관은	-1814
▁0	-1815
년대	-1816
월에	-1817
촬영	-1818
▁사업	-1819
▁있게	-1820
겠다는	-1821
대통령	-1822
▁텍사	-1823
▁멕시코	-1824
▁2000	-1825
▁대선후보	-1826
▁자신들의	-1827
도가	-1828
리트	-1829
스턴	-1830
▁대신	-1831
▁제재	-1832
드로	-1833
▁스티	-1834
였다고	-1835
▁아프리카	-1836
ht	-1837
▁펜	-1838
군의	-1839
당한	-1840
명에	-1841
바이	-1842
억원	-1843
치고	-1844
▁실패	-1845
▁주말	-1846
▁대의	-1847
▁사라	-1848
▁and	-1849
▁앞두고	-1850
▁사망하고	-1851
ut	-1852
만을	-1853
폭탄	-1854
▁비롯	-1855
▁중동	-1856
▁파괴	-1857
▁시작했다	-1858
▁한나라당	-1859
드를	-1860
▁배우	-1861
▁베네	-1862
▁불가	-1863
▁추락	-1864
소에서	-1865
었습니다	-1866
부에	-1867
일을	-1868
res	-1869
▁교통	-1870
▁대피	-1871
▁부분	-1872
어를	-1873
▁관할	-1874
▁그렇	-1875
NA	-1876
신이	-1877
행을	-1878
▁따라	-1879
▁주도	-1880
스러	-1881
▁전화	-1882
▁제시	-1883
▁촬영	-1884
하려는	-1885
▁위원회	-1886
▁다우	-1887
▁수용	-1888
▁지속	-1889
▁있었던	-1890
수로	-1891
연합	-1892
일에	-1893
피언	-1894
▁가까	-1895
▁감시	-1896
▁부정	-1897
▁헌법	-1898
으로써	-1899
▁정치적	-1900
▁싸	-1901
미국	-1902
▁고려	-1903
▁비판	-1904
▁살고	-1905
▁시아	-1906
▁일이	-1907
▁중인	-1908
▁포기	-1909
억달러	-1910
▁대규모	-1911
▁만들어	-1912
ir	-1913
나다	-1914
사에	-1915
시는	-1916
형을	-1917
▁보건	-1918
▁부모	-1919
▁사과	-1920
▁작업	-1921
▁정확	-1922
▁데이비드	-1923
▁상원의원	-1924
▁던	-1925
▁붕	-1926
▁국내	-1927
▁아닌	-1928
▁포함한	-1929
▁돼	-1930
▁흑	-1931
섰다	-1932
성은	-1933
으면	-1934
프트	-1935
회에	-1936
▁교수는	-1937
▁에너지	-1938
▁의원은	-1939
)'	-1940
▁가지고	-1941
단을	-1942
디아	-1943
▁입은	-1944
▁전해	-1945
▁희망	-1946
30	-1947
우리	-1948
▁장면	-1949
▁직원	-1950
▁탑승	-1951
▁이상이	-1952
▁앨	-1953
안이	-1954
▁무기	-1955
▁않다	-1956
▁협력	-1957
▁그들의	-1958
▁사망자	-1959
▁역할을	-1960
ow	-1961
▁벨	-1962
단은	-1963
르고	-1964
실을	-1965
▁메시	-1966
▁이같은	-1967
▁지원을	-1968
▁2002	-1969
바브	-1970
성에	-1971
com	-1972
바브웨	-1973
▁여전히	-1974
움을	-1975
ver	-1976
▁교도	-1977
▁붕괴	-1978
▁안에	-1979
▁특히	-1980
▁아니라	-1981
▁가자지구	-1982
▁e	-1983
위원	-1984
정한	-1985
▁수입	-1986
챔피언	-1987
▁이루어	-1988
▁대부분의	-1989
▁송	-1990
년이	-1991
리그	-1992
▁LA	-1993
▁만나	-1994
▁운전	-1995
▁전국	-1996
▁조치	-1997
▁토론	-1998
▁당국이	-1999
▁월요일	-2000
▁지역의	-2001
▁벗	-2002
고를	-2003
들로	-2004
자회담	-2005
▁로버트	-2006
▁말한다	-2007
▁미국인	-2008
ap	-2009
겠다	-2010
만원	-2011
▁것인	-2012
▁작은	-2013
시키는	-2014
▁부통령	-2015
▁관계자가	-2016
방송	-2017
시켜	-2018
▁되어	-2019
▁저지	-2020
▁홍콩	-2021
스에서	-2022
많은	-2023
▁US	-2024
▁기다	-2025
▁승객	-2026
▁시험	-2027
▁열차	-2028
▁최종	-2029
▁심각한	-2030
▁나타났다	-2031
그는	-2032
지의	-2033
▁결의	-2034
▁나는	-2035
▁의사	-2036
▁푸틴	-2037
▁온라인	-2038
im	-2039
▁젊	-2040
보는	-2041
시설	-2042
어들	-2043
.11	-2044
▁스미	-2045
▁한국인	-2046
▁생각한다	-2047
▁촉구했다	-2048
대표	-2049
▁밝힌	-2050
▁축구	-2051
▁태국	-2052
장으로	-2053
▁197	-2054
▁국무부	-2055
▁일본의	-2056
▁겨	-2057
란드	-2058
소에	-2059
▁없을	-2060
리스트	-2061
ge	-2062
▁섬	-2063
▁좌	-2064
트로	-2065
▁과거	-2066
▁반응	-2067
▁비해	-2068
▁확산	-2069
▁짐바브웨	-2070
▁난민	-2071
ment	-2072
▁발표한	-2073
▁뛰	-2074
▁빨	-2075
관을	-2076
사건	-2077
운드	-2078
운티	-2079
▁국립	-2080
▁성장	-2081
▁수는	-2082
▁암살	-2083
▁한다는	-2084
▁먼	-2085
▁휘	-2086
▁on	-2087
▁다양	-2088
▁설치	-2089
▁항의	-2090
▁마이클	-2091
▁경고했다	-2092
▁경기에서	-2093
▁씨	-2094
리노	-2095
해를	-2096
▁구속	-2097
▁생존	-2098
▁서로	-2099
▁승인	-2100
▁오른	-2101
▁전시	-2102
▁회원	-2103
퍼센트	-2104
▁라디오	-2105
▁시위를	-2106
▁후보가	-2107
▁2009	-2108
▁요구했다	-2109
▁곤	-2110
▁풍	-2111
상이	-2112
▁살아	-2113
▁상원	-2114
▁수색	-2115
▁제한	-2116
하지만	-2117
▁민간인	-2118
▁밝혀졌다	-2119
.2	-2120
지로	-2121
▁사임	-2122
▁수가	-2123
▁정권	-2124
▁챔피언	-2125
중인	-2126
수의	-2127
지도	-2128
.12	-2129
▁무엇	-2130
▁정당	-2131
▁진압	-2132
▁차례	-2133
▁넣	-2134
년의	-2135
▁발전	-2136
▁선정	-2137
▁식량	-2138
▁위반	-2139
▁하기	-2140
▁브라질	-2141
▁이름을	-2142
▁캐나다	-2143
▁활동을	-2144
▁녹	-2145
▁흔	-2146
것이	-2147
장인	-2148
▁de	-2149
▁수출	-2150
▁여름	-2151
▁정신	-2152
▁제품	-2153
▁치러	-2154
op	-2155
▁/	-2156
▁낙	-2157
이로	-2158
▁결승	-2159
▁그런	-2160
▁동맹	-2161
▁명령	-2162
▁병사	-2163
▁보수	-2164
▁실험	-2165
▁월드	-2166
▁전통	-2167
▁지불	-2168
▁케냐	-2169
하거나	-2170
▁달러의	-2171
▁외국인	-2172
▁대변인이	-2173
TA	-2174
가고	-2175
시킨	-2176
어는	-2177
운동	-2178
이프	-2179
일한	-2180
책을	-2181
▁가져	-2182
▁같이	-2183
▁선출	-2184
▁추진	-2185
▁충분	-2186
▁경기를	-2187
▁관계를	-2188
단이	-2189
리와	-2190
▁각각	-2191
▁대법	-2192
▁심장	-2193
년부터	-2194
시키고	-2195
▁내용을	-2196
▁사무총	-2197
▁상황을	-2198
IA	-2199
어나	-2200
.06	-2201
ate	-2202
▁동료	-2203
▁소송	-2204
▁평가	-2205
▁경찰에	-2206
▁시아파	-2207
▁프라이	-2208
=2	-2209
거래	-2210
려는	-2211
르트	-2212
선거	-2213
안은	-2214
이라	-2215
▁성폭	-2216
▁소방	-2217
▁수석	-2218
▁시즌	-2219
▁종교	-2220
▁지명	-2221
▁페르	-2222
▁평균	-2223
▁사건을	-2224
▁우리가	-2225
▁클린턴은	-2226
ch	-2227
계를	-2228
됐던	-2229
인인	-2230
정이	-2231
▁니콜	-2232
▁사령	-2233
▁취임	-2234
▁행위	-2235
일까지	-2236
▁결과를	-2237
▁상원의원은	-2238
▁프로그램을	-2239
▁싱	-2240
기와	-2241
르게	-2242
▁것과	-2243
▁경험	-2244
▁아르	-2245
▁업체	-2246
▁접근	-2247
▁총격	-2248
▁취소	-2249
무장관	-2250
지니아	-2251
▁감독은	-2252
▁여론조사	-2253
▁왔	-2254
500	-2255
▁st	-2256
▁나온	-2257
▁매케	-2258
▁센터	-2259
▁않아	-2260
▁알리	-2261
▁지하	-2262
▁500	-2263
국가	-2264
오는	-2265
장과	-2266
▁받는	-2267
▁비밀	-2268
장관은	-2269
▁과정에서	-2270
세인	-2271
스럽	-2272
▁동부	-2273
▁벌어	-2274
▁에드	-2275
▁있기	-2276
▁젊은	-2277
▁파병	-2278
명으로	-2279
▁관심을	-2280
▁중국은	-2281
▁지지를	-2282
▁행정부	-2283
▁대통령을	-2284
um	-2285
▁칸	-2286
프로	-2287
▁가지	-2288
▁게이	-2289
▁공연	-2290
▁동의	-2291
▁마감	-2292
▁무역	-2293
▁밖에	-2294
▁악화	-2295
만명의	-2296
▁견	-2297
우주	-2298
학생	-2299
ion	-2300
▁80	-2301
▁걸쳐	-2302
▁사는	-2303
▁스피	-2304
▁에이	-2305
▁국회의	-2306
▁이라크에서	-2307
▁쉽	-2308
리핀	-2309
엘라	-2310
▁그린	-2311
▁신용	-2312
▁파견	-2313
무부는	-2314
▁사건이	-2315
▁연료	-2316
▁작품	-2317
▁중에	-2318
지에서	-2319
2007	-2320
ak	-2321
도의	-2322
되기	-2323
적을	-2324
진이	-2325
▁대비	-2326
▁문화	-2327
▁보유	-2328
▁임명	-2329
▁주재	-2330
▁후보는	-2331
▁미국에서	-2332
▁벤	-2333
▁홀	-2334
로는	-2335
소의	-2336
앞서	-2337
ill	-2338
▁개혁	-2339
▁그룹	-2340
▁마무	-2341
▁사랑	-2342
▁설립	-2343
▁지켜	-2344
▁집중	-2345
▁허용	-2346
▁그들이	-2347
▁수요일	-2348
▁대상으로	-2349
▁슬	-2350
▁구제	-2351
▁나토	-2352
▁넘어	-2353
▁논쟁	-2354
▁돈을	-2355
▁뜻을	-2356
▁유죄	-2357
자들과	-2358
2006	-2359
▁The	-2360
▁경찰서	-2361
▁그녀의	-2362
▁사이에	-2363
▁핵무기	-2364
▁이에앞서	-2365
▁관계자들은	-2366
이란	-2367
▁배치	-2368
▁분명	-2369
▁사퇴	-2370
▁통제	-2371
▁바이러	-2372
▁대해서는	-2373
경찰	-2374
리우	-2375
었고	-2376
진을	-2377
▁공습	-2378
▁되고	-2379
▁바란	-2380
▁아내	-2381
▁전반	-2382
▁깨	-2383
▁잉	-2384
관리	-2385
끄는	-2386
니스	-2387
명박	-2388
어도	-2389
일간	-2390
회는	-2391
▁EU	-2392
▁교황	-2393
▁조건	-2394
▁벌이고	-2395
▁알려진	-2396
▁총리의	-2397
60	-2398
기간	-2399
비를	-2400
회가	-2401
▁혼란	-2402
▁환영	-2403
시키기	-2404
▁발견된	-2405
▁변호사는	-2406
▁옮	-2407
물이	-2408
▁상대로	-2409
▁텍사스	-2410
▁기록했다	-2411
-0	-2412
메라	-2413
▁Ch	-2414
▁개선	-2415
▁대중	-2416
▁두고	-2417
▁선포	-2418
▁수단	-2419
▁이래	-2420
버그	-2421
워드	-2422
▁그래	-2423
▁로켓	-2424
▁상대	-2425
▁서부	-2426
▁승리를	-2427
▁정부에	-2428
▁사람들을	-2429
▁대응	-2430
▁야후	-2431
▁전역	-2432
▁사람은	-2433
▁어머니	-2434
▁흥	-2435
카고	-2436
트의	-2437
.10	-2438
▁경영	-2439
▁남한	-2440
▁복귀	-2441
▁사형	-2442
졌으며	-2443
▁시리아	-2444
▁합니다	-2445
구를	-2446
산을	-2447
수지	-2448
▁구매	-2449
▁미래	-2450
▁블로	-2451
▁신화	-2452
▁적이	-2453
▁좋아	-2454
▁크게	-2455
통신은	-2456
▁벌였다	-2457
▁북한에	-2458
▁이명박	-2459
▁아직까지	-2460
▁밝혔습니다	-2461
▁상원의원이	-2462
▁찰	-2463
나지	-2464
지인	-2465
화가	-2466
ter	-2467
▁고용	-2468
▁고통	-2469
▁로마	-2470
▁북핵	-2471
▁저장	-2472
밖에	-2473
▁동성	-2474
▁이로	-2475
일부터	-2476
▁아니라고	-2477
▁폭력사태	-2478
▁l	-2479
군과	-2480
상의	-2481
▁NA	-2482
▁같다	-2483
▁양국	-2484
▁이집	-2485
▁임시	-2486
이라크	-2487
▁검찰은	-2488
(3	-2489
.7	-2490
FA	-2491
민주	-2492
▁90	-2493
▁다르	-2494
▁등의	-2495
▁연결	-2496
▁집권	-2497
▁표현	-2498
▁해야	-2499
▁베네수	-2500
▁위해서는	-2501
20	-2502
리지	-2503
회사	-2504
▁관해	-2505
▁따른	-2506
▁마크	-2507
▁이해	-2508
▁효과	-2509
▁결정을	-2510
▁대사관	-2511
▁때까지	-2512
▁사이트	-2513
▁민주주의	-2514
▁홈	-2515
▁부근	-2516
▁인간	-2517
▁해리	-2518
▁달러를	-2519
▁마이크	-2520
▁목요일	-2521
▁치료를	-2522
되었다고	-2523
▁사르코지	-2524
BS	-2525
▁갑	-2526
려고	-2527
르드	-2528
진은	-2529
▁UN	-2530
▁검토	-2531
▁고속	-2532
▁뉴스	-2533
▁모델	-2534
▁받게	-2535
▁이틀	-2536
▁인수	-2537
▁최악	-2538
▁쿠바	-2539
트에서	-2540
▁다양한	-2541
▁받아들	-2542
▁있다며	-2543
▁회장은	-2544
로서	-2545
이어	-2546
▁기관	-2547
▁높아	-2548
▁매년	-2549
▁펜실	-2550
▁해당	-2551
▁허리	-2552
였으며	-2553
▁못하고	-2554
▁비행기	-2555
▁2001	-2556
▁공격으로	-2557
▁깊	-2558
데이	-2559
리로	-2560
식이	-2561
▁단계	-2562
▁분야	-2563
▁살인	-2564
▁집행	-2565
▁시카고	-2566
▁무장단체	-2567
▁프라이머	-2568
oo	-2569
se	-2570
로를	-2571
자에	-2572
▁강한	-2573
▁등을	-2574
▁바다	-2575
▁스트	-2576
▁재정	-2577
▁전자	-2578
▁진출	-2579
▁도움을	-2580
▁도움이	-2581
▁계획이다	-2582
▁보고서는	-2583
도에	-2584
르타	-2585
▁광고	-2586
▁분쟁	-2587
▁사항	-2588
▁아파	-2589
▁자체	-2590
▁징역	-2591
점에서	-2592
하기도	-2593
▁강력한	-2594
▁일요일	-2595
▁자신을	-2596
▁무장세력	-2597
ID	-2598
▁능	-2599
리즈	-2600
차를	-2601
▁근처	-2602
▁보좌	-2603
▁선박	-2604
▁아랍	-2605
▁압둘	-2606
▁지휘	-2607
▁포르	-2608
▁방법을	-2609
▁수많은	-2610
▁타임즈	-2611
▁필리핀	-2612
▁린	-2613
▁윈	-2614
비행	-2615
측이	-2616
▁못한	-2617
▁아바	-2618
▁지시	-2619
▁파업	-2620
▁이끄는	-2621
▁하마스	-2622
▁버지니아	-2623
▁둔	-2624
북한	-2625
사고	-2626
제가	-2627
표를	-2628
▁구체	-2629
▁받지	-2630
▁입원	-2631
▁자녀	-2632
▁처리	-2633
▁향해	-2634
▁확신	-2635
▁사실이	-2636
▁정부와	-2637
▁이라크에	-2638
▁론	-2639
경기	-2640
어가	-2641
키는	-2642
▁강제	-2643
▁대만	-2644
▁선두	-2645
▁수익	-2646
▁있지	-2647
▁한반	-2648
스러운	-2649
▁언급했다	-2650
▁베네수엘라	-2651
80	-2652
위로	-2653
이드	-2654
▁70	-2655
▁In	-2656
▁공산	-2657
▁아메	-2658
▁힘들	-2659
자에게	-2660
▁내렸다	-2661
▁후보를	-2662
▁주지사는	-2663
."	-2664
EA	-2665
ew	-2666
▁컨	-2667
당은	-2668
배를	-2669
이의	-2670
▁근거	-2671
▁긴급	-2672
▁막기	-2673
▁비슷	-2674
▁빠져	-2675
▁시행	-2676
▁전략	-2677
었지만	-2678
▁con	-2679
▁밝히지	-2680
▁협상을	-2681
▁발견했다	-2682
▁요청했다	-2683
다면	-2684
법을	-2685
임스	-2686
▁나머	-2687
▁제거	-2688
하이오	-2689
▁상황이	-2690
▁받았다고	-2691
▁맺	-2692
성의	-2693
자이	-2694
▁관심	-2695
▁사우디	-2696
▁영국의	-2697
▁플레이	-2698
▁오바마가	-2699
다른	-2700
율을	-2701
▁논란	-2702
▁목숨	-2703
▁소재	-2704
▁승무	-2705
▁증시	-2706
되면서	-2707
▁달하는	-2708
▁성폭행	-2709
▁숨지고	-2710
▁잭	-2711
상태	-2712
없이	-2713
줬다	-2714
피아	-2715
oin	-2716
▁도쿄	-2717
▁만든	-2718
▁어느	-2719
▁에어	-2720
가들은	-2721
하였다	-2722
해왔다	-2723
▁국방부	-2724
▁다음달	-2725
▁되었다	-2726
▁미군이	-2727
▁1000	-2728
co	-2729
국인	-2730
상에	-2731
식에	-2732
직을	-2733
▁개의	-2734
▁고객	-2735
▁둘러	-2736
▁만큼	-2737
▁일자	-2738
▁주의	-2739
글랜드	-2740
▁북한을	-2741
▁예상된다	-2742
▁정상회담	-2743
▁주장하고	-2744
.8	-2745
▁찍	-2746
가로	-2747
겼다	-2748
년을	-2749
연구	-2750
.09	-2751
▁어떠	-2752
▁오래	-2753
▁제외	-2754
▁주한	-2755
으로서	-2756
▁가능한	-2757
▁미국을	-2758
▁비난을	-2759
▁작업을	-2760
▁오하이오	-2761
▁사람들에게	-2762
.3	-2763
▁묘	-2764
결을	-2765
이션	-2766
즈니	-2767
▁고등	-2768
▁노조	-2769
▁신고	-2770
▁착륙	-2771
여명이	-2772
▁여부를	-2773
▁움직임	-2774
▁정도로	-2775
▁지역을	-2776
▁이라크의	-2777
.9	-2778
BI	-2779
ia	-2780
단의	-2781
치의	-2782
all	-2783
▁35	-2784
▁마약	-2785
▁분리	-2786
▁비교	-2787
▁잘못	-2788
▁출발	-2789
대에서	-2790
된다고	-2791
oc	-2792
ul	-2793
▁쉬	-2794
▁졸	-2795
나이	-2796
사한	-2797
생활	-2798
▁끝에	-2799
▁대회	-2800
▁세금	-2801
▁인물	-2802
▁입고	-2803
▁케이	-2804
▁했던	-2805
▁후에	-2806
전으로	-2807
▁300	-2808
▁말레이	-2809
▁병력을	-2810
▁사진을	-2811
▁여성이	-2812
▁적어도	-2813
롤라이나	-2814
폭탄테러	-2815
▁발생했다고	-2816
.4	-2817
▁냉	-2818
▁솔	-2819
▁탁	-2820
경을	-2821
기지	-2822
러는	-2823
브라	-2824
소가	-2825
하메	-2826
▁되지	-2827
▁모른	-2828
▁보낸	-2829
▁하며	-2830
였습니다	-2831
▁사람들의	-2832
RC	-2833
롭게	-2834
상은	-2835
화에	-2836
▁계약	-2837
▁나와	-2838
▁넘는	-2839
▁예측	-2840
▁의혹	-2841
말리아	-2842
▁것이라	-2843
▁어떠한	-2844
▁십	-2845
같이	-2846
도는	-2847
리기	-2848
art	-2849
▁검사	-2850
▁공공	-2851
▁누구	-2852
▁수니	-2853
▁이달	-2854
▁접촉	-2855
▁진술	-2856
▁하마	-2857
리노이	-2858
만명이	-2859
하지는	-2860
▁대표는	-2861
▁목숨을	-2862
▁최고의	-2863
(1	-2864
▁낸	-2865
▁습	-2866
▁왜	-2867
개발	-2868
내는	-2869
라스	-2870
보를	-2871
▁증언	-2872
▁출마	-2873
▁폭풍	-2874
▁병원에	-2875
▁유명한	-2876
▁유일한	-2877
▁쿠르드	-2878
▁결정했다	-2879
(4	-2880
TO	-2881
uc	-2882
▁삶	-2883
이기	-2884
▁스포	-2885
▁시상	-2886
▁압박	-2887
▁인사	-2888
▁자치	-2889
▁장기	-2890
됩니다	-2891
▁가졌다	-2892
▁발생해	-2893
▁사이클	-2894
▁시간을	-2895
▁정부를	-2896
..	-2897
▁듯	-2898
량을	-2899
친구	-2900
▁거절	-2901
▁근무	-2902
▁내가	-2903
▁무너	-2904
▁시청	-2905
▁아주	-2906
▁사건은	-2907
▁사고가	-2908
▁올랐다	-2909
▁이들의	-2910
▁이란의	-2911
▁질문에	-2912
▁끊	-2913
석을	-2914
스캐	-2915
트가	-2916
▁군인	-2917
▁대기	-2918
▁불안	-2919
▁수치	-2920
▁유로	-2921
▁자연	-2922
▁해군	-2923
▁사고로	-2924
▁언론은	-2925
▁완전히	-2926
▁이야기	-2927
▁최초의	-2928
▁주민들이	-2929
▁지도자인	-2930
▁득	-2931
▁묻	-2932
▁펠	-2933
소는	-2934
▁규정	-2935
▁기후	-2936
▁알렉	-2937
▁일간	-2938
▁조종	-2939
▁대해서	-2940
▁한국은	-2941
지역에서	-2942
되었습니다	-2943
em	-2944
▁늦	-2945
▁술	-2946
가인	-2947
국을	-2948
르의	-2949
안보	-2950
어난	-2951
주일	-2952
▁경매	-2953
▁목소	-2954
▁소녀	-2955
▁아카	-2956
▁위성	-2957
▁의심	-2958
이지만	-2959
▁방안을	-2960
▁보여주	-2961
▁서비스	-2962
▁시간이	-2963
▁다이애나	-2964
▁소말리아	-2965
▁합의했다	-2966
▁과학자들은	-2967
경제	-2968
대와	-2969
들어	-2970
량의	-2971
량이	-2972
로스	-2973
마다	-2974
비치	-2975
위가	-2976
티나	-2977
oun	-2978
▁가질	-2979
▁동원	-2980
▁바람	-2981
월부터	-2982
▁나왔다	-2983
▁미군은	-2984
▁카운티	-2985
▁프로젝	-2986
▁않았지만	-2987
▁삭	-2988
그룹	-2989
아니	-2990
▁가스	-2991
▁동결	-2992
▁등록	-2993
▁숨진	-2994
▁신뢰	-2995
▁적용	-2996
▁청소	-2997
▁총재	-2998
▁평양	-2999
▁그것은	-3000
▁블로그	-3001
▁정책을	-3002
▁중국이	-3003
▁차베스	-3004
서부	-3005
위는	-3006
▁간의	-3007
▁개정	-3008
▁경비	-3009
▁기준	-3010
▁머물	-3011
일랜드	-3012
했는데	-3013
5000	-3014
▁pro	-3015
▁게이츠	-3016
▁목표로	-3017
▁방문한	-3018
▁보이는	-3019
▁반대하는	-3020
▁걱	-3021
군을	-3022
도시	-3023
되며	-3024
렀다	-3025
방을	-3026
세가	-3027
웠다	-3028
▁be	-3029
▁기억	-3030
▁들고	-3031
▁세르	-3032
▁존재	-3033
▁카르	-3034
▁트럭	-3035
▁해병	-3036
하다는	-3037
하라고	-3038
한다면	-3039
▁관련해	-3040
▁그리스	-3041
▁미국에	-3042
▁우려를	-3043
▁휴대폰	-3044
▁확인했다	-3045
▁말레이시아	-3046
EC	-3047
골을	-3048
당이	-3049
신의	-3050
항공	-3051
▁기상	-3052
▁느끼	-3053
▁물론	-3054
▁성화	-3055
▁아베	-3056
▁없어	-3057
▁여왕	-3058
▁장난	-3059
▁집단	-3060
▁청와	-3061
▁법안을	-3062
▁아무런	-3063
▁판결을	-3064
위원회는	-3065
스캐롤라이나	-3066
▁듣	-3067
▁며	-3068
개를	-3069
베즈	-3070
세로	-3071
아이	-3072
인지	-3073
호를	-3074
.01	-3075
▁St	-3076
▁놓고	-3077
▁리버	-3078
▁병력	-3079
▁수술	-3080
▁순간	-3081
▁실업	-3082
▁이민	-3083
▁이송	-3084
▁즉각	-3085
▁항상	-3086
▁행정	-3087
▁힐튼	-3088
▁일리노이	-3089
.5	-3090
DA	-3091
▁빅	-3092
▁옷	-3093
동부	-3094
문이	-3095
▁박물	-3096
▁부동	-3097
▁씨는	-3098
▁임무	-3099
▁자주	-3100
▁적절	-3101
2008	-3102
▁내무부	-3103
▁마드리	-3104
▁숨졌다	-3105
▁의견을	-3106
▁최악의	-3107
결과	-3108
리프	-3109
한을	-3110
해진	-3111
▁근로	-3112
▁만약	-3113
▁신청	-3114
▁오픈	-3115
▁저녁	-3116
▁투입	-3117
▁규모의	-3118
▁대의원	-3119
▁사무실	-3120
▁필요가	-3121
▁허리케인	-3122
)/	-3123
.6	-3124
nn	-3125
▁굴	-3126
▁흡	-3127
장관	-3128
▁32	-3129
▁고래	-3130
▁도중	-3131
▁법률	-3132
▁블레	-3133
▁상징	-3134
▁세력	-3135
▁아들	-3136
▁여기	-3137
▁올메	-3138
▁유전	-3139
▁점을	-3140
▁정말	-3141
▁밝혀지지	-3142
▁델	-3143
▁좀	-3144
사로	-3145
트에	-3146
협회	-3147
▁나가	-3148
▁수반	-3149
▁약물	-3150
▁주는	-3151
았다고	-3152
지수는	-3153
▁수니파	-3154
▁이란이	-3155
▁이수지	-3156
▁있음을	-3157
▁판사는	-3158
▁하원의	-3159
▁크리스토	-3160
어야	-3161
역을	-3162
트리	-3163
The	-3164
ity	-3165
▁FA	-3166
▁동시	-3167
▁물질	-3168
▁베컴	-3169
▁생물	-3170
▁야생	-3171
▁얼굴	-3172
▁연속	-3173
▁주최	-3174
▁피터	-3175
▁한미	-3176
났다고	-3177
리우드	-3178
아니라	-3179
join	-3180
▁연설을	-3181
▁입었다	-3182
▁전까지	-3183
▁카메라	-3184
TV	-3185
ks	-3186
▁멸	-3187
▁빙	-3188
기관	-3189
율이	-3190
인과	-3191
ain	-3192
▁고양	-3193
▁구입	-3194
▁국회	-3195
▁부패	-3196
▁불러	-3197
▁싶어	-3198
▁애플	-3199
▁억류	-3200
▁작년	-3201
▁전혀	-3202
▁차기	-3203
▁찰스	-3204
▁파손	-3205
랫동안	-3206
▁곳에서	-3207
▁나머지	-3208
▁계속해서	-3209
▁숨졌다고	-3210
▁잉글랜드	-3211
▁돕	-3212
▁벽	-3213
▁품	-3214
데미	-3215
률이	-3216
마일	-3217
미터	-3218
평양	-3219
▁것도	-3220
▁민병	-3221
▁분노	-3222
▁새로	-3223
▁완화	-3224
▁위기	-3225
▁작성	-3226
▁죽음	-3227
▁지연	-3228
▁현대	-3229
여명의	-3230
▁스포츠	-3231
▁제임스	-3232
▁발견됐다	-3233
▁연설에서	-3234
▁오바마의	-3235
▁주민들은	-3236
▁땅	-3237
▁잇	-3238
가스	-3239
분이	-3240
승을	-3241
시에	-3242
실험	-3243
▁겪고	-3244
▁라고	-3245
▁인상	-3246
▁직후	-3247
▁하이	-3248
주에서	-3249
프리카	-3250
만아니라	-3251
하겠다는	-3252
(6	-3253
▁년	-3254
▁덴	-3255
▁톰	-3256
대원	-3257
보가	-3258
지와	-3259
ary	-3260
▁기본	-3261
▁대처	-3262
▁모여	-3263
▁불과	-3264
▁블랙	-3265
라비아	-3266
▁그에게	-3267
▁시장은	-3268
▁의원이	-3269
▁갤	-3270
바는	-3271
복을	-3272
우고	-3273
ort	-3274
▁is	-3275
▁무가	-3276
▁사살	-3277
▁슈퍼	-3278
▁저항	-3279
▁주인	-3280
▁홍보	-3281
▁흑인	-3282
원으로	-3283
▁이들을	-3284
▁이집트	-3285
▁자금을	-3286
▁가능성을	-3287
▁매케인은	-3288
▁병원으로	-3289
▁선거에서	-3290
ee	-3291
▁앉	-3292
만명	-3293
어스	-3294
▁대형	-3295
▁맞아	-3296
▁몇몇	-3297
▁보장	-3298
▁산불	-3299
▁알아	-3300
▁열릴	-3301
▁유대	-3302
▁이르	-3303
▁자세	-3304
▁핵심	-3305
렸다고	-3306
▁마무리	-3307
▁미군의	-3308
▁보이고	-3309
▁스스로	-3310
▁원자로	-3311
▁책임을	-3312
▁후보에	-3313
▁비상사태	-3314
▁회담에서	-3315
▁테러리스트	-3316
▁괴	-3317
르크	-3318
만의	-3319
선에	-3320
조직	-3321
포를	-3322
푸르	-3323
.5%	-3324
▁45	-3325
▁감축	-3326
▁곳에	-3327
▁노출	-3328
▁다니	-3329
▁무사	-3330
▁빠른	-3331
▁예방	-3332
▁작전	-3333
▁집계	-3334
▁처벌	-3335
▁클럽	-3336
▁확대	-3337
▁BBC	-3338
▁바란다	-3339
▁변호사	-3340
▁부시는	-3341
▁소식을	-3342
▁주장을	-3343
▁중이다	-3344
▁관리들은	-3345
▁부상했다고	-3346
▁밴	-3347
▁색	-3348
분을	-3349
산업	-3350
세기	-3351
았던	-3352
▁37	-3353
▁경호	-3354
▁끌어	-3355
▁매일	-3356
▁법정	-3357
▁수정	-3358
▁스위	-3359
▁연장	-3360
▁의한	-3361
▁절반	-3362
▁조금	-3363
▁지배	-3364
▁축하	-3365
▁코소	-3366
하메드	-3367
▁196	-3368
▁대화를	-3369
▁떨어져	-3370
▁발생할	-3371
▁보냈다	-3372
▁없다는	-3373
▁위기에	-3374
▁일어난	-3375
들로부터	-3376
▁고속도로	-3377
▁민주당의	-3378
▁병원에서	-3379
▁전망이다	-3380
▁죄	-3381
▁칠	-3382
라의	-3383
리며	-3384
리오	-3385
리키	-3386
웨이	-3387
▁강타	-3388
▁공군	-3389
▁나이	-3390
▁낮은	-3391
▁내각	-3392
▁싱가	-3393
▁언제	-3394
▁오랜	-3395
▁조작	-3396
▁질병	-3397
▁최신	-3398
▁허가	-3399
식으로	-3400
월까지	-3401
▁말하고	-3402
▁시작된	-3403
joins	-3404
if	-3405
가의	-3406
당인	-3407
보고	-3408
처드	-3409
mer	-3410
▁결론	-3411
▁교수	-3412
▁알게	-3413
▁자료	-3414
▁차관	-3415
▁총기	-3416
▁카라	-3417
▁우리의	-3418
▁사망했으며	-3419
▁크리스토퍼	-3420
pp	-3421
▁멀	-3422
▁휩	-3423
디에	-3424
체를	-3425
▁개봉	-3426
▁노래	-3427
▁목적	-3428
▁방향	-3429
▁실제	-3430
▁원조	-3431
▁태양	-3432
▁표명	-3433
▁해제	-3434
▁확실히	-3435
▁부인했다	-3436
▁아카데미	-3437
▁오랫동안	-3438
▁대통령에게	-3439
▁Korean	-3440
▁숙	-3441
란시	-3442
어로	-3443
▁개입	-3444
▁고든	-3445
▁네덜	-3446
▁떠나	-3447
▁멸종	-3448
▁왕세	-3449
▁우크	-3450
▁파악	-3451
▁후반	-3452
관계를	-3453
▁그렇게	-3454
▁남성이	-3455
▁대표팀	-3456
▁행동을	-3457
▁소식통은	-3458
▁올메르트	-3459
//	-3460
▁#	-3461
▁v	-3462
스키	-3463
정은	-3464
증을	-3465
ith	-3466
▁1,	-3467
▁기반	-3468
▁두려	-3469
▁말한	-3470
▁브리	-3471
▁상당	-3472
▁예비	-3473
▁원유	-3474
▁이혼	-3475
▁전력	-3476
▁주고	-3477
▁400	-3478
▁기록을	-3479
▁기자는	-3480
▁기회를	-3481
▁비슷한	-3482
▁석방을	-3483
▁스미스	-3484
▁월드컵	-3485
▁이밖에	-3486
▁후보로	-3487
베이니아	-3488
tp	-3489
▁궁	-3490
▁염	-3491
▁쥐	-3492
▁획	-3493
개국	-3494
것을	-3495
내고	-3496
단한	-3497
만한	-3498
소로	-3499
슨이	-3500
영화	-3501
위의	-3502
치로	-3503
투표	-3504
://	-3505
▁등이	-3506
▁먼저	-3507
▁바르	-3508
▁보험	-3509
▁서명	-3510
▁안정	-3511
▁외환	-3512
▁주로	-3513
당국은	-3514
인들의	-3515
ight	-3516
▁150	-3517
▁경제적	-3518
▁경찰과	-3519
▁노력을	-3520
▁무가베	-3521
▁위험한	-3522
▁이용해	-3523
▁집에서	-3524
▁메시지를	-3525
▁블로그에	-3526
os	-3527
들린	-3528
바로	-3529
스테	-3530
체가	-3531
축구	-3532
티아	-3533
프라	-3534
하우	-3535
Tot	-3536
cnn	-3537
▁대체	-3538
▁못할	-3539
▁배럴	-3540
▁사례	-3541
▁속에	-3542
▁얻은	-3543
▁입장	-3544
▁통합	-3545
겠지만	-3546
http	-3547
▁가까운	-3548
▁실시된	-3549
▁일본은	-3550
▁있는데	-3551
▁테러로	-3552
Total	-3553
▁세르비아	-3554
▁위원장은	-3555
▁있었으며	-3556
(5	-3557
2&	-3558
EO	-3559
▁윤	-3560
▁혈	-3561
▁혹	-3562
디어	-3563
분의	-3564
우는	-3565
점에	-3566
정보	-3567
지게	-3568
asp	-3569
cat	-3570
▁##	-3571
▁나무	-3572
▁내부	-3573
▁늘어	-3574
▁망명	-3575
▁보이	-3576
▁북극	-3577
▁아기	-3578
▁연루	-3579
▁지급	-3580
▁찬성	-3581
▁총을	-3582
▁태풍	-3583
됐지만	-3584
쳤다고	-3585
=22&	-3586
code	-3587
▁들어가	-3588
▁리처드	-3589
▁문제로	-3590
▁블레어	-3591
▁알려져	-3592
▁일부는	-3593
▁임무를	-3594
▁후보의	-3595
▁사용하는	-3596
▁차지했다	-3597
▁펜실베이니아	-3598
10	-3599
3)	-3600
▁Y	-3601
제는	-3602
▁벌인	-3603
▁진입	-3604
▁피랍	-3605
▁스티븐	-3606
▁출신의	-3607
▁후세인	-3608
▁1999	-3609
▁NASA	-3610
▁r	-3611
▁봤	-3612
▁헨	-3613
통신	-3614
항을	-3615
▁가정	-3616
▁걱정	-3617
▁그중	-3618
▁놀라	-3619
▁당한	-3620
▁대북	-3621
▁분위	-3622
▁빨리	-3623
▁손을	-3624
▁쇼핑	-3625
▁스테	-3626
▁인기	-3627
▁파리	-3628
▁해변	-3629
돌리자	-3630
인으로	-3631
자들에	-3632
▁가격이	-3633
▁결과가	-3634
▁구성된	-3635
▁기자가	-3636
▁나섰다	-3637
▁영화를	-3638
▁위해서	-3639
▁이들이	-3640
▁정확한	-3641
함으로써	-3642
▁자신들이	-3643
2)	-3644
드와	-3645
보호	-3646
자력	-3647
재판	-3648
청은	-3649
▁국왕	-3650
▁엄마	-3651
▁추방	-3652
▁표시	-3653
환으로	-3654
▁관리는	-3655
▁법원은	-3656
▁스티브	-3657
▁공화당의	-3658
▁사무총장은	-3659
▁우크라이나	-3660
▁낳	-3661
▁래	-3662
마크	-3663
면을	-3664
자금	-3665
주를	-3666
하길	-3667
▁대답	-3668
▁라스	-3669
▁아부	-3670
▁이행	-3671
▁조정	-3672
▁크로	-3673
▁하게	-3674
▁확정	-3675
사에서	-3676
▁동성애	-3677
▁살해한	-3678
▁않다고	-3679
▁최소한	-3680
▁추가로	-3681
▁나타냈다	-3682
▁자살폭탄테러	-3683
금융	-3684
동물	-3685
라늄	-3686
무역	-3687
연맹	-3688
평화	-3689
ant	-3690
est	-3691
ign	-3692
▁가는	-3693
▁기울	-3694
▁내린	-3695
▁며칠	-3696
▁이웃	-3697
▁케네	-3698
▁형태	-3699
지역에	-3700
▁문제는	-3701
▁발언을	-3702
▁불만을	-3703
▁사람들	-3704
▁아직도	-3705
▁얼마나	-3706
▁웨스트	-3707
▁이것은	-3708
▁줄어들	-3709
▁회담은	-3710
▁회원국	-3711
▁이야기를	-3712
ational	-3713
▁끼	-3714
격이	-3715
기고	-3716
니가	-3717
랭킹	-3718
수도	-3719
짜리	-3720
출을	-3721
▁기독	-3722
▁기타	-3723
▁네팔	-3724
▁무시	-3725
▁애완	-3726
▁장애	-3727
▁최저	-3728
▁파타	-3729
체스터	-3730
▁FBI	-3731
▁거대한	-3732
▁상황에	-3733
▁소프트	-3734
▁수술을	-3735
▁실시한	-3736
▁압력을	-3737
▁엘리자	-3738
▁전쟁을	-3739
▁테러를	-3740
▁토요일	-3741
▁하워드	-3742
▁행위를	-3743
▁상황에서	-3744
▁콘돌리자	-3745
고한	-3746
다가	-3747
분기	-3748
비가	-3749
슬러	-3750
워크	-3751
점이	-3752
▁""	-3753
▁그와	-3754
▁대화	-3755
▁물리	-3756
▁반발	-3757
▁방해	-3758
▁자국	-3759
▁작가	-3760
▁점령	-3761
▁증명	-3762
▁지키	-3763
더라도	-3764
드에서	-3765
▁검사를	-3766
▁변화를	-3767
▁사용할	-3768
▁투표를	-3769
▁노대통령	-3770
▁대통령에	-3771
DC	-3772
▁꺾	-3773
▁킹	-3774
가에	-3775
긍정	-3776
라가	-3777
부와	-3778
오와	-3779
제에	-3780
티는	-3781
▁고문	-3782
▁교체	-3783
▁내에	-3784
▁노벨	-3785
▁순찰	-3786
▁응답	-3787
▁인종	-3788
▁장악	-3789
지면서	-3790
▁참석한	-3791
▁보고서를	-3792
▁않는다고	-3793
▁꾸	-3794
▁혁	-3795
나와	-3796
되면	-3797
르토	-3798
비는	-3799
사람	-3800
our	-3801
▁김정	-3802
▁쉽게	-3803
▁시티	-3804
▁인디	-3805
▁임신	-3806
▁즉시	-3807
▁페더	-3808
▁한번	-3809
하려고	-3810
outh	-3811
▁계획이	-3812
▁기술을	-3813
▁요구한	-3814
▁용의자	-3815
▁의장은	-3816
▁이번이	-3817
▁이전에	-3818
▁준비가	-3819
▁총격을	-3820
▁시작됐다	-3821
▁요구하는	-3822
▁신화통신은	-3823
40	-3824
▁-	-3825
▁첼	-3826
드르	-3827
이던	-3828
준다	-3829
호가	-3830
▁36	-3831
▁몰아	-3832
▁실망	-3833
▁애틀	-3834
▁연락	-3835
▁오르	-3836
▁음식	-3837
▁자택	-3838
▁직면	-3839
관들은	-3840
플레이	-3841
orth	-3842
▁강하게	-3843
▁것처럼	-3844
▁모스크	-3845
▁외무부	-3846
▁요구를	-3847
▁차량을	-3848
▁한국과	-3849
▁현장에	-3850
란시스코	-3851
▁유럽연합	-3852
ld	-3853
ly	-3854
▁콩	-3855
네이	-3856
전의	-3857
정책	-3858
투갈	-3859
ine	-3860
▁감행	-3861
▁다가	-3862
▁단지	-3863
▁되면	-3864
▁만족	-3865
▁복용	-3866
▁운행	-3867
▁캠프	-3868
사들이	-3869
상으로	-3870
질랜드	-3871
하라는	-3872
▁경기에	-3873
▁그녀가	-3874
▁대사는	-3875
▁보이지	-3876
▁불가능	-3877
▁여행객	-3878
▁여행을	-3879
▁테러가	-3880
▁한반도	-3881
▁서비스를	-3882
▁수천명의	-3883
▁약속했다	-3884
▁조사하고	-3885
▁필요하다	-3886
▁할리우드	-3887
▁롤	-3888
▁셰	-3889
▁옆	-3890
글라	-3891
배우	-3892
일린	-3893
타임	-3894
한이	-3895
ace	-3896
▁MS	-3897
▁가수	-3898
▁구글	-3899
▁긴장	-3900
▁끝난	-3901
▁방어	-3902
▁사기	-3903
▁전기	-3904
▁증권	-3905
▁철회	-3906
▁프레	-3907
▁하다	-3908
▁협조	-3909
▁화산	-3910
▁활용	-3911
때문에	-3912
스럽게	-3913
적이고	-3914
▁론스타	-3915
▁발표할	-3916
▁비롯한	-3917
▁사건의	-3918
▁실제로	-3919
▁위협을	-3920
▁의사를	-3921
▁회담에	-3922
▁소프트웨	-3923
▁우주비행	-3924
▁V	-3925
▁르	-3926
계획	-3927
과는	-3928
드에	-3929
디는	-3930
선이	-3931
셀로	-3932
시티	-3933
츠는	-3934
하마	-3935
한국	-3936
▁가택	-3937
▁갖추	-3938
▁부문	-3939
▁와인	-3940
▁우선	-3941
▁장례	-3942
▁제이	-3943
▁크루	-3944
▁탈출	-3945
리포터	-3946
오바마	-3947
이었던	-3948
▁독립을	-3949
▁있는지	-3950
▁핵실험	-3951
▁대부분은	-3952
▁못했다고	-3953
▁중이라고	-3954
▁웹사이트에	-3955
ab	-3956
qu	-3957
▁몬	-3958
▁앓	-3959
▁얘	-3960
간다	-3961
미르	-3962
일로	-3963
주로	-3964
환을	-3965
▁법안	-3966
▁소지	-3967
▁신속	-3968
▁아래	-3969
▁오마	-3970
▁저는	-3971
▁집을	-3972
▁흔들	-3973
국으로	-3974
▁기독교	-3975
▁소비자	-3976
▁시상식	-3977
▁아르헨	-3978
▁않으면	-3979
▁이르는	-3980
▁주에서	-3981
▁1997	-3982
▁사이클론	-3983
▁없었다고	-3984
▁인터뷰를	-3985
▁공식적으로	-3986
▁멜	-3987
▁빛	-3988
기문	-3989
랑카	-3990
바다	-3991
분에	-3992
주교	-3993
크는	-3994
ans	-3995
raq	-3996
▁at	-3997
▁기구	-3998
▁내놓	-3999
▁마리	-4000
▁미시	-4001
▁법적	-4002
▁보기	-4003
▁예술	-4004
▁요르	-4005
▁질문	-4006
▁하원	-4007
▁헤럴	-4008
▁형성	-4009
▁경찰관	-4010
▁됐다고	-4011
▁매들린	-4012
▁부동산	-4013
▁속에서	-4014
▁장관이	-4015
▁체포된	-4016
▁회담이	-4017
▁1998	-4018
▁with	-4019
▁구체적인	-4020
▁뉴질랜드	-4021
▁받아들이	-4022
▁아이들을	-4023
▁지지하는	-4024
▁페르베즈	-4025
▁포함되어	-4026
▁현장에서	-4027
▁멋	-4028
▁쌍	-4029
▁앙	-4030
간에	-4031
계의	-4032
렇게	-4033
령을	-4034
리언	-4035
발유	-4036
▁38	-4037
▁가입	-4038
▁긍정	-4039
▁나달	-4040
▁날씨	-4041
▁메이	-4042
▁외곽	-4043
▁유세	-4044
▁이재	-4045
▁찾기	-4046
▁토니	-4047
▁해적	-4048
▁호소	-4049
사회의	-4050
왔다고	-4051
▁CBS	-4052
▁대학의	-4053
▁소송을	-4054
▁아바스	-4055
▁얻었다	-4056
▁있으나	-4057
▁중에는	-4058
▁지수는	-4059
▁했으며	-4060
▁Iraq	-4061
BA	-4062
계에	-4063
고래	-4064
단에	-4065
대학	-4066
백만	-4067
측의	-4068
함을	-4069
▁강경	-4070
▁글로	-4071
▁올랐	-4072
▁완전	-4073
▁이른	-4074
▁침해	-4075
▁탐사	-4076
▁화성	-4077
▁선거를	-4078
▁시리즈	-4079
▁인정했다	-4080
kg	-4081
▁빼	-4082
▁웃	-4083
▁캄	-4084
▁혜	-4085
▁흘	-4086
리드	-4087
슨의	-4088
아몬	-4089
일이	-4090
중국	-4091
처를	-4092
측에	-4093
트남	-4094
팀은	-4095
ard	-4096
▁거짓	-4097
▁관여	-4098
▁답변	-4099
▁부대	-4100
▁불참	-4101
▁상업	-4102
▁수영	-4103
▁으로	-4104
▁착수	-4105
▁착용	-4106
▁초기	-4107
▁협의	-4108
▁계획에	-4109
▁국제유	-4110
▁단체는	-4111
▁리버풀	-4112
▁스피어	-4113
▁싱가포	-4114
▁아이를	-4115
▁에이즈	-4116
▁역사상	-4117
▁이란은	-4118
▁주인공	-4119
▁테이프	-4120
▁아이들이	-4121
▁지진으로	-4122
▁총선에서	-4123
▁타임즈는	-4124
▁North	-4125
11	-4126
▁곡	-4127
시각	-4128
자기	-4129
쪽에	-4130
치지	-4131
ial	-4132
ice	-4133
▁방침	-4134
▁소요	-4135
▁영어	-4136
▁유니	-4137
▁유혈	-4138
▁음반	-4139
▁인하	-4140
▁적극	-4141
▁전면	-4142
▁화장	-4143
격으로	-4144
었으나	-4145
▁DNA	-4146
▁곳으로	-4147
▁공격이	-4148
▁국가의	-4149
▁드라마	-4150
▁반정부	-4151
▁벌어진	-4152
▁않도록	-4153
▁영화는	-4154
▁우라늄	-4155
▁이상을	-4156
▁일어나	-4157
▁1980	-4158
▁맨체스터	-4159
▁열린우리	-4160
▁영국에서	-4161
▁요구하고	-4162
▁학생들이	-4163
프란시스코	-4164
▁엘리자베스	-4165
▁크리스마스	-4166
▁덮	-4167
거리	-4168
대전	-4169
됐고	-4170
류의	-4171
만큼	-4172
수한	-4173
십자	-4174
트릭	-4175
▁가득	-4176
▁국무	-4177
▁마카	-4178
▁바라	-4179
▁브루	-4180
▁삼성	-4181
▁서식	-4182
▁소개	-4183
▁스코	-4184
▁시신	-4185
▁어렵	-4186
▁음모	-4187
▁조각	-4188
▁집에	-4189
▁화학	-4190
곳에서	-4191
년에는	-4192
래스카	-4193
▁250	-4194
▁관리가	-4195
▁권리를	-4196
▁박물관	-4197
▁발언은	-4198
▁사람의	-4199
▁이끌어	-4200
▁조지아	-4201
▁코소보	-4202
▁페일린	-4203
▁포함해	-4204
▁휘발유	-4205
▁때문이다	-4206
▁포르투갈	-4207
▁이스라엘의	-4208
▁액	-4209
▁훨	-4210
나의	-4211
붉은	-4212
시장	-4213
원과	-4214
원인	-4215
티모	-4216
했기	-4217
▁42	-4218
▁an	-4219
▁le	-4220
▁무릎	-4221
▁믿고	-4222
▁변경	-4223
▁보냈	-4224
▁시드	-4225
▁유리	-4226
▁좋지	-4227
▁치안	-4228
▁향후	-4229
▁훨씬	-4230
나이티	-4231
으로는	-4232
▁남북한	-4233
▁들었다	-4234
▁베트남	-4235
▁압둘라	-4236
▁최근의	-4237
함에따라	-4238
inist	-4239
▁1990	-4240
▁거주하는	-4241
▁모하메드	-4242
▁입었다고	-4243
▁하락했다	-4244
▁국무장관은	-4245
ss	-4246
▁칭	-4247
건의	-4248
공화	-4249
금이	-4250
로의	-4251
리칸	-4252
시가	-4253
업이	-4254
학자	-4255
▁th	-4256
▁가르	-4257
▁거뒀	-4258
▁검색	-4259
▁로봇	-4260
▁로스	-4261
▁맞서	-4262
▁무력	-4263
▁밀란	-4264
▁성인	-4265
▁심리	-4266
▁심한	-4267
▁영토	-4268
▁온난	-4269
▁육군	-4270
▁전개	-4271
▁주간	-4272
▁중재	-4273
▁지목	-4274
▁지출	-4275
▁콘서	-4276
▁패배	-4277
▁해산	-4278
▁획득	-4279
▁힘든	-4280
라운드	-4281
해졌다	-4282
▁방문할	-4283
▁북한과	-4284
▁불리는	-4285
▁오스트	-4286
▁의회의	-4287
▁일본이	-4288
▁테러범	-4289
▁대변인인	-4290
▁대부분이	-4291
▁예정이며	-4292
▁주장하는	-4293
▁샌프란시스코	-4294
EU	-4295
ry	-4296
▁꿈	-4297
▁든	-4298
▁빚	-4299
▁훌	-4300
건을	-4301
브는	-4302
시의	-4303
양의	-4304
▁pl	-4305
▁걸어	-4306
▁나쁜	-4307
▁도달	-4308
▁랭킹	-4309
▁맨유	-4310
▁문을	-4311
▁비자	-4312
▁시절	-4313
▁오사	-4314
▁천연	-4315
▁침체	-4316
▁폐기	-4317
▁해고	-4318
아시아	-4319
에게는	-4320
틀랜드	-4321
ress	-4322
▁밖으로	-4323
▁반기문	-4324
▁반응을	-4325
▁사람을	-4326
▁이것이	-4327
ident	-4328
▁경선에서	-4329
▁당선인은	-4330
▁만들었다	-4331
▁정치적인	-4332
""	-4333
▁밑	-4334
▁뽑	-4335
▁흉	-4336
데타	-4337
렬한	-4338
병을	-4339
일의	-4340
터를	-4341
▁44	-4342
▁달리	-4343
▁마르	-4344
▁배심	-4345
▁복제	-4346
▁스리	-4347
▁스웨	-4348
▁실행	-4349
▁예산	-4350
▁이메	-4351
▁접속	-4352
▁특파	-4353
달러에	-4354
사들은	-4355
▁금요일	-4356
▁남자가	-4357
▁대변인	-4358
▁된다고	-4359
▁사태가	-4360
▁익명의	-4361
▁제안을	-4362
▁충분한	-4363
▁크라이	-4364
▁방법으로	-4365
▁생각하고	-4366
▁알려지지	-4367
▁의원들은	-4368
▁해결하기	-4369
▁South	-4370
-3	-4371
up	-4372
▁딜	-4373
▁택	-4374
▁텔	-4375
계가	-4376
국에	-4377
담을	-4378
동이	-4379
리조	-4380
었을	-4381
오늘	-4382
일부	-4383
즈볼	-4384
차가	-4385
치에	-4386
켰다	-4387
▁48	-4388
▁네트	-4389
▁도전	-4390
▁마치	-4391
▁모르	-4392
▁사법	-4393
▁성향	-4394
▁수집	-4395
▁앨범	-4396
▁영변	-4397
▁입양	-4398
▁잠재	-4399
▁찾는	-4400
▁취할	-4401
▁측근	-4402
▁치명	-4403
▁폭우	-4404
▁학살	-4405
일간의	-4406
▁CIA	-4407
▁결정은	-4408
▁그들을	-4409
▁리비아	-4410
▁원하는	-4411
▁자리를	-4412
▁특별한	-4413
프로그램	-4414
▁9.11	-4415
▁네덜란드	-4416
▁말합니다	-4417
▁체포됐다	-4418
▁발견했다고	-4419
▁아르헨티나	-4420
19	-4421
70	-4422
▁뿌	-4423
▁흐	-4424
구가	-4425
군에	-4426
므로	-4427
미디	-4428
발을	-4429
선수	-4430
세츠	-4431
실에	-4432
음이	-4433
주간	-4434
ear	-4435
ess	-4436
▁공중	-4437
▁권고	-4438
▁대량	-4439
▁리콜	-4440
▁명은	-4441
▁이익	-4442
▁주목	-4443
▁하와	-4444
▁허락	-4445
▁관계가	-4446
▁모습이	-4447
▁바라고	-4448
▁우려가	-4449
▁이번주	-4450
▁항공기	-4451
▁어려움을	-4452
▁필요하다고	-4453
5)	-4454
개가	-4455
격한	-4456
국민	-4457
마리	-4458
타나	-4459
▁대다	-4460
▁레스	-4461
▁로이	-4462
▁보관	-4463
▁소탕	-4464
▁식품	-4465
▁주석	-4466
▁편집	-4467
▁합동	-4468
▁경찰의	-4469
▁나타나	-4470
▁벗어나	-4471
▁사건과	-4472
▁선거캠	-4473
▁신문은	-4474
▁외교부	-4475
▁우승을	-4476
▁의회가	-4477
▁중국과	-4478
▁회의를	-4479
▁도착했다	-4480
▁드러났다	-4481
▁사건으로	-4482
▁아일랜드	-4483
▁않았으며	-4484
▁언급하지	-4485
▁예상했다	-4486
▁유나이티	-4487
-2	-4488
▁뒷	-4489
▁봄	-4490
나가	-4491
류를	-4492
모든	-4493
선은	-4494
스톤	-4495
장한	-4496
져야	-4497
주민	-4498
차로	-4499
프리	-4500
▁51	-4501
▁기능	-4502
▁법원	-4503
▁베를	-4504
▁붉은	-4505
▁수요	-4506
▁약간	-4507
▁일정	-4508
▁자랑	-4509
▁재산	-4510
▁찾고	-4511
▁회견	-4512
그들은	-4513
실에서	-4514
▁194	-4515
▁가능성	-4516
▁김정일	-4517
▁내용이	-4518
▁다우존	-4519
▁당했다	-4520
▁수사를	-4521
▁알렉산	-4522
▁에드워	-4523
▁요르단	-4524
▁중국에	-4525
▁청소년	-4526
▁쿠데타	-4527
▁항공사	-4528
▁핵시설	-4529
▁헤즈볼	-4530
▁협상이	-4531
라이라마	-4532
무장관이	-4533
▁공개했다	-4534
▁떨어졌다	-4535
▁처음이다	-4536
4)	-4537
ag	-4538
▁옥	-4539
▁켄	-4540
▁횡	-4541
기업	-4542
도르	-4543
됐을	-4544
라덴	-4545
로드	-4546
선의	-4547
훼손	-4548
▁걸릴	-4549
▁겨울	-4550
▁농축	-4551
▁담긴	-4552
▁도와	-4553
▁마틴	-4554
▁만날	-4555
▁말해	-4556
▁보면	-4557
▁보석	-4558
▁서방	-4559
▁성과	-4560
▁수퍼	-4561
▁싶다	-4562
▁일은	-4563
▁적은	-4564
▁탁신	-4565
▁포경	-4566
상에서	-4567
올림픽	-4568
정부는	-4569
▁의회는	-4570
▁작전을	-4571
▁전화를	-4572
▁주지사	-4573
▁최초로	-4574
▁통신은	-4575
▁했지만	-4576
이지리아	-4577
현지시각	-4578
▁동영상을	-4579
▁러시아의	-4580
▁사망자가	-4581
▁아이오와	-4582
▁현재까지	-4583
▁20080	-4584
1)	-4585
나미	-4586
루살	-4587
리게	-4588
용을	-4589
이슬	-4590
전은	-4591
제도	-4592
.02	-4593
ies	-4594
▁끝나	-4595
▁나누	-4596
▁동반	-4597
▁뛰어	-4598
▁만한	-4599
▁메르	-4600
▁물러	-4601
▁사찰	-4602
▁에스	-4603
▁옮겨	-4604
▁추측	-4605
▁통치	-4606
번째로	-4607
▁CEO	-4608
▁강력히	-4609
▁관심이	-4610
▁밖에서	-4611
▁발표된	-4612
▁생각을	-4613
▁시작한	-4614
▁올렸다	-4615
▁장면을	-4616
▁조사에	-4617
▁총리와	-4618
▁카스트	-4619
▁케네디	-4620
▁회사인	-4621
▁다이아몬	-4622
▁모스크바	-4623
▁보여주는	-4624
▁일환으로	-4625
▁추정되는	-4626
▁대선후보인	-4627
HO	-4628
cm	-4629
▁걷	-4630
국적	-4631
내에	-4632
되자	-4633
만은	-4634
부시	-4635
이크	-4636
주에	-4637
ong	-4638
▁33	-4639
▁경계	-4640
▁교회	-4641
▁대리	-4642
▁맞이	-4643
▁보조	-4644
▁보통	-4645
▁설득	-4646
▁소년	-4647
▁스키	-4648
▁시기	-4649
▁시인	-4650
▁오염	-4651
▁이하	-4652
▁잠시	-4653
▁주가	-4654
▁추산	-4655
▁파티	-4656
글라데	-4657
했는지	-4658
over	-4659
▁FTA	-4660
▁가까이	-4661
▁만드는	-4662
▁명령을	-4663
▁시위대	-4664
▁여성은	-4665
▁여성의	-4666
▁유사한	-4667
▁청와대	-4668
▁치러진	-4669
▁희생자	-4670
이었다고	-4671
▁방문했다	-4672
▁부상했다	-4673
▁챔피언스	-4674
▁달라이라마	-4675
대중	-4676
불어	-4677
사추	-4678
세포	-4679
시피	-4680
율은	-4681
졌던	-4682
지어	-4683
킬로	-4684
판을	-4685
end	-4686
▁ag	-4687
▁sh	-4688
▁강요	-4689
▁개막	-4690
▁길을	-4691
▁바꾸	-4692
▁발굴	-4693
▁부과	-4694
▁불을	-4695
▁산악	-4696
▁산타	-4697
▁세워	-4698
▁소환	-4699
▁업무	-4700
▁연관	-4701
▁위안	-4702
▁작동	-4703
▁장식	-4704
▁정기	-4705
▁카페	-4706
▁커피	-4707
▁콜로	-4708
▁파예	-4709
▁판단	-4710
▁폭락	-4711
▁합법	-4712
년간의	-4713
루살렘	-4714
하고자	-4715
▁50%	-4716
▁게임을	-4717
▁공격에	-4718
▁더불어	-4719
▁루이스	-4720
▁밝히고	-4721
▁샤리프	-4722
▁시신을	-4723
▁시위에	-4724
▁않지만	-4725
▁어려운	-4726
▁회사의	-4727
▁FARC	-4728
▁마이크로	-4729
▁목적으로	-4730
▁방글라데	-4731
▁성공했다	-4732
▁시장에서	-4733
▁중국에서	-4734
▁기자회견을	-4735
▁워싱턴에서	-4736
25	-4737
ub	-4738
ue	-4739
▁뮤	-4740
▁쏟	-4741
라미	-4742
번의	-4743
원제	-4744
일리	-4745
즈가	-4746
통상	-4747
age	-4748
▁IA	-4749
▁골을	-4750
▁나스	-4751
▁담배	-4752
▁도입	-4753
▁매각	-4754
▁모인	-4755
▁사냥	-4756
▁선보	-4757
▁스파	-4758
▁앉아	-4759
▁음주	-4760
▁자리	-4761
▁자이	-4762
▁점점	-4763
▁조합	-4764
▁통화	-4765
달러를	-4766
보다는	-4767
회사인	-4768
ance	-4769
▁거래를	-4770
▁것보다	-4771
▁달러에	-4772
▁대법원	-4773
▁됩니다	-4774
▁생활을	-4775
▁아이의	-4776
▁적절한	-4777
▁타격을	-4778
▁하나의	-4779
학자들은	-4780
▁것이라며	-4781
▁계속되고	-4782
▁다르푸르	-4783
▁스리랑카	-4784
▁이곳에서	-4785
6)	-4786
OC	-4787
▁넓	-4788
▁틀	-4789
네스	-4790
대회	-4791
상과	-4792
수에	-4793
스틴	-4794
안전	-4795
트너	-4796
후드	-4797
▁34	-4798
▁걸친	-4799
▁권력	-4800
▁그림	-4801
▁기존	-4802
▁남은	-4803
▁단순	-4804
▁대출	-4805
▁소행	-4806
▁아스	-4807
▁여겨	-4808
▁오브	-4809
▁자본	-4810
▁지정	-4811
▁칠레	-4812
▁트리	-4813
▁호세	-4814
▁휴전	-4815
음에도	-4816
▁NBC	-4817
▁com	-4818
▁갑자기	-4819
▁관련이	-4820
▁모른다	-4821
▁시위가	-4822
▁여객기	-4823
▁연구를	-4824
▁의회에	-4825
▁장난감	-4826
▁진행된	-4827
▁폭발로	-4828
▁화재가	-4829
사추세츠	-4830
▁노력하고	-4831
▁보고했다	-4832
▁알래스카	-4833
▁연구진은	-4834
▁조사에서	-4835
▁오스트리아	-4836
ff	-4837
▁美	-4838
▁섹	-4839
▁숫	-4840
라디	-4841
만약	-4842
바키	-4843
시를	-4844
하라	-4845
하였	-4846
▁군부	-4847
▁귀국	-4848
▁나를	-4849
▁대책	-4850
▁라파	-4851
▁마흐	-4852
▁방영	-4853
▁버마	-4854
▁봉쇄	-4855
▁부여	-4856
▁부총	-4857
▁수송	-4858
▁스튜	-4859
▁의존	-4860
▁이사	-4861
▁조선	-4862
▁중독	-4863
▁초대	-4864
▁치열	-4865
▁파산	-4866
▁폐지	-4867
▁폭행	-4868
▁풀려	-4869
▁피고	-4870
▁피난	-4871
▁하면	-4872
▁합류	-4873
개월간	-4874
국장은	-4875
2009	-4876
apan	-4877
▁경제에	-4878
▁논의할	-4879
▁말하는	-4880
▁문제의	-4881
▁반군이	-4882
▁보좌관	-4883
▁빠르게	-4884
▁수백만	-4885
▁시설을	-4886
▁신원을	-4887
▁이유는	-4888
▁코미디	-4889
▁이라크전	-4890
▁이스라엘과	-4891
▁바그다드에서	-4892
FP	-4893
▁균	-4894
▁묵	-4895
▁짧	-4896
공항	-4897
내기	-4898
라우	-4899
린다	-4900
연금	-4901
유럽	-4902
▁가옥	-4903
▁검거	-4904
▁관객	-4905
▁교착	-4906
▁나갈	-4907
▁나서	-4908
▁레드	-4909
▁버스	-4910
▁상품	-4911
▁소설	-4912
▁자기	-4913
▁잔해	-4914
▁전날	-4915
▁진정	-4916
▁체니	-4917
▁추적	-4918
▁출석	-4919
▁출시	-4920
▁하늘	-4921
▁해양	-4922
▁후임	-4923
으면서	-4924
있었다	-4925
▁가격을	-4926
▁것이고	-4927
▁못하는	-4928
▁사실상	-4929
▁아버지	-4930
▁언론이	-4931
▁없으며	-4932
▁위기를	-4933
▁주한미	-4934
졌습니다	-4935
▁일자리를	-4936
▁증가하고	-4937
▁나이지리아	-4938
▁남아프리카	-4939
▁파키스탄의	-4940
7)	-4941
RB	-4942
▁멈	-4943
▁섭	-4944
▁털	-4945
가족	-4946
교도	-4947
기술	-4948
내가	-4949
노동	-4950
드시	-4951
바라	-4952
분간	-4953
실이	-4954
어의	-4955
없는	-4956
일은	-4957
전문	-4958
주가	-4959
틀러	-4960
.05	-4961
ood	-4962
und	-4963
▁건축	-4964
▁고조	-4965
▁공무	-4966
▁관람	-4967
▁나아	-4968
▁내릴	-4969
▁누군	-4970
▁달성	-4971
▁대항	-4972
▁득표	-4973
▁목록	-4974
▁받기	-4975
▁복잡	-4976
▁신경	-4977
▁신체	-4978
▁야기	-4979
▁체결	-4980
▁취재	-4981
▁패션	-4982
▁페루	-4983
▁하던	-4984
▁헬기	-4985
▁훌륭	-4986
▁훼손	-4987
이슬람	-4988
작업을	-4989
점으로	-4990
▁2-0	-4991
▁600	-4992
▁결정에	-4993
▁경제가	-4994
▁계획은	-4995
▁말까지	-4996
▁무기를	-4997
▁민주화	-4998
▁사태를	-4999
▁있다면	-5000
▁있었고	-5001
▁태평양	-5002
▁해결을	-5003
▁고등학교	-5004
▁기다리고	-5005
▁네트워크	-5006
▁부근에서	-5007
▁세계대전	-5008
▁시위대는	-5009
▁자리에서	-5010
▁지도자들은	-5011
ib	-5012
iv	-5013
그가	-5014
명도	-5015
서에	-5016
어버	-5017
진다	-5018
터는	-5019
튜브	-5020
피해	-5021
.07	-5022
ack	-5023
▁43	-5024
▁46	-5025
▁돌려	-5026
▁모색	-5027
▁서브	-5028
▁성적	-5029
▁소수	-5030
▁의학	-5031
▁인식	-5032
▁출판	-5033
▁혜택	-5034
▁흡연	-5035
▁힘을	-5036
는지는	-5037
들과의	-5038
부에서	-5039
정부가	-5040
▁계약을	-5041
▁권력을	-5042
▁그동안	-5043
▁남아공	-5044
▁니콜라	-5045
▁방문을	-5046
▁스웨덴	-5047
▁시장에	-5048
▁이유를	-5049
▁제재를	-5050
▁지진이	-5051
▁폭탄이	-5052
▁피해가	-5053
파키스탄	-5054
▁보인다고	-5055
▁선거운동	-5056
▁여자친구	-5057
▁위원회는	-5058
▁제안했다	-5059
▁클린턴이	-5060
resident	-5061
▁노스캐롤라이나	-5062
lo	-5063
▁록	-5064
▁샘	-5065
▁셀	-5066
▁쌓	-5067
감한	-5068
곳에	-5069
나마	-5070
네자	-5071
닷컴	-5072
봉송	-5073
상황	-5074
아야	-5075
유지	-5076
일러	-5077
정거	-5078
지기	-5079
지난	-5080
토니	-5081
ast	-5082
iss	-5083
▁AC	-5084
▁AI	-5085
▁고대	-5086
▁고향	-5087
▁구출	-5088
▁그에	-5089
▁깊은	-5090
▁되찾	-5091
▁등장	-5092
▁명예	-5093
▁명확	-5094
▁빠진	-5095
▁사담	-5096
▁은신	-5097
▁이주	-5098
▁전직	-5099
▁조기	-5100
▁줄기	-5101
▁코커	-5102
▁콩고	-5103
레이크	-5104
▁10%	-5105
▁것인지	-5106
▁내용의	-5107
▁덴마크	-5108
▁돌아가	-5109
▁승무원	-5110
▁야당인	-5111
▁위험이	-5112
▁이렇게	-5113
▁이재민	-5114
▁이후로	-5115
▁정확히	-5116
▁훈련을	-5117
▁2010	-5118
▁국방부는	-5119
▁시스템을	-5120
▁시위대가	-5121
▁싱가포르	-5122
▁이와같은	-5123
▁폭탄테러가	-5124
관련	-5125
냐는	-5126
물에	-5127
미니	-5128
선언	-5129
에선	-5130
프레	-5131
혔다	-5132
EFA	-5133
its	-5134
ren	-5135
ure	-5136
▁감바	-5137
▁광산	-5138
▁그루	-5139
▁기지	-5140
▁레알	-5141
▁마찬	-5142
▁만난	-5143
▁비서	-5144
▁식당	-5145
▁아동	-5146
▁유력	-5147
▁이양	-5148
▁이중	-5149
▁인공	-5150
▁자극	-5151
▁자선	-5152
▁전당	-5153
▁절대	-5154
▁주문	-5155
▁청문	-5156
▁커플	-5157
▁특정	-5158
러시아	-5159
업체인	-5160
▁195	-5161
▁고통을	-5162
▁국경을	-5163
▁대가로	-5164
▁마치고	-5165
▁모두가	-5166
▁반드시	-5167
▁선거에	-5168
▁시드니	-5169
▁아마디	-5170
▁적십자	-5171
▁주식시	-5172
▁준비를	-5173
overn	-5174
▁IAEA	-5175
▁will	-5176
▁마찬가지	-5177
▁운영하는	-5178
▁핵무기를	-5179
▁과학자들이	-5180
▁관계자들이	-5181
▁발생했으며	-5182
▁이스라엘이	-5183
▁챔피언스리그	-5184
▁척	-5185
령은	-5186
서가	-5187
수와	-5188
인에	-5189
중앙	-5190
해질	-5191
ost	-5192
▁강도	-5193
▁결선	-5194
▁고발	-5195
▁국정	-5196
▁근본	-5197
▁노예	-5198
▁농민	-5199
▁디지	-5200
▁말라	-5201
▁배출	-5202
▁분열	-5203
▁불능	-5204
▁새끼	-5205
▁선발	-5206
▁수의	-5207
▁엄청	-5208
▁엘리	-5209
▁외무	-5210
▁입증	-5211
▁자원	-5212
▁장을	-5213
▁장착	-5214
▁재검	-5215
▁재배	-5216
▁철도	-5217
▁출동	-5218
▁클리	-5219
▁텔레	-5220
베이거	-5221
움에서	-5222
▁말리키	-5223
▁부상자	-5224
▁사령관	-5225
▁사장은	-5226
▁소식이	-5227
▁에후드	-5228
▁전쟁에	-5229
▁조치가	-5230
▁증거를	-5231
▁혐의가	-5232
▁회사는	-5233
▁공항에서	-5234
▁선언했다	-5235
▁예루살렘	-5236
▁우려하고	-5237
▁의회에서	-5238
▁제공하는	-5239
디아라비아	-5240
▁Japan	-5241
▁마지막으로	-5242
▁외무장관은	-5243
(7	-5244
▁낭	-5245
▁맹	-5246
▁쇠	-5247
로이	-5248
르기	-5249
르도	-5250
질을	-5251
클라	-5252
탄을	-5253
티스	-5254
파로	-5255
현재	-5256
호는	-5257
화된	-5258
...	-5259
▁교환	-5260
▁달려	-5261
▁리조	-5262
▁매장	-5263
▁민족	-5264
▁바뀌	-5265
▁베르	-5266
▁사원	-5267
▁소매	-5268
▁승려	-5269
▁쓰러	-5270
▁에도	-5271
▁열대	-5272
▁올린	-5273
▁완벽	-5274
▁운항	-5275
▁자산	-5276
▁중순	-5277
▁추구	-5278
▁측은	-5279
▁후세	-5280
가에서	-5281
달라고	-5282
▁결과는	-5283
▁고양이	-5284
▁납치된	-5285
▁내용은	-5286
▁네바다	-5287
▁능력을	-5288
▁받아야	-5289
▁변화가	-5290
▁상태에	-5291
▁승인을	-5292
▁아무도	-5293
▁안전한	-5294
▁운동을	-5295
▁질문을	-5296
▁한국이	-5297
▁현재의	-5298
▁대선에서	-5299
▁서울에서	-5300
▁성화봉송	-5301
▁외교통상	-5302
▁이라크를	-5303
▁일본에서	-5304
▁주지사가	-5305
▁지역으로	-5306
ud	-5307
▁읽	-5308
미어	-5309
수인	-5310
이상	-5311
첨단	-5312
프의	-5313
▁PC	-5314
▁거두	-5315
▁고립	-5316
▁관영	-5317
▁관찰	-5318
▁극단	-5319
▁극복	-5320
▁리히	-5321
▁멋진	-5322
▁무죄	-5323
▁방지	-5324
▁보잉	-5325
▁상점	-5326
▁생긴	-5327
▁손상	-5328
▁수를	-5329
▁아웅	-5330
▁유치	-5331
▁잃은	-5332
▁재활	-5333
▁중지	-5334
됐으나	-5335
명에게	-5336
생활을	-5337
하기를	-5338
▁감독이	-5339
▁공연을	-5340
▁관계자	-5341
▁다국적	-5342
▁분명히	-5343
▁승리한	-5344
▁시장의	-5345
▁아니면	-5346
▁안전을	-5347
▁여부는	-5348
▁유권자	-5349
▁유럽의	-5350
▁이로써	-5351
▁타이틀	-5352
▁한국에	-5353
▁Chin	-5354
▁다쳤다고	-5355
▁발생하지	-5356
▁승리했다	-5357
▁있었지만	-5358
▁체포했다	-5359
▁했습니다	-5360
▁계획이라고	-5361
▁베이징에서	-5362
▁전했습니다	-5363
▁폭탄테러로	-5364
9)	-5365
me	-5366
▁값	-5367
▁욕	-5368
▁캔	-5369
▁펀	-5370
구의	-5371
씨가	-5372
월의	-5373
전쟁	-5374
지며	-5375
트라	-5376
햄프	-5377
화로	-5378
rom	-5379
ust	-5380
▁2,	-5381
▁ex	-5382
▁가량	-5383
▁갖게	-5384
▁개방	-5385
▁공유	-5386
▁독재	-5387
▁묘사	-5388
▁발간	-5389
▁보복	-5390
▁아름	-5391
▁앤드	-5392
▁연주	-5393
▁운송	-5394
▁위조	-5395
▁은퇴	-5396
▁임기	-5397
▁입국	-5398
▁채택	-5399
▁측정	-5400
▁행복	-5401
▁환자	-5402
나지르	-5403
레스트	-5404
▁국제적	-5405
▁그것이	-5406
▁나오는	-5407
▁논의를	-5408
▁안에서	-5409
▁줄리아	-5410
▁총리를	-5411
▁태어난	-5412
▁국무장관	-5413
▁기대하고	-5414
▁수상했다	-5415
▁인디애나	-5416
ations	-5417
▁국방장관은	-5418
▁라스베이거	-5419
▁일반적으로	-5420
▁프로그램에	-5421
6-	-5422
ie	-5423
ip	-5424
od	-5425
▁뼈	-5426
내지	-5427
물로	-5428
와는	-5429
이즈	-5430
주고	-5431
중한	-5432
표가	-5433
함이	-5434
.03	-5435
▁감사	-5436
▁거쳐	-5437
▁곤잘	-5438
▁골드	-5439
▁급속	-5440
▁노르	-5441
▁막을	-5442
▁맞춰	-5443
▁매니	-5444
▁매춘	-5445
▁명백	-5446
▁배제	-5447
▁보낼	-5448
▁복구	-5449
▁빈곤	-5450
▁삭제	-5451
▁삶을	-5452
▁신임	-5453
▁실질	-5454
▁쏟아	-5455
▁앓고	-5456
▁연행	-5457
▁유발	-5458
▁응급	-5459
▁재난	-5460
▁저질	-5461
▁주차	-5462
▁출산	-5463
▁카불	-5464
▁협박	-5465
▁후원	-5466
라이언	-5467
리조나	-5468
선에서	-5469
햄프셔	-5470
▁가격은	-5471
▁검사는	-5472
▁경제를	-5473
▁대학교	-5474
▁마카오	-5475
▁법원이	-5476
▁사용한	-5477
▁수익을	-5478
▁실종된	-5479
▁일하는	-5480
▁자료를	-5481
▁자세한	-5482
▁지금은	-5483
▁토마스	-5484
▁폭탄을	-5485
▁2012	-5486
▁다우존스	-5487
▁대회에서	-5488
▁미국과의	-5489
▁보유하고	-5490
▁생각하는	-5491
▁진행되고	-5492
▁사우디아라비아	-5493
ep	-5494
▁궤	-5495
▁듀	-5496
▁묶	-5497
권에	-5498
러스	-5499
력에	-5500
받고	-5501
범죄	-5502
산화	-5503
수사	-5504
슬림	-5505
에만	-5506
일본	-5507
제의	-5508
환경	-5509
anc	-5510
led	-5511
▁PP	-5512
▁ac	-5513
▁he	-5514
▁가난	-5515
▁구금	-5516
▁군중	-5517
▁논평	-5518
▁단속	-5519
▁무료	-5520
▁무선	-5521
▁발병	-5522
▁보는	-5523
▁비록	-5524
▁스캔	-5525
▁스탠	-5526
▁시달	-5527
▁조성	-5528
▁차를	-5529
▁철저	-5530
▁통한	-5531
▁펠로	-5532
▁펼쳐	-5533
였지만	-5534
인들을	-5535
▁거뒀다	-5536
▁당신이	-5537
▁못하게	-5538
▁베를린	-5539
▁비용이	-5540
▁시장이	-5541
▁유엔은	-5542
▁일정을	-5543
▁자유를	-5544
▁지역은	-5545
▁충분히	-5546
▁케이블	-5547
▁표했다	-5548
▁휴대전	-5549
meric	-5550
▁1994	-5551
▁3000	-5552
▁만들어진	-5553
▁바르셀로	-5554
▁백악관은	-5555
▁베나지르	-5556
▁사령관은	-5557
▁증가했다	-5558
▁보고서에서	-5559
▁똑	-5560
▁맛	-5561
▁쫓	-5562
▁켈	-5563
각을	-5564
관에	-5565
권이	-5566
나우	-5567
년과	-5568
니의	-5569
드라	-5570
렸던	-5571
버스	-5572
범위	-5573
봤다	-5574
터키	-5575
ect	-5576
ric	-5577
▁39	-5578
▁64	-5579
▁간주	-5580
▁고소	-5581
▁골프	-5582
▁공장	-5583
▁급등	-5584
▁마시	-5585
▁봉사	-5586
▁스프	-5587
▁시사	-5588
▁압수	-5589
▁죽은	-5590
▁찾을	-5591
▁한때	-5592
▁화물	-5593
됐었다	-5594
마리의	-5595
우리가	-5596
▁800	-5597
▁가치가	-5598
▁논란이	-5599
▁대학생	-5600
▁동티모	-5601
▁디즈니	-5602
▁레스토	-5603
▁말하며	-5604
▁모기지	-5605
▁발언에	-5606
▁법원에	-5607
▁스타디	-5608
▁쓰나미	-5609
▁애틀랜	-5610
▁여성을	-5611
▁오래된	-5612
▁있어서	-5613
▁제대로	-5614
▁총선을	-5615
▁파트너	-5616
▁가능성은	-5617
▁국제사회	-5618
▁러시아는	-5619
▁발생하는	-5620
▁보안관은	-5621
▁상승했다	-5622
▁외환은행	-5623
▁이라크와	-5624
▁회의에서	-5625
▁발견됐다고	-5626
og	-5627
▁옐	-5628
▁힌	-5629
뉴스	-5630
로가	-5631
미를	-5632
주년	-5633
케이	-5634
타민	-5635
패를	-5636
한지	-5637
▁(=	-5638
▁49	-5639
▁75	-5640
▁가로	-5641
▁거리	-5642
▁고고	-5643
▁기밀	-5644
▁나올	-5645
▁단어	-5646
▁대결	-5647
▁디스	-5648
▁머리	-5649
▁바닥	-5650
▁앞에	-5651
▁장소	-5652
▁점차	-5653
▁조류	-5654
▁존스	-5655
▁존중	-5656
▁청구	-5657
▁초래	-5658
▁코스	-5659
▁합병	-5660
가들이	-5661
▁130	-5662
▁res	-5663
▁다니엘	-5664
▁북동부	-5665
▁상당한	-5666
▁스위스	-5667
▁익명을	-5668
▁일으킨	-5669
▁잃었다	-5670
▁자신은	-5671
▁저지른	-5672
▁주장에	-5673
▁책임이	-5674
▁피해자	-5675
▁회사가	-5676
킬로미터	-5677
▁거부했다	-5678
▁국회의원	-5679
▁역사적인	-5680
▁차관보는	-5681
8)	-5682
ey	-5683
ll	-5684
▁*	-5685
▁갇	-5686
다시	-5687
라를	-5688
르지	-5689
리나	-5690
메이	-5691
성과	-5692
왔던	-5693
으려	-5694
졌고	-5695
즈의	-5696
지금	-5697
포드	-5698
화의	-5699
ell	-5700
▁52	-5701
▁53	-5702
▁73	-5703
▁검은	-5704
▁되기	-5705
▁로비	-5706
▁리그	-5707
▁마음	-5708
▁못해	-5709
▁방안	-5710
▁비틀	-5711
▁상공	-5712
▁알바	-5713
▁알코	-5714
▁얻기	-5715
▁얻어	-5716
▁지상	-5717
▁휩싸	-5718
났으며	-5719
되었고	-5720
카르타	-5721
페이지	-5722
▁공격은	-5723
▁국가가	-5724
▁국제원	-5725
▁그러한	-5726
▁김대중	-5727
▁바스라	-5728
▁블라디	-5729
▁세금을	-5730
▁시작할	-5731
▁약속을	-5732
▁여학생	-5733
▁영화의	-5734
▁의사가	-5735
▁일으키	-5736
▁재판을	-5737
▁혐의에	-5738
스트리트	-5739
위원회가	-5740
플레이션	-5741
▁뉴욕에서	-5742
▁레스토랑	-5743
▁말했다고	-5744
▁받았으며	-5745
▁세계은행	-5746
▁시민들이	-5747
▁중요하다	-5748
▁호텔에서	-5749
▁방글라데시	-5750
▁뿐만아니라	-5751
▁예정입니다	-5752
▁이스라엘은	-5753
▁주민들에게	-5754
▁숀	-5755
▁엑	-5756
▁왼	-5757
▁짓	-5758
▁흰	-5759
국제	-5760
너는	-5761
달을	-5762
담당	-5763
렌스	-5764
마빈	-5765
모리	-5766
서양	-5767
수록	-5768
스런	-5769
아버	-5770
우스	-5771
월드	-5772
조차	-5773
준비	-5774
탱크	-5775
팀이	-5776
ian	-5777
lec	-5778
ons	-5779
▁1/	-5780
▁55	-5781
▁가슴	-5782
▁강풍	-5783
▁공정	-5784
▁과도	-5785
▁그리	-5786
▁기쁘	-5787
▁기사	-5788
▁내내	-5789
▁다루	-5790
▁도망	-5791
▁보상	-5792
▁불길	-5793
▁위에	-5794
▁인류	-5795
▁인생	-5796
▁적합	-5797
▁지질	-5798
기에서	-5799
되었던	-5800
샤라포	-5801
세력이	-5802
▁같다고	-5803
▁그래서	-5804
▁나이트	-5805
▁답했다	-5806
▁독일의	-5807
▁벌금을	-5808
▁법안이	-5809
▁보내는	-5810
▁비용을	-5811
▁선두를	-5812
▁소장은	-5813
▁예정된	-5814
▁중국을	-5815
▁집으로	-5816
▁첫번째	-5817
▁총장은	-5818
▁테스트	-5819
마빈라덴	-5820
위원회의	-5821
▁1970	-5822
▁구제금융	-5823
▁국민들의	-5824
▁바이러스	-5825
▁보여줬다	-5826
▁학생들은	-5827
▁기자들에게	-5828
▁체포했다고	-5829
▁핵프로그램	-5830
▁보도에따르면	-5831
iz	-5832
▁쓴	-5833
▁헐	-5834
기록	-5835
더는	-5836
률을	-5837
변화	-5838
부로	-5839
아프	-5840
위해	-5841
일과	-5842
저는	-5843
통제	-5844
하에	-5845
old	-5846
▁78	-5847
▁Ro	-5848
▁ch	-5849
▁sp	-5850
▁검문	-5851
▁과격	-5852
▁누가	-5853
▁돌파	-5854
▁몸을	-5855
▁미술	-5856
▁방콕	-5857
▁복무	-5858
▁브래	-5859
▁비공	-5860
▁사막	-5861
▁산림	-5862
▁성직	-5863
▁스크	-5864
▁올려	-5865
▁의무	-5866
▁의장	-5867
▁잡고	-5868
▁재건	-5869
▁절차	-5870
▁진영	-5871
▁출입	-5872
▁침입	-5873
▁투어	-5874
▁혹은	-5875
단에서	-5876
하겠다	-5877
orld	-5878
▁40%	-5879
▁ABC	-5880
▁Com	-5881
▁결과에	-5882
▁경제학	-5883
▁국가를	-5884
▁나스닥	-5885
▁라이트	-5886
▁사용될	-5887
▁아웅산	-5888
▁외교적	-5889
▁원인을	-5890
▁위험에	-5891
▁일부가	-5892
▁일부를	-5893
▁회담의	-5894
▁가능성에	-5895
▁결의안을	-5896
▁런던에서	-5897
▁미사일을	-5898
▁비판했다	-5899
▁수백명의	-5900
▁실패했다	-5901
▁와인하우	-5902
▁콜로라도	-5903
▁일리노이주	-5904
▁꺼	-5905
▁꼭	-5906
▁덕	-5907
▁멤	-5908
정도	-5909
체의	-5910
한번	-5911
히려	-5912
▁걸려	-5913
▁공모	-5914
▁기회	-5915
▁높다	-5916
▁대륙	-5917
▁맞추	-5918
▁맡은	-5919
▁메릴	-5920
▁명을	-5921
▁북미	-5922
▁불편	-5923
▁빙하	-5924
▁상호	-5925
▁쓰촨	-5926
▁아흐	-5927
▁어디	-5928
▁체중	-5929
▁촉발	-5930
▁프린	-5931
▁필립	-5932
▁항구	-5933
국에서	-5934
단체는	-5935
됐다는	-5936
되어야	-5937
마리가	-5938
보장이	-5939
페인을	-5940
▁120	-5941
▁구조대	-5942
▁두려워	-5943
▁둘러싸	-5944
▁따라서	-5945
▁라이벌	-5946
▁마쳤다	-5947
▁만들고	-5948
▁방송은	-5949
▁배럴당	-5950
▁없지만	-5951
▁이란에	-5952
▁젊은이	-5953
이스라엘	-5954
자력기구	-5955
▁공식적인	-5956
▁국민들은	-5957
▁마감했다	-5958
▁보호하기	-5959
▁비상사태를	-5960
▁소프트웨어	-5961
▁스코틀랜드	-5962
overnment	-5963
AN	-5964
KK	-5965
▁k	-5966
▁객	-5967
▁롬	-5968
라델	-5969
릴라	-5970
망을	-5971
명한	-5972
부양	-5973
비의	-5974
위기	-5975
위인	-5976
책임	-5977
터리	-5978
ang	-5979
ase	-5980
▁감지	-5981
▁개헌	-5982
▁거듭	-5983
▁겨냥	-5984
▁구축	-5985
▁규제	-5986
▁날아	-5987
▁당신	-5988
▁들여	-5989
▁리차	-5990
▁많다	-5991
▁몰려	-5992
▁배경	-5993
▁벌여	-5994
▁봉송	-5995
▁붙잡	-5996
▁생명	-5997
▁소득	-5998
▁순방	-5999
▁시속	-6000
▁알라	-6001
▁얻을	-6002
▁열어	-6003
▁원자	-6004
▁이론	-6005
▁일찍	-6006
▁작용	-6007
▁최우	-6008
▁통계	-6009
▁트레	-6010
▁판사	-6011
▁해임	-6012
금으로	-6013
네자드	-6014
단체가	-6015
라고예	-6016
받았다	-6017
보디아	-6018
조치를	-6019
카운티	-6020
활동을	-6021
▁두바이	-6022
▁디자인	-6023
▁머리를	-6024
▁방법이	-6025
▁보도를	-6026
▁샤라포	-6027
▁연구에	-6028
▁올해의	-6029
▁증거가	-6030
▁차량이	-6031
▁천주교	-6032
▁패트릭	-6033
▁현장을	-6034
▁호나우	-6035
되었으며	-6036
▁도시에서	-6037
▁받아들일	-6038
▁비난하고	-6039
▁생각했다	-6040
▁수석대표	-6041
▁실시되는	-6042
▁제기했다	-6043
▁주장하며	-6044
▁카르자이	-6045
▁지도자들이	-6046
▁잊	-6047
▁텐	-6048
거운	-6049
다이	-6050
말을	-6051
비로	-6052
움이	-6053
지자	-6054
차별	-6055
타는	-6056
화는	-6057
400	-6058
ake	-6059
enc	-6060
red	-6061
▁결코	-6062
▁군은	-6063
▁급증	-6064
▁기부	-6065
▁높이	-6066
▁눈에	-6067
▁다섯	-6068
▁뒤를	-6069
▁뒤에	-6070
▁로드	-6071
▁문서	-6072
▁부담	-6073
▁부부	-6074
▁비핵	-6075
▁상관	-6076
▁스턴	-6077
▁시에	-6078
▁쌍둥	-6079
▁압도	-6080
▁에는	-6081
▁영웅	-6082
▁예를	-6083
▁유출	-6084
▁의약	-6085
▁입법	-6086
▁전인	-6087
▁정착	-6088
▁정해	-6089
▁중부	-6090
▁초반	-6091
▁충격	-6092
▁케빈	-6093
▁탄핵	-6094
▁폭격	-6095
▁폭파	-6096
▁풀어	-6097
▁해수	-6098
▁현실	-6099
▁후진	-6100
갔다고	-6101
경찰이	-6102
부르크	-6103
용으로	-6104
있다고	-6105
했다며	-6106
▁결론을	-6107
▁관계에	-6108
▁규모가	-6109
▁그것을	-6110
▁당국의	-6111
▁머물고	-6112
▁부부는	-6113
▁사태에	-6114
▁상태로	-6115
▁샌디에	-6116
▁시기에	-6117
▁심지어	-6118
▁아파트	-6119
▁알코올	-6120
▁여당인	-6121
▁완전한	-6122
▁의혹을	-6123
▁인근에	-6124
▁전부터	-6125
▁집회를	-6126
▁차량에	-6127
▁태도를	-6128
▁필라델	-6129
▁합의를	-6130
▁확실한	-6131
▁국민들이	-6132
▁용의자가	-6133
▁인터넷을	-6134
▁자신에게	-6135
▁참석했다	-6136
▁프랑스의	-6137
▁한국에서	-6138
뿐만아니라	-6139
▁국민들에게	-6140
▁국제사회의	-6141
▁블라디미르	-6142
▁웹사이트를	-6143
▁윌리엄스는	-6144
▁합의했다고	-6145
▁오사마빈라덴	-6146
▁캘리포니아주	-6147
82	-6148
▁~	-6149
▁딕	-6150
▁쌀	-6151
▁훔	-6152
겨진	-6153
공격	-6154
다운	-6155
레나	-6156
련의	-6157
률은	-6158
르다	-6159
매우	-6160
목을	-6161
민족	-6162
밀한	-6163
비와	-6164
살의	-6165
세는	-6166
셔츠	-6167
스티	-6168
애미	-6169
업에	-6170
연방	-6171
중에	-6172
타오	-6173
협정	-6174
활동	-6175
ama	-6176
▁가해	-6177
▁게재	-6178
▁곳을	-6179
▁날짜	-6180
▁년간	-6181
▁눈이	-6182
▁물을	-6183
▁물이	-6184
▁미칠	-6185
▁법을	-6186
▁북쪽	-6187
▁분류	-6188
▁새벽	-6189
▁연예	-6190
▁오딩	-6191
▁온실	-6192
▁옷을	-6193
▁위로	-6194
▁졸업	-6195
▁종합	-6196
▁중간	-6197
▁차단	-6198
▁차드	-6199
▁채널	-6200
▁촉진	-6201
▁추모	-6202
▁침몰	-6203
▁카를	-6204
▁항소	-6205
▁헨리	-6206
▁과정을	-6207
▁디지털	-6208
▁배심원	-6209
▁비타민	-6210
▁산사태	-6211
▁상하이	-6212
▁언론에	-6213
▁연루된	-6214
▁왕세자	-6215
▁이산화	-6216
▁일본에	-6217
▁일주일	-6218
▁중앙일	-6219
▁증가한	-6220
▁지하철	-6221
▁트레이	-6222
▁펼쳤다	-6223
▁폭발이	-6224
▁프레스	-6225
▁관리들이	-6226
▁미시시피	-6227
▁오바마와	-6228
▁이에따라	-6229
▁즉각적인	-6230
▁캄보디아	-6231
▁평가했다	-6232
▁지지자들은	-6233
▁전세계적으로	-6234
▁President	-6235
12	-6236
SC	-6237
av	-6238
▁갱	-6239
▁옹	-6240
▁좁	-6241
건이	-6242
결승	-6243
고기	-6244
끄러	-6245
닉스	-6246
동맹	-6247
르가	-6248
석이	-6249
아메	-6250
제재	-6251
조합	-6252
지원	-6253
필드	-6254
한은	-6255
.1%	-6256
PEC	-6257
ail	-6258
▁감금	-6259
▁골든	-6260
▁과반	-6261
▁그들	-6262
▁그러	-6263
▁근육	-6264
▁노스	-6265
▁뉴저	-6266
▁다운	-6267
▁다윈	-6268
▁대립	-6269
▁돌입	-6270
▁등에	-6271
▁부르	-6272
▁부채	-6273
▁빅토	-6274
▁빈민	-6275
▁소집	-6276
▁시각	-6277
▁시내	-6278
▁오토	-6279
▁왕실	-6280
▁일제	-6281
▁입을	-6282
▁존슨	-6283
▁최루	-6284
▁특수	-6285
▁호랑	-6286
▁홍수	-6287
년에서	-6288
았으며	-6289
▁2-1	-6290
▁가즈니	-6291
▁거리에	-6292
▁공항에	-6293
▁노동자	-6294
▁당신은	-6295
▁받으며	-6296
▁사우스	-6297
▁상태가	-6298
▁연구는	-6299
▁오늘날	-6300
▁위협이	-6301
▁인구가	-6302
▁인질로	-6303
▁장면이	-6304
▁조치는	-6305
▁증시는	-6306
▁참여한	-6307
▁초점을	-6308
▁치열한	-6309
▁폴란드	-6310
▁훌륭한	-6311
회의에서	-6312
▁가족들이	-6313
▁경기부양	-6314
▁마이애미	-6315
▁방식으로	-6316
▁컴퓨터를	-6317
▁투표에서	-6318
▁프리미어	-6319
▁공개적으로	-6320
▁사르코지는	-6321
▁이루어졌다	-6322
▁아프가니스탄에서	-6323
aw	-6324
▁X	-6325
▁겸	-6326
▁낼	-6327
구조	-6328
라에	-6329
셔널	-6330
오픈	-6331
지아	-6332
키퍼	-6333
톤의	-6334
해온	-6335
.8%	-6336
ens	-6337
ors	-6338
ush	-6339
▁47	-6340
▁갖춘	-6341
▁나왔	-6342
▁남동	-6343
▁내정	-6344
▁낸시	-6345
▁늦게	-6346
▁대치	-6347
▁마라	-6348
▁만남	-6349
▁물에	-6350
▁반영	-6351
▁비극	-6352
▁수하	-6353
▁신도	-6354
▁심사	-6355
▁에베	-6356
▁원숭	-6357
▁재미	-6358
▁전설	-6359
▁전염	-6360
▁주연	-6361
▁클레	-6362
▁탄압	-6363
▁프랭	-6364
▁플루	-6365
년만에	-6366
라마바	-6367
렸으며	-6368
자동차	-6369
작전을	-6370
직에서	-6371
▁off	-6372
▁가했다	-6373
▁골키퍼	-6374
▁그대로	-6375
▁남동부	-6376
▁대단한	-6377
▁로이터	-6378
▁리히터	-6379
▁방송을	-6380
▁보스턴	-6381
▁사실은	-6382
▁사회적	-6383
▁세계의	-6384
▁세력이	-6385
▁승리할	-6386
▁아들이	-6387
▁아마도	-6388
▁여성과	-6389
▁오히려	-6390
▁이같이	-6391
▁이곳에	-6392
▁이사회	-6393
▁장관의	-6394
▁전역에	-6395
▁토네이	-6396
▁페르난	-6397
▁평화를	-6398
▁포함돼	-6399
▁했다는	-6400
▁혜택을	-6401
▁휴가를	-6402
▁논의하기	-6403
▁무엇보다	-6404
▁변호사가	-6405
▁부상으로	-6406
▁브라이언	-6407
▁블라고예	-6408
▁여성들이	-6409
▁우리나라	-6410
▁이미지를	-6411
▁자치정부	-6412
▁진술했다	-6413
▁마이크로소	-6414
▁에베레스트	-6415
▁열린우리당	-6416
▁인플레이션	-6417
▁필라델피아	-6418
IV	-6419
▁밥	-6420
가와	-6421
건은	-6422
라와	-6423
몬트	-6424
세에	-6425
소와	-6426
위츠	-6427
이와	-6428
자유	-6429
커는	-6430
코맥	-6431
테네	-6432
품이	-6433
프가	-6434
ark	-6435
ork	-6436
▁41	-6437
▁61	-6438
▁Se	-6439
▁un	-6440
▁가게	-6441
▁가치	-6442
▁거대	-6443
▁게시	-6444
▁공간	-6445
▁금리	-6446
▁기각	-6447
▁나의	-6448
▁난사	-6449
▁다리	-6450
▁담겨	-6451
▁로저	-6452
▁블루	-6453
▁사전	-6454
▁상상	-6455
▁소형	-6456
▁순례	-6457
▁얼음	-6458
▁예선	-6459
▁인명	-6460
▁임금	-6461
▁체코	-6462
▁초청	-6463
도에서	-6464
립니다	-6465
안에서	-6466
운동을	-6467
적이며	-6468
페이스	-6469
▁가족과	-6470
▁감염된	-6471
▁개혁을	-6472
▁공개된	-6473
▁공산당	-6474
▁기록한	-6475
▁다음날	-6476
▁단체가	-6477
▁라이언	-6478
▁마무드	-6479
▁방문객	-6480
▁번째로	-6481
▁베컴은	-6482
▁예정인	-6483
▁정도의	-6484
▁제공할	-6485
▁중대한	-6486
▁해결할	-6487
▁화이트	-6488
▁화재로	-6489
시켰다고	-6490
▁내무부는	-6491
▁당선인의	-6492
▁사람들과	-6493
▁사람에게	-6494
▁여객기가	-6495
▁영향력을	-6496
▁움직임을	-6497
▁있었으나	-6498
▁목격자들은	-6499
▁이슬라마바	-6500
▁조사에따르면	-6501
▁2009.06	-6502
▁센	-6503
▁쓸	-6504
감독	-6505
곳을	-6506
관의	-6507
금지	-6508
기자	-6509
먼은	-6510
물의	-6511
성장	-6512
즈를	-6513
트와	-6514
튼은	-6515
피트	-6516
호의	-6517
확인	-6518
600	-6519
ass	-6520
ide	-6521
ord	-6522
▁가담	-6523
▁각료	-6524
▁광부	-6525
▁기도	-6526
▁기온	-6527
▁남극	-6528
▁누리	-6529
▁다큐	-6530
▁달라	-6531
▁당부	-6532
▁미성	-6533
▁배후	-6534
▁보지	-6535
▁부딪	-6536
▁부서	-6537
▁비평	-6538
▁사육	-6539
▁상반	-6540
▁상을	-6541
▁선관	-6542
▁세포	-6543
▁올리	-6544
▁외부	-6545
▁원칙	-6546
▁이자	-6547
▁입수	-6548
▁자문	-6549
▁전용	-6550
▁질환	-6551
▁축제	-6552
▁출생	-6553
▁포드	-6554
▁표를	-6555
▁피츠	-6556
▁해도	-6557
▁흥분	-6558
레스를	-6559
웨이트	-6560
eral	-6561
lear	-6562
▁700	-6563
▁PPP	-6564
▁결과로	-6565
▁국장은	-6566
▁그랜드	-6567
▁나라의	-6568
▁단어장	-6569
▁둘러싼	-6570
▁또다시	-6571
▁리차드	-6572
▁무사히	-6573
▁물러나	-6574
▁미군을	-6575
▁벌이는	-6576
▁북서부	-6577
▁브랜드	-6578
▁사고를	-6579
▁사업을	-6580
▁승리로	-6581
▁엄청난	-6582
▁여사는	-6583
▁영화제	-6584
▁유튜브	-6585
▁음식을	-6586
▁통신이	-6587
▁하나인	-6588
▁홍수로	-6589
▁1996	-6590
▁국가안보	-6591
▁미국으로	-6592
▁발생하고	-6593
▁세계적인	-6594
▁안전하게	-6595
▁않겠다고	-6596
▁알렉산더	-6597
▁자유무역	-6598
▁진행되는	-6599
▁증가했다고	-6600
▁보고서에따르면	-6601
-5	-6602
.)	-6603
47	-6604
▁랜	-6605
▁뭄	-6606
감이	-6607
니어	-6608
면에	-6609
명인	-6610
받을	-6611
방에	-6612
뱅크	-6613
보험	-6614
비에	-6615
설을	-6616
언론	-6617
있던	-6618
조원	-6619
치게	-6620
치며	-6621
해줄	-6622
.7%	-6623
ath	-6624
ild	-6625
ire	-6626
▁1%	-6627
▁54	-6628
▁56	-6629
▁57	-6630
▁58	-6631
▁GM	-6632
▁Th	-6633
▁개시	-6634
▁개체	-6635
▁구멍	-6636
▁라덴	-6637
▁롤링	-6638
▁맡고	-6639
▁보존	-6640
▁선원	-6641
▁섭취	-6642
▁수립	-6643
▁않게	-6644
▁연쇄	-6645
▁영양	-6646
▁예전	-6647
▁요원	-6648
▁우울	-6649
▁일시	-6650
▁종종	-6651
▁주에	-6652
▁탈북	-6653
▁투쟁	-6654
관에서	-6655
당국이	-6656
법원은	-6657
시에서	-6658
식에서	-6659
arty	-6660
ence	-6661
▁가족이	-6662
▁거리를	-6663
▁경기가	-6664
▁나오지	-6665
▁다큐멘	-6666
▁단체의	-6667
▁당국에	-6668
▁돌아다	-6669
▁목표를	-6670
▁불가피	-6671
▁소규모	-6672
▁아이폰	-6673
▁안정을	-6674
▁여러분	-6675
▁여론조	-6676
▁자신과	-6677
▁잘못된	-6678
▁절차를	-6679
▁정책에	-6680
▁조종사	-6681
▁주장한	-6682
▁참석할	-6683
▁최대의	-6684
▁패배를	-6685
▁하면서	-6686
▁활주로	-6687
겠습니다	-6688
▁1993	-6689
▁것이었다	-6690
▁긍정적인	-6691
▁대의원을	-6692
▁비난하는	-6693
▁아메리카	-6694
▁아메리칸	-6695
▁오바마를	-6696
▁월요일에	-6697
▁표명했다	-6698
▁행정부가	-6699
▁후진타오	-6700
▁미국인들이	-6701
▁백악관에서	-6702
▁알카에다와	-6703
▁프라이머리	-6704
26	-6705
VD	-6706
▁까	-6707
▁닥	-6708
계는	-6709
글로	-6710
나무	-6711
더스	-6712
만장	-6713
복선	-6714
비상	-6715
아는	-6716
야는	-6717
유로	-6718
의회	-6719
이에	-6720
조를	-6721
종의	-6722
팀을	-6723
행한	-6724
혹한	-6725
화와	-6726
▁Sh	-6727
▁가벼	-6728
▁가을	-6729
▁감옥	-6730
▁공을	-6731
▁관중	-6732
▁그것	-6733
▁글을	-6734
▁마사	-6735
▁마친	-6736
▁말이	-6737
▁반복	-6738
▁보일	-6739
▁소리	-6740
▁소위	-6741
▁손에	-6742
▁송환	-6743
▁스톤	-6744
▁시나	-6745
▁쓰레	-6746
▁않기	-6747
▁에릭	-6748
▁예멘	-6749
▁일에	-6750
▁적대	-6751
▁적발	-6752
▁전복	-6753
▁전환	-6754
▁지붕	-6755
▁진화	-6756
▁참모	-6757
▁축소	-6758
▁침공	-6759
▁태운	-6760
▁포럼	-6761
▁플래	-6762
▁호흡	-6763
▁횡령	-6764
기라이	-6765
라에서	-6766
시스템	-6767
역에서	-6768
자이자	-6769
했음을	-6770
▁감독의	-6771
▁개발을	-6772
▁경험이	-6773
▁곳이다	-6774
▁그레이	-6775
▁근거로	-6776
▁기회가	-6777
▁달리고	-6778
▁무슬림	-6779
▁뭄바이	-6780
▁부시의	-6781
▁상태를	-6782
▁아기를	-6783
▁아이가	-6784
▁아이디	-6785
▁요청을	-6786
▁의원의	-6787
▁인용해	-6788
▁인질을	-6789
▁재검토	-6790
▁제작한	-6791
▁조사가	-6792
▁주도한	-6793
▁지원할	-6794
▁최근에	-6795
▁충돌이	-6796
▁키바키	-6797
▁후보인	-6798
▁1991	-6799
▁근처에서	-6800
▁다시한번	-6801
▁보여주고	-6802
▁북쪽으로	-6803
▁연방준비	-6804
▁오바마에	-6805
▁의미한다	-6806
▁이용하는	-6807
▁지도자가	-6808
uclear	-6809
▁China	-6810
▁경찰서장은	-6811
▁성공적으로	-6812
▁세계적으로	-6813
▁지역에서는	-6814
-6	-6815
90	-6816
GA	-6817
IC	-6818
▁`	-6819
▁폰	-6820
교통	-6821
느냐	-6822
니까	-6823
니티	-6824
등을	-6825
라로	-6826
바르	-6827
사령	-6828
안의	-6829
율로	-6830
임이	-6831
직에	-6832
진과	-6833
질이	-6834
코는	-6835
터가	-6836
ive	-6837
out	-6838
▁65	-6839
▁88	-6840
▁Sp	-6841
▁Un	-6842
▁갑작	-6843
▁공포	-6844
▁그레	-6845
▁마비	-6846
▁많아	-6847
▁모니	-6848
▁뮤지	-6849
▁반박	-6850
▁발휘	-6851
▁베어	-6852
▁수비	-6853
▁신규	-6854
▁쓰고	-6855
▁얘기	-6856
▁이륙	-6857
▁정의	-6858
▁정찰	-6859
▁짧은	-6860
▁차별	-6861
▁책을	-6862
▁캐릭	-6863
▁프라	-6864
베니아	-6865
폴리스	-6866
▁DVD	-6867
▁IOC	-6868
▁갖추고	-6869
▁검찰이	-6870
▁것임을	-6871
▁계속될	-6872
▁광범위	-6873
▁남서부	-6874
▁남성은	-6875
▁도착한	-6876
▁동맹국	-6877
▁된다는	-6878
▁마음을	-6879
▁메르켈	-6880
▁미치는	-6881
▁반군의	-6882
▁발표를	-6883
▁비교적	-6884
▁상태다	-6885
▁상황은	-6886
▁세인트	-6887
▁수상한	-6888
▁시위는	-6889
▁원주민	-6890
▁이브라	-6891
▁인간의	-6892
▁인기를	-6893
▁정권을	-6894
▁주었다	-6895
▁중단할	-6896
▁차이가	-6897
▁총재는	-6898
▁충격을	-6899
▁파나마	-6900
▁하나로	-6901
▁합의한	-6902
▁했었다	-6903
▁혼란을	-6904
▁확인할	-6905
▁희망을	-6906
▁힐튼은	-6907
▁가택연금	-6908
▁뉴햄프셔	-6909
▁비행기를	-6910
▁소식통이	-6911
▁아이들의	-6912
▁제조업체	-6913
▁주둔하고	-6914
▁차지하고	-6915
▁치명적인	-6916
▁항공우주	-6917
▁안전보장이	-6918
▁체포됐다고	-6919
▁한나라당은	-6920
▁2008.12	-6921
▁사우스캐롤라이나	-6922
BM	-6923
MF	-6924
PA	-6925
ai	-6926
▁꼬	-6927
▁숲	-6928
▁옛	-6929
▁팝	-6930
급을	-6931
널드	-6932
니에	-6933
데스	-6934
려진	-6935
밀히	-6936
받은	-6937
버리	-6938
비스	-6939
생물	-6940
시와	-6941
실은	-6942
연한	-6943
일으	-6944
접한	-6945
천만	-6946
펠드	-6947
프랑	-6948
학적	-6949
ank	-6950
ays	-6951
oll	-6952
▁5%	-6953
▁걸린	-6954
▁관측	-6955
▁구단	-6956
▁동생	-6957
▁되돌	-6958
▁리더	-6959
▁리드	-6960
▁말할	-6961
▁모래	-6962
▁무게	-6963
▁부산	-6964
▁부양	-6965
▁북동	-6966
▁수여	-6967
▁스콜	-6968
▁식료	-6969
▁아는	-6970
▁옹호	-6971
▁와이	-6972
▁이식	-6973
▁인민	-6974
▁제목	-6975
▁제트	-6976
▁조언	-6977
▁조용	-6978
▁출두	-6979
▁탱크	-6980
▁폭설	-6981
▁표준	-6982
▁하미	-6983
▁화려	-6984
▁회장	-6985
공화국	-6986
관들이	-6987
된다면	-6988
드리게	-6989
문에서	-6990
주의자	-6991
tive	-6992
▁New	-6993
▁관련한	-6994
▁규정을	-6995
▁그렇지	-6996
▁나에게	-6997
▁난민촌	-6998
▁대상이	-6999
▁도로를	-7000
▁등으로	-7001
▁만들기	-7002
▁미군과	-7003
▁미시간	-7004
▁발견한	-7005
▁방법은	-7006
▁법무부	-7007
▁벨기에	-7008
▁별다른	-7009
▁사고는	-7010
▁사드르	-7011
▁속도로	-7012
▁실시할	-7013
▁언급을	-7014
▁영국인	-7015
▁영화에	-7016
▁우리를	-7017
▁이름이	-7018
▁일어날	-7019
▁일어났	-7020
▁있어야	-7021
▁직원이	-7022
▁탑승객	-7023
▁투표에	-7024
▁하루에	-7025
▁했으나	-7026
▁행사를	-7027
▁헬기가	-7028
▁협상에	-7029
▁1995	-7030
▁over	-7031
▁가족들은	-7032
▁국제공항	-7033
▁남부에서	-7034
▁발표하고	-7035
▁변호사인	-7036
▁불러일으	-7037
▁수준으로	-7038
▁운영하고	-7039
▁쿠웨이트	-7040
▁해리포터	-7041
▁알카에다의	-7042
▁외교통상부	-7043
▁월스트리트	-7044
inister	-7045
▁nuclear	-7046
▁국제원자력기구	-7047
ex	-7048
▁닉	-7049
▁링	-7050
▁핀	-7051
교를	-7052
교육	-7053
레인	-7054
바스	-7055
소속	-7056
오고	-7057
주지	-7058
티오	-7059
협력	-7060
확실	-7061
800	-7062
ret	-7063
tit	-7064
▁62	-7065
▁63	-7066
▁66	-7067
▁AT	-7068
▁급락	-7069
▁나은	-7070
▁낙관	-7071
▁낮추	-7072
▁눈을	-7073
▁당초	-7074
▁당황	-7075
▁듣고	-7076
▁따돌	-7077
▁떠난	-7078
▁루아	-7079
▁방사	-7080
▁벌금	-7081
▁벗어	-7082
▁보게	-7083
▁본격	-7084
▁상영	-7085
▁성추	-7086
▁세부	-7087
▁수리	-7088
▁신중	-7089
▁아난	-7090
▁얻고	-7091
▁없게	-7092
▁없고	-7093
▁에콰	-7094
▁완료	-7095
▁자제	-7096
▁정교	-7097
▁종결	-7098
▁친척	-7099
▁코끼	-7100
▁행진	-7101
▁후지	-7102
라스틱	-7103
메이트	-7104
올리언	-7105
적이다	-7106
7000	-7107
ound	-7108
▁가족은	-7109
▁결혼을	-7110
▁경찰청	-7111
▁고위관	-7112
▁공습을	-7113
▁교육을	-7114
▁나타난	-7115
▁남자는	-7116
▁노력이	-7117
▁뉴욕의	-7118
▁문제와	-7119
▁미디어	-7120
▁사용해	-7121
▁생각이	-7122
▁생명을	-7123
▁선수가	-7124
▁수감자	-7125
▁않았던	-7126
▁압박을	-7127
▁원인이	-7128
▁은행의	-7129
▁촬영한	-7130
▁케이트	-7131
▁테러에	-7132
인들에게	-7133
했었다고	-7134
▁계속되는	-7135
▁교도소에	-7136
▁국가들은	-7137
▁받아들여	-7138
▁방문하는	-7139
▁성관계를	-7140
▁애리조나	-7141
▁에드워즈	-7142
▁이산화탄	-7143
▁인근에서	-7144
▁조건으로	-7145
▁주장한다	-7146
▁해안에서	-7147
▁매사추세츠	-7148
▁전문가들이	-7149
▁한나라당의	-7150
2009.06	-7151
▁200806	-7152
▁스타디움에서	-7153
▁마이크로소프트	-7154
▁싫	-7155
▁윔	-7156
남미	-7157
도우	-7158
래스	-7159
량은	-7160
리어	-7161
마는	-7162
마이	-7163
모스	-7164
발전	-7165
블던	-7166
소한	-7167
식은	-7168
였고	-7169
자료	-7170
점은	-7171
타르	-7172
프를	-7173
향을	-7174
.2%	-7175
.3%	-7176
ese	-7177
▁3,	-7178
▁59	-7179
▁곳은	-7180
▁관료	-7181
▁금연	-7182
▁기여	-7183
▁끝날	-7184
▁내보	-7185
▁다행	-7186
▁달린	-7187
▁부활	-7188
▁불이	-7189
▁상륙	-7190
▁선물	-7191
▁선제	-7192
▁설문	-7193
▁세비	-7194
▁수배	-7195
▁알지	-7196
▁어깨	-7197
▁연금	-7198
▁용납	-7199
▁재임	-7200
▁코카	-7201
▁탄생	-7202
▁팀이	-7203
▁허커	-7204
▁혁명	-7205
▁호르	-7206
▁환호	-7207
▁황금	-7208
라이브	-7209
명에서	-7210
미국은	-7211
사태를	-7212
스트는	-7213
은행은	-7214
지수가	-7215
해야만	-7216
land	-7217
▁Sec	-7218
▁가치를	-7219
▁결정할	-7220
▁교황은	-7221
▁국가로	-7222
▁대표가	-7223
▁마라톤	-7224
▁마리아	-7225
▁만났다	-7226
▁목표는	-7227
▁미성년	-7228
▁민감한	-7229
▁바라는	-7230
▁법안은	-7231
▁부부가	-7232
▁사상자	-7233
▁생방송	-7234
▁시신이	-7235
▁식료품	-7236
▁양국의	-7237
▁음악을	-7238
▁일본과	-7239
▁일으킬	-7240
▁작업에	-7241
▁정권이	-7242
▁종류의	-7243
▁증시가	-7244
▁진정한	-7245
▁처벌을	-7246
▁철수를	-7247
▁파업을	-7248
▁포인트	-7249
▁하락한	-7250
▁호주의	-7251
적이라고	-7252
▁1960	-7253
▁from	-7254
▁국방장관	-7255
▁뉴올리언	-7256
▁들어갔다	-7257
▁로드리게	-7258
▁비난하며	-7259
▁사용하지	-7260
▁상태이다	-7261
▁아이들은	-7262
▁의사들은	-7263
▁지점에서	-7264
▁카스트로	-7265
▁헌법재판	-7266
▁분석가들은	-7267
▁샌디에이고	-7268
TS	-7269
mb	-7270
▁j	-7271
▁널	-7272
격히	-7273
그녀	-7274
니와	-7275
당을	-7276
름을	-7277
병이	-7278
사무	-7279
사이	-7280
세와	-7281
식의	-7282
실로	-7283
톨릭	-7284
판이	-7285
호르	-7286
.04	-7287
.9%	-7288
mit	-7289
ous	-7290
ree	-7291
▁77	-7292
▁En	-7293
▁Ob	-7294
▁ab	-7295
▁as	-7296
▁가상	-7297
▁갔다	-7298
▁개장	-7299
▁계좌	-7300
▁나눴	-7301
▁느낄	-7302
▁담은	-7303
▁돕기	-7304
▁로딕	-7305
▁만일	-7306
▁본부	-7307
▁빌딩	-7308
▁샘플	-7309
▁선임	-7310
▁선호	-7311
▁습격	-7312
▁시대	-7313
▁신조	-7314
▁앞둔	-7315
▁약화	-7316
▁영상	-7317
▁왼쪽	-7318
▁원래	-7319
▁정지	-7320
▁케리	-7321
▁탐험	-7322
▁태어	-7323
▁특징	-7324
▁파이	-7325
▁향상	-7326
▁협회	-7327
▁휩쓸	-7328
당했다	-7329
되거나	-7330
만으로	-7331
면에서	-7332
위에서	-7333
지역을	-7334
타나모	-7335
파운드	-7336
학자인	-7337
IAEA	-7338
▁MBC	-7339
▁dis	-7340
▁new	-7341
▁가족을	-7342
▁기쁘다	-7343
▁다리를	-7344
▁당신의	-7345
▁돌고래	-7346
▁돌아오	-7347
▁동일한	-7348
▁밝혀진	-7349
▁성명은	-7350
▁소식은	-7351
▁아들을	-7352
▁앤드류	-7353
▁양측은	-7354
▁여부에	-7355
▁영국군	-7356
▁우주선	-7357
▁이용할	-7358
▁자리에	-7359
▁죽음을	-7360
▁출연한	-7361
▁충돌로	-7362
▁팬들은	-7363
▁학교에	-7364
▁후보와	-7365
▁2500	-7366
▁거주하고	-7367
▁공개됐다	-7368
▁국가들이	-7369
▁동티모르	-7370
▁드러냈다	-7371
▁마드리드	-7372
▁밝혔지만	-7373
▁부정적인	-7374
▁부통령은	-7375
▁소유하고	-7376
▁않는다는	-7377
▁원자로를	-7378
▁자카르타	-7379
▁지시했다	-7380
▁천연가스	-7381
▁클린턴의	-7382
▁평화유지	-7383
▁해당하는	-7384
▁화요일에	-7385
oreign	-7386
▁대선후보로	-7387
▁아프간에서	-7388
▁유권자들이	-7389
▁지지자들이	-7390
▁크라이슬러	-7391
▁폭력사태가	-7392
▁블라고예비치	-7393
▁프리미어리그	-7394
eg	-7395
▁첩	-7396
▁템	-7397
관인	-7398
나를	-7399
디스	-7400
로코	-7401
마자	-7402
보건	-7403
봉사	-7404
슨과	-7405
영국	-7406
용이	-7407
인도	-7408
입어	-7409
클로	-7410
타를	-7411
토늄	-7412
파라	-7413
학과	-7414
화한	-7415
.6%	-7416
▁69	-7417
▁갖는	-7418
▁개편	-7419
▁계열	-7420
▁공약	-7421
▁기차	-7422
▁대대	-7423
▁떠올	-7424
▁맞는	-7425
▁매달	-7426
▁멤버	-7427
▁몰고	-7428
▁발포	-7429
▁백인	-7430
▁부유	-7431
▁불쾌	-7432
▁빨간	-7433
▁사설	-7434
▁손님	-7435
▁스카	-7436
▁아시	-7437
▁안타	-7438
▁암컷	-7439
▁앤더	-7440
▁양의	-7441
▁열고	-7442
▁유도	-7443
▁유인	-7444
▁잇따	-7445
▁재직	-7446
▁전사	-7447
▁정거	-7448
▁종료	-7449
▁좌절	-7450
▁줄어	-7451
▁줄일	-7452
▁직전	-7453
▁창출	-7454
▁처해	-7455
▁철군	-7456
▁캐롤	-7457
▁쿠퍼	-7458
▁테네	-7459
▁포로	-7460
▁포착	-7461
▁푸에	-7462
▁혼자	-7463
▁화합	-7464
▁활약	-7465
▁회계	-7466
▁효율	-7467
냈다고	-7468
당에서	-7469
리프는	-7470
왔으며	-7471
이것은	-7472
일에는	-7473
자로서	-7474
장관이	-7475
정부의	-7476
토니오	-7477
6000	-7478
NASA	-7479
▁FRB	-7480
▁HIV	-7481
▁건물이	-7482
▁격렬한	-7483
▁경제의	-7484
▁구호를	-7485
▁기업의	-7486
▁단체인	-7487
▁도시의	-7488
▁두번째	-7489
▁마흐디	-7490
▁무고한	-7491
▁민병대	-7492
▁베스트	-7493
▁보도가	-7494
▁보이며	-7495
▁북부에	-7496
▁브리핑	-7497
▁비서실	-7498
▁상승한	-7499
▁소식에	-7500
▁시드의	-7501
▁신고를	-7502
▁애완견	-7503
▁원하고	-7504
▁위대한	-7505
▁윔블던	-7506
▁유엔의	-7507
▁일본인	-7508
▁일이다	-7509
▁장군은	-7510
▁조사한	-7511
▁주의를	-7512
▁차이로	-7513
▁크레이	-7514
▁페이스	-7515
▁푸틴은	-7516
▁힘입어	-7517
아일랜드	-7518
아프리카	-7519
축구연맹	-7520
티오피아	-7521
▁1500	-7522
▁4000	-7523
▁NATO	-7524
▁남자친구	-7525
▁밝혔다고	-7526
▁밝혔으며	-7527
▁브라운은	-7528
▁상태에서	-7529
▁선포했다	-7530
▁심각하게	-7531
▁않았으나	-7532
▁예를들어	-7533
▁인질들을	-7534
▁있었다는	-7535
▁자택에서	-7536
▁지도자는	-7537
▁직접적인	-7538
▁추정된다	-7539
▁하마스가	-7540
15	-7541
AS	-7542
PP	-7543
ft	-7544
▁닫	-7545
▁댄	-7546
▁썼	-7547
▁퀸	-7548
경은	-7549
기기	-7550
끔찍	-7551
단히	-7552
돼야	-7553
란을	-7554
렸고	-7555
물은	-7556
법원	-7557
법은	-7558
생산	-7559
심이	-7560
얼리	-7561
작전	-7562
정의	-7563
정치	-7564
즈와	-7565
진압	-7566
체제	-7567
타이	-7568
품에	-7569
할지	-7570
ave	-7571
erv	-7572
oci	-7573
▁ar	-7574
▁고급	-7575
▁고유	-7576
▁군대	-7577
▁군이	-7578
▁금액	-7579
▁길이	-7580
▁낙태	-7581
▁남겨	-7582
▁동남	-7583
▁되길	-7584
▁딸을	-7585
▁마돈	-7586
▁복역	-7587
▁본토	-7588
▁부적	-7589
▁불에	-7590
▁소련	-7591
▁수면	-7592
▁여섯	-7593
▁오스	-7594
▁위스	-7595
▁의도	-7596
▁주주	-7597
▁축출	-7598
▁출구	-7599
▁침략	-7600
▁카터	-7601
▁탈락	-7602
▁폭스	-7603
▁피살	-7604
▁현장	-7605
▁힌두	-7606
경기를	-7607
앞으로	-7608
있으며	-7609
1000	-7610
ilit	-7611
onom	-7612
▁30%	-7613
▁Pro	-7614
▁his	-7615
▁tal	-7616
▁교도소	-7617
▁뉴저지	-7618
▁데이빗	-7619
▁들어간	-7620
▁라파엘	-7621
▁매니저	-7622
▁모양의	-7623
▁빠져나	-7624
▁사과를	-7625
▁사실에	-7626
▁사항을	-7627
▁상당히	-7628
▁성장을	-7629
▁손실을	-7630
▁수도인	-7631
▁실수를	-7632
▁않았고	-7633
▁역사적	-7634
▁인도의	-7635
▁투자가	-7636
▁펠로시	-7637
▁평화와	-7638
▁피라미	-7639
▁하나는	-7640
이지애나	-7641
ution	-7642
▁1992	-7643
▁곤잘레스	-7644
▁공산주의	-7645
▁국무부는	-7646
▁마을에서	-7647
▁못하도록	-7648
▁바란다고	-7649
▁발표됐다	-7650
▁방향으로	-7651
▁아버지가	-7652
▁않는다면	-7653
▁없습니다	-7654
▁영화배우	-7655
▁용의자로	-7656
▁우리에게	-7657
▁위치하고	-7658
▁인도주의	-7659
▁전망했다	-7660
▁지원하는	-7661
▁결정했다고	-7662
▁이스라엘에	-7663
▁전국적으로	-7664
▁government	-7665
'(	-7666
ML	-7667
la	-7668
▁깃	-7669
▁띄	-7670
▁컬	-7671
▁햄	-7672
경영	-7673
그로	-7674
당국	-7675
도상	-7676
라드	-7677
린은	-7678
마디	-7679
사항	-7680
슬리	-7681
승희	-7682
역에	-7683
연히	-7684
책이	-7685
트북	-7686
페이	-7687
하르	-7688
향이	-7689
iti	-7690
rou	-7691
ton	-7692
▁BA	-7693
▁NK	-7694
▁가속	-7695
▁내고	-7696
▁넘겨	-7697
▁농업	-7698
▁놓여	-7699
▁당사	-7700
▁데에	-7701
▁딸이	-7702
▁러닝	-7703
▁말에	-7704
▁메디	-7705
▁미스	-7706
▁방위	-7707
▁번의	-7708
▁벌써	-7709
▁불어	-7710
▁선전	-7711
▁신분	-7712
▁실린	-7713
▁양육	-7714
▁억제	-7715
▁에넹	-7716
▁울포	-7717
▁의뢰	-7718
▁일상	-7719
▁일축	-7720
▁자동	-7721
▁저희	-7722
▁점검	-7723
▁처한	-7724
▁투르	-7725
▁퍼거	-7726
▁하에	-7727
▁해서	-7728
나에서	-7729
때까지	-7730
마리를	-7731
분만에	-7732
서에서	-7733
세에서	-7734
시리즈	-7735
원들의	-7736
젤레스	-7737
주년을	-7738
태평양	-7739
판결을	-7740
해지고	-7741
ates	-7742
▁감사의	-7743
▁결의안	-7744
▁경쟁을	-7745
▁광고를	-7746
▁군사적	-7747
▁논쟁을	-7748
▁논쟁이	-7749
▁놀라운	-7750
▁도시인	-7751
▁떠났다	-7752
▁보도에	-7753
▁복잡한	-7754
▁소속의	-7755
▁않기로	-7756
▁영국은	-7757
▁우주왕	-7758
▁은행에	-7759
▁이뤄진	-7760
▁이용한	-7761
▁정신적	-7762
▁제공한	-7763
▁주가는	-7764
▁중이던	-7765
▁지지자	-7766
▁참여할	-7767
▁통일부	-7768
▁파바로	-7769
▁페더러	-7770
▁평화적	-7771
▁포함된	-7772
▁프랭크	-7773
▁하미드	-7774
▁행사에	-7775
▁회장이	-7776
▁5000	-7777
▁7000	-7778
▁UEFA	-7779
▁개인적인	-7780
▁공습으로	-7781
▁관타나모	-7782
▁교통사고	-7783
▁무장대원	-7784
▁법원에서	-7785
▁보입니다	-7786
▁외무부는	-7787
▁요구하며	-7788
▁유지하고	-7789
▁이뤄졌다	-7790
▁전통적인	-7791
▁지원하고	-7792
▁지지하고	-7793
▁직원들이	-7794
▁캠페인을	-7795
▁페더러는	-7796
▁플라스틱	-7797
▁행정부의	-7798
▁다이아몬드	-7799
▁상원의원과	-7800
▁상원의원의	-7801
▁예정이었다	-7802
▁정상회담을	-7803
▁펜실베니아	-7804
OR	-7805
ob	-7806
▁곰	-7807
▁떼	-7808
▁럼	-7809
▁밟	-7810
▁뱀	-7811
▁탔	-7812
경에	-7813
내며	-7814
마의	-7815
문은	-7816
바오	-7817
법에	-7818
음악	-7819
정상	-7820
클럽	-7821
터스	-7822
편의	-7823
폴리	-7824
ile	-7825
own	-7826
▁2%	-7827
▁가고	-7828
▁갇혀	-7829
▁건너	-7830
▁고무	-7831
▁공룡	-7832
▁국토	-7833
▁기금	-7834
▁나선	-7835
▁나설	-7836
▁녹음	-7837
▁느낀	-7838
▁도요	-7839
▁되며	-7840
▁면담	-7841
▁몸에	-7842
▁벽돌	-7843
▁북서	-7844
▁세속	-7845
▁식민	-7846
▁심문	-7847
▁아닙	-7848
▁연간	-7849
▁옐친	-7850
▁오리	-7851
▁잡혀	-7852
▁점거	-7853
▁제리	-7854
▁제압	-7855
▁조절	-7856
▁주기	-7857
▁주유	-7858
▁진보	-7859
▁징후	-7860
▁처방	-7861
▁천문	-7862
▁카리	-7863
▁탄광	-7864
▁함유	-7865
기까지	-7866
았지만	-7867
자이너	-7868
차례에	-7869
탈레반	-7870
프라임	-7871
하마드	-7872
혐의로	-7873
회의에	-7874
4000	-7875
▁140	-7876
▁160	-7877
▁PKK	-7878
▁가벼운	-7879
▁건강이	-7880
▁경기침	-7881
▁경선을	-7882
▁기소된	-7883
▁노래를	-7884
▁높다고	-7885
▁다쳤다	-7886
▁대다수	-7887
▁또다른	-7888
▁루아얄	-7889
▁뮤지컬	-7890
▁미국측	-7891
▁받았던	-7892
▁범인이	-7893
▁부분을	-7894
▁살아남	-7895
▁상당의	-7896
▁생산을	-7897
▁성향의	-7898
▁세계적	-7899
▁시라크	-7900
▁시장을	-7901
▁아테네	-7902
▁영국과	-7903
▁오클라	-7904
▁왕자가	-7905
▁원인은	-7906
▁위험을	-7907
▁조사는	-7908
▁준결승	-7909
▁지역인	-7910
▁총상을	-7911
▁카트리	-7912
▁테러는	-7913
▁투자를	-7914
▁포르노	-7915
▁필요로	-7916
▁한국을	-7917
▁행위에	-7918
▁활동에	-7919
▁회사를	-7920
▁회의에	-7921
▁효과가	-7922
선거에서	-7923
았습니다	-7924
▁고려하고	-7925
▁기소됐다	-7926
▁당했다고	-7927
▁민주당이	-7928
▁불가리아	-7929
▁비행기가	-7930
▁아니었다	-7931
▁올림픽을	-7932
▁외무장관	-7933
▁이와같이	-7934
▁인터넷에	-7935
▁일이라고	-7936
▁자유롭게	-7937
▁좋아하는	-7938
▁클린턴에	-7939
▁확인됐다	-7940
자들로부터	-7941
▁1,000	-7942
▁때문이라고	-7943
▁있었습니다	-7944
▁발표했습니다	-7945
▁2005.10	-7946
~2	-7947
▁겁	-7948
▁쏘	-7949
▁얀	-7950
▁핸	-7951
검찰	-7952
과학	-7953
구에	-7954
그의	-7955
니야	-7956
당과	-7957
두는	-7958
락을	-7959
리코	-7960
받아	-7961
사관	-7962
세대	-7963
스쿠	-7964
아직	-7965
았을	-7966
어질	-7967
에미	-7968
우기	-7969
이한	-7970
제르	-7971
진의	-7972
체는	-7973
체에	-7974
카트	-7975
행위	-7976
.4%	-7977
orn	-7978
ves	-7979
▁4%	-7980
▁72	-7981
▁간부	-7982
▁간에	-7983
▁갈라	-7984
▁개성	-7985
▁검증	-7986
▁공원	-7987
▁괴한	-7988
▁교전	-7989
▁금메	-7990
▁대로	-7991
▁도청	-7992
▁떠날	-7993
▁맞고	-7994
▁멀리	-7995
▁멈추	-7996
▁물고	-7997
▁미첼	-7998
▁발발	-7999
▁보급	-8000
▁쉽지	-8001
▁실무	-8002
▁아틀	-8003
▁알레	-8004
▁알제	-8005
▁양곤	-8006
▁어두	-8007
▁연계	-8008
▁우고	-8009
▁윤리	-8010
▁의문	-8011
▁자발	-8012
▁잡아	-8013
▁즐길	-8014
▁지고	-8015
▁카메	-8016
▁커뮤	-8017
▁콜린	-8018
▁쿠즈	-8019
▁클라	-8020
▁탄도	-8021
▁통상	-8022
▁파라	-8023
▁하여	-8024
▁휴가	-8025
베르토	-8026
월에는	-8027
이즈미	-8028
진으로	-8029
쳤으며	-8030
행위를	-8031
tern	-8032
▁WHO	-8033
▁not	-8034
▁vis	-8035
▁가족의	-8036
▁건강한	-8037
▁국민의	-8038
▁그녀를	-8039
▁나달은	-8040
▁나이가	-8041
▁남부에	-8042
▁남성의	-8043
▁남편인	-8044
▁늘어나	-8045
▁됐으며	-8046
▁디스크	-8047
▁막대한	-8048
▁반대로	-8049
▁방송에	-8050
▁법안에	-8051
▁보이콧	-8052
▁보호를	-8053
▁쓰촨성	-8054
▁않으며	-8055
▁양국은	-8056
▁언론의	-8057
▁얼마전	-8058
▁연합군	-8059
▁열렸다	-8060
▁완벽한	-8061
▁이끌고	-8062
▁이란과	-8063
▁이익을	-8064
▁일으켰	-8065
▁제출한	-8066
▁조사할	-8067
▁증가할	-8068
▁최선을	-8069
▁폭우로	-8070
▁한국군	-8071
▁해병대	-8072
▁핵개발	-8073
▁cont	-8074
▁결선투표	-8075
▁국가에서	-8076
▁대학에서	-8077
▁보여준다	-8078
▁사용하고	-8079
▁아니라는	-8080
▁아닙니다	-8081
▁에어버스	-8082
▁에콰도르	-8083
▁오클라호	-8084
▁위협하고	-8085
▁유럽에서	-8086
▁조지아주	-8087
▁준비하고	-8088
▁중동평화	-8089
▁중이었다	-8090
▁지지선언	-8091
▁참석하지	-8092
▁챔피언십	-8093
▁타임즈가	-8094
▁탈레반이	-8095
▁포함하여	-8096
▁호소했다	-8097
▁확산되고	-8098
▁Obama	-8099
▁루이지애나	-8100
▁상원의원을	-8101
▁시작했다고	-8102
LA	-8103
ah	-8104
ts	-8105
▁뜨	-8106
▁앵	-8107
개로	-8108
거를	-8109
기금	-8110
날드	-8111
다란	-8112
단과	-8113
라면	-8114
령이	-8115
매매	-8116
문제	-8117
세한	-8118
스파	-8119
아가	-8120
어떤	-8121
에이	-8122
예비	-8123
요한	-8124
유를	-8125
제네	-8126
졌을	-8127
종을	-8128
커가	-8129
키로	-8130
타의	-8131
판에	-8132
피스	-8133
100	-8134
are	-8135
ash	-8136
ite	-8137
ris	-8138
▁68	-8139
▁He	-8140
▁가짜	-8141
▁군의	-8142
▁기숙	-8143
▁냈다	-8144
▁놀이	-8145
▁느꼈	-8146
▁단행	-8147
▁당해	-8148
▁데려	-8149
▁따뜻	-8150
▁래리	-8151
▁매출	-8152
▁무승	-8153
▁미네	-8154
▁미주	-8155
▁부탁	-8156
▁빼앗	-8157
▁서서	-8158
▁서양	-8159
▁세탁	-8160
▁술을	-8161
▁술집	-8162
▁숨을	-8163
▁실직	-8164
▁씨가	-8165
▁양키	-8166
▁업계	-8167
▁여권	-8168
▁연례	-8169
▁영업	-8170
▁옆에	-8171
▁오렌	-8172
▁유가	-8173
▁유기	-8174
▁있은	-8175
▁주립	-8176
▁중의	-8177
▁직업	-8178
▁차베	-8179
▁차이	-8180
▁채취	-8181
▁크레	-8182
▁터널	-8183
▁테이	-8184
▁통행	-8185
▁퇴원	-8186
▁팀을	-8187
▁팀의	-8188
▁풍부	-8189
▁하자	-8190
▁학대	-8191
년으로	-8192
되기도	-8193
레스는	-8194
머니는	-8195
비치는	-8196
사태가	-8197
지역의	-8198
회의를	-8199
▁NBA	-8200
▁강제로	-8201
▁건강에	-8202
▁건물에	-8203
▁계속된	-8204
▁공격한	-8205
▁국가에	-8206
▁권리가	-8207
▁뉴욕주	-8208
▁다음주	-8209
▁달러가	-8210
▁대책을	-8211
▁대회를	-8212
▁들어갈	-8213
▁모르는	-8214
▁목사는	-8215
▁방문은	-8216
▁베네딕	-8217
▁부토의	-8218
▁사진이	-8219
▁살해된	-8220
▁서장은	-8221
▁수입을	-8222
▁스크린	-8223
▁심장마	-8224
▁알렸다	-8225
▁앞서고	-8226
▁연구소	-8227
▁열대성	-8228
▁오른쪽	-8229
▁오스카	-8230
▁유명인	-8231
▁이제는	-8232
▁이후에	-8233
▁인터폴	-8234
▁일련의	-8235
▁자리잡	-8236
▁전하고	-8237
▁제외한	-8238
▁중에서	-8239
▁지구에	-8240
▁최첨단	-8241
▁피닉스	-8242
▁향하는	-8243
강전에서	-8244
ition	-8245
▁1989	-8246
▁군인들이	-8247
▁극단주의	-8248
▁러시아가	-8249
▁법정에서	-8250
▁사망자는	-8251
▁언급하며	-8252
▁움직임은	-8253
▁이루어진	-8254
▁이브라힘	-8255
▁일어나는	-8256
▁탈레반은	-8257
▁milit	-8258
▁에티오피아	-8259
▁여론조사에서	-8260
▁2008.10	-8261
▁프라이머리에서	-8262
?”	-8263
IS	-8264
ug	-8265
▁넬	-8266
▁롱	-8267
▁턱	-8268
골로	-8269
나에	-8270
드베	-8271
마르	-8272
마를	-8273
보안	-8274
분께	-8275
브를	-8276
블로	-8277
세트	-8278
세프	-8279
심히	-8280
어요	-8281
어져	-8282
지방	-8283
체로	-8284
치와	-8285
카는	-8286
크라	-8287
통을	-8288
통합	-8289
티가	-8290
편이	-8291
평균	-8292
380	-8293
ife	-8294
ome	-8295
oul	-8296
▁67	-8297
▁76	-8298
▁개를	-8299
▁계산	-8300
▁교섭	-8301
▁귀환	-8302
▁낮아	-8303
▁노인	-8304
▁느낌	-8305
▁돼지	-8306
▁루이	-8307
▁망원	-8308
▁맥캔	-8309
▁모금	-8310
▁모아	-8311
▁무덤	-8312
▁미니	-8313
▁미리	-8314
▁밀려	-8315
▁바탕	-8316
▁바티	-8317
▁박탈	-8318
▁반도	-8319
▁발행	-8320
▁부검	-8321
▁부사	-8322
▁붙여	-8323
▁사절	-8324
▁수류	-8325
▁아지	-8326
▁압력	-8327
▁요리	-8328
▁유감	-8329
▁일치	-8330
▁조약	-8331
▁취한	-8332
▁타밀	-8333
▁퇴임	-8334
▁판다	-8335
▁허드	-8336
▁형제	-8337
▁활발	-8338
▁흥미	-8339
들이다	-8340
상태에	-8341
스트라	-8342
시간을	-8343
에게도	-8344
졌지만	-8345
총리는	-8346
투표를	-8347
트레이	-8348
olog	-8349
ouse	-8350
reat	-8351
roop	-8352
▁are	-8353
▁att	-8354
▁out	-8355
▁경매에	-8356
▁경험을	-8357
▁고위급	-8358
▁남편이	-8359
▁내려진	-8360
▁노트북	-8361
▁느끼고	-8362
▁도미니	-8363
▁마스터	-8364
▁메드베	-8365
▁무엇을	-8366
▁발표는	-8367
▁방문해	-8368
▁불능화	-8369
▁불확실	-8370
▁뿐이다	-8371
▁사진은	-8372
▁사형을	-8373
▁성공한	-8374
▁수행할	-8375
▁엄격한	-8376
▁왕자는	-8377
▁위하여	-8378
▁유죄를	-8379
▁일하고	-8380
▁조승희	-8381
▁증언을	-8382
▁탑승한	-8383
▁터키의	-8384
▁테네시	-8385
▁판결이	-8386
▁팬들이	-8387
▁평화협	-8388
▁하거나	-8389
▁효과를	-8390
들에게는	-8391
시키려는	-8392
▁plan	-8393
▁가능성도	-8394
▁계획하고	-8395
▁고이즈미	-8396
▁나타내는	-8397
▁대법원은	-8398
▁동영상이	-8399
▁디자이너	-8400
▁매케인이	-8401
▁모른다고	-8402
▁보고서가	-8403
▁시작으로	-8404
▁실시했다	-8405
▁아니지만	-8406
▁아프간에	-8407
▁예상하고	-8408
▁용의자는	-8409
▁전반적인	-8410
▁전역에서	-8411
▁제출했다	-8412
▁추정하고	-8413
▁카메라를	-8414
▁타이틀을	-8415
▁테러조직	-8416
▁텍사스주	-8417
▁플레이를	-8418
▁again	-8419
▁결승전에서	-8420
▁요구했다고	-8421
merican	-8422
▁안전보장이사회	-8423
▁National	-8424
&#	-8425
▁몽	-8426
▁붐	-8427
▁써	-8428
▁엠	-8429
▁햇	-8430
괴한	-8431
근혜	-8432
넬라	-8433
노조	-8434
는가	-8435
단계	-8436
력은	-8437
부모	-8438
비넨	-8439
석에	-8440
세이	-8441
시대	-8442
심의	-8443
쓰고	-8444
씨의	-8445
어와	-8446
연료	-8447
파가	-8448
혁명	-8449
PPP	-8450
lic	-8451
one	-8452
rac	-8453
▁Is	-8454
▁가중	-8455
▁거론	-8456
▁교외	-8457
▁그만	-8458
▁기계	-8459
▁기원	-8460
▁남용	-8461
▁내지	-8462
▁높게	-8463
▁뉴델	-8464
▁다수	-8465
▁달아	-8466
▁도디	-8467
▁도살	-8468
▁때는	-8469
▁마케	-8470
▁맞은	-8471
▁맥도	-8472
▁모술	-8473
▁밀어	-8474
▁법무	-8475
▁블록	-8476
▁살모	-8477
▁스토	-8478
▁신발	-8479
▁신호	-8480
▁아담	-8481
▁애니	-8482
▁음성	-8483
▁이적	-8484
▁전형	-8485
▁정리	-8486
▁정전	-8487
▁제약	-8488
▁종식	-8489
▁준수	-8490
▁중태	-8491
▁증강	-8492
▁펼친	-8493
▁하버	-8494
▁현금	-8495
▁형사	-8496
▁후송	-8497
거래소	-8498
등학교	-8499
스럽다	-8500
시키며	-8501
시하고	-8502
아프간	-8503
에게서	-8504
원들을	-8505
이사회	-8506
자금을	-8507
정으로	-8508
타에서	-8509
ical	-8510
▁Con	-8511
▁국가인	-8512
▁국립공	-8513
▁근로자	-8514
▁나이로	-8515
▁남학생	-8516
▁내리는	-8517
▁대서양	-8518
▁도착할	-8519
▁동물원	-8520
▁방문에	-8521
▁방법에	-8522
▁보고를	-8523
▁보내고	-8524
▁성공을	-8525
▁신속히	-8526
▁안으로	-8527
▁야후의	-8528
▁위스콘	-8529
▁의견이	-8530
▁이곳은	-8531
▁이내에	-8532
▁자르다	-8533
▁작업이	-8534
▁폭력을	-8535
▁하와이	-8536
▁하이브	-8537
▁할머니	-8538
▁행동에	-8539
▁허가를	-8540
▁현재는	-8541
▁히틀러	-8542
해리포터	-8543
▁1987	-8544
▁lead	-8545
▁가족들과	-8546
▁거절했다	-8547
▁국제우주	-8548
▁남아있는	-8549
▁높아지고	-8550
▁대피했다	-8551
▁보냈다고	-8552
▁빅토리아	-8553
▁상황이다	-8554
▁숨졌으며	-8555
▁아버지는	-8556
▁않았다는	-8557
▁알바니아	-8558
▁연구소의	-8559
▁위원장이	-8560
▁의원들이	-8561
▁이름으로	-8562
▁일어났다	-8563
▁제시했다	-8564
▁플루토늄	-8565
▁행정부는	-8566
▁talks	-8567
▁무샤라프는	-8568
▁무장세력이	-8569
▁우주비행사	-8570
▁통과시켰다	-8571
45	-8572
CC	-8573
FL	-8574
▁[	-8575
▁갔	-8576
▁뚫	-8577
▁웰	-8578
▁팽	-8579
그래	-8580
념을	-8581
노스	-8582
되길	-8583
미군	-8584
미는	-8585
사업	-8586
이런	-8587
이제	-8588
입을	-8589
차는	-8590
최근	-8591
췄다	-8592
카드	-8593
킥을	-8594
티에	-8595
파의	-8596
플루	-8597
해의	-8598
호주	-8599
300	-8600
IFA	-8601
duc	-8602
igh	-8603
man	-8604
ven	-8605
▁MD	-8606
▁pe	-8607
▁up	-8608
▁고안	-8609
▁교사	-8610
▁권총	-8611
▁금속	-8612
▁급습	-8613
▁널리	-8614
▁넘게	-8615
▁달간	-8616
▁담고	-8617
▁대전	-8618
▁동계	-8619
▁매매	-8620
▁모양	-8621
▁모욕	-8622
▁산책	-8623
▁실려	-8624
▁실현	-8625
▁심의	-8626
▁안내	-8627
▁얻게	-8628
▁염려	-8629
▁원내	-8630
▁원정	-8631
▁웨인	-8632
▁유사	-8633
▁이슈	-8634
▁임대	-8635
▁잇는	-8636
▁자전	-8637
▁자행	-8638
▁잡지	-8639
▁장려	-8640
▁잭슨	-8641
▁조심	-8642
▁지는	-8643
▁진지	-8644
▁초에	-8645
▁총에	-8646
▁치를	-8647
▁카드	-8648
▁택시	-8649
▁토로	-8650
▁통보	-8651
▁트로	-8652
▁폭동	-8653
▁해저	-8654
▁했고	-8655
▁호송	-8656
겼다고	-8657
국들은	-8658
은행이	-8659
자와히	-8660
크리트	-8661
▁193	-8662
▁20%	-8663
▁60%	-8664
▁Roh	-8665
▁its	-8666
▁가난한	-8667
▁감바리	-8668
▁강진이	-8669
▁게릴라	-8670
▁견해를	-8671
▁결정이	-8672
▁경기는	-8673
▁계속할	-8674
▁공개한	-8675
▁공항을	-8676
▁글로벌	-8677
▁금리를	-8678
▁기사를	-8679
▁남자를	-8680
▁납치범	-8681
▁너무나	-8682
▁데리고	-8683
▁데이터	-8684
▁동안의	-8685
▁미래에	-8686
▁받는다	-8687
▁부대를	-8688
▁비행을	-8689
▁사용된	-8690
▁사임을	-8691
▁사퇴를	-8692
▁상처를	-8693
▁수사에	-8694
▁아마존	-8695
▁알리는	-8696
▁약간의	-8697
▁연기를	-8698
▁영화가	-8699
▁원한다	-8700
▁의사는	-8701
▁의회를	-8702
▁이뤄질	-8703
▁인구의	-8704
▁인사를	-8705
▁일본을	-8706
▁잃어버	-8707
▁전체가	-8708
▁전투기	-8709
▁제치고	-8710
▁중남미	-8711
▁중이며	-8712
▁지역이	-8713
▁차관은	-8714
▁커다란	-8715
▁테일러	-8716
▁합의에	-8717
됨에따라	-8718
▁광범위한	-8719
▁국가비상	-8720
▁국제적인	-8721
▁담당자는	-8722
▁매케인의	-8723
▁메드베데	-8724
▁보고서에	-8725
▁비디오를	-8726
▁사용했다	-8727
▁선거관리	-8728
▁아웅산수	-8729
▁앞으로도	-8730
▁연구원은	-8731
▁울포위츠	-8732
▁이메일을	-8733
▁중단했다	-8734
▁치러지는	-8735
▁카를로스	-8736
▁학교에서	-8737
▁핵실험을	-8738
▁국제유가가	-8739
▁대통령으로	-8740
▁민주주의를	-8741
▁발견되었다	-8742
▁않았습니다	-8743
▁상승했습니다	-8744
17	-8745
HC	-8746
In	-8747
UN	-8748
ix	-8749
pe	-8750
to	-8751
▁옳	-8752
검사	-8753
공급	-8754
당에	-8755
라바	-8756
렸을	-8757
먼트	-8758
성근	-8759
성화	-8760
스포	-8761
시로	-8762
시오	-8763
시한	-8764
아노	-8765
아를	-8766
았고	-8767
었기	-8768
우며	-8769
인다	-8770
인민	-8771
절한	-8772
지대	-8773
크쇼	-8774
탈린	-8775
테르	-8776
파울	-8777
해가	-8778
해튼	-8779
▁AS	-8780
▁Ex	-8781
▁가즈	-8782
▁강행	-8783
▁교토	-8784
▁구류	-8785
▁깨끗	-8786
▁다룬	-8787
▁단독	-8788
▁당의	-8789
▁데뷔	-8790
▁동북	-8791
▁동참	-8792
▁먹고	-8793
▁모건	-8794
▁모임	-8795
▁무렵	-8796
▁무슨	-8797
▁미드	-8798
▁바꿀	-8799
▁방출	-8800
▁불교	-8801
▁비가	-8802
▁세운	-8803
▁소장	-8804
▁솔직	-8805
▁아나	-8806
▁안드	-8807
▁양쪽	-8808
▁완성	-8809
▁요한	-8810
▁워너	-8811
▁원인	-8812
▁위생	-8813
▁유적	-8814
▁자바	-8815
▁재고	-8816
▁재무	-8817
▁전격	-8818
▁좀더	-8819
▁찾지	-8820
▁치솟	-8821
▁파월	-8822
▁포장	-8823
▁포트	-8824
▁행렬	-8825
▁향한	-8826
고에서	-8827
단체인	-8828
달러로	-8829
럼비아	-8830
렀다고	-8831
병으로	-8832
북한이	-8833
어졌다	-8834
일하게	-8835
2000	-8836
8000	-8837
▁IBM	-8838
▁IMF	-8839
▁exp	-8840
▁것인가	-8841
▁공정한	-8842
▁규모를	-8843
▁나라를	-8844
▁납치한	-8845
▁다르다	-8846
▁대선에	-8847
▁돌아와	-8848
▁디스커	-8849
▁런던의	-8850
▁맡았다	-8851
▁목적을	-8852
▁바티칸	-8853
▁법원의	-8854
▁변화에	-8855
▁병력이	-8856
▁부족한	-8857
▁상파울	-8858
▁서신을	-8859
▁성과를	-8860
▁수반은	-8861
▁시신은	-8862
▁신원이	-8863
▁실험을	-8864
▁심하게	-8865
▁알렉스	-8866
▁얼굴을	-8867
▁여지가	-8868
▁역사를	-8869
▁연구가	-8870
▁영국에	-8871
▁오렌지	-8872
▁왕자의	-8873
▁이처럼	-8874
▁일간지	-8875
▁자녀를	-8876
▁전략을	-8877
▁정치인	-8878
▁진전이	-8879
▁치러질	-8880
▁캠페인	-8881
▁테니스	-8882
▁텔레비	-8883
▁투표가	-8884
▁파이프	-8885
▁파파라	-8886
▁해수면	-8887
▁화려한	-8888
▁활동이	-8889
에미리트	-8890
위원장은	-8891
istan	-8892
▁Cent	-8893
▁cons	-8894
▁prot	-8895
▁가능하다	-8896
▁거부권을	-8897
▁결정적인	-8898
▁공개하지	-8899
▁관계자의	-8900
▁국가들의	-8901
▁기대한다	-8902
▁내려졌다	-8903
▁내렸다고	-8904
▁당부했다	-8905
▁되었다고	-8906
▁메릴랜드	-8907
▁목소리를	-8908
▁민주당은	-8909
▁벌어졌다	-8910
▁베네딕토	-8911
▁분리주의	-8912
▁분위기를	-8913
▁살모넬라	-8914
▁생각하지	-8915
▁시위대를	-8916
▁아름다운	-8917
▁아버지인	-8918
▁영화에서	-8919
▁위스콘신	-8920
▁일으켰다	-8921
▁주민들을	-8922
▁주민들의	-8923
▁직원들은	-8924
▁차지하는	-8925
▁출연했다	-8926
▁홈페이지	-8927
▁다우지수는	-8928
▁무장세력의	-8929
▁미국인들은	-8930
▁서브프라임	-8931
▁시위자들은	-8932
▁용의자들을	-8933
▁적극적으로	-8934
▁하이브리드	-8935
▁국제우주정거	-8936
▁아마디네자드	-8937
95	-8938
AR	-8939
ph	-8940
▁Z	-8941
▁굳	-8942
▁꽃	-8943
▁덜	-8944
▁봐	-8945
▁컵	-8946
▁펭	-8947
가격	-8948
것도	-8949
도와	-8950
려야	-8951
받는	-8952
방이	-8953
범한	-8954
본부	-8955
색을	-8956
수감	-8957
연을	-8958
용의	-8959
유엔	-8960
자르	-8961
지노	-8962
지다	-8963
지수	-8964
차량	-8965
토는	-8966
파인	-8967
피를	-8968
히는	-8969
emp	-8970
ern	-8971
▁71	-8972
▁De	-8973
▁by	-8974
▁각국	-8975
▁것일	-8976
▁곳이	-8977
▁공대	-8978
▁국세	-8979
▁군과	-8980
▁꺾고	-8981
▁끔찍	-8982
▁남쪽	-8983
▁내다	-8984
▁도난	-8985
▁막아	-8986
▁모리	-8987
▁모집	-8988
▁무자	-8989
▁묻는	-8990
▁박사	-8991
▁박스	-8992
▁보스	-8993
▁봤다	-8994
▁부러	-8995
▁비아	-8996
▁산맥	-8997
▁상의	-8998
▁성격	-8999
▁수족	-9000
▁수컷	-9001
▁숙박	-9002
▁시점	-9003
▁앨런	-9004
▁약혼	-9005
▁언덕	-9006
▁엔터	-9007
▁역임	-9008
▁유산	-9009
▁유행	-9010
▁음료	-9011
▁장교	-9012
▁저렴	-9013
▁전범	-9014
▁정유	-9015
▁주거	-9016
▁줄리	-9017
▁체류	-9018
▁총통	-9019
▁포셋	-9020
▁표결	-9021
▁해체	-9022
▁협약	-9023
경기에	-9024
까지도	-9025
내에서	-9026
문제를	-9027
사항을	-9028
으려고	-9029
졌으나	-9030
통신이	-9031
하려던	-9032
ount	-9033
▁AIG	-9034
▁감정을	-9035
▁건물을	-9036
▁긴장이	-9037
▁남성을	-9038
▁내용에	-9039
▁누구도	-9040
▁다니는	-9041
▁달러로	-9042
▁돌아갈	-9043
▁레이건	-9044
▁메이저	-9045
▁못한다	-9046
▁범죄를	-9047
▁생각해	-9048
▁생존자	-9049
▁세력을	-9050
▁소년이	-9051
▁아스날	-9052
▁앞섰다	-9053
▁업무를	-9054
▁에르도	-9055
▁연락을	-9056
▁왔다고	-9057
▁원자력	-9058
▁위협에	-9059
▁윈도우	-9060
▁유대인	-9061
▁유력한	-9062
▁이란을	-9063
▁이유가	-9064
▁일자리	-9065
▁장관과	-9066
▁재무부	-9067
▁적합한	-9068
▁전에는	-9069
▁제시한	-9070
▁존스턴	-9071
▁주식을	-9072
▁중단을	-9073
▁진행될	-9074
▁총기를	-9075
▁최우선	-9076
▁취하고	-9077
▁크기의	-9078
▁클레이	-9079
▁피하기	-9080
▁해안에	-9081
▁현상이	-9082
▁형태의	-9083
▁호텔에	-9084
달러까지	-9085
대통령은	-9086
렸습니다	-9087
차전에서	-9088
▁1950	-9089
▁1986	-9090
▁elec	-9091
▁관련하여	-9092
▁당선인이	-9093
▁못했지만	-9094
▁미얀마의	-9095
▁반대하고	-9096
▁받아왔다	-9097
▁사이트를	-9098
▁선고했다	-9099
▁선수들이	-9100
▁세속주의	-9101
▁승인했다	-9102
▁시나리오	-9103
▁시티그룹	-9104
▁않습니다	-9105
▁위원회의	-9106
▁윌리엄스	-9107
▁의심되는	-9108
▁자원봉사	-9109
▁재판에서	-9110
▁전해졌다	-9111
▁정부에서	-9112
▁창기라이	-9113
▁프로젝트	-9114
▁확인되지	-9115
▁troop	-9116
▁동영상에서	-9117
▁연구원들은	-9118
▁유죄판결을	-9119
▁정기적으로	-9120
▁프랑스에서	-9121
▁학생들에게	-9122
▁자살폭탄테러가	-9123
27	-9124
gh	-9125
▁굉	-9126
▁깔	-9127
▁춤	-9128
▁콰	-9129
▁펄	-9130
개에	-9131
기부	-9132
놓고	-9133
니를	-9134
대책	-9135
독한	-9136
런스	-9137
렌은	-9138
력과	-9139
로에	-9140
마라	-9141
만년	-9142
말라	-9143
보의	-9144
빌리	-9145
세르	-9146
아의	-9147
여성	-9148
여행	-9149
올로	-9150
자원	-9151
조약	-9152
조한	-9153
청이	-9154
커스	-9155
해주	-9156
허가	-9157
eet	-9158
ish	-9159
ond	-9160
ook	-9161
ute	-9162
▁Ar	-9163
▁가끔	-9164
▁간호	-9165
▁강간	-9166
▁결합	-9167
▁고의	-9168
▁기아	-9169
▁기획	-9170
▁끊임	-9171
▁내리	-9172
▁내전	-9173
▁마찰	-9174
▁만화	-9175
▁물가	-9176
▁물어	-9177
▁믿을	-9178
▁박격	-9179
▁부결	-9180
▁부속	-9181
▁북측	-9182
▁불만	-9183
▁소니	-9184
▁스노	-9185
▁스페	-9186
▁신사	-9187
▁실적	-9188
▁싶지	-9189
▁약탈	-9190
▁양성	-9191
▁없애	-9192
▁여당	-9193
▁연극	-9194
▁연말	-9195
▁연출	-9196
▁우편	-9197
▁유수	-9198
▁유통	-9199
▁이득	-9200
▁이정	-9201
▁일고	-9202
▁잠수	-9203
▁즐기	-9204
▁측이	-9205
▁치매	-9206
▁터뜨	-9207
▁포획	-9208
▁플라	-9209
▁헬리	-9210
▁회동	-9211
권성근	-9212
까지는	-9213
들보다	-9214
랜드는	-9215
어지는	-9216
으므로	-9217
irst	-9218
▁FDA	-9219
▁has	-9220
▁가져올	-9221
▁간단한	-9222
▁개발한	-9223
▁경고를	-9224
▁구호물	-9225
▁기능을	-9226
▁긴장을	-9227
▁남부의	-9228
▁돌아올	-9229
▁맨해튼	-9230
▁반군은	-9231
▁부분이	-9232
▁분쟁을	-9233
▁서울시	-9234
▁선수로	-9235
▁수감된	-9236
▁수치는	-9237
▁스타벅	-9238
▁안보를	-9239
▁없다며	-9240
▁여러번	-9241
▁열심히	-9242
▁예정이	-9243
▁올라가	-9244
▁위치해	-9245
▁유럽과	-9246
▁음주운	-9247
▁일제히	-9248
▁자격이	-9249
▁자세히	-9250
▁조직을	-9251
▁조치로	-9252
▁주요한	-9253
▁줄이기	-9254
▁참가한	-9255
▁출신인	-9256
▁출전할	-9257
▁켄터키	-9258
▁클라크	-9259
▁토크쇼	-9260
▁특사는	-9261
▁퍼거슨	-9262
▁편지를	-9263
▁피랍된	-9264
▁하도록	-9265
▁학생이	-9266
▁환자가	-9267
시장에서	-9268
▁결혼식을	-9269
▁계속하고	-9270
▁국가정보	-9271
▁권고했다	-9272
▁노르웨이	-9273
▁누군가가	-9274
▁대표하는	-9275
▁보좌관은	-9276
▁뿐이라고	-9277
▁사과했다	-9278
▁수십명이	-9279
▁아시아의	-9280
▁연구결과	-9281
▁자동차업	-9282
▁주한미군	-9283
▁최고경영	-9284
▁출신으로	-9285
▁출전하지	-9286
▁테이프를	-9287
▁파리에서	-9288
▁평화적인	-9289
▁포함됐다	-9290
▁항의하는	-9291
▁헤럴드는	-9292
▁2-0(6	-9293
▁Seoul	-9294
▁교도소에서	-9295
▁알카에다가	-9296
▁오클라호마	-9297
▁유나이티드	-9298
▁지속적으로	-9299
▁Minister	-9300
-4	-9301
CI	-9302
ci	-9303
mm	-9304
sh	-9305
wo	-9306
▁융	-9307
▁쟁	-9308
▁쳐	-9309
▁츠	-9310
▁큐	-9311
관광	-9312
나게	-9313
뉴욕	-9314
당시	-9315
력의	-9316
름이	-9317
만간	-9318
모를	-9319
백을	-9320
법이	-9321
서치	-9322
석은	-9323
스마	-9324
시즌	-9325
업자	-9326
인터	-9327
자스	-9328
적의	-9329
전략	-9330
제이	-9331
주와	-9332
층에	-9333
타다	-9334
타운	-9335
티의	-9336
프롬	-9337
학을	-9338
호에	-9339
FBI	-9340
ime	-9341
ron	-9342
▁86	-9343
▁su	-9344
▁각종	-9345
▁갤런	-9346
▁거친	-9347
▁고어	-9348
▁내일	-9349
▁다소	-9350
▁대우	-9351
▁던져	-9352
▁던진	-9353
▁델타	-9354
▁만료	-9355
▁매입	-9356
▁먹는	-9357
▁미셸	-9358
▁발급	-9359
▁발령	-9360
▁발매	-9361
▁부처	-9362
▁사인	-9363
▁삭감	-9364
▁상위	-9365
▁상처	-9366
▁소아	-9367
▁손해	-9368
▁송금	-9369
▁수락	-9370
▁쓰는	-9371
▁아빠	-9372
▁에너	-9373
▁영구	-9374
▁오를	-9375
▁외계	-9376
▁유괴	-9377
▁유람	-9378
▁인형	-9379
▁전년	-9380
▁절약	-9381
▁점유	-9382
▁접수	-9383
▁제정	-9384
▁진상	-9385
▁찍은	-9386
▁카스	-9387
▁통근	-9388
▁투명	-9389
▁피신	-9390
▁한달	-9391
▁항생	-9392
▁해상	-9393
▁해소	-9394
▁화면	-9395
▁회수	-9396
구에서	-9397
단체의	-9398
시키지	-9399
일에서	-9400
중이다	-9401
프랑스	-9402
▁거부한	-9403
▁교전을	-9404
▁기분이	-9405
▁기지를	-9406
▁남자의	-9407
▁넣었다	-9408
▁대비해	-9409
▁대테러	-9410
▁머레이	-9411
▁모여들	-9412
▁무장한	-9413
▁미래를	-9414
▁박근혜	-9415
▁보다는	-9416
▁보유한	-9417
▁분노를	-9418
▁분량의	-9419
▁사고의	-9420
▁사용을	-9421
▁사이버	-9422
▁사회에	-9423
▁상대방	-9424
▁선거가	-9425
▁세웠다	-9426
▁소리를	-9427
▁소유한	-9428
▁슈퍼볼	-9429
▁실패한	-9430
▁아이들	-9431
▁안전에	-9432
▁언급한	-9433
▁열었다	-9434
▁외무성	-9435
▁우울증	-9436
▁위치를	-9437
▁의문을	-9438
▁의원을	-9439
▁의장이	-9440
▁이곳을	-9441
▁인상을	-9442
▁있기를	-9443
▁자국의	-9444
▁작품을	-9445
▁전쟁이	-9446
▁전투를	-9447
▁접촉을	-9448
▁제품을	-9449
▁조직의	-9450
▁죽음에	-9451
▁즐기는	-9452
▁집회에	-9453
▁평가를	-9454
▁한다면	-9455
▁행동이	-9456
▁협력을	-9457
▁회사에	-9458
경기에서	-9459
위원회에	-9460
▁Bush	-9461
▁개발도상	-9462
▁거리에서	-9463
▁남쪽으로	-9464
▁동성애자	-9465
▁방송에서	-9466
▁병사들이	-9467
▁불법으로	-9468
▁브레이크	-9469
▁샤리프는	-9470
▁수요일에	-9471
▁수천명이	-9472
▁시인했다	-9473
▁에드워드	-9474
▁예상되고	-9475
▁예측했다	-9476
▁용의자를	-9477
▁전달했다	-9478
▁정부군이	-9479
▁줄기세포	-9480
▁증가하는	-9481
▁최고치를	-9482
▁출구조사	-9483
▁클린턴과	-9484
▁하마스의	-9485
▁확신한다	-9486
▁활동하고	-9487
retary	-9488
▁노대통령은	-9489
▁러닝메이트	-9490
▁소비자들이	-9491
▁수사관들은	-9492
▁유권자들은	-9493
▁이스라엘을	-9494
▁폭력사태로	-9495
▁프로그램이	-9496
▁지지자들에게	-9497
14	-9498
MS	-9499
ON	-9500
ik	-9501
▁y	-9502
▁깁	-9503
▁짝	-9504
가디	-9505
괜찮	-9506
길을	-9507
까요	-9508
내려	-9509
널티	-9510
년전	-9511
니고	-9512
니언	-9513
되던	-9514
만여	-9515
무드	-9516
미한	-9517
본을	-9518
분야	-9519
브레	-9520
색의	-9521
심한	-9522
애틀	-9523
어트	-9524
우석	-9525
있을	-9526
제품	-9527
조건	-9528
착륙	-9529
층이	-9530
크를	-9531
클리	-9532
orm	-9533
ory	-9534
▁3%	-9535
▁Le	-9536
▁가깝	-9537
▁고수	-9538
▁기분	-9539
▁나섰	-9540
▁노던	-9541
▁당일	-9542
▁덴버	-9543
▁도덕	-9544
▁동굴	-9545
▁드는	-9546
▁들이	-9547
▁딜러	-9548
▁라우	-9549
▁라울	-9550
▁럼스	-9551
▁모의	-9552
▁반미	-9553
▁반전	-9554
▁벌이	-9555
▁벌일	-9556
▁베탕	-9557
▁보증	-9558
▁복원	-9559
▁복합	-9560
▁불황	-9561
▁생겨	-9562
▁소총	-9563
▁씨의	-9564
▁예언	-9565
▁왜곡	-9566
▁워렌	-9567
▁위축	-9568
▁장벽	-9569
▁정밀	-9570
▁종사	-9571
▁줄을	-9572
▁지점	-9573
▁진실	-9574
▁진전	-9575
▁차가	-9576
▁처형	-9577
▁첫날	-9578
▁체계	-9579
▁추천	-9580
▁취급	-9581
▁치른	-9582
▁코너	-9583
▁티벳	-9584
▁파크	-9585
▁피추	-9586
▁피트	-9587
▁하드	-9588
▁호전	-9589
갔으며	-9590
거리는	-9591
그것은	-9592
그들이	-9593
달라는	-9594
만개의	-9595
센터는	-9596
스러워	-9597
시킨다	-9598
아티아	-9599
인에게	-9600
제네거	-9601
지역인	-9602
플루엔	-9603
화되고	-9604
▁70%	-9605
▁war	-9606
▁감독을	-9607
▁경계를	-9608
▁급격히	-9609
▁기술이	-9610
▁뉴욕에	-9611
▁느끼는	-9612
▁늘어날	-9613
▁단순히	-9614
▁대선주	-9615
▁대회에	-9616
▁데일리	-9617
▁된다면	-9618
▁들어와	-9619
▁디트로	-9620
▁명백한	-9621
▁무죄를	-9622
▁방향을	-9623
▁베이루	-9624
▁보여준	-9625
▁본부를	-9626
▁부인인	-9627
▁분야에	-9628
▁브리트	-9629
▁브리티	-9630
▁비공식	-9631
▁새롭게	-9632
▁선박이	-9633
▁선택할	-9634
▁수사가	-9635
▁시작될	-9636
▁실시될	-9637
▁아니며	-9638
▁억만장	-9639
▁영상을	-9640
▁외쳤다	-9641
▁유엔이	-9642
▁은신처	-9643
▁의미가	-9644
▁인도분	-9645
▁재판에	-9646
▁재판이	-9647
▁최고위	-9648
▁크루즈	-9649
▁토대로	-9650
▁파업에	-9651
▁판결에	-9652
▁행위는	-9653
▁행진을	-9654
▁헬리콥	-9655
대회에서	-9656
명이라고	-9657
학자들이	-9658
▁거래됐다	-9659
▁검토하고	-9660
▁공격했다	-9661
▁그들에게	-9662
▁대표단은	-9663
▁레이스를	-9664
▁목요일에	-9665
▁발견되지	-9666
▁법적으로	-9667
▁부상자가	-9668
▁북한과의	-9669
▁분석했다	-9670
▁사용되는	-9671
▁샤라포바	-9672
▁선수들은	-9673
▁스페인의	-9674
▁아라비아	-9675
▁요르단강	-9676
▁움직임이	-9677
▁워싱턴의	-9678
▁이들에게	-9679
▁자동차를	-9680
▁전합니다	-9681
▁정부군과	-9682
▁징역형을	-9683
▁호주오픈	-9684
팔레스타인	-9685
▁디스커버리	-9686
▁디트로이트	-9687
▁재무장관은	-9688
▁지도자들을	-9689
▁프로그램의	-9690
▁라스베이거스	-9691
▁아랍에미리트	-9692
▁연방준비제도	-9693
▁인도네시아의	-9694
16	-9695
NC	-9696
oy	-9697
~3	-9698
▁댈	-9699
▁램	-9700
▁킨	-9701
▁킬	-9702
▁흩	-9703
건강	-9704
건설	-9705
과정	-9706
관과	-9707
데버	-9708
돌이	-9709
두가	-9710
두를	-9711
드러	-9712
례를	-9713
로로	-9714
물인	-9715
받침	-9716
병은	-9717
복지	-9718
분경	-9719
워터	-9720
장애	-9721
주택	-9722
처리	-9723
천억	-9724
크로	-9725
퍼드	-9726
평가	-9727
프에	-9728
해도	-9729
해에	-9730
ade	-9731
amp	-9732
ber	-9733
ele	-9734
ict	-9735
▁74	-9736
▁82	-9737
▁CD	-9738
▁“2	-9739
▁가동	-9740
▁게리	-9741
▁결심	-9742
▁교과	-9743
▁규칙	-9744
▁깊이	-9745
▁나빠	-9746
▁남서	-9747
▁내의	-9748
▁놀랄	-9749
▁느껴	-9750
▁다비	-9751
▁대폭	-9752
▁도울	-9753
▁독도	-9754
▁매도	-9755
▁무산	-9756
▁무효	-9757
▁반등	-9758
▁발렌	-9759
▁배포	-9760
▁버냉	-9761
▁브랜	-9762
▁산하	-9763
▁수년	-9764
▁스콧	-9765
▁시골	-9766
▁실수	-9767
▁아라	-9768
▁아민	-9769
▁양자	-9770
▁양측	-9771
▁얻지	-9772
▁유조	-9773
▁이외	-9774
▁입어	-9775
▁자사	-9776
▁작곡	-9777
▁중반	-9778
▁집필	-9779
▁참전	-9780
▁첩보	-9781
▁취해	-9782
▁친선	-9783
▁침묵	-9784
▁케르	-9785
▁크리	-9786
▁피부	-9787
▁피할	-9788
▁필수	-9789
▁해방	-9790
▁했을	-9791
▁협정	-9792
공격을	-9793
국들이	-9794
냈으며	-9795
대학교	-9796
만명에	-9797
웨스트	-9798
작으로	-9799
정적인	-9800
클린턴	-9801
토니아	-9802
할만한	-9803
uman	-9804
▁180	-9805
▁90%	-9806
▁CDC	-9807
▁강화할	-9808
▁개발에	-9809
▁겨냥한	-9810
▁공화국	-9811
▁과정에	-9812
▁교전이	-9813
▁국민을	-9814
▁국회에	-9815
▁남성과	-9816
▁노력할	-9817
▁다수의	-9818
▁담배를	-9819
▁도시를	-9820
▁리조트	-9821
▁마이스	-9822
▁못했던	-9823
▁물건을	-9824
▁바하마	-9825
▁반체제	-9826
▁밝히며	-9827
▁방식을	-9828
▁보도한	-9829
▁부르는	-9830
▁브래드	-9831
▁사생활	-9832
▁사회의	-9833
▁산불이	-9834
▁서울에	-9835
▁세계를	-9836
▁스탈린	-9837
▁스파이	-9838
▁애틀란	-9839
▁약속한	-9840
▁연기가	-9841
▁우간다	-9842
▁유감을	-9843
▁유세를	-9844
▁이스트	-9845
▁임기를	-9846
▁입수한	-9847
▁자금이	-9848
▁전력을	-9849
▁정상화	-9850
▁취하지	-9851
▁친환경	-9852
▁캐릭터	-9853
▁태우고	-9854
▁파운드	-9855
▁포스트	-9856
▁하는데	-9857
▁항공은	-9858
▁협정을	-9859
▁휴스턴	-9860
시키는데	-9861
아메리칸	-9862
에서부터	-9863
왔습니다	-9864
▁거짓말을	-9865
▁국방부가	-9866
▁뉴욕타임	-9867
▁동의했다	-9868
▁둘러싸고	-9869
▁모두에게	-9870
▁문제들을	-9871
▁보였다고	-9872
▁부인하고	-9873
▁북한에서	-9874
▁사상자가	-9875
▁수백명이	-9876
▁스튜디오	-9877
▁아무것도	-9878
▁안토니오	-9879
▁여성들은	-9880
▁연구에서	-9881
▁이라크로	-9882
▁이어졌다	-9883
▁인명피해	-9884
▁인질들이	-9885
▁일으키는	-9886
▁전쟁으로	-9887
▁제외하고	-9888
▁증언했다	-9889
▁총리에게	-9890
▁코소보의	-9891
▁테러와의	-9892
▁표시했다	-9893
▁확인하고	-9894
▁확인하기	-9895
▁가족들에게	-9896
▁받아들이지	-9897
▁상원의원에	-9898
▁우주왕복선	-9899
▁이탈리아의	-9900
▁파키스탄에	-9901
▁프로그램은	-9902
▁200809	-9903
18	-9904
AC	-9905
ER	-9906
PS	-9907
St	-9908
US	-9909
ox	-9910
▁닭	-9911
▁슛	-9912
▁쪽	-9913
▁촛	-9914
▁험	-9915
결혼	-9916
고가	-9917
곳의	-9918
권은	-9919
덩어	-9920
들인	-9921
디가	-9922
라리	-9923
리야	-9924
림을	-9925
무기	-9926
법의	-9927
보로	-9928
보장	-9929
보좌	-9930
서의	-9931
석의	-9932
션을	-9933
예를	-9934
인권	-9935
임에	-9936
조정	-9937
치인	-9938
카르	-9939
클린	-9940
타가	-9941
che	-9942
ral	-9943
row	-9944
ung	-9945
▁8%	-9946
▁im	-9947
▁가구	-9948
▁가한	-9949
▁고장	-9950
▁공사	-9951
▁광장	-9952
▁괜찮	-9953
▁군함	-9954
▁그라	-9955
▁급진	-9956
▁기뻐	-9957
▁나눠	-9958
▁날이	-9959
▁도심	-9960
▁도핑	-9961
▁독감	-9962
▁돈이	-9963
▁돌을	-9964
▁리오	-9965
▁매몰	-9966
▁모으	-9967
▁물건	-9968
▁물품	-9969
▁믿는	-9970
▁방화	-9971
▁배가	-9972
▁버크	-9973
▁번호	-9974
▁부실	-9975
▁사면	-9976
▁생태	-9977
▁세웠	-9978
▁손실	-9979
▁쉬운	-9980
▁슬로	-9981
▁시일	-9982
▁암호	-9983
▁앞선	-9984
▁엔지	-9985
▁연안	-9986
▁영광	-9987
▁영장	-9988
▁예배	-9989
▁예약	-9990
▁요즘	-9991
▁울프	-9992
▁음란	-9993
▁전임	-9994
▁전파	-9995
▁절도	-9996
▁제니	-9997
▁제일	-9998
▁제프	-9999
▁조짐	-10000
▁주류	-10001
▁중도	-10002
▁집회	-10003
▁카디	-10004
▁카자	-10005
▁토마	-10006
▁퇴역	-10007
▁트라	-10008
▁호날	-10009
▁화가	-10010
▁화염	-10011
▁히트	-10012
객들이	-10013
관계가	-10014
만명을	-10015
말리키	-10016
메이션	-10017
사건에	-10018
시키려	-10019
었는데	-10020
었는지	-10021
자였던	-10022
작업이	-10023
주일에	-10024
협정을	-10025
3000	-10026
enti	-10027
ings	-10028
port	-10029
rest	-10030
▁1-0	-10031
▁170	-10032
▁Ass	-10033
▁pol	-10034
▁강타한	-10035
▁개선을	-10036
▁거리로	-10037
▁기자의	-10038
▁기준금	-10039
▁끝까지	-10040
▁내리고	-10041
▁내셔널	-10042
▁노동당	-10043
▁노력의	-10044
▁뉴욕시	-10045
▁다리가	-10046
▁단체를	-10047
▁답변을	-10048
▁돌아온	-10049
▁뒷받침	-10050
▁들어온	-10051
▁라모스	-10052
▁마케팅	-10053
▁명확히	-10054
▁무소속	-10055
▁미군에	-10056
▁미시건	-10057
▁바닥에	-10058
▁박사가	-10059
▁부모가	-10060
▁부분은	-10061
▁부토는	-10062
▁분쟁이	-10063
▁비난한	-10064
▁사라진	-10065
▁사례가	-10066
▁석방된	-10067
▁선거는	-10068
▁센터의	-10069
▁속도를	-10070
▁손상을	-10071
▁스프링	-10072
▁시위로	-10073
▁신뢰를	-10074
▁신호를	-10075
▁쌍둥이	-10076
▁안보리	-10077
▁않겠다	-10078
▁압바스	-10079
▁야당의	-10080
▁여사가	-10081
▁연료를	-10082
▁요구에	-10083
▁우리당	-10084
▁운동가	-10085
▁원숭이	-10086
▁유전자	-10087
▁유지할	-10088
▁인기가	-10089
▁임기가	-10090
▁재개할	-10091
▁전체에	-10092
▁주장이	-10093
▁줄이는	-10094
▁중심에	-10095
▁철저히	-10096
▁총리로	-10097
▁추락한	-10098
▁형태로	-10099
▁확보할	-10100
▁회의가	-10101
억달러의	-10102
하였으며	-10103
▁경쟁자인	-10104
▁그곳에서	-10105
▁당선자는	-10106
▁대사관은	-10107
▁데이비스	-10108
▁들어가는	-10109
▁라이벌인	-10110
▁밝혀냈다	-10111
▁밝혔었다	-10112
▁밝혔으나	-10113
▁벌였다고	-10114
▁사망자를	-10115
▁생산하는	-10116
▁에르도간	-10117
▁영국으로	-10118
▁예정되어	-10119
▁이라크내	-10120
▁이슬람교	-10121
▁인정하지	-10122
▁인질들의	-10123
▁일어나고	-10124
▁일어나지	-10125
▁장소에서	-10126
▁취소했다	-10127
▁테러단체	-10128
▁호주에서	-10129
▁회견에서	-10130
▁휴대전화	-10131
▁힐러리가	-10132
▁가자지구를	-10133
▁되었습니다	-10134
▁때문입니다	-10135
▁상원의원인	-10136
▁오하이오주	-10137
▁지지선언을	-10138
▁플로리다주	-10139
▁하락했습니다	-10140
▁military	-10141
MA	-10142
NP	-10143
fe	-10144
ho	-10145
▁뮌	-10146
▁팜	-10147
게도	-10148
듯이	-10149
론을	-10150
롭고	-10151
메르	-10152
바흐	-10153
박한	-10154
밴드	-10155
번에	-10156
비한	-10157
선과	-10158
소득	-10159
스텔	-10160
습을	-10161
신문	-10162
아르	-10163
인데	-10164
자지	-10165
절을	-10166
종이	-10167
주기	-10168
주전	-10169
채가	-10170
청의	-10171
총장	-10172
켓을	-10173
크가	-10174
하러	-10175
ING	-10176
PGA	-10177
ise	-10178
▁Ad	-10179
▁An	-10180
▁qu	-10181
▁가죽	-10182
▁감기	-10183
▁개설	-10184
▁개표	-10185
▁거둔	-10186
▁권리	-10187
▁기증	-10188
▁남녀	-10189
▁내로	-10190
▁내세	-10191
▁대니	-10192
▁대략	-10193
▁딸의	-10194
▁리우	-10195
▁말로	-10196
▁머무	-10197
▁명에	-10198
▁모험	-10199
▁몸값	-10200
▁바쿠	-10201
▁반환	-10202
▁발레	-10203
▁삶의	-10204
▁상담	-10205
▁세트	-10206
▁숨어	-10207
▁슈워	-10208
▁승점	-10209
▁신원	-10210
▁아칸	-10211
▁안나	-10212
▁얼룩	-10213
▁역설	-10214
▁오프	-10215
▁운반	-10216
▁워터	-10217
▁유용	-10218
▁저택	-10219
▁적응	-10220
▁전부	-10221
▁제네	-10222
▁제도	-10223
▁조항	-10224
▁종파	-10225
▁지낸	-10226
▁칼라	-10227
▁칼리	-10228
▁편안	-10229
▁품목	-10230
▁플레	-10231
▁하산	-10232
▁하트	-10233
▁현상	-10234
▁혈액	-10235
▁확장	-10236
▁흘러	-10237
가디슈	-10238
돼있다	-10239
민주당	-10240
바에서	-10241
상태를	-10242
세력을	-10243
스타인	-10244
시간이	-10245
시했다	-10246
하자는	-10247
▁가량의	-10248
▁개표가	-10249
▁공급이	-10250
▁근처에	-10251
▁글래스	-10252
▁기대를	-10253
▁기반을	-10254
▁끝나는	-10255
▁나와즈	-10256
▁남한의	-10257
▁노력에	-10258
▁달라고	-10259
▁동물을	-10260
▁때마다	-10261
▁떨어질	-10262
▁라호르	-10263
▁머리에	-10264
▁모두를	-10265
▁목적이	-10266
▁무장대	-10267
▁문서를	-10268
▁미끄러	-10269
▁미주리	-10270
▁바람이	-10271
▁베탕쿠	-10272
▁보상을	-10273
▁복귀할	-10274
▁북극곰	-10275
▁분위기	-10276
▁붕괴된	-10277
▁선출된	-10278
▁성직자	-10279
▁수업을	-10280
▁시애틀	-10281
▁쓰레기	-10282
▁아이는	-10283
▁않아도	-10284
▁야당은	-10285
▁야당이	-10286
▁여왕의	-10287
▁올리고	-10288
▁외교관	-10289
▁요청할	-10290
▁이래로	-10291
▁이름의	-10292
▁인근서	-10293
▁일으켜	-10294
▁자격을	-10295
▁자살을	-10296
▁자살한	-10297
▁자신에	-10298
▁작성한	-10299
▁장기간	-10300
▁제작된	-10301
▁조건을	-10302
▁존스는	-10303
▁종교적	-10304
▁주장은	-10305
▁지방의	-10306
▁차지한	-10307
▁취했다	-10308
▁코스피	-10309
▁테러의	-10310
▁통해서	-10311
▁판매를	-10312
▁패리스	-10313
▁페이지	-10314
▁하나가	-10315
▁행사가	-10316
▁행사할	-10317
▁확인된	-10318
▁환경에	-10319
되었지만	-10320
만달러를	-10321
사람들이	-10322
▁1988	-10323
▁Show	-10324
▁가즈프롬	-10325
▁강화하고	-10326
▁경제성장	-10327
▁골든글로	-10328
▁근본주의	-10329
▁기록하며	-10330
▁명단에서	-10331
▁무승부를	-10332
▁반박했다	-10333
▁본선에서	-10334
▁부통령이	-10335
▁북부에서	-10336
▁분야에서	-10337
▁스미스의	-10338
▁시민들은	-10339
▁실질적인	-10340
▁야생동물	-10341
▁엘리베이	-10342
▁연방수사	-10343
▁온실가스	-10344
▁입었으며	-10345
▁저항세력	-10346
▁전쟁에서	-10347
▁제공하고	-10348
▁지도부는	-10349
▁책임자인	-10350
▁클린턴을	-10351
▁테러지원	-10352
▁필요성을	-10353
▁해결책을	-10354
▁행사에서	-10355
▁확신했다	-10356
▁회사들이	-10357
트레이어스	-10358
ration	-10359
▁관광객들이	-10360
▁국무장관이	-10361
▁애니메이션	-10362
▁정치적으로	-10363
▁주장했지만	-10364
▁against	-10365
',	-10366
84	-10367
FO	-10368
ok	-10369
▁́	-10370
▁닐	-10371
▁엉	-10372
▁챙	-10373
▁했	-10374
▁헝	-10375
가장	-10376
감시	-10377
감은	-10378
견을	-10379
냄새	-10380
누엘	-10381
동생	-10382
동성	-10383
란색	-10384
로우	-10385
론의	-10386
르며	-10387
리한	-10388
만일	-10389
미널	-10390
부족	-10391
브가	-10392
브리	-10393
성한	-10394
섹스	-10395
소시	-10396
쉬는	-10397
악한	-10398
야만	-10399
열에	-10400
의원	-10401
이들	-10402
이면	-10403
적은	-10404
조에	-10405
조치	-10406
증권	-10407
집행	-10408
층을	-10409
치기	-10410
타와	-10411
행정	-10412
화될	-10413
.13	-10414
=27	-10415
aid	-10416
eek	-10417
irl	-10418
ock	-10419
urn	-10420
vel	-10421
▁81	-10422
▁Be	-10423
▁Cl	-10424
▁겨우	-10425
▁격돌	-10426
▁고민	-10427
▁구간	-10428
▁구경	-10429
▁끌고	-10430
▁내는	-10431
▁뇌물	-10432
▁뒤집	-10433
▁듣지	-10434
▁따를	-10435
▁라시	-10436
▁레빈	-10437
▁로맨	-10438
▁로버	-10439
▁마침	-10440
▁매주	-10441
▁맥주	-10442
▁메리	-10443
▁면제	-10444
▁명칭	-10445
▁무대	-10446
▁미셀	-10447
▁바꿔	-10448
▁발달	-10449
▁발효	-10450
▁배급	-10451
▁배상	-10452
▁본다	-10453
▁분실	-10454
▁불평	-10455
▁상어	-10456
▁성사	-10457
▁세우	-10458
▁소화	-10459
▁수수	-10460
▁슬픔	-10461
▁실은	-10462
▁싸움	-10463
▁안락	-10464
▁야구	-10465
▁역대	-10466
▁역전	-10467
▁오고	-10468
▁오케	-10469
▁유입	-10470
▁유타	-10471
▁유해	-10472
▁은하	-10473
▁이룩	-10474
▁인내	-10475
▁입력	-10476
▁잡은	-10477
▁장비	-10478
▁전원	-10479
▁정식	-10480
▁제의	-10481
▁조속	-10482
▁존경	-10483
▁좋다	-10484
▁줄여	-10485
▁진흙	-10486
▁집무	-10487
▁착취	-10488
▁창설	-10489
▁청년	-10490
▁추종	-10491
▁충족	-10492
▁취득	-10493
▁침수	-10494
▁칭찬	-10495
▁칸다	-10496
▁코피	-10497
▁키드	-10498
▁털어	-10499
▁펀드	-10500
▁펭귄	-10501
▁포터	-10502
▁하얀	-10503
▁한층	-10504
▁핸드	-10505
▁행성	-10506
▁현행	-10507
▁흰색	-10508
대부분	-10509
대의원	-10510
대표는	-10511
되지만	-10512
면으로	-10513
미국의	-10514
버그는	-10515
베리아	-10516
역으로	-10517
연구소	-10518
이트를	-10519
총장은	-10520
테니스	-10521
해에서	-10522
해주는	-10523
회장은	-10524
able	-10525
ency	-10526
ople	-10527
ourt	-10528
▁15%	-10529
▁Res	-10530
▁sec	-10531
▁검찰의	-10532
▁경기장	-10533
▁경영진	-10534
▁공공장	-10535
▁공급을	-10536
▁국가들	-10537
▁그곳에	-10538
▁나눴다	-10539
▁나오고	-10540
▁나타났	-10541
▁높이의	-10542
▁뉴스의	-10543
▁대한민	-10544
▁덕분에	-10545
▁동유럽	-10546
▁들어오	-10547
▁머리카	-10548
▁메모리	-10549
▁목소리	-10550
▁무엇이	-10551
▁미국산	-10552
▁범인은	-10553
▁보안관	-10554
▁브로드	-10555
▁사람과	-10556
▁사원을	-10557
▁사태의	-10558
▁선거의	-10559
▁수류탄	-10560
▁신문에	-10561
▁실업수	-10562
▁싶다고	-10563
▁양측이	-10564
▁어려움	-10565
▁언제나	-10566
▁연구의	-10567
▁영감을	-10568
▁오늘밤	-10569
▁올리는	-10570
▁요청한	-10571
▁원하지	-10572
▁위기가	-10573
▁위안부	-10574
▁의미를	-10575
▁의석을	-10576
▁이어질	-10577
▁이해할	-10578
▁있거나	-10579
▁있었기	-10580
▁자이언	-10581
▁장거리	-10582
▁장비를	-10583
▁정보가	-10584
▁제출할	-10585
▁조치에	-10586
▁주가가	-10587
▁진전을	-10588
▁차량은	-10589
▁차이나	-10590
▁출연해	-10591
▁트라볼	-10592
▁티셔츠	-10593
▁폭발물	-10594
▁하버드	-10595
▁해왔다	-10596
▁헬기를	-10597
▁협력할	-10598
▁호랑이	-10599
▁혼란에	-10600
▁환경을	-10601
▁회견을	-10602
만달러의	-10603
버지니아	-10604
앤젤레스	-10605
지역으로	-10606
▁OPEC	-10607
▁같습니다	-10608
▁관점에서	-10609
▁교전으로	-10610
▁국회에서	-10611
▁국회의사	-10612
▁기자들이	-10613
▁남아있다	-10614
▁도로에서	-10615
▁드립니다	-10616
▁러시아와	-10617
▁목격자는	-10618
▁받았지만	-10619
▁방지하기	-10620
▁베어스턴	-10621
▁보호하고	-10622
▁보호하는	-10623
▁사라졌다	-10624
▁사무실을	-10625
▁상공에서	-10626
▁상승세를	-10627
▁스트레스	-10628
▁시달리고	-10629
▁여객기는	-10630
▁조사하기	-10631
▁주최측은	-10632
▁중단하고	-10633
▁지도자로	-10634
▁지속적인	-10635
▁지지율을	-10636
▁진출했다	-10637
▁참여하는	-10638
▁추산했다	-10639
▁추정했다	-10640
▁크리스마	-10641
▁폭풍으로	-10642
▁프랑스와	-10643
▁피츠버그	-10644
▁하마스는	-10645
▁헤즈볼라	-10646
econom	-10647
ission	-10648
▁2,000	-10649
▁가자지구에	-10650
▁감소했다고	-10651
▁미국에서는	-10652
▁사무총장이	-10653
▁에스토니아	-10654
▁지지한다고	-10655
▁항공우주국	-10656
▁troops	-10657
▁가자지구에서	-10658
▁2005.09	-10659
▁2008.11	-10660
ternational	-10661
0)	-10662
67	-10663
97	-10664
DS	-10665
ES	-10666
TI	-10667
WC	-10668
my	-10669
▁꼽	-10670
▁닌	-10671
▁뚜	-10672
경비	-10673
경이	-10674
금은	-10675
나귀	-10676
너럴	-10677
동영	-10678
란히	-10679
론은	-10680
마트	-10681
받지	-10682
범을	-10683
베리	-10684
병에	-10685
병의	-10686
부대	-10687
부인	-10688
분한	-10689
선한	-10690
수준	-10691
숙한	-10692
스프	-10693
운을	-10694
위와	-10695
있고	-10696
재를	-10697
지면	-10698
참모	-10699
츠의	-10700
캐슬	-10701
팀의	-10702
히고	-10703
ach	-10704
air	-10705
ner	-10706
org	-10707
ove	-10708
rol	-10709
urg	-10710
▁7%	-10711
▁en	-10712
▁가축	-10713
▁가할	-10714
▁거머	-10715
▁관절	-10716
▁균형	-10717
▁기습	-10718
▁내비	-10719
▁다녀	-10720
▁도주	-10721
▁독자	-10722
▁되풀	-10723
▁드물	-10724
▁득점	-10725
▁떠오	-10726
▁러드	-10727
▁레오	-10728
▁롬니	-10729
▁맞붙	-10730
▁매력	-10731
▁매머	-10732
▁면접	-10733
▁모터	-10734
▁무크	-10735
▁뮌헨	-10736
▁밝힐	-10737
▁밤새	-10738
▁버진	-10739
▁블룸	-10740
▁비유	-10741
▁사카	-10742
▁선진	-10743
▁설계	-10744
▁소실	-10745
▁솔로	-10746
▁숫자	-10747
▁승부	-10748
▁신의	-10749
▁싶은	-10750
▁안젤	-10751
▁앞당	-10752
▁여부	-10753
▁열려	-10754
▁영원	-10755
▁요새	-10756
▁우방	-10757
▁원치	-10758
▁위태	-10759
▁유시	-10760
▁이바	-10761
▁일로	-10762
▁자크	-10763
▁전송	-10764
▁점이	-10765
▁정오	-10766
▁주미	-10767
▁중계	-10768
▁중산	-10769
▁출국	-10770
▁콘텐	-10771
▁크고	-10772
▁크다	-10773
▁타계	-10774
▁타협	-10775
▁패한	-10776
▁포위	-10777
▁포츠	-10778
▁폭등	-10779
▁폴리	-10780
▁피의	-10781
▁할지	-10782
▁해를	-10783
▁호화	-10784
▁회부	-10785
▁힘이	-10786
년에도	-10787
디아나	-10788
방에서	-10789
블랜드	-10790
새로운	-10791
스쿠니	-10792
스페인	-10793
시까지	-10794
실리아	-10795
지기도	-10796
테리아	-10797
하기는	-10798
하다며	-10799
해서는	-10800
흐스탄	-10801
ited	-10802
rans	-10803
ther	-10804
▁1/4	-10805
▁3-0	-10806
▁900	-10807
▁AFP	-10808
▁BDA	-10809
▁USA	-10810
▁pre	-10811
▁것이기	-10812
▁경우가	-10813
▁계획의	-10814
▁계획한	-10815
▁관계는	-10816
▁국가주	-10817
▁군대가	-10818
▁기간을	-10819
▁나가는	-10820
▁다행히	-10821
▁단계에	-10822
▁단순한	-10823
▁대주교	-10824
▁도시로	-10825
▁동반한	-10826
▁되돌아	-10827
▁라이브	-10828
▁런던에	-10829
▁레이저	-10830
▁로켓포	-10831
▁로한은	-10832
▁말라고	-10833
▁맞았다	-10834
▁명단에	-10835
▁목적은	-10836
▁무너져	-10837
▁미래의	-10838
▁바다로	-10839
▁박격포	-10840
▁반군을	-10841
▁발사를	-10842
▁버냉키	-10843
▁버스를	-10844
▁병원을	-10845
▁보여줄	-10846
▁북부의	-10847
▁비판을	-10848
▁사항은	-10849
▁손해를	-10850
▁수치다	-10851
▁시간에	-10852
▁시설에	-10853
▁알제리	-10854
▁어두운	-10855
▁없었던	-10856
▁엘바라	-10857
▁여왕은	-10858
▁영향력	-10859
▁우리베	-10860
▁의지를	-10861
▁일정이	-10862
▁임무는	-10863
▁자세를	-10864
▁재확인	-10865
▁재활용	-10866
▁접전을	-10867
▁정책이	-10868
▁제조업	-10869
▁조만간	-10870
▁주인이	-10871
▁줄이고	-10872
▁지수가	-10873
▁차례의	-10874
▁참석해	-10875
▁찾았다	-10876
▁친구가	-10877
▁카라치	-10878
▁케이시	-10879
▁타임스	-10880
▁투표할	-10881
▁판결은	-10882
▁판단을	-10883
▁판매할	-10884
▁필요할	-10885
▁하나를	-10886
▁행사는	-10887
▁향하고	-10888
▁황우석	-10889
▁히드로	-10890
▁힐튼이	-10891
자회담에	-10892
퍼센트의	-10893
▁1200	-10894
▁1981	-10895
▁2011	-10896
▁have	-10897
▁국민들을	-10898
▁금지하고	-10899
▁네바다주	-10900
▁대대적인	-10901
▁럼스펠드	-10902
▁말하면서	-10903
▁모가디슈	-10904
▁백악관에	-10905
▁브리티시	-10906
▁사람들도	-10907
▁상관없이	-10908
▁수상자인	-10909
▁시스템이	-10910
▁시작되는	-10911
▁않겠다는	-10912
▁어머니가	-10913
▁어머니와	-10914
▁예상보다	-10915
▁유일하게	-10916
▁이라크는	-10917
▁이라크인	-10918
▁재무장관	-10919
▁전국적인	-10920
▁지역사회	-10921
▁지지율이	-10922
▁총격으로	-10923
▁티베트의	-10924
▁프랑스는	-10925
▁헤럴드가	-10926
▁개인적으로	-10927
▁관계자들과	-10928
▁다큐멘터리	-10929
▁스피어스는	-10930
▁아시아에서	-10931
▁엘바라데이	-10932
▁웹사이트는	-10933
▁이르기까지	-10934
▁짐바브웨의	-10935
▁크로아티아	-10936
▁폭력사태를	-10937
▁폭탄테러를	-10938
▁프로젝트를	-10939
▁econom	-10940
▁경찰에따르면	-10941
▁로스앤젤레스	-10942
▁파키스탄에서	-10943
▁팔레스타인의	-10944
▁Secretary	-10945
Ch	-10946
EW	-10947
GH	-10948
pl	-10949
▁.	-10950
▁는	-10951
▁렉	-10952
▁렌	-10953
▁류	-10954
▁줬	-10955
▁짜	-10956
개혁	-10957
공사	-10958
길에	-10959
년도	-10960
노는	-10961
놓은	-10962
놨다	-10963
능한	-10964
다코	-10965
락은	-10966
론이	-10967
린이	-10968
린트	-10969
미가	-10970
사우	-10971
살인	-10972
수술	-10973
스토	-10974
액은	-10975
오염	-10976
욕을	-10977
우로	-10978
월과	-10979
웨어	-10980
유의	-10981
일인	-10982
저널	-10983
주인	-10984
직한	-10985
질유	-10986
카스	-10987
트맨	-10988
티드	-10989
티를	-10990
폭력	-10991
ble	-10992
sec	-10993
▁Ac	-10994
▁IS	-10995
▁가기	-10996
▁거세	-10997
▁검시	-10998
▁격리	-10999
▁광우	-11000
▁근교	-11001
▁김선	-11002
▁네이	-11003
▁녹색	-11004
▁단일	-11005
▁대가	-11006
▁대지	-11007
▁로빈	-11008
▁로페	-11009
▁막고	-11010
▁만났	-11011
▁말리	-11012
▁메인	-11013
▁몸무	-11014
▁반란	-11015
▁발이	-11016
▁방치	-11017
▁배를	-11018
▁배아	-11019
▁베리	-11020
▁부른	-11021
▁부작	-11022
▁비영	-11023
▁사드	-11024
▁사탕	-11025
▁생성	-11026
▁서안	-11027
▁설정	-11028
▁신장	-11029
▁아우	-11030
▁알렌	-11031
▁언어	-11032
▁연휴	-11033
▁오키	-11034
▁원화	-11035
▁유효	-11036
▁응원	-11037
▁이례	-11038
▁인계	-11039
▁입학	-11040
▁잠을	-11041
▁재벌	-11042
▁절감	-11043
▁조명	-11044
▁주교	-11045
▁줄이	-11046
▁지닌	-11047
▁징계	-11048
▁추출	-11049
▁침투	-11050
▁클루	-11051
▁타결	-11052
▁탄소	-11053
▁페이	-11054
▁포괄	-11055
▁폭로	-11056
▁헤이	-11057
▁호킹	-11058
▁회색	-11059
▁후퇴	-11060
▁휴양	-11061
기간을	-11062
기적인	-11063
는지에	-11064
대사는	-11065
된다는	-11066
사건을	-11067
선으로	-11068
시위를	-11069
었다는	-11070
우리의	-11071
으려는	-11072
의사를	-11073
인들과	-11074
일에도	-11075
하는지	-11076
(25)	-11077
,500	-11078
FARC	-11079
atch	-11080
ital	-11081
roup	-11082
▁ins	-11083
▁감사를	-11084
▁거래가	-11085
▁경기도	-11086
▁경제는	-11087
▁경제와	-11088
▁고향인	-11089
▁군대를	-11090
▁그룹의	-11091
▁끔찍한	-11092
▁논의가	-11093
▁누르고	-11094
▁뉴스는	-11095
▁느낀다	-11096
▁당국과	-11097
▁당나귀	-11098
▁대기업	-11099
▁대만의	-11100
▁대표인	-11101
▁마라도	-11102
▁마련할	-11103
▁말아야	-11104
▁모로코	-11105
▁모았다	-11106
▁미드필	-11107
▁발전을	-11108
▁발표에	-11109
▁버마의	-11110
▁범죄에	-11111
▁보호할	-11112
▁본사를	-11113
▁빠졌다	-11114
▁사임할	-11115
▁사태는	-11116
▁서울의	-11117
▁성추행	-11118
▁소녀가	-11119
▁소리가	-11120
▁쇠고기	-11121
▁쇼핑몰	-11122
▁수준의	-11123
▁아내와	-11124
▁아들인	-11125
▁아이돌	-11126
▁아칸소	-11127
▁야후는	-11128
▁양국간	-11129
▁양국이	-11130
▁언급은	-11131
▁열차가	-11132
▁오딩가	-11133
▁운행을	-11134
▁의혹에	-11135
▁자산을	-11136
▁전망이	-11137
▁제프리	-11138
▁증시의	-11139
▁지구의	-11140
▁지나지	-11141
▁지속될	-11142
▁지키고	-11143
▁차례로	-11144
▁카지노	-11145
▁터키군	-11146
▁토론을	-11147
▁특별히	-11148
▁할아버	-11149
▁합의가	-11150
▁합의는	-11151
▁호텔을	-11152
▁화상을	-11153
▁환자의	-11154
▁회동을	-11155
▁후지모	-11156
▁힘들다	-11157
단체들은	-11158
되었다는	-11159
사람들은	-11160
tions	-11161
▁경찰서에	-11162
▁공동으로	-11163
▁구조대원	-11164
▁국방위원	-11165
▁군인들은	-11166
▁기록하고	-11167
▁기상청은	-11168
▁니콜라스	-11169
▁대답했다	-11170
▁리처드슨	-11171
▁명령했다	-11172
▁모습으로	-11173
▁무장괴한	-11174
▁벌어지고	-11175
▁부문에서	-11176
▁비밀리에	-11177
▁비행기에	-11178
▁사임했다	-11179
▁상파울루	-11180
▁세계보건	-11181
▁승객들이	-11182
▁시점에서	-11183
▁아버지의	-11184
▁애완동물	-11185
▁야스쿠니	-11186
▁예상되는	-11187
▁우주정거	-11188
▁원자바오	-11189
▁위협하는	-11190
▁유명하다	-11191
▁이용하고	-11192
▁인종차별	-11193
▁일정으로	-11194
▁장난감을	-11195
▁정해지지	-11196
▁제공했다	-11197
▁중요성을	-11198
▁지구에서	-11199
▁차원에서	-11200
▁착수했다	-11201
▁참여하지	-11202
▁추가적인	-11203
▁추진하고	-11204
▁커뮤니티	-11205
▁컴퓨터가	-11206
▁쿠데타로	-11207
▁쿠르드족	-11208
▁크리스티	-11209
▁탈레반과	-11210
▁탈레반의	-11211
▁판결했다	-11212
▁하더라도	-11213
▁학생들의	-11214
▁확실하지	-11215
▁회사들은	-11216
▁후보들은	-11217
▁소식입니다	-11218
▁시상식에서	-11219
▁시카고에서	-11220
▁의원들에게	-11221
▁인도주의적	-11222
▁지도자들과	-11223
▁카자흐스탄	-11224
▁한나라당이	-11225
▁2005.12	-11226
▁2009.01	-11227
▁Foreign	-11228
▁아프가니스탄에	-11229
▁연방준비제도이사회	-11230
(8	-11231
DP	-11232
EX	-11233
▁끈	-11234
▁밸	-11235
▁빗	-11236
▁튀	-11237
고의	-11238
구간	-11239
그라	-11240
그린	-11241
극을	-11242
기상	-11243
냈던	-11244
너스	-11245
대사	-11246
데일	-11247
두에	-11248
들리	-11249
디의	-11250
려면	-11251
르바	-11252
머스	-11253
문화	-11254
발의	-11255
베르	-11256
브로	-11257
비엘	-11258
사진	-11259
석방	-11260
시경	-11261
야의	-11262
양이	-11263
연설	-11264
열을	-11265
인가	-11266
인수	-11267
일째	-11268
자민	-11269
작업	-11270
장일	-11271
장치	-11272
재가	-11273
종일	-11274
죄로	-11275
중계	-11276
줘야	-11277
채의	-11278
층의	-11279
턴은	-11280
포트	-11281
호한	-11282
26;	-11283
CIA	-11284
ech	-11285
ind	-11286
ran	-11287
tle	-11288
▁85	-11289
▁89	-11290
▁93	-11291
▁Af	-11292
▁가결	-11293
▁가던	-11294
▁가라	-11295
▁가서	-11296
▁각자	-11297
▁개가	-11298
▁개별	-11299
▁격려	-11300
▁결함	-11301
▁계곡	-11302
▁곳의	-11303
▁공기	-11304
▁공판	-11305
▁구형	-11306
▁끌려	-11307
▁놓은	-11308
▁단식	-11309
▁당원	-11310
▁당혹	-11311
▁도메	-11312
▁둘째	-11313
▁뒤따	-11314
▁들을	-11315
▁듯한	-11316
▁디에	-11317
▁라왈	-11318
▁만찬	-11319
▁맞게	-11320
▁맺고	-11321
▁면역	-11322
▁몰래	-11323
▁문자	-11324
▁바에	-11325
▁밴드	-11326
▁뱅크	-11327
▁복사	-11328
▁부품	-11329
▁비즈	-11330
▁빛을	-11331
▁빠뜨	-11332
▁서쪽	-11333
▁속옷	-11334
▁속한	-11335
▁수업	-11336
▁승용	-11337
▁시판	-11338
▁실어	-11339
▁쓰여	-11340
▁아끼	-11341
▁아닐	-11342
▁아사	-11343
▁악영	-11344
▁연령	-11345
▁예수	-11346
▁옥스	-11347
▁의석	-11348
▁의식	-11349
▁이내	-11350
▁인신	-11351
▁일단	-11352
▁일할	-11353
▁임상	-11354
▁자백	-11355
▁잔디	-11356
▁저널	-11357
▁제패	-11358
▁종신	-11359
▁죽어	-11360
▁즐거	-11361
▁차로	-11362
▁차림	-11363
▁채워	-11364
▁촛불	-11365
▁취약	-11366
▁측에	-11367
▁코네	-11368
▁타지	-11369
▁테마	-11370
▁통증	-11371
▁틀림	-11372
▁평론	-11373
▁평소	-11374
▁폴란	-11375
▁피로	-11376
▁피셔	-11377
▁피플	-11378
▁하리	-11379
▁해킹	-11380
▁허블	-11381
▁화해	-11382
▁회피	-11383
년형을	-11384
레스타	-11385
렸지만	-11386
번이나	-11387
사건이	-11388
서비스	-11389
스트롱	-11390
시간에	-11391
시설을	-11392
시켜야	-11393
에서만	-11394
연상을	-11395
였다는	-11396
이라면	-11397
자리에	-11398
장치를	-11399
&#82	-11400
UEFA	-11401
ally	-11402
▁25%	-11403
▁350	-11404
▁Day	-11405
▁For	-11406
▁Kim	-11407
▁tra	-11408
▁겪었다	-11409
▁경기의	-11410
▁경찰을	-11411
▁구하기	-11412
▁국가는	-11413
▁국제사	-11414
▁군부가	-11415
▁권한을	-11416
▁규모는	-11417
▁기간에	-11418
▁기도를	-11419
▁나토군	-11420
▁남편은	-11421
▁눈물을	-11422
▁뉴캐슬	-11423
▁다음과	-11424
▁대사가	-11425
▁대중의	-11426
▁던졌다	-11427
▁되풀이	-11428
▁라이프	-11429
▁마약을	-11430
▁마을에	-11431
▁매코맥	-11432
▁맥코맥	-11433
▁무너진	-11434
▁물었다	-11435
▁방문이	-11436
▁버몬트	-11437
▁부상당	-11438
▁불렀다	-11439
▁사고에	-11440
▁사업에	-11441
▁사이언	-11442
▁산불로	-11443
▁생산할	-11444
▁생일을	-11445
▁선언한	-11446
▁설치된	-11447
▁수십억	-11448
▁수용할	-11449
▁시즌을	-11450
▁식량을	-11451
▁심문을	-11452
▁아기가	-11453
▁아기의	-11454
▁아스널	-11455
▁양측의	-11456
▁얼음이	-11457
▁여파로	-11458
▁오마르	-11459
▁요구할	-11460
▁위에서	-11461
▁유수프	-11462
▁이름은	-11463
▁인정한	-11464
▁인정할	-11465
▁입국을	-11466
▁있었을	-11467
▁장소로	-11468
▁장치를	-11469
▁재정적	-11470
▁전기가	-11471
▁전하며	-11472
▁정도가	-11473
▁정신과	-11474
▁제니퍼	-11475
▁존드로	-11476
▁주말에	-11477
▁중국인	-11478
▁중상을	-11479
▁지키기	-11480
▁진술을	-11481
▁차이를	-11482
▁참가할	-11483
▁총기난	-11484
▁축구팬	-11485
▁출마할	-11486
▁출전한	-11487
▁커지고	-11488
▁크라우	-11489
▁태국의	-11490
▁투표는	-11491
▁페널티	-11492
▁풍부한	-11493
▁프레드	-11494
▁필요는	-11495
되었는데	-11496
센터에서	-11497
적이었다	-11498
카에다는	-11499
ights	-11500
ublic	-11501
▁가족에게	-11502
▁개최되는	-11503
▁결의안에	-11504
▁기반으로	-11505
▁단체들은	-11506
▁당국자는	-11507
▁대통령도	-11508
▁데이터를	-11509
▁동쪽으로	-11510
▁말했지만	-11511
▁미드필더	-11512
▁받았으나	-11513
▁부상자는	-11514
▁부족으로	-11515
▁브리트니	-11516
▁비즈니스	-11517
▁사망하는	-11518
▁사용되고	-11519
▁사이트에	-11520
▁상승으로	-11521
▁상원에서	-11522
▁수사관은	-11523
▁시스템은	-11524
▁시위대와	-11525
▁아이들과	-11526
▁암스트롱	-11527
▁어린이를	-11528
▁연구팀은	-11529
▁연기했다	-11530
▁위협했다	-11531
▁유세에서	-11532
▁이재민이	-11533
▁일반적인	-11534
▁일축했다	-11535
▁자신감을	-11536
▁재정경제	-11537
▁전세계에	-11538
▁정상들은	-11539
▁중단됐다	-11540
▁지나치게	-11541
▁차베스는	-11542
▁참가했다	-11543
▁참여했다	-11544
▁촉구하는	-11545
▁활동하는	-11546
▁후보들이	-11547
▁후세인의	-11548
▁힐러리는	-11549
위원회에서	-11550
▁Party	-11551
▁국제유가는	-11552
▁대통령과의	-11553
▁동계올림픽	-11554
▁버지니아주	-11555
▁보도합니다	-11556
▁수감자들을	-11557
▁아이디어를	-11558
▁어린이들이	-11559
▁중요하다고	-11560
▁테러지원국	-11561
▁투자자들이	-11562
▁확인했다고	-11563
&#8226;	-11564
2006.08	-11565
2008.06	-11566
▁모스크바에서	-11567
▁사망했습니다	-11568
▁세계보건기구	-11569
▁정상회담에서	-11570
▁protest	-11571
▁아프가니스탄의	-11572
-7	-11573
85	-11574
BN	-11575
MP	-11576
MW	-11577
ax	-11578
▁”	-11579
▁▶	-11580
▁댓	-11581
▁릭	-11582
▁빵	-11583
▁앗	-11584
▁앰	-11585
▁웬	-11586
▁즈	-11587
▁툴	-11588
▁핑	-11589
가리	-11590
강에	-11591
거는	-11592
게는	-11593
겔라	-11594
그러	-11595
긴다	-11596
돌프	-11597
되게	-11598
디언	-11599
라노	-11600
로지	-11601
뤘다	-11602
망이	-11603
머는	-11604
문과	-11605
문의	-11606
바른	-11607
바일	-11608
보면	-11609
살이	-11610
상승	-11611
식과	-11612
심은	-11613
얄라	-11614
엄한	-11615
여러	-11616
오로	-11617
오프	-11618
올해	-11619
와이	-11620
요원	-11621
위안	-11622
일라	-11623
일즈	-11624
조로	-11625
좋은	-11626
지나	-11627
카를	-11628
크의	-11629
테인	-11630
통화	-11631
편에	-11632
형에	-11633
FRB	-11634
ief	-11635
▁79	-11636
▁ad	-11637
▁“1	-11638
▁개월	-11639
▁건립	-11640
▁경신	-11641
▁고마	-11642
▁고정	-11643
▁공략	-11644
▁교내	-11645
▁구할	-11646
▁군용	-11647
▁그럼	-11648
▁기조	-11649
▁길에	-11650
▁나쁘	-11651
▁냄새	-11652
▁넣어	-11653
▁노왁	-11654
▁대면	-11655
▁도구	-11656
▁두개	-11657
▁딸인	-11658
▁때가	-11659
▁라틴	-11660
▁로라	-11661
▁리브	-11662
▁리치	-11663
▁마스	-11664
▁마호	-11665
▁매수	-11666
▁몸이	-11667
▁미망	-11668
▁미친	-11669
▁미하	-11670
▁바나	-11671
▁백신	-11672
▁병에	-11673
▁브로	-11674
▁비준	-11675
▁산소	-11676
▁생일	-11677
▁선생	-11678
▁세균	-11679
▁섹스	-11680
▁싫어	-11681
▁않자	-11682
▁애도	-11683
▁얻는	-11684
▁에버	-11685
▁연대	-11686
▁예보	-11687
▁오차	-11688
▁완공	-11689
▁요하	-11690
▁우호	-11691
▁운하	-11692
▁월터	-11693
▁일방	-11694
▁잃고	-11695
▁잃지	-11696
▁장갑	-11697
▁장치	-11698
▁전과	-11699
▁전비	-11700
▁정통	-11701
▁조셉	-11702
▁조장	-11703
▁좌파	-11704
▁지중	-11705
▁진단	-11706
▁집어	-11707
▁창조	-11708
▁찾은	-11709
▁첨단	-11710
▁초과	-11711
▁총알	-11712
▁추격	-11713
▁출장	-11714
▁치고	-11715
▁침착	-11716
▁침팬	-11717
▁카우	-11718
▁켈리	-11719
▁콜레	-11720
▁키스	-11721
▁타입	-11722
▁티모	-11723
▁파르	-11724
▁펼칠	-11725
▁합참	-11726
▁해석	-11727
▁흥행	-11728
▁히스	-11729
계획을	-11730
기록을	-11731
달러의	-11732
되지는	-11733
력으로	-11734
문제에	-11735
방송의	-11736
법원에	-11737
시키다	-11738
에이커	-11739
였으나	-11740
위기에	-11741
장에게	-11742
적이지	-11743
조사를	-11744
혔다고	-11745
화하는	-11746
(32)	-11747
ward	-11748
▁110	-11749
▁787	-11750
▁FTS	-11751
▁Ind	-11752
▁app	-11753
▁가격에	-11754
▁가정에	-11755
▁가져다	-11756
▁가하고	-11757
▁개최된	-11758
▁갤런당	-11759
▁걸렸다	-11760
▁경보를	-11761
▁경향이	-11762
▁경호원	-11763
▁고려해	-11764
▁공격의	-11765
▁공항은	-11766
▁과거의	-11767
▁국민이	-11768
▁국세청	-11769
▁국왕은	-11770
▁그런가	-11771
▁기술의	-11772
▁나란히	-11773
▁네덜란	-11774
▁뇌물을	-11775
▁니케이	-11776
▁단어를	-11777
▁단체에	-11778
▁대선을	-11779
▁도널드	-11780
▁독일인	-11781
▁뒤에서	-11782
▁맡았던	-11783
▁맥케인	-11784
▁명으로	-11785
▁모니터	-11786
▁미네소	-11787
▁방사능	-11788
▁방송의	-11789
▁보안을	-11790
▁부부의	-11791
▁불안한	-11792
▁비교해	-11793
▁살해할	-11794
▁석방할	-11795
▁수위가	-11796
▁시도한	-11797
▁신발을	-11798
▁아흐메	-11799
▁않았을	-11800
▁어디서	-11801
▁어려워	-11802
▁여사와	-11803
▁역사가	-11804
▁영국이	-11805
▁영장을	-11806
▁위기로	-11807
▁유리한	-11808
▁음모를	-11809
▁의약품	-11810
▁이것을	-11811
▁이사는	-11812
▁이틀간	-11813
▁일정은	-11814
▁있을지	-11815
▁잡았다	-11816
▁장관을	-11817
▁장악한	-11818
▁재개될	-11819
▁재배치	-11820
▁잭슨은	-11821
▁전쟁의	-11822
▁정치에	-11823
▁제안한	-11824
▁주목을	-11825
▁준장은	-11826
▁지원에	-11827
▁지진은	-11828
▁질환을	-11829
▁총선에	-11830
▁코끼리	-11831
▁코커스	-11832
▁타이완	-11833
▁터미널	-11834
▁토론토	-11835
▁특이한	-11836
▁파병을	-11837
▁패스를	-11838
▁페리노	-11839
▁폐쇄를	-11840
▁프로듀	-11841
▁학대를	-11842
▁한다며	-11843
▁협의를	-11844
▁호르몬	-11845
▁화장실	-11846
▁활성화	-11847
▁후에도	-11848
▁휴대용	-11849
억달러를	-11850
urity	-11851
▁1982	-11852
▁거부하고	-11853
▁경찰관은	-11854
▁글래스고	-11855
▁금메달을	-11856
▁금지하는	-11857
▁기본적인	-11858
▁기소했다	-11859
▁도미니카	-11860
▁돌아왔다	-11861
▁동영상은	-11862
▁라이스는	-11863
▁모르겠다	-11864
▁무시하고	-11865
▁미얀마를	-11866
▁민주당과	-11867
▁상태라고	-11868
▁선정됐다	-11869
▁성폭행을	-11870
▁스미스는	-11871
▁스피어스	-11872
▁알자와히	-11873
▁오픈에서	-11874
▁왔습니다	-11875
▁용의자의	-11876
▁움직임에	-11877
▁유권자의	-11878
▁이상으로	-11879
▁자리잡고	-11880
▁전문가인	-11881
▁조선중앙	-11882
▁주도하는	-11883
▁중심으로	-11884
▁중앙정보	-11885
▁지역이다	-11886
▁착용하고	-11887
▁칸다하르	-11888
▁페이스북	-11889
▁표현했다	-11890
▁피추시킨	-11891
▁하겠다고	-11892
▁하나이다	-11893
▁하락세를	-11894
▁하락하며	-11895
▁학생들과	-11896
▁확인하는	-11897
▁환영했다	-11898
으로부터의	-11899
illion	-11900
▁House	-11901
▁plans	-11902
▁경기부양책	-11903
▁관광객들은	-11904
▁무샤라프의	-11905
▁살해했다고	-11906
▁시위자들이	-11907
▁아이들에게	-11908
▁이라크전에	-11909
▁이산화탄소	-11910
▁체포되었다	-11911
▁크리스티나	-11912
▁투자자들은	-11913
▁파키스탄이	-11914
▁유럽축구연맹	-11915
▁자유무역협정	-11916
American	-11917
24	-11918
FC	-11919
HS	-11920
PC	-11921
WF	-11922
ov	-11923
▁:	-11924
▁굶	-11925
▁꽤	-11926
▁닷	-11927
▁닿	-11928
▁딘	-11929
▁랄	-11930
▁칩	-11931
▁캥	-11932
▁탓	-11933
가량	-11934
개인	-11935
거루	-11936
계관	-11937
냐고	-11938
달간	-11939
등한	-11940
레아	-11941
레즈	-11942
류가	-11943
멘토	-11944
물질	-11945
봉을	-11946
사절	-11947
센은	-11948
속에	-11949
수수	-11950
스위	-11951
시바	-11952
알라	-11953
역사	-11954
오가	-11955
이저	-11956
있지	-11957
자고	-11958
작을	-11959
잡을	-11960
재로	-11961
쟁을	-11962
전선	-11963
질러	-11964
집이	-11965
총리	-11966
쿼터	-11967
퍼스	-11968
해로	-11969
해져	-11970
헤드	-11971
der	-11972
loy	-11973
uss	-11974
way	-11975
▁83	-11976
▁92	-11977
▁Bl	-11978
▁IT	-11979
▁LG	-11980
▁al	-11981
▁간섭	-11982
▁갈등	-11983
▁감추	-11984
▁강의	-11985
▁갤럭	-11986
▁걷는	-11987
▁격추	-11988
▁경보	-11989
▁공통	-11990
▁구름	-11991
▁구사	-11992
▁기권	-11993
▁기초	-11994
▁김경	-11995
▁꿈을	-11996
▁나노	-11997
▁남미	-11998
▁내장	-11999
▁넓은	-12000
▁농부	-12001
▁농작	-12002
▁누드	-12003
▁다녔	-12004
▁다뤄	-12005
▁다짐	-12006
▁닥터	-12007
▁달에	-12008
▁동점	-12009
▁두뇌	-12010
▁땅을	-12011
▁로한	-12012
▁많지	-12013
▁말은	-12014
▁맹세	-12015
▁밀림	-12016
▁방한	-12017
▁백화	-12018
▁범행	-12019
▁복부	-12020
▁불공	-12021
▁불매	-12022
▁색깔	-12023
▁서버	-12024
▁서신	-12025
▁선을	-12026
▁세대	-12027
▁셔츠	-12028
▁식이	-12029
▁아미	-12030
▁악어	-12031
▁안겨	-12032
▁알파	-12033
▁앗아	-12034
▁양보	-12035
▁에디	-12036
▁에미	-12037
▁여유	-12038
▁오징	-12039
▁와지	-12040
▁웨이	-12041
▁유골	-12042
▁이겨	-12043
▁이스	-12044
▁이탈	-12045
▁인지	-12046
▁자서	-12047
▁재경	-12048
▁전미	-12049
▁정규	-12050
▁정한	-12051
▁죄수	-12052
▁주당	-12053
▁죽을	-12054
▁지내	-12055
▁지침	-12056
▁지킬	-12057
▁차에	-12058
▁책정	-12059
▁최후	-12060
▁침범	-12061
▁캠벨	-12062
▁크기	-12063
▁테리	-12064
▁통일	-12065
▁특사	-12066
▁하반	-12067
▁확고	-12068
▁후계	-12069
▁후쿠	-12070
▁휴먼	-12071
겼으며	-12072
계에서	-12073
관으로	-12074
그녀는	-12075
렸다는	-12076
명이다	-12077
문제가	-12078
미얀마	-12079
세포를	-12080
스탄불	-12081
슬러는	-12082
이란은	-12083
층에서	-12084
편으로	-12085
프라이	-12086
피니언	-12087
NATO	-12088
alth	-12089
ants	-12090
▁125	-12091
▁Mar	-12092
▁NEW	-12093
▁all	-12094
▁tri	-12095
▁각국의	-12096
▁감옥에	-12097
▁걸었다	-12098
▁검찰에	-12099
▁겁니다	-12100
▁고려할	-12101
▁고립된	-12102
▁고문을	-12103
▁곧바로	-12104
▁공격할	-12105
▁과도한	-12106
▁과반수	-12107
▁과학자	-12108
▁구체적	-12109
▁국왕이	-12110
▁규제를	-12111
▁그루지	-12112
▁그쳤다	-12113
▁기술은	-12114
▁기준을	-12115
▁김선일	-12116
▁남편과	-12117
▁달한다	-12118
▁도시에	-12119
▁뛰어난	-12120
▁뛰어들	-12121
▁레이더	-12122
▁로딕은	-12123
▁만남을	-12124
▁만장일	-12125
▁메시지	-12126
▁모르고	-12127
▁목격한	-12128
▁믿는다	-12129
▁바바라	-12130
▁반군에	-12131
▁받았고	-12132
▁법정에	-12133
▁봤다고	-12134
▁부근에	-12135
▁비무장	-12136
▁비영리	-12137
▁비자를	-12138
▁사랑에	-12139
▁사적인	-12140
▁생중계	-12141
▁선거법	-12142
▁성관계	-12143
▁세계에	-12144
▁수용소	-12145
▁수치를	-12146
▁스피처	-12147
▁시도를	-12148
▁시작해	-12149
▁시장과	-12150
▁식민지	-12151
▁아이슬	-12152
▁아틀란	-12153
▁악화될	-12154
▁암살된	-12155
▁어려울	-12156
▁언제든	-12157
▁여배우	-12158
▁연합은	-12159
▁열렸던	-12160
▁오리건	-12161
▁우승한	-12162
▁유럽을	-12163
▁응답자	-12164
▁의료진	-12165
▁의식을	-12166
▁이씨는	-12167
▁이의를	-12168
▁임명된	-12169
▁장관급	-12170
▁재산을	-12171
▁재판은	-12172
▁저렴한	-12173
▁전망을	-12174
▁전화로	-12175
▁정권은	-12176
▁정당이	-12177
▁정책은	-12178
▁정치범	-12179
▁제공해	-12180
▁제품에	-12181
▁주민이	-12182
▁주석은	-12183
▁주어진	-12184
▁주치의	-12185
▁진단을	-12186
▁진행할	-12187
▁초래할	-12188
▁총리에	-12189
▁최대한	-12190
▁출동한	-12191
▁취임한	-12192
▁캔자스	-12193
▁캥거루	-12194
▁탈라바	-12195
▁파견된	-12196
▁페트로	-12197
▁피아노	-12198
▁하여금	-12199
▁행동은	-12200
▁행위가	-12201
▁헌법을	-12202
▁협조를	-12203
▁확인한	-12204
▁확인해	-12205
▁회장의	-12206
으로서의	-12207
under	-12208
▁8000	-12209
▁comm	-12210
▁year	-12211
▁건물에서	-12212
▁것이지만	-12213
▁공원에서	-12214
▁국영방송	-12215
▁그루지아	-12216
▁기자들의	-12217
▁끊임없이	-12218
▁뉴멕시코	-12219
▁다음으로	-12220
▁대부분을	-12221
▁독일에서	-12222
▁들어있는	-12223
▁떨어지는	-12224
▁매케인을	-12225
▁모르지만	-12226
▁모하마드	-12227
▁목소리로	-12228
▁민주변화	-12229
▁박테리아	-12230
▁발생했던	-12231
▁부총리는	-12232
▁브라질의	-12233
▁사회주의	-12234
▁산사태로	-12235
▁신용카드	-12236
▁싶어한다	-12237
▁아버지와	-12238
▁악영향을	-12239
▁알베르토	-12240
▁오토바이	-12241
▁올랐으며	-12242
▁워싱턴에	-12243
▁이스탄불	-12244
▁이용하여	-12245
▁자선단체	-12246
▁전적으로	-12247
▁정상적인	-12248
▁좋아한다	-12249
▁지원하기	-12250
▁진행중인	-12251
▁충격으로	-12252
▁케르비엘	-12253
▁팬들에게	-12254
▁평양에서	-12255
▁포기하지	-12256
▁포함하고	-12257
▁프리메라	-12258
▁하원의원	-12259
▁해외에서	-12260
▁협상에서	-12261
▁후보에게	-12262
자회담에서	-12263
eneral	-12264
▁교통사고로	-12265
▁기록했다고	-12266
▁내무장관은	-12267
▁메사추세츠	-12268
▁바이러스에	-12269
▁사망자수가	-12270
▁생각합니다	-12271
▁생방송으로	-12272
▁샤라포바는	-12273
▁선거운동을	-12274
▁수색작업을	-12275
▁슈워제네거	-12276
▁월드시리즈	-12277
▁이슬람교도	-12278
▁클리블랜드	-12279
▁평화적으로	-12280
▁한국인들이	-12281
▁베네수엘라의	-12282
▁사이클론으로	-12283
▁퍼트레이어스	-12284
titution	-12285
23	-12286
AX	-12287
BO	-12288
UV	-12289
ke	-12290
ms	-12291
▁겐	-12292
▁굿	-12293
▁람	-12294
▁섞	-12295
▁첨	-12296
▁쾌	-12297
▁톱	-12298
▁틸	-12299
▁픽	-12300
강한	-12301
게임	-12302
과를	-12303
군사	-12304
년째	-12305
능을	-12306
데르	-12307
동의	-12308
류에	-12309
리케	-12310
산이	-12311
서도	-12312
세요	-12313
수산	-12314
수출	-12315
시민	-12316
시위	-12317
식량	-12318
여야	-12319
열차	-12320
였을	-12321
예방	-12322
운트	-12323
웠던	-12324
자치	-12325
잡지	-12326
장암	-12327
주며	-12328
주한	-12329
줄기	-12330
지길	-12331
지스	-12332
지않	-12333
처음	-12334
체와	-12335
특별	-12336
튼의	-12337
티컷	-12338
CTV	-12339
ORK	-12340
ces	-12341
ool	-12342
the	-12343
uro	-12344
▁9%	-12345
▁99	-12346
▁BB	-12347
▁KT	-12348
▁SK	-12349
▁cl	-12350
▁ra	-12351
▁we	-12352
▁가리	-12353
▁가뭄	-12354
▁감량	-12355
▁감정	-12356
▁걸프	-12357
▁검출	-12358
▁고심	-12359
▁과잉	-12360
▁과테	-12361
▁구타	-12362
▁그때	-12363
▁그로	-12364
▁낭비	-12365
▁냉동	-12366
▁넣은	-12367
▁닉슨	-12368
▁당뇨	-12369
▁도서	-12370
▁독점	-12371
▁돕고	-12372
▁뒤로	-12373
▁러셀	-12374
▁레논	-12375
▁마닐	-12376
▁마주	-12377
▁맞을	-12378
▁맡게	-12379
▁맺은	-12380
▁메뉴	-12381
▁무리	-12382
▁무어	-12383
▁미트	-12384
▁밀리	-12385
▁밀집	-12386
▁바가	-12387
▁바퀴	-12388
▁발을	-12389
▁방북	-12390
▁번역	-12391
▁복지	-12392
▁본드	-12393
▁부각	-12394
▁비싼	-12395
▁사직	-12396
▁서약	-12397
▁성경	-12398
▁수마	-12399
▁수만	-12400
▁수지	-12401
▁스케	-12402
▁심슨	-12403
▁아크	-12404
▁악성	-12405
▁안고	-12406
▁야간	-12407
▁없기	-12408
▁에탄	-12409
▁열쇠	-12410
▁예로	-12411
▁올릴	-12412
▁왕자	-12413
▁요인	-12414
▁위법	-12415
▁위장	-12416
▁유포	-12417
▁육상	-12418
▁이것	-12419
▁이벤	-12420
▁자매	-12421
▁저작	-12422
▁제가	-12423
▁조코	-12424
▁종말	-12425
▁좋게	-12426
▁좌익	-12427
▁준다	-12428
▁증진	-12429
▁지분	-12430
▁지저	-12431
▁지폐	-12432
▁참배	-12433
▁초고	-12434
▁캐리	-12435
▁터치	-12436
▁토양	-12437
▁톰슨	-12438
▁폭도	-12439
▁폴슨	-12440
▁해가	-12441
▁허위	-12442
▁호수	-12443
▁혼합	-12444
거리가	-12445
경찰은	-12446
대학의	-12447
떨어진	-12448
로서는	-12449
미국이	-12450
미사일	-12451
민주신	-12452
버렸다	-12453
변인은	-12454
사고가	-12455
상태가	-12456
소시에	-12457
수술을	-12458
월에도	-12459
이트는	-12460
일만에	-12461
정책을	-12462
행위에	-12463
혁명군	-12464
ense	-12465
form	-12466
rime	-12467
▁101	-12468
▁190	-12469
▁80%	-12470
▁ETA	-12471
▁acc	-12472
▁감소를	-12473
▁건강을	-12474
▁경관은	-12475
▁공개할	-12476
▁공군기	-12477
▁공장을	-12478
▁공항의	-12479
▁교수가	-12480
▁구스마	-12481
▁그래미	-12482
▁그린피	-12483
▁근소한	-12484
▁기온이	-12485
▁나타낸	-12486
▁날씨가	-12487
▁남편을	-12488
▁노리에	-12489
▁뉴욕증	-12490
▁대체할	-12491
▁대학은	-12492
▁도로에	-12493
▁돌려보	-12494
▁마리가	-12495
▁마을을	-12496
▁마침내	-12497
▁맨유는	-12498
▁명백히	-12499
▁모델을	-12500
▁문제다	-12501
▁물질을	-12502
▁미치지	-12503
▁발견돼	-12504
▁베컴이	-12505
▁벨몬트	-12506
▁부상한	-12507
▁부인과	-12508
▁부인이	-12509
▁브루스	-12510
▁비롯해	-12511
▁비행사	-12512
▁빠르면	-12513
▁사태로	-12514
▁새겨진	-12515
▁샘플을	-12516
▁셰이크	-12517
▁소수의	-12518
▁수요가	-12519
▁시기를	-12520
▁신청을	-12521
▁실종자	-12522
▁아끼지	-12523
▁아니고	-12524
▁아들은	-12525
▁아들의	-12526
▁아이티	-12527
▁알았다	-12528
▁애쓰고	-12529
▁에넹은	-12530
▁엔데버	-12531
▁여동생	-12532
▁여진이	-12533
▁열렬한	-12534
▁예산을	-12535
▁운전을	-12536
▁위치에	-12537
▁유가족	-12538
▁유니버	-12539
▁은행이	-12540
▁이른바	-12541
▁이베이	-12542
▁이상한	-12543
▁자메이	-12544
▁작품은	-12545
▁장소를	-12546
▁장착된	-12547
▁전원이	-12548
▁정동영	-12549
▁정보부	-12550
▁제도를	-12551
▁제안에	-12552
▁주도의	-12553
▁주식은	-12554
▁지원한	-12555
▁철저한	-12556
▁최선의	-12557
▁출전을	-12558
▁크로커	-12559
▁터키는	-12560
▁토론회	-12561
▁판사가	-12562
▁판정을	-12563
▁헤럴드	-12564
▁홍수가	-12565
개월간의	-12566
과정에서	-12567
대통령이	-12568
이었으며	-12569
적으로는	-12570
투표에서	-12571
해달라고	-12572
ision	-12573
▁Comm	-12574
▁YORK	-12575
▁work	-12576
▁가능하게	-12577
▁결의안은	-12578
▁공격하는	-12579
▁국가대표	-12580
▁국가보안	-12581
▁국민에게	-12582
▁규정하고	-12583
▁논의하고	-12584
▁논의했다	-12585
▁다운로드	-12586
▁담당하고	-12587
▁대표들은	-12588
▁마흐무드	-12589
▁말했으며	-12590
▁매케인에	-12591
▁민간인이	-12592
▁배제하지	-12593
▁백악관의	-12594
▁보수주의	-12595
▁본격적인	-12596
▁부사장은	-12597
▁북한으로	-12598
▁사람들에	-12599
▁사랑하는	-12600
▁사용하기	-12601
▁사용한다	-12602
▁사원에서	-12603
▁선수들의	-12604
▁세실리아	-12605
▁수만명의	-12606
▁수하르토	-12607
▁승려들이	-12608
▁앞으로의	-12609
▁애틀랜타	-12610
▁엔지니어	-12611
▁여성들을	-12612
▁예정대로	-12613
▁오키나와	-12614
▁움직이고	-12615
▁유지하는	-12616
▁응답자의	-12617
▁의료진은	-12618
▁의원들의	-12619
▁인플루엔	-12620
▁재판관은	-12621
▁주지사의	-12622
▁줄어들고	-12623
▁지목했다	-12624
▁지방에서	-12625
▁참석하기	-12626
▁카트리나	-12627
▁코미디언	-12628
▁쿠데타를	-12629
▁폭발물을	-12630
▁학생들을	-12631
▁확보했다	-12632
▁환경보호	-12633
▁희망하고	-12634
▁희망한다	-12635
▁first	-12636
▁visit	-12637
▁관계당국은	-12638
▁바그다드에	-12639
▁바이러스가	-12640
▁사살했다고	-12641
▁스피어스가	-12642
▁시작되었다	-12643
▁아웅산수치	-12644
▁알카에다를	-12645
▁엘리베이터	-12646
▁일부에서는	-12647
▁Associ	-12648
▁Center	-12649
▁결과에따르면	-12650
▁구조대원들이	-12651
▁미국인들에게	-12652
▁살해하겠다고	-12653
▁웹사이트에서	-12654
AP	-12655
GS	-12656
IT	-12657
az	-12658
io	-12659
ru	-12660
ty	-12661
we	-12662
▁前	-12663
▁댐	-12664
▁룰	-12665
▁룸	-12666
▁옵	-12667
▁웅	-12668
▁을	-12669
▁팩	-12670
▁횟	-12671
각한	-12672
건에	-12673
국과	-12674
권의	-12675
그런	-12676
놀드	-12677
담한	-12678
당신	-12679
덩이	-12680
독립	-12681
등급	-12682
라나	-12683
란다	-12684
만인	-12685
무니	-12686
무라	-12687
바가	-12688
방위	-12689
병원	-12690
비오	-12691
비용	-12692
살된	-12693
살상	-12694
상업	-12695
슈퍼	-12696
슬램	-12697
씨를	-12698
온난	-12699
의약	-12700
이전	-12701
익을	-12702
인당	-12703
인치	-12704
인한	-12705
인해	-12706
일자	-12707
있게	-12708
자연	-12709
조각	-12710
조의	-12711
즈에	-12712
차전	-12713
채를	-12714
테랑	-12715
테이	-12716
패로	-12717
포로	-12718
폭발	-12719
피크	-12720
학년	-12721
혐오	-12722
New	-12723
app	-12724
lam	-12725
tor	-12726
▁87	-12727
▁95	-12728
▁AK	-12729
▁IC	-12730
▁go	-12731
▁ro	-12732
▁결렬	-12733
▁결별	-12734
▁고백	-12735
▁고아	-12736
▁곤돌	-12737
▁국적	-12738
▁군수	-12739
▁그날	-12740
▁기둥	-12741
▁꾸준	-12742
▁나치	-12743
▁낙찰	-12744
▁녹아	-12745
▁단백	-12746
▁도발	-12747
▁동쪽	-12748
▁들은	-12749
▁라크	-12750
▁레인	-12751
▁막는	-12752
▁말고	-12753
▁명인	-12754
▁미들	-12755
▁밀매	-12756
▁바위	-12757
▁밖의	-12758
▁발부	-12759
▁밝은	-12760
▁배럭	-12761
▁번영	-12762
▁베니	-12763
▁별로	-12764
▁부추	-12765
▁브란	-12766
▁브레	-12767
▁비싸	-12768
▁빠질	-12769
▁뿌리	-12770
▁삼림	-12771
▁선적	-12772
▁수잔	-12773
▁시의	-12774
▁심판	-12775
▁썼다	-12776
▁애국	-12777
▁앤디	-12778
▁앨라	-12779
▁어울	-12780
▁연립	-12781
▁연임	-12782
▁오락	-12783
▁오직	-12784
▁와서	-12785
▁요격	-12786
▁윈프	-12787
▁유물	-12788
▁유예	-12789
▁유혹	-12790
▁이룬	-12791
▁인력	-12792
▁입지	-12793
▁입찰	-12794
▁재발	-12795
▁재생	-12796
▁제임	-12797
▁종업	-12798
▁주관	-12799
▁주를	-12800
▁주일	-12801
▁중소	-12802
▁체스	-12803
▁측의	-12804
▁컨퍼	-12805
▁크누	-12806
▁탐지	-12807
▁통역	-12808
▁퇴직	-12809
▁파울	-12810
▁편지	-12811
▁피어	-12812
▁하려	-12813
▁한쪽	-12814
▁행한	-12815
▁헤르	-12816
▁혁신	-12817
▁홀리	-12818
▁화석	-12819
개국이	-12820
객들은	-12821
국들의	-12822
났지만	-12823
는지를	-12824
됐는지	-12825
라이프	-12826
레스테	-12827
레이션	-12828
레이트	-12829
르에서	-12830
리스탄	-12831
면서도	-12832
범으로	-12833
법안을	-12834
선고를	-12835
성에서	-12836
스트를	-12837
심으로	-12838
여명을	-12839
연승을	-12840
월드컵	-12841
으로의	-12842
은행의	-12843
자들로	-12844
지수도	-12845
카드를	-12846
텍사스	-12847
필요한	-12848
하려면	-12849
해진다	-12850
회담을	-12851
회사가	-12852
ator	-12853
ents	-12854
ting	-12855
▁1-1	-12856
▁1/3	-12857
▁95%	-12858
▁BMW	-12859
▁Eng	-12860
▁dec	-12861
▁def	-12862
▁rec	-12863
▁강경한	-12864
▁갖는다	-12865
▁거라고	-12866
▁건설을	-12867
▁격차로	-12868
▁결혼식	-12869
▁경우에	-12870
▁공군은	-12871
▁공무원	-12872
▁구멍을	-12873
▁그린스	-12874
▁극적인	-12875
▁급속히	-12876
▁기간이	-12877
▁끝났다	-12878
▁나가고	-12879
▁남편의	-12880
▁논란을	-12881
▁높이고	-12882
▁뉴스를	-12883
▁달러화	-12884
▁당분간	-12885
▁당수는	-12886
▁대결을	-12887
▁대사를	-12888
▁대학살	-12889
▁동물의	-12890
▁동안에	-12891
▁되면서	-12892
▁라왈핀	-12893
▁리얼리	-12894
▁마호메	-12895
▁면담을	-12896
▁명성을	-12897
▁무기한	-12898
▁미국발	-12899
▁밀란은	-12900
▁발표가	-12901
▁범행을	-12902
▁변화의	-12903
▁보고는	-12904
▁보내기	-12905
▁부대가	-12906
▁부딪혀	-12907
▁부토가	-12908
▁분석가	-12909
▁비핵화	-12910
▁사람도	-12911
▁사전에	-12912
▁상승을	-12913
▁상승할	-12914
▁상품을	-12915
▁생물학	-12916
▁선데이	-12917
▁세력의	-12918
▁세상을	-12919
▁소년의	-12920
▁수준을	-12921
▁숨지게	-12922
▁승부를	-12923
▁식으로	-12924
▁신속한	-12925
▁싱가폴	-12926
▁안타까	-12927
▁않다는	-12928
▁알리기	-12929
▁앙겔라	-12930
▁얘기를	-12931
▁어렵다	-12932
▁업체인	-12933
▁영화로	-12934
▁오르며	-12935
▁오스틴	-12936
▁외치며	-12937
▁요구가	-12938
▁우려로	-12939
▁우즈는	-12940
▁위반한	-12941
▁유엔과	-12942
▁은행은	-12943
▁의무를	-12944
▁이메일	-12945
▁이정인	-12946
▁이하의	-12947
▁인권을	-12948
▁인도와	-12949
▁인식을	-12950
▁일기로	-12951
▁입원한	-12952
▁작업은	-12953
▁저질렀	-12954
▁전역의	-12955
▁전체를	-12956
▁점에서	-12957
▁접근을	-12958
▁정보는	-12959
▁정상에	-12960
▁제기한	-12961
▁제너럴	-12962
▁제이미	-12963
▁주장해	-12964
▁지니고	-12965
▁지명을	-12966
▁지원이	-12967
▁질병을	-12968
▁집행유	-12969
▁창문을	-12970
▁카리스	-12971
▁카톨릭	-12972
▁토마토	-12973
▁퍼레이	-12974
▁펼치고	-12975
▁평범한	-12976
▁평화상	-12977
▁포스터	-12978
▁폭발은	-12979
▁프랑크	-12980
▁피난민	-12981
▁피해는	-12982
▁하기로	-12983
▁하원은	-12984
▁학교의	-12985
▁항소할	-12986
▁해결에	-12987
▁해군은	-12988
▁해안을	-12989
▁해주는	-12990
▁향하던	-12991
▁허커비	-12992
▁협상은	-12993
▁홍콩의	-12994
▁확률이	-12995
▁후보자	-12996
세트에서	-12997
예비선거	-12998
잉글랜드	-12999
자회담이	-13000
했는지는	-13001
arket	-13002
▁1800	-13003
▁1979	-13004
▁1984	-13005
▁2014	-13006
▁FTSE	-13007
▁says	-13008
▁가자시티	-13009
▁강조하고	-13010
▁것인지에	-13011
▁게임에서	-13012
▁결승에서	-13013
▁경제적인	-13014
▁공개되지	-13015
▁교회에서	-13016
▁기록적인	-13017
▁기업들이	-13018
▁기울이고	-13019
▁나머지는	-13020
▁나타내고	-13021
▁내무부가	-13022
▁노력으로	-13023
▁담겨있다	-13024
▁도착했을	-13025
▁보건복지	-13026
▁보여주기	-13027
▁부정선거	-13028
▁사망했고	-13029
▁살해했다	-13030
▁서명했다	-13031
▁석방됐다	-13032
▁선수들을	-13033
▁소개했다	-13034
▁승리하며	-13035
▁여기에는	-13036
▁연합군은	-13037
▁외교부는	-13038
▁우주선이	-13039
▁유지하기	-13040
▁유혈사태	-13041
▁이끌었던	-13042
▁이라크가	-13043
▁이란에서	-13044
▁이자율을	-13045
▁인도에서	-13046
▁자신들을	-13047
▁장악하고	-13048
▁전형적인	-13049
▁정보기관	-13050
▁지지율로	-13051
▁초등학교	-13052
▁총격전이	-13053
▁콘서트를	-13054
▁탈라바니	-13055
▁포함된다	-13056
▁플레이어	-13057
▁항공사는	-13058
▁핵시설을	-13059
▁휴대폰을	-13060
들에따르면	-13061
minist	-13062
▁3,000	-13063
▁Court	-13064
▁World	-13065
▁고위관리는	-13066
▁구체적으로	-13067
▁동남아시아	-13068
▁만장일치로	-13069
▁무샤라프가	-13070
▁바그다드의	-13071
▁살모넬라균	-13072
▁상태입니다	-13073
▁생각한다고	-13074
▁어린이들을	-13075
▁유권자들의	-13076
▁정부로부터	-13077
▁크리스티아	-13078
▁파키스탄을	-13079
▁희생자들을	-13080
2006.01	-13081
▁Americ	-13082
▁유권자들에게	-13083
▁2007.11	-13084
▁웨스트버지니아	-13085
)”	-13086
63	-13087
65	-13088
=3	-13089
NY	-13090
PF	-13091
▁닮	-13092
▁쉐	-13093
▁싣	-13094
▁팰	-13095
▁힉	-13096
가게	-13097
고문	-13098
곳은	-13099
느라	-13100
달라	-13101
뤼셀	-13102
르카	-13103
리히	-13104
마가	-13105
마에	-13106
모는	-13107
바리	-13108
박을	-13109
범이	-13110
볍게	-13111
빌에	-13112
샤는	-13113
세탁	-13114
소연	-13115
시다	-13116
아리	-13117
야드	-13118
어느	-13119
어드	-13120
연대	-13121
정말	-13122
제인	-13123
주재	-13124
질환	-13125
척이	-13126
츠를	-13127
치료	-13128
컨드	-13129
타로	-13130
탕카	-13131
파르	-13132
편을	-13133
폰을	-13134
합의	-13135
행동	-13136
화학	-13137
)’,	-13138
IOC	-13139
WHO	-13140
arg	-13141
ety	-13142
ick	-13143
ino	-13144
oft	-13145
yst	-13146
▁DC	-13147
▁감면	-13148
▁감안	-13149
▁감원	-13150
▁갤러	-13151
▁검정	-13152
▁계절	-13153
▁고생	-13154
▁고집	-13155
▁공조	-13156
▁과다	-13157
▁구역	-13158
▁군복	-13159
▁군을	-13160
▁궁극	-13161
▁궁금	-13162
▁금년	-13163
▁기쁨	-13164
▁나간	-13165
▁나뉘	-13166
▁낙하	-13167
▁날개	-13168
▁남지	-13169
▁노선	-13170
▁농산	-13171
▁농촌	-13172
▁뇌졸	-13173
▁닌텐	-13174
▁돕는	-13175
▁두목	-13176
▁두자	-13177
▁뒤덮	-13178
▁드문	-13179
▁디아	-13180
▁땅에	-13181
▁라인	-13182
▁레젭	-13183
▁리트	-13184
▁링컨	-13185
▁마가	-13186
▁맥코	-13187
▁메일	-13188
▁뮤직	-13189
▁받던	-13190
▁배터	-13191
▁버린	-13192
▁범람	-13193
▁보드	-13194
▁보류	-13195
▁볼리	-13196
▁분출	-13197
▁붙어	-13198
▁뽑아	-13199
▁사제	-13200
▁산유	-13201
▁산토	-13202
▁상정	-13203
▁세이	-13204
▁속해	-13205
▁술에	-13206
▁얀코	-13207
▁억압	-13208
▁엔진	-13209
▁올드	-13210
▁용인	-13211
▁월경	-13212
▁유네	-13213
▁유태	-13214
▁의구	-13215
▁이길	-13216
▁이끈	-13217
▁이데	-13218
▁이브	-13219
▁인원	-13220
▁일명	-13221
▁임산	-13222
▁자격	-13223
▁자라	-13224
▁저격	-13225
▁전례	-13226
▁정체	-13227
▁종이	-13228
▁줬다	-13229
▁지뢰	-13230
▁지수	-13231
▁지칭	-13232
▁직장	-13233
▁질식	-13234
▁짝짓	-13235
▁창립	-13236
▁채권	-13237
▁체제	-13238
▁카나	-13239
▁칼로	-13240
▁코트	-13241
▁클래	-13242
▁타는	-13243
▁타운	-13244
▁터진	-13245
▁테크	-13246
▁퇴장	-13247
▁팔루	-13248
▁페퍼	-13249
▁펼쳤	-13250
▁평생	-13251
▁포유	-13252
▁폴라	-13253
▁피델	-13254
▁피오	-13255
▁항복	-13256
▁헌신	-13257
▁호위	-13258
▁홈런	-13259
▁황교	-13260
가스를	-13261
내용을	-13262
년동안	-13263
되도록	-13264
들에서	-13265
마니아	-13266
방으로	-13267
보다도	-13268
상황을	-13269
성으로	-13270
센터의	-13271
스에게	-13272
안으로	-13273
연하게	-13274
웠다고	-13275
이란이	-13276
작업에	-13277
전부터	-13278
지거나	-13279
지었다	-13280
차례나	-13281
차례의	-13282
크에서	-13283
하기에	-13284
(23)	-13285
acks	-13286
oldi	-13287
ourn	-13288
▁230	-13289
▁43%	-13290
▁750	-13291
▁NFL	-13292
▁SUV	-13293
▁rel	-13294
▁가톨릭	-13295
▁강에서	-13296
▁같았다	-13297
▁결정될	-13298
▁경력을	-13299
▁고래를	-13300
▁공습이	-13301
▁구매할	-13302
▁국정원	-13303
▁긴밀한	-13304
▁김계관	-13305
▁날짜를	-13306
▁남자아	-13307
▁논쟁의	-13308
▁다하고	-13309
▁대답을	-13310
▁대도시	-13311
▁대통합	-13312
▁데니스	-13313
▁도로가	-13314
▁동부에	-13315
▁동원해	-13316
▁린제이	-13317
▁마을의	-13318
▁만나는	-13319
▁물러날	-13320
▁바람직	-13321
▁바이오	-13322
▁발견은	-13323
▁발사된	-13324
▁발사한	-13325
▁방송이	-13326
▁배터리	-13327
▁베테랑	-13328
▁보고가	-13329
▁복용한	-13330
▁부당한	-13331
▁부모는	-13332
▁부족을	-13333
▁블로거	-13334
▁비율이	-13335
▁빨간색	-13336
▁사인을	-13337
▁사카쉬	-13338
▁새끼를	-13339
▁생각은	-13340
▁생활에	-13341
▁서로를	-13342
▁세워진	-13343
▁소감을	-13344
▁소방관	-13345
▁소유의	-13346
▁수단을	-13347
▁스타일	-13348
▁시한을	-13349
▁신경을	-13350
▁싸움을	-13351
▁앞에서	-13352
▁야후가	-13353
▁업체가	-13354
▁에어버	-13355
▁에이미	-13356
▁에탄올	-13357
▁연관된	-13358
▁연이어	-13359
▁올바른	-13360
▁원장은	-13361
▁이들에	-13362
▁이라고	-13363
▁이유에	-13364
▁인접한	-13365
▁임신한	-13366
▁작전에	-13367
▁전기를	-13368
▁점수를	-13369
▁접근할	-13370
▁정권의	-13371
▁제조사	-13372
▁조언을	-13373
▁중서부	-13374
▁중점을	-13375
▁증거로	-13376
▁지구로	-13377
▁지위를	-13378
▁지점에	-13379
▁지지율	-13380
▁진실을	-13381
▁첼시의	-13382
▁초대형	-13383
▁촬영을	-13384
▁최우수	-13385
▁추수감	-13386
▁충돌을	-13387
▁치르는	-13388
▁콘서트	-13389
▁쿠바의	-13390
▁탈북자	-13391
▁태양열	-13392
▁터키가	-13393
▁통과한	-13394
▁포기할	-13395
▁폭발해	-13396
▁표적이	-13397
▁학교를	-13398
▁합참의	-13399
▁해제할	-13400
▁협정에	-13401
▁협회는	-13402
▁활용할	-13403
기때문에	-13404
리우드의	-13405
알카에다	-13406
오바마는	-13407
▁1600	-13408
▁APEC	-13409
▁comp	-13410
▁more	-13411
▁take	-13412
▁공급하는	-13413
▁공장에서	-13414
▁국토안보	-13415
▁근무하는	-13416
▁금융제재	-13417
▁기념하기	-13418
▁기다리는	-13419
▁나타나고	-13420
▁내전으로	-13421
▁대중교통	-13422
▁대처하기	-13423
▁대표단이	-13424
▁도움으로	-13425
▁득표율을	-13426
▁말입니다	-13427
▁미네소타	-13428
▁반대했다	-13429
▁발생한지	-13430
▁벌어지는	-13431
▁보수적인	-13432
▁사건에서	-13433
▁사상자는	-13434
▁상태였다	-13435
▁선택했다	-13436
▁소수민족	-13437
▁수행하고	-13438
▁승리하는	-13439
▁시작하는	-13440
▁아흐마디	-13441
▁앤더슨은	-13442
▁어머니는	-13443
▁없었지만	-13444
▁엔터테인	-13445
▁여객기를	-13446
▁연속으로	-13447
▁연합군이	-13448
▁원한다고	-13449
▁의료진이	-13450
▁이데올로	-13451
▁인용하여	-13452
▁인정하고	-13453
▁일자리가	-13454
▁잃었다고	-13455
▁전설적인	-13456
▁조사했다	-13457
▁주지사와	-13458
▁지도자를	-13459
▁최저치를	-13460
▁추구하는	-13461
▁추락했다	-13462
▁친구들과	-13463
▁컬럼비아	-13464
▁킬로미터	-13465
▁타임스가	-13466
▁터키군은	-13467
▁테스트를	-13468
▁특파원이	-13469
▁판매하는	-13470
▁팔레스타	-13471
▁페르난도	-13472
▁푸에르토	-13473
▁풀려났다	-13474
▁해변에서	-13475
▁행동으로	-13476
▁국방장관이	-13477
▁도착했다고	-13478
▁러시아에서	-13479
▁메드베데프	-13480
▁무장단체가	-13481
▁발견했으며	-13482
▁사무실에서	-13483
▁스피어스의	-13484
▁용의자들이	-13485
▁이루어지고	-13486
▁이스라엘군	-13487
▁전반적으로	-13488
▁정상적으로	-13489
▁참가자들은	-13490
▁토네이도가	-13491
▁필요하다는	-13492
▁희생자들이	-13493
2007.09	-13494
2007.11	-13495
akistan	-13496
▁달라이라마는	-13497
▁대통합민주신	-13498
▁이스라엘군은	-13499
▁천문학자들은	-13500
▁프리메라리가	-13501
National	-13502
▁2006.01	-13503
13	-13504
22	-13505
49	-13506
7-	-13507
GM	-13508
MD	-13509
My	-13510
Sp	-13511
▁Q	-13512
▁갓	-13513
▁깜	-13514
▁꿀	-13515
▁뭉	-13516
▁삽	-13517
▁쉴	-13518
▁쏜	-13519
▁젖	-13520
▁족	-13521
▁컸	-13522
▁펌	-13523
▁휠	-13524
감과	-13525
객이	-13526
그리	-13527
글리	-13528
네트	-13529
노프	-13530
다르	-13531
델라	-13532
됐기	-13533
둘러	-13534
라서	-13535
락이	-13536
렐은	-13537
로써	-13538
마드	-13539
마켓	-13540
맨은	-13541
먼이	-13542
배나	-13543
법과	-13544
변을	-13545
세스	-13546
센티	-13547
스케	-13548
시스	-13549
씨와	-13550
액이	-13551
연상	-13552
우가	-13553
월말	-13554
웰은	-13555
유권	-13556
전인	-13557
조는	-13558
직원	-13559
차이	-13560
처에	-13561
철도	-13562
청을	-13563
탄과	-13564
통이	-13565
팍스	-13566
700	-13567
ECD	-13568
ext	-13569
gra	-13570
tig	-13571
▁&#	-13572
▁2/	-13573
▁98	-13574
▁Ge	-13575
▁HD	-13576
▁Or	-13577
▁it	-13578
▁no	-13579
▁간첩	-13580
▁걸고	-13581
▁공부	-13582
▁공안	-13583
▁공직	-13584
▁공학	-13585
▁권유	-13586
▁그냥	-13587
▁그랜	-13588
▁글렌	-13589
▁급파	-13590
▁기번	-13591
▁깨달	-13592
▁날을	-13593
▁남을	-13594
▁납세	-13595
▁내게	-13596
▁냉각	-13597
▁농구	-13598
▁누설	-13599
▁대조	-13600
▁덩어	-13601
▁동요	-13602
▁동일	-13603
▁됐던	-13604
▁랜드	-13605
▁리타	-13606
▁마오	-13607
▁맡아	-13608
▁매체	-13609
▁모닝	-13610
▁무려	-13611
▁민감	-13612
▁밀러	-13613
▁발자	-13614
▁벽에	-13615
▁보아	-13616
▁볼튼	-13617
▁부의	-13618
▁불태	-13619
▁비치	-13620
▁사장	-13621
▁상임	-13622
▁새해	-13623
▁생기	-13624
▁생후	-13625
▁샤론	-13626
▁서해	-13627
▁섬에	-13628
▁성당	-13629
▁쇼에	-13630
▁수염	-13631
▁시체	-13632
▁시키	-13633
▁신설	-13634
▁싱글	-13635
▁싸울	-13636
▁애널	-13637
▁앵커	-13638
▁얼어	-13639
▁에밀	-13640
▁여야	-13641
▁영입	-13642
▁올랜	-13643
▁외각	-13644
▁요금	-13645
▁요소	-13646
▁우드	-13647
▁원격	-13648
▁유아	-13649
▁의지	-13650
▁일곱	-13651
▁잃을	-13652
▁임박	-13653
▁임원	-13654
▁자부	-13655
▁잡기	-13656
▁잡을	-13657
▁잡힌	-13658
▁적힌	-13659
▁접한	-13660
▁제국	-13661
▁조달	-13662
▁조카	-13663
▁지미	-13664
▁지에	-13665
▁지표	-13666
▁집이	-13667
▁쫓겨	-13668
▁청원	-13669
▁체인	-13670
▁추도	-13671
▁클로	-13672
▁토끼	-13673
▁퇴진	-13674
▁투기	-13675
▁팀에	-13676
▁펠리	-13677
▁평창	-13678
▁	-13679
이	-13680
다	-13681
에	-13682
.	-13683
는	-13684
의	-13685
고	-13686
을	-13687
지	-13688
은	-13689
가	-13690
한	-13691
로	-13692
하	-13693
했	-13694
사	-13695
인	-13696
서	-13697
대	-13698
를	-13699
기	-13700
시	-13701
리	-13702
자	-13703
라	-13704
0	-13705
들	-13706
스	-13707
해	-13708
국	-13709
있	-13710
부	-13711
아	-13712
으	-13713
,	-13714
일	-13715
도	-13716
수	-13717
전	-13718
1	-13719
정	-13720
2	-13721
주	-13722
그	-13723
장	-13724
보	-13725
나	-13726
것	-13727
미	-13728
원	-13729
상	-13730
과	-13731
어	-13732
위	-13733
명	-13734
e	-13735
제	-13736
관	-13737
며	-13738
만	-13739
경	-13740
니	-13741
“	-13742
러	-13743
”	-13744
마	-13745
게	-13746
적	-13747
중	-13748
비	-13749
a	-13750
(	-13751
)	-13752
통	-13753
드	-13754
동	-13755
구	-13756
회	-13757
간	-13758
공	-13759
소	-13760
o	-13761
와	-13762
t	-13763
발	-13764
i	-13765
성	-13766
말	-13767
조	-13768
유	-13769
트	-13770
오	-13771
무	-13772
선	-13773
당	-13774
우	-13775
n	-13776
할	-13777
신	-13778
r	-13779
계	-13780
화	-13781
여	-13782
5	-13783
3	-13784
문	-13785
바	-13786
치	-13787
안	-13788
년	-13789
었	-13790
세	-13791
s	-13792
방	-13793
르	-13794
난	-13795
밝	-13796
프	-13797
진	-13798
연	-13799
행	-13800
후	-13801
생	-13802
영	-13803
거	-13804
모	-13805
되	-13806
크	-13807
터	-13808
된	-13809
6	-13810
개	-13811
9	-13812
4	-13813
내	-13814
면	-13815
현	-13816
요	-13817
혔	-13818
8	-13819
용	-13820
군	-13821
타	-13822
실	-13823
레	-13824
재	-13825
령	-13826
파	-13827
반	-13828
결	-13829
포	-13830
않	-13831
7	-13832
차	-13833
번	-13834
l	-13835
단	-13836
"	-13837
체	-13838
표	-13839
운	-13840
민	-13841
교	-13842
달	-13843
월	-13844
던	-13845
역	-13846
려	-13847
호	-13848
카	-13849
분	-13850
c	-13851
야	-13852
입	-13853
예	-13854
금	-13855
물	-13856
북	-13857
A	-13858
작	-13859
력	-13860
됐	-13861
최	-13862
식	-13863
건	-13864
산	-13865
노	-13866
습	-13867
데	-13868
임	-13869
키	-13870
감	-13871
출	-13872
속	-13873
법	-13874
학	-13875
받	-13876
격	-13877
총	-13878
피	-13879
린	-13880
매	-13881
알	-13882
남	-13883
았	-13884
m	-13885
변	-13886
직	-13887
찰	-13888
두	-13889
설	-13890
약	-13891
업	-13892
h	-13893
불	-13894
d	-13895
없	-13896
C	-13897
디	-13898
강	-13899
람	-13900
베	-13901
코	-13902
’	-13903
버	-13904
더	-13905
음	-13906
N	-13907
탄	-13908
망	-13909
승	-13910
폭	-13911
테	-13912
였	-13913
u	-13914
심	-13915
까	-13916
토	-13917
히	-13918
살	-13919
올	-13920
태	-13921
각	-13922
근	-13923
S	-13924
른	-13925
언	-13926
합	-13927
'	-13928
질	-13929
브	-13930
권	-13931
티	-13932
외	-13933
처	-13934
본	-13935
편	-13936
양	-13937
추	-13938
때	-13939
담	-13940
석	-13941
함	-13942
판	-13943
또	-13944
루	-13945
란	-13946
열	-13947
병	-13948
투	-13949
배	-13950
될	-13951
‘	-13952
독	-13953
항	-13954
p	-13955
록	-13956
등	-13957
래	-13958
집	-13959
증	-13960
졌	-13961
확	-13962
g	-13963
메	-13964
급	-13965
협	-13966
견	-13967
저	-13968
같	-13969
즈	-13970
T	-13971
따	-13972
날	-13973
종	-13974
련	-13975
P	-13976
론	-13977
목	-13978
청	-13979
I	-13980
많	-13981
-	-13982
점	-13983
네	-13984
클	-13985
%	-13986
f	-13987
료	-13988
B	-13989
복	-13990
평	-13991
페	-13992
돌	-13993
엘	-13994
환	-13995
박	-13996
케	-13997
초	-13998
든	-13999
새	-14000
송	-14001
존	-14002
뉴	-14003
악	-14004
락	-14005
검	-14006
벌	-14007
y	-14008
참	-14009
핵	-14010
측	-14011
형	-14012
못	-14013
책	-14014
억	-14015
워	-14016
턴	-14017
F	-14018
탈	-14019
량	-14020
앞	-14021
E	-14022
필	-14023
k	-14024
애	-14025
랑	-14026
준	-14027
D	-14028
백	-14029
족	-14030
활	-14031
머	-14032
M	-14033
술	-14034
능	-14035
향	-14036
획	-14037
황	-14038
품	-14039
험	-14040
친	-14041
쟁	-14042
온	-14043
절	-14044
런	-14045
범	-14046
너	-14047
붙	-14048
퍼	-14049
광	-14050
O	-14051
곳	-14052
왔	-14053
울	-14054
립	-14055
엔	-14056
객	-14057
슬	-14058
천	-14059
규	-14060
축	-14061
플	-14062
랜	-14063
U	-14064
취	-14065
침	-14066
b	-14067
논	-14068
줄	-14069
패	-14070
막	-14071
슨	-14072
착	-14073
녀	-14074
럽	-14075
w	-14076
혐	-14077
블	-14078
K	-14079
움	-14080
압	-14081
접	-14082
길	-14083
져	-14084
특	-14085
류	-14086
뒤	-14087
밀	-14088
겠	-14089
림	-14090
덧	-14091
v	-14092
렸	-14093
/	-14094
W	-14095
몇	-14096
허	-14097
채	-14098
손	-14099
쿠	-14100
팔	-14101
커	-14102
R	-14103
택	-14104
께	-14105
츠	-14106
및	-14107
늘	-14108
째	-14109
색	-14110
웨	-14111
왕	-14112
L	-14113
센	-14114
욕	-14115
콜	-14116
숨	-14117
충	-14118
철	-14119
혀	-14120
혼	-14121
극	-14122
걸	-14123
G	-14124
났	-14125
례	-14126
샤	-14127
V	-14128
름	-14129
씨	-14130
누	-14131
팀	-14132
맞	-14133
징	-14134
별	-14135
골	-14136
완	-14137
순	-14138
높	-14139
돼	-14140
잡	-14141
글	-14142
H	-14143
떨	-14144
찾	-14145
긴	-14146
휴	-14147
폐	-14148
힐	-14149
갖	-14150
죄	-14151
희	-14152
럼	-14153
틀	-14154
좋	-14155
겨	-14156
큰	-14157
램	-14158
육	-14159
갈	-14160
볼	-14161
김	-14162
릴	-14163
응	-14164
캐	-14165
쇄	-14166
냈	-14167
잘	-14168
엄	-14169
암	-14170
쪽	-14171
얼	-14172
빠	-14173
촉	-14174
빈	-14175
납	-14176
첫	-14177
끝	-14178
느	-14179
폴	-14180
헤	-14181
컴	-14182
봉	-14183
싱	-14184
J	-14185
퇴	-14186
익	-14187
괴	-14188
율	-14189
얻	-14190
염	-14191
귀	-14192
맥	-14193
픽	-14194
푸	-14195
농	-14196
넘	-14197
떠	-14198
홍	-14199
융	-14200
둔	-14201
몰	-14202
십	-14203
쳐	-14204
풍	-14205
슈	-14206
쳤	-14207
빌	-14208
텔	-14209
뷰	-14210
득	-14211
넷	-14212
놓	-14213
밖	-14214
델	-14215
앙	-14216
죽	-14217
창	-14218
&	-14219
쓰	-14220
힘	-14221
렌	-14222
켰	-14223
먼	-14224
얀	-14225
헌	-14226
킬	-14227
:	-14228
좌	-14229
둘	-14230
답	-14231
벨	-14232
맨	-14233
갔	-14234
끌	-14235
션	-14236
찬	-14237
틴	-14238
킨	-14239
널	-14240
잠	-14241
낸	-14242
떤	-14243
?	-14244
켜	-14245
튼	-14246
끼	-14247
률	-14248
콘	-14249
쇼	-14250
맹	-14251
밤	-14252
돈	-14253
풀	-14254
써	-14255
싸	-14256
몬	-14257
삼	-14258
휘	-14259
힌	-14260
롬	-14261
층	-14262
퓨	-14263
냐	-14264
균	-14265
칸	-14266
웹	-14267
덴	-14268
릭	-14269
혹	-14270
칠	-14271
뿐	-14272
굴	-14273
톤	-14274
효	-14275
랐	-14276
짐	-14277
눈	-14278
흐	-14279
앤	-14280
캘	-14281
싶	-14282
념	-14283
캠	-14284
곤	-14285
윌	-14286
놀	-14287
롤	-14288
폰	-14289
~	-14290
잃	-14291
칼	-14292
륙	-14293
잔	-14294
킹	-14295
헬	-14296
혁	-14297
팬	-14298
쉬	-14299
럴	-14300
링	-14301
몸	-14302
즉	-14303
콩	-14304
템	-14305
̋	-14306
훈	-14307
렇	-14308
섬	-14309
뤄	-14310
_	-14311
닌	-14312
벽	-14313
딸	-14314
켓	-14315
랍	-14316
뜻	-14317
낮	-14318
셀	-14319
윈	-14320
혈	-14321
액	-14322
잉	-14323
펜	-14324
x	-14325
탑	-14326
탐	-14327
먹	-14328
략	-14329
룹	-14330
맡	-14331
탁	-14332
셔	-14333
욱	-14334
섰	-14335
숙	-14336
=	-14337
펠	-14338
펼	-14339
붕	-14340
뇌	-14341
텍	-14342
핀	-14343
j	-14344
멕	-14345
믿	-14346
컵	-14347
#	-14348
탕	-14349
겼	-14350
롭	-14351
벤	-14352
겪	-14353
핑	-14354
즐	-14355
옥	-14356
짜	-14357
곡	-14358
홀	-14359
헨	-14360
웠	-14361
웃	-14362
곧	-14363
끄	-14364
갑	-14365
렀	-14366
척	-14367
떻	-14368
찍	-14369
롯	-14370
샌	-14371
엇	-14372
컨	-14373
멘	-14374
빨	-14375
큼	-14376
넣	-14377
즌	-14378
흑	-14379
깨	-14380
낼	-14381
짓	-14382
럭	-14383
렉	-14384
앨	-14385
촬	-14386
궁	-14387
닥	-14388
픈	-14389
뢰	-14390
듯	-14391
벗	-14392
솔	-14393
챔	-14394
칭	-14395
흔	-14396
닉	-14397
Y	-14398
줬	-14399
흥	-14400
쉽	-14401
딩	-14402
튜	-14403
흡	-14404
뜨	-14405
랭	-14406
낙	-14407
젊	-14408
뛰	-14409
녹	-14410
랄	-14411
빙	-14412
꾸	-14413
봤	-14414
덕	-14415
텐	-14416
춘	-14417
q	-14418
렬	-14419
묘	-14420
캔	-14421
멸	-14422
웅	-14423
첼	-14424
삭	-14425
냉	-14426
덜	-14427
혜	-14428
털	-14429
졸	-14430
햄	-14431
홈	-14432
랙	-14433
섭	-14434
젤	-14435
켈	-14436
깊	-14437
냥	-14438
옮	-14439
늄	-14440
값	-14441
z	-14442
딕	-14443
컬	-14444
밴	-14445
옷	-14446
쥐	-14447
닝	-14448
빅	-14449
랫	-14450
븐	-14451
촌	-14452
넬	-14453
왜	-14454
X	-14455
팅	-14456
빛	-14457
쿄	-14458
렵	-14459
멜	-14460
슷	-14461
앉	-14462
윤	-14463
잭	-14464
딘	-14465
맺	-14466
젠	-14467
늦	-14468
닐	-14469
땅	-14470
묻	-14471
둥	-14472
젝	-14473
님	-14474
뮤	-14475
삶	-14476
셰	-14477
틱	-14478
첨	-14479
톰	-14480
렘	-14481
씩	-14482
갤	-14483
됩	-14484
잇	-14485
끊	-14486
춰	-14487
걱	-14488
딜	-14489
좀	-14490
듣	-14491
롱	-14492
싼	-14493
;	-14494
칙	-14495
녁	-14496
켄	-14497
펀	-14498
겐	-14499
옹	-14500
웰	-14501
큐	-14502
컷	-14503
돕	-14504
멀	-14505
섯	-14506
긍	-14507
쁜	-14508
쇠	-14509
흘	-14510
닷	-14511
묵	-14512
얄	-14513
덮	-14514
뒀	-14515
룬	-14516
쌍	-14517
꺼	-14518
섹	-14519
휩	-14520
쓸	-14521
봇	-14522
곽	-14523
몽	-14524
쁘	-14525
룩	-14526
쯤	-14527
꿈	-14528
낳	-14529
듀	-14530
렛	-14531
캄	-14532
므	-14533
짝	-14534
톨	-14535
꺾	-14536
끔	-14537
멋	-14538
밍	-14539
씬	-14540
첩	-14541
州	-14542
덩	-14543
Z	-14544
곰	-14545
빼	-14546
옆	-14547
넓	-14548
엑	-14549
룸	-14550
얘	-14551
콤	-14552
앓	-14553
콰	-14554
넨	-14555
훌	-14556
붉	-14557
뼈	-14558
`	-14559
뿌	-14560
숭	-14561
!	-14562
꾼	-14563
륭	-14564
쾌	-14565
밑	-14566
뽑	-14567
콧	-14568
낭	-14569
릿	-14570
릎	-14571
빚	-14572
죠	-14573
훨	-14574
흉	-14575
룰	-14576
앗	-14577
즘	-14578
틸	-14579
횡	-14580
美	-14581
샘	-14582
슴	-14583
콕	-14584
겁	-14585
봄	-14586
빗	-14587
훼	-14588
걷	-14589
덤	-14590
뒷	-14591
[	-14592
셉	-14593
첸	-14594
멍	-14595
뭄	-14596
봐	-14597
]	-14598
멈	-14599
퀴	-14600
쏟	-14601
촨	-14602
떼	-14603
렐	-14604
숫	-14605
짧	-14606
쫓	-14607
똑	-14608
쌓	-14609
옐	-14610
탠	-14611
탱	-14612
궤	-14613
왈	-14614
깔	-14615
듭	-14616
맛	-14617
슐	-14618
읽	-14619
뀌	-14620
렴	-14621
뱀	-14622
왼	-14623
웬	-14624
닫	-14625
셋	-14626
꼭	-14627
댄	-14628
뱅	-14629
헐	-14630
*	-14631
겸	-14632
깃	-14633
묶	-14634
쓴	-14635
췄	-14636
끈	-14637
좁	-14638
춤	-14639
갇	-14640
밥	-14641
쌀	-14642
엠	-14643
꼬	-14644
꽃	-14645
셜	-14646
숀	-14647
팽	-14648
훔	-14649
흰	-14650
룡	-14651
벅	-14652
벼	-14653
갱	-14654
꿀	-14655
멤	-14656
Q	-14657
겔	-14658
됨	-14659
잊	-14660
퀸	-14661
깝	-14662
킥	-14663
턱	-14664
뷔	-14665
왓	-14666
놈	-14667
콥	-14668
흙	-14669
랩	-14670
줘	-14671
딪	-14672
벳	-14673
핸	-14674
숲	-14675
낀	-14676
낄	-14677
썼	-14678
탔	-14679
톱	-14680
솟	-14681
옛	-14682
퀘	-14683
셸	-14684
슛	-14685
툼	-14686
팝	-14687
괄	-14688
꼈	-14689
윔	-14690
싫	-14691
눴	-14692
밟	-14693
앵	-14694
쿨	-14695
톡	-14696
햇	-14697
껴	-14698
넌	-14699
쏘	-14700
붐	-14701
팩	-14702
社	-14703
넹	-14704
띄	-14705
툴	-14706
펄	-14707
낌	-14708
놨	-14709
닙	-14710
딴	-14711
쿼	-14712
킴	-14713
펴	-14714
밸	-14715
픔	-14716
뚫	-14717
셨	-14718
툰	-14719
·	-14720
끗	-14721
샬	-14722
옳	-14723
찮	-14724
칩	-14725
뇨	-14726
랬	-14727
찌	-14728
펭	-14729
곱	-14730
뉘	-14731
댈	-14732
믹	-14733
벡	-14734
녔	-14735
눌	-14736
굉	-14737
굳	-14738
굿	-14739
꼽	-14740
렁	-14741
엉	-14742
팍	-14743
팜	-14744
귄	-14745
깁	-14746
껏	-14747
눠	-14748
둑	-14749
뻐	-14750
섞	-14751
왁	-14752
튀	-14753
궐	-14754
냄	-14755
닭	-14756
뤘	-14757
쉐	-14758
헝	-14759
괜	-14760
꿔	-14761
닛	-14762
뿔	-14763
잎	-14764
헴	-14765
前	-14766
뚜	-14767
뤼	-14768
뮌	-14769
빵	-14770
촛	-14771
펙	-14772
흩	-14773
뚱	-14774
맘	-14775
펌	-14776
긋	-14777
닿	-14778
륜	-14779
셈	-14780
앰	-14781
쩌	-14782
챙	-14783
풋	-14784
́	-14785
댐	-14786
붓	-14787
썩	-14788
홉	-14789
댓	-14790
돋	-14791
쉴	-14792
쯔	-14793
폼	-14794
핏	-14795
윗	-14796
틈	-14797
넥	-14798
돔	-14799
엽	-14800
옵	-14801
췌	-14802
횟	-14803
•	-14804
▶	-14805
꽤	-14806
릇	-14807
뮬	-14808
뻔	-14809
팟	-14810
갓	-14811
굶	-14812
깜	-14813
둬	-14814
띠	-14815
볍	-14816
삽	-14817
웍	-14818
캥	-14819
탓	-14820
팰	-14821
겹	-14822
궈	-14823
놔	-14824
릅	-14825
쁨	-14826
젖	-14827
퉁	-14828
푼	-14829
낫	-14830
닮	-14831
듬	-14832
딱	-14833
룽	-14834
맵	-14835
멧	-14836
찔	-14837
탬	-14838
힉	-14839
뭇	-14840
뭉	-14841
솜	-14842
싣	-14843
젭	-14844
츨	-14845
캣	-14846
켐	-14847
쿤	-14848
탤	-14849
펫	-14850
휠	-14851
쏜	-14852
옌	-14853
짙	-14854
캡	-14855
컸	-14856
튠	-14857
곁	-14858
낡	-14859
덱	-14860
둠	-14861
밭	-14862
볕	-14863
샀	-14864
쥬	-14865
짖	-14866
쳇	-14867
츄	-14868
덟	-14869
몫	-14870
봅	-14871
윙	-14872
핍	-14873
핫	-14874
굽	-14875
맑	-14876
맙	-14877
뭔	-14878
샴	-14879
숍	-14880
엎	-14881
잦	-14882
쩔	-14883
콴	-14884
$	-14885
꼼	-14886
낚	-14887
늬	-14888
뜯	-14889
럿	-14890
렷	-14891
벵	-14892
빔	-14893
뻗	-14894
씻	-14895
긱	-14896
뱃	-14897
쐈	-14898
얹	-14899
캇	-14900
흠	-14901
反	-14902
英	-14903
깅	-14904
깐	-14905
꾀	-14906
꿨	-14907
댕	-14908
뚝	-14909
띤	-14910
뭐	-14911
샨	-14912
쉘	-14913
팻	-14914
퐁	-14915
±	-14916
市	-14917
꽂	-14918
꽉	-14919
뀔	-14920
늑	-14921
랏	-14922
룻	-14923
셴	-14924
쑤	-14925
씀	-14926
얇	-14927
윅	-14928
챌	-14929
킷	-14930
텀	-14931
팡	-14932
펑	-14933
뎌	-14934
둡	-14935
슭	-14936
썹	-14937
쏴	-14938
옴	-14939
쟈	-14940
줌	-14941
콸	-14942
깎	-14943
뀐	-14944
눕	-14945
뜰	-14946
랴	-14947
맷	-14948
뭘	-14949
샵	-14950
샹	-14951
셍	-14952
씌	-14953
쿡	-14954
헥	-14955
性	-14956
故	-14957
꼴	-14958
뎀	-14959
륨	-14960
몹	-14961
샷	-14962
싹	-14963
쏠	-14964
쥔	-14965
쪼	-14966
챈	-14967
팸	-14968
퍽	-14969
新	-14970
겉	-14971
깥	-14972
넛	-14973
랠	-14974
벙	-14975
삐	-14976
샐	-14977
싯	-14978
엣	-14979
엿	-14980
웸	-14981
잰	-14982
젼	-14983
줍	-14984
찢	-14985
찼	-14986
칫	-14987
쾰	-14988
쿵	-14989
핼	-14990
갚	-14991
궂	-14992
끓	-14993
녕	-14994
렝	-14995
맴	-14996
