<pad>	0
<s>	0
</s>	0
<unk>	0
▁t	-0
▁a	-1
he	-2
in	-3
▁s	-4
▁the	-5
re	-6
on	-7
er	-8
▁w	-9
▁.	-10
▁c	-11
▁o	-12
en	-13
▁p	-14
▁b	-15
an	-16
ed	-17
at	-18
or	-19
▁f	-20
it	-21
▁m	-22
es	-23
▁in	-24
is	-25
ar	-26
ing	-27
▁to	-28
▁h	-29
al	-30
▁an	-31
▁of	-32
▁d	-33
ou	-34
as	-35
ic	-36
id	-37
▁n	-38
le	-39
▁and	-40
ion	-41
ro	-42
il	-43
▁th	-44
ent	-45
▁re	-46
▁l	-47
▁g	-48
▁e	-49
ay	-50
om	-51
▁be	-52
ve	-53
▁u	-54
st	-55
ad	-56
▁on	-57
ut	-58
▁st	-59
▁sa	-60
▁for	-61
ol	-62
▁he	-63
ir	-64
ter	-65
ur	-66
▁k	-67
ac	-68
im	-69
ig	-70
am	-71
▁said	-72
ly	-73
ot	-74
ec	-75
▁is	-76
ation	-77
ver	-78
▁that	-79
ill	-80
ore	-81
▁we	-82
▁r	-83
et	-84
▁it	-85
ow	-86
ld	-87
us	-88
▁wh	-89
▁y	-90
▁as	-91
▁at	-92
th	-93
▁j	-94
▁was	-95
▁de	-96
ce	-97
▁al	-98
ith	-99
▁ch	-100
▁con	-101
▁with	-102
un	-103
oun	-104
ers	-105
ts	-106
▁ne	-107
ment	-108
res	-109
se	-110
▁pro	-111
▁1	-112
day	-113
op	-114
ate	-115
▁v	-116
ak	-117
est	-118
her	-119
el	-120
ul	-121
▁com	-122
and	-123
ain	-124
ri	-125
▁un	-126
ist	-127
ap	-128
▁le	-129
ave	-130
rom	-131
ch	-132
ct	-133
ag	-134
▁se	-135
▁2	-136
▁sh	-137
▁from	-138
▁by	-139
igh	-140
os	-141
ial	-142
if	-143
▁has	-144
ort	-145
▁sp	-146
▁su	-147
ear	-148
▁af	-149
▁are	-150
ast	-151
▁ex	-152
▁his	-153
▁off	-154
▁have	-155
▁go	-156
art	-157
ity	-158
00	-159
red	-160
pp	-161
ies	-162
▁ab	-163
ice	-164
oc	-165
▁pres	-166
▁tr	-167
ould	-168
out	-169
▁kore	-170
▁year	-171
end	-172
our	-173
▁will	-174
▁but	-175
em	-176
ident	-177
ab	-178
um	-179
ack	-180
ong	-181
▁rep	-182
▁not	-183
▁were	-184
▁ag	-185
▁ar	-186
ive	-187
ud	-188
▁pl	-189
all	-190
ian	-191
od	-192
▁wor	-193
ess	-194
qu	-195
▁who	-196
ia	-197
▁new	-198
iv	-199
▁pol	-200
ary	-201
▁or	-202
cc	-203
▁pe	-204
gh	-205
▁cl	-206
▁after	-207
▁they	-208
ry	-209
▁mon	-210
ie	-211
ight	-212
ect	-213
▁whe	-214
ust	-215
ok	-216
ren	-217
▁had	-218
ich	-219
ound	-220
ost	-221
mer	-222
ome	-223
ard	-224
ide	-225
▁been	-226
▁ro	-227
ant	-228
▁president	-229
ge	-230
ra	-231
▁this	-232
▁i	-233
▁min	-234
▁(	-235
▁its	-236
▁tw	-237
ther	-238
▁their	-239
▁res	-240
▁peop	-241
▁say	-242
▁people	-243
▁out	-244
▁ad	-245
ign	-246
▁int	-247
▁offic	-248
▁about	-249
▁more	-250
ber	-251
ord	-252
ount	-253
ated	-254
vern	-255
uc	-256
ime	-257
▁ir	-258
ine	-259
ans	-260
▁per	-261
▁pr	-262
ions	-263
▁two	-264
▁part	-265
▁me	-266
▁exp	-267
▁govern	-268
ks	-269
▁sec	-270
▁inc	-271
▁comp	-272
▁acc	-273
▁up	-274
▁her	-275
▁nor	-276
▁en	-277
ace	-278
▁korea	-279
▁3	-280
▁dis	-281
▁which	-282
▁all	-283
▁over	-284
ous	-285
▁she	-286
ree	-287
▁man	-288
▁one	-289
ations	-290
iz	-291
ough	-292
▁cont	-293
ke	-294
so	-295
esday	-296
▁gr	-297
▁government	-298
age	-299
ates	-300
pt	-301
▁would	-302
▁official	-303
▁mil	-304
▁mar	-305
▁att	-306
cent	-307
▁br	-308
ib	-309
ip	-310
▁than	-311
▁north	-312
man	-313
▁state	-314
ub	-315
ational	-316
▁count	-317
ors	-318
▁inter	-319
▁us	-320
▁also	-321
▁do	-322
▁sc	-323
▁cr	-324
av	-325
ure	-326
▁fir	-327
own	-328
ang	-329
der	-330
ass	-331
▁im	-332
▁comm	-333
ff	-334
ical	-335
▁other	-336
▁200	-337
▁5	-338
ue	-339
ake	-340
ite	-341
ters	-342
ile	-343
outh	-344
▁can	-345
nn	-346
▁no	-347
▁ind	-348
ail	-349
▁last	-350
lo	-351
▁day	-352
hed	-353
▁police	-354
aq	-355
▁mo	-356
▁jo	-357
ish	-358
▁when	-359
▁dec	-360
ited	-361
▁first	-362
ond	-363
ire	-364
▁south	-365
▁iraq	-366
▁app	-367
ict	-368
ence	-369
ition	-370
▁4	-371
▁lead	-372
▁la	-373
▁so	-374
▁qu	-375
ell	-376
▁te	-377
▁there	-378
▁wee	-379
▁milit	-380
illion	-381
ase	-382
▁inv	-383
▁bus	-384
lect	-385
▁co	-386
▁am	-387
▁bec	-388
act	-389
▁dem	-390
int	-391
▁some	-392
▁into	-393
ade	-394
▁report	-395
▁fin	-396
one	-397
▁ob	-398
▁car	-399
▁19	-400
ild	-401
iss	-402
▁cam	-403
ince	-404
▁ev	-405
ning	-406
og	-407
▁fr	-408
▁chin	-409
▁ear	-410
▁ser	-411
ied	-412
aus	-413
▁bl	-414
ep	-415
▁kill	-416
lic	-417
old	-418
enc	-419
▁war	-420
▁tal	-421
▁told	-422
oup	-423
▁op	-424
▁time	-425
ll	-426
ose	-427
▁world	-428
ned	-429
ress	-430
ru	-431
lear	-432
▁li	-433
▁years	-434
▁work	-435
ved	-436
▁percent	-437
ance	-438
▁pre	-439
▁fe	-440
▁call	-441
▁korean	-442
ally	-443
itt	-444
▁sun	-445
ama	-446
lud	-447
▁bo	-448
ens	-449
▁elect	-450
ey	-451
li	-452
▁month	-453
very	-454
▁6	-455
are	-456
▁them	-457
▁week	-458
▁00	-459
ater	-460
▁again	-461
▁accord	-462
wn	-463
▁united	-464
▁you	-465
we	-466
orts	-467
ities	-468
con	-469
▁par	-470
▁000	-471
▁act	-472
▁officials	-473
▁could	-474
ces	-475
fe	-476
▁fl	-477
oll	-478
▁according	-479
▁if	-480
▁under	-481
reat	-482
▁country	-483
▁includ	-484
arg	-485
hing	-486
▁bet	-487
▁party	-488
▁imp	-489
▁three	-490
▁cons	-491
ister	-492
▁tu	-493
▁ass	-494
▁says	-495
▁monday	-496
orm	-497
urs	-498
▁national	-499
▁rec	-500
ked	-501
▁news	-502
▁air	-503
ese	-504
▁sur	-505
uring	-506
▁lo	-507
vers	-508
ected	-509
▁military	-510
▁kn	-511
▁plan	-512
▁tuesday	-513
ause	-514
ons	-515
▁cent	-516
meric	-517
ory	-518
▁americ	-519
▁just	-520
▁intern	-521
▁wed	-522
▁states	-523
ings	-524
▁may	-525
▁reg	-526
▁ter	-527
ath	-528
able	-529
▁ban	-530
ft	-531
fore	-532
ital	-533
ult	-534
ach	-535
▁group	-536
▁aut	-537
▁down	-538
ublic	-539
▁obama	-540
▁old	-541
▁sen	-542
▁him	-543
istan	-544
▁minister	-545
▁attack	-546
▁fore	-547
▁end	-548
▁spok	-549
▁win	-550
▁what	-551
▁supp	-552
nesday	-553
▁wednesday	-554
apan	-555
▁japan	-556
ased	-557
▁before	-558
cnn	-559
land	-560
▁ac	-561
▁dep	-562
▁most	-563
▁rem	-564
▁since	-565
ah	-566
▁ann	-567
ouse	-568
▁rel	-569
▁8	-570
leg	-571
▁sunday	-572
▁against	-573
▁econ	-574
▁million	-575
▁show	-576
uclear	-577
▁econom	-578
▁like	-579
▁now	-580
ious	-581
▁back	-582
▁cap	-583
rat	-584
ency	-585
▁any	-586
▁law	-587
▁how	-588
ket	-589
ents	-590
med	-591
▁bush	-592
▁gen	-593
▁china	-594
▁nuclear	-595
▁mem	-596
ix	-597
▁ph	-598
▁where	-599
rop	-600
▁des	-601
▁invest	-602
▁em	-603
row	-604
ced	-605
app	-606
▁prov	-607
ists	-608
▁near	-609
▁killed	-610
uss	-611
▁po	-612
▁med	-613
king	-614
way	-615
▁add	-616
▁prot	-617
▁secur	-618
▁during	-619
▁bro	-620
vel	-621
▁city	-622
▁because	-623
▁str	-624
aking	-625
▁spokes	-626
▁get	-627
ton	-628
▁made	-629
ursday	-630
▁former	-631
▁thursday	-632
▁bu	-633
gan	-634
led	-635
hn	-636
ame	-637
rest	-638
▁reported	-639
az	-640
▁security	-641
▁while	-642
▁bar	-643
▁only	-644
air	-645
ween	-646
▁ins	-647
other	-648
▁thr	-649
▁four	-650
▁democ	-651
▁between	-652
ered	-653
ating	-654
▁cour	-655
orn	-656
▁tur	-657
ants	-658
▁ret	-659
▁house	-660
gr	-661
du	-662
▁high	-663
▁bel	-664
▁being	-665
▁def	-666
▁inf	-667
▁found	-668
▁10	-669
▁ma	-670
ution	-671
▁z	-672
oss	-673
▁my	-674
▁compan	-675
eral	-676
▁sm	-677
▁brit	-678
▁gu	-679
▁col	-680
▁meet	-681
▁mus	-682
und	-683
anc	-684
▁many	-685
ood	-686
rent	-687
▁stud	-688
▁ap	-689
▁wom	-690
▁hel	-691
▁through	-692
▁camp	-693
ai	-694
▁vis	-695
▁miss	-696
hor	-697
▁tri	-698
▁conf	-699
▁set	-700
▁rele	-701
les	-702
▁child	-703
▁sy	-704
ester	-705
ral	-706
▁head	-707
ops	-708
ower	-709
xt	-710
ick	-711
▁called	-712
ert	-713
▁fam	-714
▁long	-715
▁author	-716
ments	-717
ret	-718
▁including	-719
▁play	-720
▁eu	-721
▁ref	-722
ared	-723
omb	-724
▁cnn	-725
▁foreign	-726
▁ve	-727
ward	-728
▁press	-729
▁won	-730
▁did	-731
▁our	-732
ling	-733
ork	-734
als	-735
ife	-736
▁international	-737
▁run	-738
▁help	-739
▁opp	-740
▁vi	-741
ision	-742
ss	-743
ug	-744
ily	-745
ung	-746
▁tro	-747
olog	-748
▁six	-749
ands	-750
▁disc	-751
min	-752
ange	-753
▁polit	-754
imes	-755
▁home	-756
▁reports	-757
oul	-758
▁che	-759
▁9	-760
ms	-761
ble	-762
▁democrat	-763
ric	-764
▁second	-765
bers	-766
ise	-767
me	-768
▁20	-769
▁spokesman	-770
▁sch	-771
▁see	-772
ful	-773
▁eff	-774
▁iss	-775
▁days	-776
▁statement	-777
▁take	-778
▁sl	-779
▁conc	-780
▁eng	-781
▁next	-782
▁resp	-783
▁talks	-784
ual	-785
▁way	-786
ives	-787
ting	-788
▁public	-789
ized	-790
▁five	-791
▁announ	-792
▁num	-793
▁those	-794
▁death	-795
▁still	-796
ind	-797
rael	-798
▁israel	-799
ying	-800
atur	-801
ief	-802
▁bot	-803
▁serv	-804
ction	-805
▁court	-806
io	-807
ures	-808
▁even	-809
▁loc	-810
▁sus	-811
▁spe	-812
▁troops	-813
ries	-814
sel	-815
▁pak	-816
▁open	-817
▁investig	-818
▁make	-819
▁need	-820
ross	-821
hern	-822
▁det	-823
▁seoul	-824
iew	-825
▁prime	-826
▁maj	-827
▁ra	-828
ink	-829
ics	-830
ivers	-831
▁least	-832
ecut	-833
▁top	-834
▁pakistan	-835
▁terr	-836
ool	-837
▁sign	-838
istr	-839
▁afgh	-840
▁around	-841
▁american	-842
att	-843
ven	-844
osed	-845
istry	-846
gram	-847
ices	-848
▁recent	-849
▁another	-850
▁ke	-851
▁vot	-852
▁start	-853
iday	-854
▁susp	-855
▁hour	-856
▁contin	-857
▁program	-858
ady	-859
▁want	-860
▁pal	-861
▁cor	-862
ollow	-863
▁dire	-864
▁afghan	-865
▁market	-866
▁hum	-867
ible	-868
oci	-869
▁ministry	-870
▁follow	-871
▁such	-872
▁trans	-873
ages	-874
ather	-875
▁then	-876
▁clint	-877
▁oper	-878
▁pers	-879
▁viol	-880
ash	-881
per	-882
▁iran	-883
alth	-884
▁major	-885
▁visit	-886
▁put	-887
▁commun	-888
▁vict	-889
▁contro	-890
ior	-891
▁clinton	-892
▁washing	-893
ee	-894
ained	-895
▁leader	-896
ody	-897
▁spec	-898
▁every	-899
▁washington	-900
ged	-901
▁big	-902
▁russ	-903
uch	-904
▁bomb	-905
▁fil	-906
▁mor	-907
ians	-908
▁office	-909
ute	-910
▁should	-911
osp	-912
▁company	-913
osition	-914
▁retur	-915
▁secret	-916
▁dr	-917
▁cur	-918
te	-919
▁pa	-920
▁belie	-921
ights	-922
▁times	-923
▁saying	-924
▁agency	-925
ger	-926
▁expected	-927
ense	-928
ern	-929
▁presidential	-930
oot	-931
▁ed	-932
▁don	-933
▁fire	-934
▁pass	-935
▁look	-936
▁well	-937
▁forces	-938
ought	-939
▁dead	-940
aim	-941
au	-942
▁chief	-943
▁nation	-944
ative	-945
▁inst	-946
ient	-947
▁members	-948
ular	-949
▁cond	-950
ism	-951
ving	-952
▁ext	-953
▁very	-954
▁power	-955
hip	-956
rope	-957
▁direct	-958
aign	-959
ility	-960
▁europe	-961
atch	-962
▁children	-963
▁campaign	-964
ins	-965
▁support	-966
ph	-967
▁sub	-968
▁sold	-969
ale	-970
ird	-971
▁ent	-972
▁billion	-973
▁good	-974
▁far	-975
feren	-976
▁bank	-977
▁main	-978
▁york	-979
amp	-980
▁both	-981
hes	-982
▁pop	-983
▁earli	-984
▁sever	-985
▁leg	-986
▁political	-987
ner	-988
arch	-989
▁school	-990
▁est	-991
▁ge	-992
▁died	-993
aw	-994
▁mcc	-995
▁coun	-996
▁early	-997
▁leaders	-998
▁199	-999
ember	-1000
▁satur	-1001
▁authorities	-1002
▁arrest	-1003
▁deal	-1004
▁john	-1005
▁british	-1006
▁rest	-1007
▁several	-1008
rib	-1009
used	-1010
aster	-1011
▁saturday	-1012
▁know	-1013
▁15	-1014
▁earlier	-1015
ament	-1016
▁wr	-1017
ock	-1018
▁30	-1019
▁sw	-1020
▁incre	-1021
▁hop	-1022
▁white	-1023
▁friday	-1024
▁election	-1025
ier	-1026
ull	-1027
▁ce	-1028
▁months	-1029
▁art	-1030
▁hal	-1031
▁tak	-1032
gg	-1033
▁number	-1034
ured	-1035
▁crit	-1036
ific	-1037
▁kim	-1038
▁countries	-1039
ark	-1040
ene	-1041
▁move	-1042
▁chinese	-1043
gress	-1044
▁bur	-1045
▁cre	-1046
▁meeting	-1047
▁pri	-1048
▁women	-1049
▁iraqi	-1050
▁claim	-1051
▁arm	-1052
▁left	-1053
ator	-1054
▁team	-1055
▁health	-1056
▁democratic	-1057
son	-1058
▁inj	-1059
▁sent	-1060
▁going	-1061
▁capital	-1062
gy	-1063
reed	-1064
ines	-1065
▁fed	-1066
ty	-1067
▁came	-1068
duc	-1069
▁neg	-1070
▁among	-1071
▁own	-1072
▁rul	-1073
▁terror	-1074
ison	-1075
line	-1076
port	-1077
▁poss	-1078
▁took	-1079
▁night	-1080
velop	-1081
▁build	-1082
▁family	-1083
▁pros	-1084
▁dif	-1085
artment	-1086
up	-1087
ued	-1088
▁associ	-1089
▁cal	-1090
▁economic	-1091
▁aff	-1092
▁hosp	-1093
▁general	-1094
▁11	-1095
iness	-1096
▁tour	-1097
▁expl	-1098
orters	-1099
▁organ	-1100
▁person	-1101
▁hospital	-1102
▁har	-1103
▁prev	-1104
▁star	-1105
▁used	-1106
▁later	-1107
▁univers	-1108
▁men	-1109
▁much	-1110
▁lee	-1111
ised	-1112
▁12	-1113
ided	-1114
▁host	-1115
ij	-1116
▁mid	-1117
▁rese	-1118
ues	-1119
▁human	-1120
▁ste	-1121
▁cand	-1122
▁develop	-1123
ves	-1124
▁peace	-1125
ony	-1126
▁sum	-1127
ched	-1128
▁charg	-1129
ky	-1130
▁life	-1131
gin	-1132
▁char	-1133
▁threat	-1134
▁ago	-1135
▁bag	-1136
▁yester	-1137
▁yesterday	-1138
ax	-1139
loy	-1140
ests	-1141
▁gre	-1142
▁ant	-1143
▁alleg	-1144
its	-1145
stem	-1146
▁prom	-1147
▁secretary	-1148
ames	-1149
▁adv	-1150
▁tele	-1151
ened	-1152
▁pen	-1153
ones	-1154
▁civ	-1155
▁allow	-1156
▁aust	-1157
▁announced	-1158
ont	-1159
ains	-1160
▁fac	-1161
▁sout	-1162
▁think	-1163
uel	-1164
▁record	-1165
▁hy	-1166
▁sim	-1167
▁free	-1168
▁admin	-1169
▁system	-1170
ired	-1171
ys	-1172
ets	-1173
▁site	-1174
▁test	-1175
▁post	-1176
bal	-1177
▁grow	-1178
▁held	-1179
▁stre	-1180
▁past	-1181
▁area	-1182
▁hold	-1183
▁candid	-1184
▁glo	-1185
▁met	-1186
▁ger	-1187
▁san	-1188
▁same	-1189
▁region	-1190
▁committ	-1191
lam	-1192
▁poll	-1193
ted	-1194
▁den	-1195
ference	-1196
▁business	-1197
▁q	-1198
ified	-1199
▁ur	-1200
▁financ	-1201
▁oil	-1202
▁nort	-1203
▁invol	-1204
ending	-1205
side	-1206
▁right	-1207
▁tec	-1208
ects	-1209
▁use	-1210
▁const	-1211
▁pat	-1212
▁unt	-1213
▁hand	-1214
▁today	-1215
▁hom	-1216
estin	-1217
ention	-1218
▁university	-1219
▁place	-1220
▁job	-1221
▁based	-1222
ov	-1223
▁prop	-1224
▁proble	-1225
icle	-1226
iers	-1227
ering	-1228
▁case	-1229
▁stri	-1230
ury	-1231
▁cut	-1232
▁economy	-1233
ness	-1234
▁opposition	-1235
aff	-1236
view	-1237
ize	-1238
duct	-1239
▁hit	-1240
▁third	-1241
▁released	-1242
▁these	-1243
▁department	-1244
acy	-1245
▁bre	-1246
▁hill	-1247
▁roh	-1248
▁agree	-1249
▁el	-1250
▁del	-1251
hd	-1252
▁your	-1253
to	-1254
▁morning	-1255
▁il	-1256
▁media	-1257
▁chr	-1258
oti	-1259
▁half	-1260
▁quest	-1261
cept	-1262
iban	-1263
riend	-1264
▁inform	-1265
▁financial	-1266
▁dri	-1267
aving	-1268
▁civil	-1269
▁center	-1270
▁prof	-1271
▁few	-1272
▁until	-1273
▁negoti	-1274
co	-1275
▁ang	-1276
▁sit	-1277
▁come	-1278
▁republic	-1279
▁find	-1280
▁trave	-1281
▁fight	-1282
▁hours	-1283
ondon	-1284
▁jun	-1285
ns	-1286
▁fund	-1287
▁late	-1288
▁islam	-1289
▁local	-1290
▁indust	-1291
▁london	-1292
▁taliban	-1293
▁without	-1294
ides	-1295
▁whether	-1296
cess	-1297
▁bill	-1298
▁decl	-1299
aly	-1300
iting	-1301
▁100	-1302
aring	-1303
▁youn	-1304
istration	-1305
amed	-1306
▁disp	-1307
▁50	-1308
omin	-1309
ended	-1310
▁25	-1311
▁defense	-1312
▁som	-1313
▁weap	-1314
▁attacks	-1315
▁close	-1316
▁emer	-1317
▁vide	-1318
▁water	-1319
▁requ	-1320
▁taken	-1321
ik	-1322
▁led	-1323
▁nations	-1324
▁sex	-1325
▁appro	-1326
ason	-1327
▁beij	-1328
▁step	-1329
▁nearly	-1330
▁jan	-1331
▁beijing	-1332
mp	-1333
▁strong	-1334
▁workers	-1335
uck	-1336
ually	-1337
▁space	-1338
▁money	-1339
ever	-1340
head	-1341
▁afghanistan	-1342
ished	-1343
▁japanese	-1344
▁others	-1345
▁austral	-1346
▁palestin	-1347
▁sing	-1348
▁plans	-1349
▁py	-1350
▁geor	-1351
▁stand	-1352
▁mccain	-1353
▁organiz	-1354
ds	-1355
aining	-1356
▁polic	-1357
▁does	-1358
▁sour	-1359
▁vo	-1360
▁deb	-1361
▁short	-1362
ready	-1363
ators	-1364
▁stop	-1365
▁administration	-1366
ived	-1367
▁ris	-1368
▁best	-1369
▁0	-1370
▁laun	-1371
ats	-1372
▁exper	-1373
▁trad	-1374
▁baghd	-1375
▁comple	-1376
iving	-1377
iate	-1378
▁larg	-1379
▁already	-1380
▁service	-1381
▁appe	-1382
▁town	-1383
▁german	-1384
▁baghdad	-1385
▁lar	-1386
▁land	-1387
▁mass	-1388
▁central	-1389
self	-1390
▁beh	-1391
ove	-1392
▁kid	-1393
▁along	-1394
els	-1395
▁conv	-1396
▁happ	-1397
▁keep	-1398
▁hist	-1399
ield	-1400
▁activ	-1401
▁began	-1402
▁small	-1403
▁web	-1404
pped	-1405
▁confir	-1406
▁rights	-1407
aged	-1408
▁fail	-1409
▁real	-1410
mb	-1411
▁es	-1412
ject	-1413
▁food	-1414
▁rece	-1415
▁force	-1416
▁18	-1417
ission	-1418
▁env	-1419
rench	-1420
▁level	-1421
▁dam	-1422
▁control	-1423
ints	-1424
ology	-1425
▁army	-1426
▁known	-1427
▁er	-1428
▁let	-1429
▁hol	-1430
▁miles	-1431
▁christ	-1432
raw	-1433
▁emb	-1434
▁away	-1435
▁face	-1436
▁jud	-1437
▁thous	-1438
▁produc	-1439
ium	-1440
ney	-1441
augh	-1442
▁parli	-1443
▁province	-1444
ounded	-1445
▁weeks	-1446
▁prison	-1447
irl	-1448
▁decision	-1449
▁parliament	-1450
▁each	-1451
▁current	-1452
aper	-1453
▁13	-1454
▁french	-1455
▁return	-1456
by	-1457
utes	-1458
▁lab	-1459
▁sal	-1460
▁vote	-1461
▁clear	-1462
▁however	-1463
▁techn	-1464
▁sn	-1465
ck	-1466
ump	-1467
▁16	-1468
▁wal	-1469
▁across	-1470
ae	-1471
▁vir	-1472
▁av	-1473
ined	-1474
▁lat	-1475
▁film	-1476
▁conference	-1477
ban	-1478
ety	-1479
▁eight	-1480
▁soldiers	-1481
▁southern	-1482
idence	-1483
▁gas	-1484
▁ham	-1485
▁attem	-1486
▁barack	-1487
▁release	-1488
▁ju	-1489
▁young	-1490
olution	-1491
▁40	-1492
▁woman	-1493
▁discuss	-1494
ims	-1495
▁aid	-1496
mak	-1497
▁information	-1498
get	-1499
▁issue	-1500
oo	-1501
str	-1502
less	-1503
▁hot	-1504
gency	-1505
▁pay	-1506
▁asked	-1507
oon	-1508
▁trade	-1509
yang	-1510
▁bord	-1511
▁girl	-1512
▁violence	-1513
▁relations	-1514
cil	-1515
▁east	-1516
▁here	-1517
▁point	-1518
▁weapons	-1519
▁arrested	-1520
▁14	-1521
▁global	-1522
▁agreement	-1523
sh	-1524
▁foot	-1525
▁coup	-1526
▁final	-1527
go	-1528
▁russia	-1529
▁militants	-1530
▁making	-1531
▁red	-1532
▁care	-1533
ession	-1534
▁prices	-1535
lood	-1536
▁tot	-1537
▁form	-1538
▁park	-1539
▁march	-1540
▁change	-1541
▁students	-1542
▁demand	-1543
▁execut	-1544
▁european	-1545
be	-1546
▁fact	-1547
▁taking	-1548
▁largest	-1549
▁thousands	-1550
▁following	-1551
erv	-1552
ploy	-1553
▁inte	-1554
avy	-1555
▁israeli	-1556
ina	-1557
▁reb	-1558
▁friend	-1559
▁killing	-1560
▁di	-1561
▁mal	-1562
▁body	-1563
▁key	-1564
▁arri	-1565
ically	-1566
▁northern	-1567
ases	-1568
▁tax	-1569
▁cost	-1570
▁video	-1571
ongyang	-1572
▁appear	-1573
▁calif	-1574
▁seven	-1575
▁gun	-1576
▁give	-1577
▁seen	-1578
bo	-1579
ried	-1580
▁afric	-1581
▁internet	-1582
▁caus	-1583
▁become	-1584
▁federal	-1585
▁fur	-1586
ience	-1587
▁black	-1588
▁agreed	-1589
▁scient	-1590
ards	-1591
▁ident	-1592
▁import	-1593
▁californ	-1594
har	-1595
▁got	-1596
▁mod	-1597
▁fall	-1598
▁large	-1599
▁alleged	-1600
▁desp	-1601
▁port	-1602
▁added	-1603
▁california	-1604
eng	-1605
ars	-1606
▁net	-1607
▁great	-1608
▁concern	-1609
ank	-1610
▁britain	-1611
ham	-1612
▁might	-1613
ressed	-1614
▁telev	-1615
▁points	-1616
▁tre	-1617
▁list	-1618
▁committee	-1619
▁pyongyang	-1620
▁hund	-1621
▁never	-1622
▁trying	-1623
▁hundred	-1624
▁targ	-1625
mediate	-1626
▁congress	-1627
ech	-1628
▁batt	-1629
▁cris	-1630
▁prosecut	-1631
uge	-1632
▁hig	-1633
▁22	-1634
estern	-1635
▁interview	-1636
▁rad	-1637
▁article	-1638
▁elections	-1639
ially	-1640
▁ahead	-1641
▁island	-1642
▁director	-1643
rap	-1644
▁chair	-1645
▁outside	-1646
ley	-1647
▁ri	-1648
▁jour	-1649
▁working	-1650
▁immediate	-1651
ract	-1652
uary	-1653
ption	-1654
▁shar	-1655
▁despite	-1656
ergy	-1657
ittle	-1658
▁accused	-1659
rug	-1660
▁associated	-1661
ef	-1662
hers	-1663
▁meas	-1664
▁went	-1665
ection	-1666
▁likely	-1667
ored	-1668
▁super	-1669
▁partic	-1670
▁emergency	-1671
mar	-1672
mit	-1673
▁gaz	-1674
▁mean	-1675
atic	-1676
▁hard	-1677
▁perf	-1678
▁charges	-1679
br	-1680
oy	-1681
▁must	-1682
lymp	-1683
▁fut	-1684
▁less	-1685
▁olymp	-1686
ulation	-1687
▁palestinian	-1688
eda	-1689
lom	-1690
▁cho	-1691
▁shot	-1692
▁broad	-1693
ival	-1694
▁somet	-1695
▁estim	-1696
▁crisis	-1697
▁little	-1698
▁mos	-1699
▁coll	-1700
▁senior	-1701
▁possible	-1702
▁research	-1703
▁dav	-1704
▁low	-1705
▁side	-1706
▁earth	-1707
▁500	-1708
▁2006	-1709
▁energy	-1710
▁investigation	-1711
▁ord	-1712
ached	-1713
▁border	-1714
ults	-1715
▁sept	-1716
▁union	-1717
▁critic	-1718
▁amb	-1719
▁road	-1720
▁france	-1721
▁groups	-1722
▁council	-1723
▁process	-1724
ew	-1725
lish	-1726
▁chang	-1727
▁station	-1728
▁companies	-1729
▁qa	-1730
▁los	-1731
imin	-1732
▁lot	-1733
▁too	-1734
ccess	-1735
▁commission	-1736
ler	-1737
▁dip	-1738
▁priv	-1739
▁policy	-1740
▁fell	-1741
▁grand	-1742
▁interest	-1743
▁west	-1744
▁believe	-1745
urch	-1746
▁bas	-1747
▁suff	-1748
▁january	-1749
▁question	-1750
com	-1751
▁mot	-1752
▁newsp	-1753
itions	-1754
▁boy	-1755
▁mag	-1756
▁mat	-1757
▁val	-1758
▁corp	-1759
▁deleg	-1760
▁total	-1761
▁latest	-1762
pr	-1763
che	-1764
▁june	-1765
▁command	-1766
▁game	-1767
▁sugg	-1768
▁coast	-1769
rem	-1770
▁live	-1771
▁suic	-1772
▁qaeda	-1773
▁reporters	-1774
ape	-1775
inc	-1776
▁ill	-1777
▁occ	-1778
par	-1779
▁within	-1780
▁tell	-1781
▁continue	-1782
▁mov	-1783
▁dest	-1784
astern	-1785
ald	-1786
ona	-1787
▁desc	-1788
▁showed	-1789
▁attempt	-1790
▁special	-1791
▁july	-1792
▁front	-1793
▁previous	-1794
nal	-1795
▁gl	-1796
most	-1797
▁shut	-1798
▁diplom	-1799
▁toward	-1800
▁travel	-1801
▁further	-1802
▁drug	-1803
▁due	-1804
▁x	-1805
▁sk	-1806
ming	-1807
▁line	-1808
▁break	-1809
▁building	-1810
▁rev	-1811
▁member	-1812
▁america	-1813
▁candidate	-1814
▁once	-1815
▁cross	-1816
ann	-1817
▁198	-1818
▁anti	-1819
▁treat	-1820
▁capt	-1821
▁name	-1822
▁prim	-1823
raft	-1824
itution	-1825
▁respons	-1826
▁weekend	-1827
▁cust	-1828
▁dist	-1829
▁carry	-1830
▁england	-1831
▁minutes	-1832
iven	-1833
ane	-1834
▁24	-1835
▁mur	-1836
▁ran	-1837
▁efforts	-1838
ush	-1839
▁george	-1840
▁ship	-1841
ertain	-1842
▁success	-1843
▁sea	-1844
▁gaza	-1845
▁september	-1846
ighb	-1847
▁begin	-1848
▁neighb	-1849
▁round	-1850
eration	-1851
▁mess	-1852
▁consid	-1853
▁anim	-1854
▁airport	-1855
▁lost	-1856
▁hundreds	-1857
▁television	-1858
ino	-1859
▁order	-1860
▁soc	-1861
▁ruling	-1862
▁medical	-1863
▁suicide	-1864
▁class	-1865
▁storm	-1866
▁lawmak	-1867
raf	-1868
▁div	-1869
▁doll	-1870
idents	-1871
▁equ	-1872
▁mak	-1873
▁event	-1874
▁pot	-1875
epend	-1876
▁employ	-1877
▁independ	-1878
ta	-1879
ening	-1880
▁surve	-1881
▁sol	-1882
uation	-1883
▁russian	-1884
ways	-1885
▁rom	-1886
▁using	-1887
▁consum	-1888
▁americans	-1889
duction	-1890
ibility	-1891
ya	-1892
▁squ	-1893
asing	-1894
▁race	-1895
▁sched	-1896
▁study	-1897
▁explos	-1898
▁repres	-1899
▁victory	-1900
oman	-1901
▁cit	-1902
icted	-1903
▁serious	-1904
ude	-1905
▁ky	-1906
▁hur	-1907
▁hus	-1908
▁demon	-1909
▁comput	-1910
▁future	-1911
▁series	-1912
na	-1913
thing	-1914
▁resc	-1915
▁soon	-1916
▁nomin	-1917
▁better	-1918
cl	-1919
▁stay	-1920
▁term	-1921
▁deter	-1922
ril	-1923
▁father	-1924
▁mother	-1925
▁target	-1926
▁confirmed	-1927
urg	-1928
uty	-1929
ague	-1930
▁nat	-1931
▁trip	-1932
▁mount	-1933
▁street	-1934
▁industry	-1935
▁communist	-1936
oint	-1937
▁react	-1938
▁journal	-1939
▁december	-1940
ades	-1941
▁tem	-1942
woman	-1943
▁phot	-1944
harraf	-1945
▁bring	-1946
▁musharraf	-1947
ili	-1948
xic	-1949
▁feb	-1950
▁fuel	-1951
▁action	-1952
▁dev	-1953
▁cell	-1954
▁ever	-1955
▁ground	-1956
ze	-1957
▁60	-1958
▁tv	-1959
▁doct	-1960
▁april	-1961
▁almost	-1962
▁wa	-1963
aced	-1964
apped	-1965
▁aug	-1966
▁dou	-1967
▁able	-1968
▁book	-1969
▁view	-1970
▁heart	-1971
▁injured	-1972
▁homes	-1973
▁wounded	-1974
▁ty	-1975
oring	-1976
arc	-1977
▁yet	-1978
▁really	-1979
iam	-1980
mber	-1981
ising	-1982
▁hope	-1983
▁champ	-1984
▁though	-1985
dle	-1986
cast	-1987
though	-1988
▁inside	-1989
ada	-1990
ari	-1991
imb	-1992
ten	-1993
▁oct	-1994
▁veh	-1995
▁init	-1996
▁angel	-1997
▁enough	-1998
▁having	-1999
▁describ	-2000
▁started	-2001
▁important	-2002
ees	-2003
key	-2004
▁mich	-2005
▁history	-2006
▁although	-2007
ule	-2008
ring	-2009
▁vol	-2010
▁full	-2011
▁koreans	-2012
▁involved	-2013
ances	-2014
▁nove	-2015
▁analy	-2016
▁november	-2017
▁asia	-2018
▁david	-2019
▁sources	-2020
iron	-2021
▁wall	-2022
▁behind	-2023
▁coming	-2024
▁western	-2025
▁chairman	-2026
pre	-2027
▁cle	-2028
▁quar	-2029
▁result	-2030
▁season	-2031
▁republican	-2032
ani	-2033
▁ken	-2034
▁roc	-2035
▁believed	-2036
▁fighting	-2037
que	-2038
▁wife	-2039
▁given	-2040
▁watch	-2041
▁accept	-2042
▁fig	-2043
▁king	-2044
▁rice	-2045
▁design	-2046
▁environ	-2047
itional	-2048
▁leading	-2049
▁cred	-2050
▁dise	-2051
▁room	-2052
▁areas	-2053
▁amid	-2054
▁exch	-2055
▁arg	-2056
▁nine	-2057
▁vill	-2058
▁private	-2059
▁comes	-2060
▁whose	-2061
▁flight	-2062
yal	-2063
▁india	-2064
ruction	-2065
▁protest	-2066
▁environment	-2067
ida	-2068
tle	-2069
▁labor	-2070
▁stock	-2071
▁search	-2072
zy	-2073
ferent	-2074
uled	-2075
▁ide	-2076
▁arab	-2077
▁coal	-2078
▁rich	-2079
▁indic	-2080
▁suggest	-2081
imate	-2082
▁sell	-2083
▁conduct	-2084
▁problems	-2085
bc	-2086
▁organization	-2087
ole	-2088
▁ball	-2089
▁role	-2090
▁plane	-2091
▁august	-2092
▁middle	-2093
▁21	-2094
▁ben	-2095
▁hyun	-2096
▁detail	-2097
▁victims	-2098
▁different	-2099
▁fear	-2100
▁son	-2101
aps	-2102
▁2005	-2103
▁base	-2104
▁newspaper	-2105
▁represent	-2106
▁doc	-2107
▁mer	-2108
▁bad	-2109
▁doz	-2110
▁mill	-2111
▁insp	-2112
▁evidence	-2113
▁comb	-2114
▁kidn	-2115
▁rate	-2116
▁surv	-2117
umb	-2118
itted	-2119
▁voters	-2120
▁planned	-2121
ably	-2122
ging	-2123
▁distr	-2124
▁heavy	-2125
▁wants	-2126
pl	-2127
▁pet	-2128
ellig	-2129
▁infl	-2130
▁wanted	-2131
▁23	-2132
▁mark	-2133
▁stru	-2134
▁shoot	-2135
▁mission	-2136
▁scientists	-2137
ex	-2138
▁light	-2139
▁intellig	-2140
ago	-2141
▁mic	-2142
▁gave	-2143
▁paul	-2144
▁turned	-2145
▁australia	-2146
ster	-2147
▁cat	-2148
▁looking	-2149
▁increase	-2150
▁cab	-2151
▁dro	-2152
ruary	-2153
▁didn	-2154
▁brown	-2155
▁compet	-2156
▁problem	-2157
▁crow	-2158
▁withd	-2159
▁results	-2160
oud	-2161
▁board	-2162
▁assist	-2163
▁february	-2164
ograp	-2165
▁resign	-2166
gest	-2167
▁wat	-2168
arent	-2169
itive	-2170
▁calls	-2171
▁illeg	-2172
▁music	-2173
▁senate	-2174
▁analyst	-2175
▁islamic	-2176
let	-2177
▁pan	-2178
▁2004	-2179
▁flor	-2180
▁lawy	-2181
▁movie	-2182
▁train	-2183
▁deaths	-2184
▁spokeswoman	-2185
▁crew	-2186
▁goal	-2187
▁announce	-2188
off	-2189
▁age	-2190
▁sad	-2191
iding	-2192
▁pack	-2193
▁green	-2194
▁received	-2195
cer	-2196
oted	-2197
▁ver	-2198
▁asse	-2199
▁tried	-2200
▁summit	-2201
▁markets	-2202
▁appeared	-2203
▁incident	-2204
▁bid	-2205
▁feel	-2206
▁conserv	-2207
fic	-2208
wan	-2209
▁ll	-2210
▁recently	-2211
▁supporters	-2212
▁ren	-2213
▁prosecutors	-2214
bert	-2215
▁bab	-2216
▁pub	-2217
▁negotiations	-2218
▁lim	-2219
verage	-2220
▁price	-2221
▁assemb	-2222
▁tib	-2223
▁loss	-2224
esters	-2225
▁couple	-2226
▁situation	-2227
ober	-2228
gether	-2229
▁thought	-2230
▁together	-2231
▁protesters	-2232
12	-2233
▁docu	-2234
▁october	-2235
▁scheduled	-2236
▁development	-2237
ays	-2238
ify	-2239
▁os	-2240
duce	-2241
▁bri	-2242
▁mad	-2243
▁saf	-2244
▁cele	-2245
▁tibet	-2246
▁district	-2247
▁constitution	-2248
▁intelligence	-2249
▁nas	-2250
▁read	-2251
▁turn	-2252
▁needed	-2253
wh	-2254
down	-2255
▁foc	-2256
▁separ	-2257
▁florida	-2258
▁germany	-2259
▁something	-2260
men	-2261
work	-2262
▁vice	-2263
▁cause	-2264
▁citiz	-2265
▁hotel	-2266
aughter	-2267
ma	-2268
kyo	-2269
▁ca	-2270
band	-2271
▁kil	-2272
atives	-2273
▁games	-2274
▁tokyo	-2275
▁disease	-2276
wide	-2277
▁services	-2278
▁adm	-2279
▁cup	-2280
▁lin	-2281
▁chall	-2282
▁hamas	-2283
▁caused	-2284
▁issues	-2285
▁immediately	-2286
▁mom	-2287
orney	-2288
▁leban	-2289
▁decided	-2290
▁attorney	-2291
▁technology	-2292
▁bh	-2293
▁2008	-2294
▁hong	-2295
▁seem	-2296
▁simp	-2297
▁judge	-2298
▁staff	-2299
▁growth	-2300
ael	-2301
itz	-2302
▁tit	-2303
▁clos	-2304
▁deep	-2305
▁musl	-2306
▁paris	-2307
▁online	-2308
▁include	-2309
▁operation	-2310
▁lif	-2311
▁moo	-2312
▁shi	-2313
▁biggest	-2314
▁eastern	-2315
▁getting	-2316
▁growing	-2317
▁reached	-2318
▁uk	-2319
ador	-2320
▁fat	-2321
▁church	-2322
rew	-2323
ula	-2324
ager	-2325
ayed	-2326
▁quick	-2327
▁popular	-2328
use	-2329
▁aim	-2330
▁beat	-2331
▁prep	-2332
▁impro	-2333
▁claimed	-2334
▁quarter	-2335
▁coalition	-2336
han	-2337
ots	-2338
▁2003	-2339
lished	-2340
▁lower	-2341
▁missing	-2342
▁pressure	-2343
▁lawmakers	-2344
▁esc	-2345
▁kar	-2346
▁try	-2347
▁gold	-2348
▁award	-2349
▁colle	-2350
▁assembly	-2351
▁officers	-2352
▁saw	-2353
▁expect	-2354
▁apparent	-2355
50	-2356
lin	-2357
stand	-2358
▁league	-2359
▁strike	-2360
▁warning	-2361
▁pakistani	-2362
▁pos	-2363
itness	-2364
▁summer	-2365
▁exchange	-2366
▁polls	-2367
▁closed	-2368
▁hillary	-2369
roy	-2370
over	-2371
here	-2372
iana	-2373
▁kind	-2374
ctions	-2375
▁phone	-2376
▁project	-2377
▁tex	-2378
▁deli	-2379
▁sark	-2380
▁angeles	-2381
▁condition	-2382
▁executive	-2383
yl	-2384
▁nec	-2385
ither	-2386
▁effect	-2387
▁speech	-2388
▁provide	-2389
oid	-2390
ball	-2391
▁tens	-2392
▁joint	-2393
▁mexic	-2394
▁warned	-2395
▁officer	-2396
val	-2397
overed	-2398
▁sarko	-2399
▁remain	-2400
▁survey	-2401
▁protests	-2402
hen	-2403
▁26	-2404
▁educ	-2405
▁jail	-2406
▁democr	-2407
▁issued	-2408
▁charged	-2409
ni	-2410
▁repl	-2411
▁failed	-2412
▁instit	-2413
hu	-2414
▁id	-2415
▁fav	-2416
▁dang	-2417
▁jobs	-2418
▁prob	-2419
▁share	-2420
▁address	-2421
▁protect	-2422
raz	-2423
▁effort	-2424
▁sarkozy	-2425
igr	-2426
ode	-2427
▁wind	-2428
▁counter	-2429
▁rob	-2430
▁pain	-2431
▁lives	-2432
▁transf	-2433
▁hostages	-2434
ories	-2435
ential	-2436
▁match	-2437
▁speak	-2438
▁texas	-2439
▁running	-2440
ural	-2441
▁fle	-2442
▁asian	-2443
▁olympic	-2444
▁democracy	-2445
zz	-2446
▁send	-2447
▁flood	-2448
▁experts	-2449
▁respond	-2450
rents	-2451
▁pred	-2452
▁opened	-2453
▁social	-2454
▁justice	-2455
▁speaking	-2456
cy	-2457
den	-2458
▁cann	-2459
▁story	-2460
ounding	-2461
▁colomb	-2462
▁complete	-2463
▁majority	-2464
bs	-2465
▁je	-2466
▁hon	-2467
▁doing	-2468
▁community	-2469
▁offer	-2470
▁sales	-2471
▁things	-2472
▁launched	-2473
ires	-2474
ners	-2475
▁field	-2476
▁higher	-2477
▁forced	-2478
▁turkey	-2479
▁request	-2480
▁why	-2481
▁named	-2482
▁became	-2483
▁programs	-2484
▁continued	-2485
ilar	-2486
arian	-2487
▁bhut	-2488
▁battle	-2489
▁cult	-2490
▁dail	-2491
▁safety	-2492
▁civilians	-2493
ott	-2494
▁wild	-2495
▁county	-2496
▁eth	-2497
ounds	-2498
▁embass	-2499
▁senator	-2500
▁ten	-2501
ality	-2502
▁talk	-2503
▁celebr	-2504
▁researc	-2505
▁urged	-2506
▁diffic	-2507
▁disapp	-2508
▁virgin	-2509
▁primary	-2510
iod	-2511
▁ey	-2512
▁bir	-2513
▁tor	-2514
ensive	-2515
▁leave	-2516
▁arrived	-2517
▁parties	-2518
▁prevent	-2519
▁concerns	-2520
▁described	-2521
▁residents	-2522
uted	-2523
▁tim	-2524
▁tom	-2525
▁rule	-2526
▁shows	-2527
▁similar	-2528
▁difficult	-2529
udi	-2530
▁damage	-2531
▁himself	-2532
▁indones	-2533
▁present	-2534
▁governor	-2535
▁measures	-2536
▁delegates	-2537
▁association	-2538
bi	-2539
ana	-2540
aled	-2541
vere	-2542
▁coop	-2543
▁compl	-2544
▁daily	-2545
▁radio	-2546
▁comment	-2547
▁stat	-2548
▁often	-2549
▁bhutto	-2550
▁denied	-2551
ne	-2552
▁oh	-2553
while	-2554
▁wide	-2555
▁william	-2556
▁witness	-2557
▁daughter	-2558
▁conn	-2559
▁cerem	-2560
▁period	-2561
▁carrying	-2562
▁estimated	-2563
ortun	-2564
▁cars	-2565
▁prem	-2566
▁message	-2567
▁identified	-2568
airs	-2569
ares	-2570
▁bod	-2571
uries	-2572
▁dism	-2573
▁hous	-2574
jected	-2575
▁river	-2576
▁access	-2577
▁credit	-2578
▁deputy	-2579
▁destroy	-2580
▁ordered	-2581
ote	-2582
▁buy	-2583
▁fired	-2584
▁africa	-2585
▁calling	-2586
ron	-2587
uses	-2588
▁cop	-2589
▁non	-2590
▁ple	-2591
▁2002	-2592
▁kong	-2593
▁laws	-2594
▁cabin	-2595
▁store	-2596
▁husband	-2597
▁progress	-2598
▁australian	-2599
▁resolution	-2600
▁always	-2601
▁parents	-2602
▁demonstr	-2603
▁82	-2604
aces	-2605
iles	-2606
▁wel	-2607
ilies	-2608
▁cast	-2609
▁chance	-2610
▁launch	-2611
▁robert	-2612
▁average	-2613
ocks	-2614
pted	-2615
▁enc	-2616
ashed	-2617
▁done	-2618
▁scre	-2619
▁cases	-2620
▁traff	-2621
▁danger	-2622
▁minute	-2623
▁missile	-2624
▁families	-2625
▁meanwhile	-2626
▁28	-2627
read	-2628
▁300	-2629
▁dog	-2630
▁safe	-2631
▁smok	-2632
▁reform	-2633
▁profess	-2634
▁champions	-2635
▁population	-2636
▁production	-2637
iff	-2638
▁hun	-2639
anmar	-2640
▁rout	-2641
▁funds	-2642
oming	-2643
▁legal	-2644
▁scene	-2645
▁strugg	-2646
▁illegal	-2647
▁computer	-2648
uf	-2649
ask	-2650
▁29	-2651
igin	-2652
heast	-2653
▁michael	-2654
▁included	-2655
▁suspected	-2656
uk	-2657
ata	-2658
ania	-2659
hest	-2660
▁club	-2661
▁pict	-2662
▁royal	-2663
▁spent	-2664
▁ambass	-2665
▁brought	-2666
▁certain	-2667
▁iranian	-2668
▁myanmar	-2669
▁citizens	-2670
▁particip	-2671
▁withdraw	-2672
isl	-2673
▁brief	-2674
▁engine	-2675
▁details	-2676
▁cas	-2677
▁pled	-2678
▁armed	-2679
▁camer	-2680
ecution	-2681
▁candidates	-2682
▁increasing	-2683
iter	-2684
▁resum	-2685
▁embassy	-2686
▁expressed	-2687
▁sanctions	-2688
▁aw	-2689
ches	-2690
▁bit	-2691
▁ele	-2692
▁bene	-2693
▁freed	-2694
▁custom	-2695
▁related	-2696
▁followed	-2697
kn	-2698
▁ah	-2699
▁cy	-2700
noon	-2701
▁esp	-2702
▁risk	-2703
▁guard	-2704
▁mater	-2705
▁commer	-2706
▁living	-2707
▁played	-2708
▁transport	-2709
iled	-2710
▁dow	-2711
▁fif	-2712
▁broke	-2713
▁terrorist	-2714
for	-2715
rel	-2716
▁31	-2717
ences	-2718
▁mart	-2719
▁nato	-2720
▁rise	-2721
▁carried	-2722
▁english	-2723
irc	-2724
▁abd	-2725
▁mob	-2726
▁obs	-2727
▁mult	-2728
▁rally	-2729
▁worst	-2730
▁afternoon	-2731
mal	-2732
ault	-2733
▁bal	-2734
▁sud	-2735
enced	-2736
▁lear	-2737
selves	-2738
▁ended	-2739
▁ready	-2740
▁trial	-2741
▁fourth	-2742
▁accident	-2743
▁comments	-2744
▁contract	-2745
▁activities	-2746
ilt	-2747
▁imm	-2748
▁pun	-2749
▁doesn	-2750
▁means	-2751
▁track	-2752
▁kilome	-2753
▁brother	-2754
▁streets	-2755
een	-2756
hel	-2757
▁ber	-2758
▁huge	-2759
▁snow	-2760
▁refuge	-2761
▁friends	-2762
▁opening	-2763
▁refused	-2764
▁democrats	-2765
▁nomination	-2766
mad	-2767
▁chic	-2768
▁crowd	-2769
▁raised	-2770
▁allowed	-2771
▁cabinet	-2772
▁doctors	-2773
▁millions	-2774
▁researchers	-2775
ev	-2776
tt	-2777
ges	-2778
▁fly	-2779
▁parts	-2780
agement	-2781
▁bodies	-2782
▁claims	-2783
▁legisl	-2784
▁position	-2785
▁returned	-2786
▁fun	-2787
▁rose	-2788
engers	-2789
▁favor	-2790
▁rival	-2791
▁source	-2792
▁account	-2793
▁african	-2794
▁leaving	-2795
▁controvers	-2796
▁bud	-2797
▁tai	-2798
▁blood	-2799
▁occur	-2800
▁matter	-2801
▁rocket	-2802
▁struck	-2803
▁ambassador	-2804
ead	-2805
▁feat	-2806
▁turk	-2807
▁advis	-2808
▁crash	-2809
▁resol	-2810
iant	-2811
lant	-2812
uing	-2813
aging	-2814
▁rain	-2815
▁putin	-2816
▁terrorism	-2817
▁conditions	-2818
ceed	-2819
iance	-2820
▁braz	-2821
▁circ	-2822
▁sure	-2823
▁surr	-2824
▁rescue	-2825
▁80	-2826
hood	-2827
▁mis	-2828
atory	-2829
insula	-2830
▁needs	-2831
ighters	-2832
▁origin	-2833
▁peninsula	-2834
gn	-2835
ruct	-2836
▁fem	-2837
▁love	-2838
▁poor	-2839
▁birth	-2840
▁hopes	-2841
▁sites	-2842
ilities	-2843
▁prince	-2844
▁instead	-2845
▁material	-2846
▁passengers	-2847
rial	-2848
▁typ	-2849
▁stage	-2850
▁operations	-2851
amb	-2852
▁cub	-2853
aries	-2854
going	-2855
▁blast	-2856
▁reach	-2857
▁cities	-2858
▁traffic	-2859
▁ts	-2860
amin	-2861
▁avail	-2862
▁estab	-2863
▁mexico	-2864
▁quoted	-2865
▁forward	-2866
ara	-2867
inois	-2868
▁sect	-2869
▁debate	-2870
▁passed	-2871
▁taiwan	-2872
▁illinois	-2873
▁published	-2874
lled	-2875
onse	-2876
▁pic	-2877
▁pul	-2878
▁fans	-2879
▁gener	-2880
ability	-2881
▁course	-2882
▁trading	-2883
aped	-2884
wood	-2885
▁brazil	-2886
▁spread	-2887
▁holding	-2888
▁communic	-2889
ha	-2890
▁nom	-2891
▁pil	-2892
▁card	-2893
▁banks	-2894
▁interior	-2895
▁spending	-2896
▁announcement	-2897
iet	-2898
ift	-2899
ows	-2900
resp	-2901
▁feet	-2902
▁hands	-2903
▁liber	-2904
▁restr	-2905
▁relationship	-2906
ece	-2907
aves	-2908
▁pus	-2909
▁swe	-2910
istic	-2911
▁repe	-2912
▁temp	-2913
▁natur	-2914
▁smith	-2915
▁common	-2916
▁nothing	-2917
▁available	-2918
arks	-2919
hold	-2920
▁bul	-2921
▁eas	-2922
ograph	-2923
▁chung	-2924
▁micro	-2925
▁network	-2926
ped	-2927
itten	-2928
▁draw	-2929
▁evac	-2930
▁carol	-2931
▁crack	-2932
▁index	-2933
▁saudi	-2934
▁histor	-2935
▁insurg	-2936
▁35	-2937
ding	-2938
▁fel	-2939
izing	-2940
▁franc	-2941
▁makes	-2942
▁chicago	-2943
▁suffered	-2944
emy	-2945
▁(1	-2946
itor	-2947
▁dae	-2948
▁pow	-2949
anish	-2950
pping	-2951
▁ital	-2952
▁focus	-2953
▁moved	-2954
▁surpr	-2955
▁murder	-2956
ria	-2957
owed	-2958
▁aud	-2959
▁concer	-2960
ification	-2961
▁currently	-2962
ateg	-2963
idge	-2964
▁201	-2965
▁pur	-2966
▁sle	-2967
▁vac	-2968
▁2001	-2969
▁astr	-2970
itting	-2971
▁influ	-2972
▁annual	-2973
▁charge	-2974
▁longer	-2975
▁nomine	-2976
▁worked	-2977
▁contact	-2978
▁schools	-2979
▁ceremony	-2980
▁broadcast	-2981
▁education	-2982
▁treatment	-2983
▁investment	-2984
▁90	-2985
▁dom	-2986
licop	-2987
▁soci	-2988
▁teen	-2989
▁trou	-2990
▁aimed	-2991
▁crimin	-2992
▁rising	-2993
▁signed	-2994
▁helicop	-2995
▁winning	-2996
▁declared	-2997
oned	-2998
▁hen	-2999
▁data	-3000
▁sens	-3001
▁teac	-3002
▁worth	-3003
ization	-3004
▁cannot	-3005
▁either	-3006
▁rebels	-3007
▁square	-3008
▁decades	-3009
▁virginia	-3010
▁themselves	-3011
▁196	-3012
▁pac	-3013
atell	-3014
ients	-3015
▁harry	-3016
▁steps	-3017
▁lawyer	-3018
▁letter	-3019
▁muslim	-3020
▁affairs	-3021
▁analysts	-3022
▁movement	-3023
▁response	-3024
▁signific	-3025
ugh	-3026
▁ol	-3027
▁born	-3028
▁mail	-3029
iation	-3030
▁cover	-3031
▁creat	-3032
▁thing	-3033
▁helped	-3034
▁satell	-3035
▁players	-3036
▁neighbor	-3037
▁increased	-3038
▁institute	-3039
▁diplomatic	-3040
▁bak	-3041
▁ice	-3042
icles	-3043
▁lack	-3044
inking	-3045
▁above	-3046
ruption	-3047
▁moment	-3048
▁professor	-3049
▁discovered	-3050
▁particular	-3051
ike	-3052
▁dar	-3053
fully	-3054
overy	-3055
▁adding	-3056
▁atlant	-3057
▁century	-3058
▁weather	-3059
▁injuries	-3060
▁probably	-3061
▁employees	-3062
hol	-3063
▁dub	-3064
▁bang	-3065
▁appoint	-3066
▁remains	-3067
▁personal	-3068
▁commander	-3069
▁kilometers	-3070
af	-3071
ker	-3072
▁moon	-3073
▁toll	-3074
▁italy	-3075
▁challen	-3076
▁consider	-3077
▁construction	-3078
▁45	-3079
▁asp	-3080
aling	-3081
ocked	-3082
▁date	-3083
ological	-3084
▁questions	-3085
▁investigators	-3086
▁blo	-3087
▁flo	-3088
▁fill	-3089
▁highest	-3090
▁quickly	-3091
▁destroyed	-3092
of	-3093
▁400	-3094
▁opt	-3095
itude	-3096
▁nasa	-3097
▁rare	-3098
▁spot	-3099
▁weak	-3100
▁plant	-3101
▁dozens	-3102
▁indian	-3103
▁overse	-3104
▁playing	-3105
▁understand	-3106
aur	-3107
hua	-3108
cing	-3109
▁row	-3110
▁und	-3111
▁xin	-3112
▁fort	-3113
apping	-3114
▁spain	-3115
▁create	-3116
▁deploy	-3117
▁earthqu	-3118
▁industrial	-3119
▁independent	-3120
uit	-3121
▁displ	-3122
▁jones	-3123
▁female	-3124
▁giving	-3125
▁italian	-3126
▁manager	-3127
▁turkish	-3128
▁threatened	-3129
avez	-3130
gypt	-3131
▁sil	-3132
preme	-3133
▁2000	-3134
▁vers	-3135
▁chavez	-3136
▁dollar	-3137
▁reason	-3138
▁natural	-3139
▁supreme	-3140
▁anything	-3141
▁shooting	-3142
nel	-3143
▁ho	-3144
erve	-3145
▁abb	-3146
▁exc	-3147
▁ful	-3148
▁arch	-3149
▁drop	-3150
▁farm	-3151
idered	-3152
▁egypt	-3153
ecially	-3154
▁collect	-3155
▁dollars	-3156
▁numbers	-3157
▁seeking	-3158
▁approved	-3159
▁detained	-3160
▁transfer	-3161
gu	-3162
arm	-3163
cow	-3164
▁bi	-3165
▁ii	-3166
▁jer	-3167
▁nic	-3168
▁unc	-3169
▁paid	-3170
▁phys	-3171
▁maint	-3172
▁mayor	-3173
▁stren	-3174
▁necess	-3175
▁changes	-3176
▁vehicle	-3177
▁allegedly	-3178
omp	-3179
aded	-3180
house	-3181
▁song	-3182
isters	-3183
▁marri	-3184
▁speed	-3185
▁nearby	-3186
▁hearing	-3187
▁considered	-3188
▁especially	-3189
▁everything	-3190
nam	-3191
olf	-3192
wor	-3193
▁kh	-3194
enez	-3195
room	-3196
west	-3197
▁die	-3198
▁las	-3199
▁mac	-3200
aught	-3201
craft	-3202
jects	-3203
▁defe	-3204
▁hear	-3205
▁idea	-3206
▁regul	-3207
▁barrel	-3208
▁commit	-3209
▁corpor	-3210
▁levels	-3211
▁moscow	-3212
▁review	-3213
▁evening	-3214
▁politic	-3215
▁richard	-3216
▁opportun	-3217
▁allegations	-3218
▁unf	-3219
▁jack	-3220
▁posted	-3221
▁single	-3222
▁streng	-3223
▁massive	-3224
▁additional	-3225
▁32	-3226
▁fre	-3227
▁code	-3228
▁kept	-3229
▁sides	-3230
▁condem	-3231
▁sexual	-3232
▁mountain	-3233
yan	-3234
come	-3235
▁abs	-3236
ional	-3237
▁lang	-3238
▁georg	-3239
▁range	-3240
▁perfor	-3241
▁dropped	-3242
▁session	-3243
▁carolina	-3244
▁apparently	-3245
▁prosecution	-3246
akes	-3247
onaut	-3248
▁blue	-3249
▁doub	-3250
▁join	-3251
▁shin	-3252
▁autom	-3253
▁check	-3254
▁title	-3255
▁wrong	-3256
▁happened	-3257
▁attention	-3258
▁convicted	-3259
▁cro	-3260
▁kur	-3261
▁bird	-3262
▁stra	-3263
▁backed	-3264
▁driving	-3265
▁remarks	-3266
▁investors	-3267
▁potential	-3268
▁criticized	-3269
▁responsible	-3270
▁significant	-3271
hi	-3272
ylv	-3273
body	-3274
mine	-3275
ively	-3276
▁8212	-3277
▁reve	-3278
▁shiite	-3279
▁aircraft	-3280
▁critical	-3281
▁training	-3282
quar	-3283
▁dig	-3284
nsylv	-3285
▁jump	-3286
▁muse	-3287
▁extra	-3288
▁pennsylv	-3289
▁responsibility	-3290
lines	-3291
▁firm	-3292
▁propos	-3293
▁college	-3294
▁visitors	-3295
pts	-3296
▁beg	-3297
▁sel	-3298
apers	-3299
hered	-3300
▁purs	-3301
▁soft	-3302
▁cance	-3303
▁costs	-3304
▁sharp	-3305
▁venez	-3306
▁cancer	-3307
▁xinhua	-3308
▁society	-3309
▁admitted	-3310
▁venezuel	-3311
▁environmental	-3312
▁parliamentary	-3313
ken	-3314
▁ow	-3315
ream	-3316
▁ale	-3317
▁rod	-3318
▁ron	-3319
▁uri	-3320
isted	-3321
phone	-3322
▁crime	-3323
▁heard	-3324
ination	-3325
▁attend	-3326
▁animals	-3327
▁alliance	-3328
▁products	-3329
▁authority	-3330
▁buildings	-3331
ado	-3332
agon	-3333
ises	-3334
▁haw	-3335
ufact	-3336
▁arms	-3337
▁euro	-3338
▁ohio	-3339
▁whom	-3340
▁boost	-3341
▁subst	-3342
▁manufact	-3343
▁planning	-3344
▁indonesia	-3345
▁prisoners	-3346
▁conservative	-3347
▁independence	-3348
▁pennsylvania	-3349
kes	-3350
back	-3351
gery	-3352
▁seat	-3353
ailand	-3354
▁museum	-3355
▁territ	-3356
▁consumer	-3357
▁thailand	-3358
▁performan	-3359
omm	-3360
▁ep	-3361
iger	-3362
▁bin	-3363
alled	-3364
▁raid	-3365
▁shop	-3366
▁medic	-3367
▁offered	-3368
▁student	-3369
▁suspects	-3370
▁management	-3371
▁jose	-3372
▁rail	-3373
▁benef	-3374
▁scand	-3375
▁pacific	-3376
▁respect	-3377
▁someone	-3378
▁written	-3379
▁electric	-3380
▁committed	-3381
▁worldwide	-3382
▁ans	-3383
▁shr	-3384
▁size	-3385
lement	-3386
▁motor	-3387
▁serve	-3388
▁combat	-3389
▁defend	-3390
▁severe	-3391
▁holiday	-3392
▁attacked	-3393
▁rejected	-3394
▁separate	-3395
▁beginning	-3396
▁previously	-3397
ao	-3398
rs	-3399
ware	-3400
▁gar	-3401
▁lib	-3402
orter	-3403
where	-3404
▁baby	-3405
▁abbas	-3406
▁domin	-3407
▁recon	-3408
▁tests	-3409
▁works	-3410
▁suspect	-3411
▁leadership	-3412
bed	-3413
▁ps	-3414
▁hall	-3415
▁rules	-3416
▁seats	-3417
▁forest	-3418
▁regard	-3419
▁custody	-3420
▁nominee	-3421
▁shortly	-3422
▁includes	-3423
▁vehicles	-3424
ibly	-3425
ider	-3426
resh	-3427
ston	-3428
estic	-3429
▁ties	-3430
▁ruled	-3431
▁rather	-3432
▁commerc	-3433
▁regional	-3434
▁remained	-3435
▁insurgents	-3436
ezz	-3437
▁lu	-3438
rote	-3439
▁bail	-3440
▁phil	-3441
▁rock	-3442
▁avoid	-3443
▁langu	-3444
▁penal	-3445
▁allies	-3446
▁figure	-3447
▁herald	-3448
▁reactor	-3449
▁actually	-3450
▁proposed	-3451
▁criticism	-3452
ran	-3453
pper	-3454
▁opin	-3455
▁contr	-3456
▁signs	-3457
▁occurred	-3458
▁olympics	-3459
▁explosion	-3460
▁corruption	-3461
▁earthquake	-3462
aks	-3463
soft	-3464
▁bol	-3465
▁adop	-3466
▁mort	-3467
▁sale	-3468
▁giant	-3469
▁takes	-3470
▁votes	-3471
▁georgia	-3472
▁repeated	-3473
▁microsoft	-3474
▁satellite	-3475
eth	-3476
▁mel	-3477
asion	-3478
duced	-3479
▁zone	-3480
▁refer	-3481
▁relig	-3482
▁apolog	-3483
▁linked	-3484
▁moving	-3485
▁shares	-3486
▁product	-3487
▁civilian	-3488
▁everyone	-3489
▁starting	-3490
▁ul	-3491
know	-3492
▁han	-3493
▁sky	-3494
uters	-3495
lywood	-3496
▁paper	-3497
▁pract	-3498
▁treas	-3499
▁wrote	-3500
▁charac	-3501
▁events	-3502
▁elected	-3503
▁figures	-3504
▁improve	-3505
▁inspect	-3506
▁conducted	-3507
▁documents	-3508
car	-3509
rid	-3510
▁mc	-3511
▁pi	-3512
▁bay	-3513
▁jew	-3514
▁sty	-3515
ently	-3516
field	-3517
icket	-3518
oting	-3519
▁word	-3520
▁fifth	-3521
▁minor	-3522
respond	-3523
▁climate	-3524
▁correspond	-3525
wer	-3526
▁hu	-3527
chie	-3528
▁lad	-3529
vered	-3530
▁slow	-3531
▁built	-3532
▁myung	-3533
knowled	-3534
▁impact	-3535
▁attract	-3536
▁complex	-3537
▁science	-3538
▁acknowled	-3539
▁commercial	-3540
abe	-3541
ray	-3542
ris	-3543
ych	-3544
▁fer	-3545
▁mas	-3546
using	-3547
▁actor	-3548
▁evacu	-3549
▁fresh	-3550
▁anyone	-3551
▁flights	-3552
▁determin	-3553
▁fo	-3554
rain	-3555
force	-3556
▁fair	-3557
▁fest	-3558
▁remo	-3559
▁envoy	-3560
▁faces	-3561
▁girls	-3562
▁marine	-3563
▁bombing	-3564
▁spanish	-3565
▁surgery	-3566
▁addition	-3567
▁football	-3568
ivid	-3569
ping	-3570
▁ali	-3571
▁deg	-3572
▁guil	-3573
▁trig	-3574
▁wood	-3575
▁yong	-3576
▁bombs	-3577
▁prize	-3578
▁rates	-3579
▁perform	-3580
▁showing	-3581
sp	-3582
ota	-3583
unt	-3584
▁fish	-3585
▁jung	-3586
▁sant	-3587
▁brain	-3588
▁james	-3589
▁blamed	-3590
▁guilty	-3591
▁itself	-3592
▁player	-3593
▁36	-3594
ties	-3595
▁flu	-3596
▁cash	-3597
▁ahmad	-3598
▁spoke	-3599
▁career	-3600
▁created	-3601
▁restaur	-3602
▁electron	-3603
▁tourists	-3604
berg	-3605
▁alex	-3606
encies	-3607
▁clean	-3608
▁fears	-3609
▁terms	-3610
▁encour	-3611
▁reduce	-3612
▁marriage	-3613
ogn	-3614
▁et	-3615
▁fa	-3616
▁acad	-3617
▁jong	-3618
iction	-3619
▁behav	-3620
▁sleep	-3621
▁animal	-3622
▁citing	-3623
▁mosque	-3624
▁regime	-3625
▁confirm	-3626
▁suggested	-3627
▁au	-3628
abwe	-3629
ites	-3630
▁fro	-3631
▁gat	-3632
ullah	-3633
▁hurt	-3634
▁self	-3635
▁zimb	-3636
▁gates	-3637
▁moham	-3638
▁queen	-3639
▁mobile	-3640
▁normal	-3641
▁recogn	-3642
▁colombia	-3643
▁domestic	-3644
▁peaceful	-3645
▁policies	-3646
▁provided	-3647
▁zimbabwe	-3648
▁concerned	-3649
▁ministers	-3650
▁operating	-3651
▁)	-3652
rators	-3653
▁filed	-3654
▁mostly	-3655
▁criminal	-3656
▁astronaut	-3657
ga	-3658
hib	-3659
ica	-3660
▁ha	-3661
anda	-3662
▁ens	-3663
▁names	-3664
▁owner	-3665
▁shown	-3666
▁winds	-3667
▁screen	-3668
▁supply	-3669
▁contrib	-3670
▁dispute	-3671
▁finance	-3672
▁measure	-3673
▁patients	-3674
▁necessary	-3675
lies	-3676
rupt	-3677
usal	-3678
▁mah	-3679
▁rap	-3680
▁push	-3681
▁panel	-3682
▁words	-3683
▁damaged	-3684
▁francis	-3685
▁individ	-3686
▁lebanon	-3687
▁replace	-3688
▁lebanese	-3689
▁terrorists	-3690
erc	-3691
mert	-3692
▁ask	-3693
erson	-3694
▁gall	-3695
▁gang	-3696
▁mary	-3697
▁stem	-3698
▁ways	-3699
▁intro	-3700
▁assass	-3701
▁stocks	-3702
▁stopped	-3703
▁compared	-3704
▁promised	-3705
▁dangerous	-3706
▁neighborhood	-3707
▁palestinians	-3708
ba	-3709
bel	-3710
ett	-3711
uan	-3712
ears	-3713
keep	-3714
▁dut	-3715
▁ram	-3716
▁ton	-3717
ature	-3718
▁heav	-3719
▁ilbo	-3720
▁kids	-3721
▁magn	-3722
▁sher	-3723
friend	-3724
▁achie	-3725
▁confl	-3726
▁drugs	-3727
▁magaz	-3728
▁bridge	-3729
▁voting	-3730
▁shuttle	-3731
▁affected	-3732
▁sentence	-3733
▁remaining	-3734
▁suspended	-3735
onym	-3736
sein	-3737
▁lay	-3738
▁ven	-3739
▁fast	-3740
▁kurd	-3741
▁mach	-3742
▁shel	-3743
▁lines	-3744
▁princ	-3745
▁sought	-3746
▁suspic	-3747
▁wearing	-3748
▁militant	-3749
▁positive	-3750
▁powerful	-3751
▁involving	-3752
my	-3753
bre	-3754
ips	-3755
uff	-3756
▁ki	-3757
asts	-3758
mark	-3759
▁bbc	-3760
▁box	-3761
▁cru	-3762
▁fbi	-3763
▁gul	-3764
▁sho	-3765
ounts	-3766
▁else	-3767
▁seed	-3768
ulated	-3769
▁insur	-3770
▁assault	-3771
▁hollywood	-3772
▁protection	-3773
▁da	-3774
▁150	-3775
▁inn	-3776
▁pir	-3777
▁cold	-3778
▁felt	-3779
▁flag	-3780
▁navy	-3781
coming	-3782
▁voted	-3783
▁joined	-3784
▁failure	-3785
▁ongoing	-3786
▁village	-3787
▁designed	-3788
▁document	-3789
▁territory	-3790
▁opportunity	-3791
▁performance	-3792
dog	-3793
mas	-3794
▁gh	-3795
itch	-3796
road	-3797
▁hav	-3798
▁yah	-3799
utions	-3800
▁joins	-3801
▁truck	-3802
ression	-3803
▁amount	-3804
▁appeal	-3805
▁conflict	-3806
▁gathered	-3807
▁headquar	-3808
▁meetings	-3809
▁overseas	-3810
▁activists	-3811
▁confidence	-3812
▁journalists	-3813
dam	-3814
ovo	-3815
▁33	-3816
▁abe	-3817
▁god	-3818
ordin	-3819
▁prec	-3820
▁seek	-3821
▁surf	-3822
▁yang	-3823
▁raise	-3824
▁caught	-3825
▁malays	-3826
▁placed	-3827
▁seized	-3828
▁waters	-3829
▁collaps	-3830
▁dismiss	-3831
▁annivers	-3832
▁cooperation	-3833
ps	-3834
ttp	-3835
vert	-3836
▁600	-3837
▁oce	-3838
agers	-3839
ander	-3840
▁wasn	-3841
▁wing	-3842
▁apple	-3843
▁beach	-3844
▁color	-3845
▁crude	-3846
▁memor	-3847
▁psych	-3848
▁images	-3849
▁winter	-3850
▁helping	-3851
▁opinion	-3852
▁considering	-3853
▁possibility	-3854
de	-3855
sc	-3856
olic	-3857
omic	-3858
iling	-3859
▁drive	-3860
▁enter	-3861
▁olmert	-3862
▁initial	-3863
▁straight	-3864
▁experience	-3865
▁anniversary	-3866
▁headquarters	-3867
▁investigating	-3868
▁ze	-3869
▁isn	-3870
▁van	-3871
▁ves	-3872
apore	-3873
arily	-3874
▁serb	-3875
▁below	-3876
▁quake	-3877
▁trail	-3878
▁critics	-3879
▁propert	-3880
▁customers	-3881
▁singapore	-3882
▁telephone	-3883
lus	-3884
nes	-3885
▁ok	-3886
burg	-3887
igan	-3888
▁800	-3889
▁alco	-3890
▁http	-3891
▁lone	-3892
▁dozen	-3893
▁peter	-3894
▁voice	-3895
▁hurric	-3896
▁immigr	-3897
▁looked	-3898
▁violent	-3899
▁sentenced	-3900
▁reportedly	-3901
▁throughout	-3902
iro	-3903
reg	-3904
▁ko	-3905
ancy	-3906
ille	-3907
▁anc	-3908
erate	-3909
light	-3910
orrow	-3911
▁clin	-3912
▁item	-3913
▁qual	-3914
▁homel	-3915
▁laden	-3916
▁veter	-3917
▁yahoo	-3918
▁entire	-3919
▁pulled	-3920
▁resume	-3921
▁pledged	-3922
▁regular	-3923
▁christop	-3924
het	-3925
ror	-3926
vez	-3927
▁38	-3928
▁42	-3929
ales	-3930
ends	-3931
▁mug	-3932
▁bear	-3933
▁goes	-3934
▁page	-3935
▁blair	-3936
▁block	-3937
▁chann	-3938
▁lands	-3939
▁famous	-3940
▁madrid	-3941
▁appears	-3942
▁conclud	-3943
▁contest	-3944
▁involve	-3945
▁directly	-3946
▁language	-3947
▁christmas	-3948
▁establish	-3949
▁controversial	-3950
iki	-3951
▁ly	-3952
▁ut	-3953
▁jet	-3954
iment	-3955
ordon	-3956
rency	-3957
▁auto	-3958
▁gone	-3959
▁spir	-3960
▁happy	-3961
▁defeat	-3962
▁recomm	-3963
▁vessel	-3964
▁winner	-3965
▁freedom	-3966
▁largely	-3967
▁package	-3968
▁princip	-3969
▁willing	-3970
▁complain	-3971
▁declined	-3972
▁disaster	-3973
▁produced	-3974
▁developing	-3975
▁facilities	-3976
▁christopher	-3977
vin	-3978
abil	-3979
abul	-3980
▁alb	-3981
▁pent	-3982
▁tech	-3983
▁alone	-3984
▁choice	-3985
▁ticket	-3986
▁alcohol	-3987
▁fighters	-3988
▁kidnapped	-3989
ams	-3990
apse	-3991
▁fra	-3992
▁rat	-3993
▁var	-3994
▁bott	-3995
▁hair	-3996
▁dream	-3997
▁prior	-3998
▁trust	-3999
▁twice	-4000
▁meters	-4001
▁selling	-4002
▁soldier	-4003
▁assistant	-4004
▁hurricane	-4005
▁surrounding	-4006
ery	-4007
sen	-4008
▁gro	-4009
▁kos	-4010
▁grad	-4011
▁true	-4012
aching	-4013
▁aband	-4014
▁model	-4015
▁patro	-4016
▁sunni	-4017
▁tells	-4018
▁casual	-4019
▁double	-4020
▁expand	-4021
▁headed	-4022
▁demands	-4023
▁distrib	-4024
▁overall	-4025
▁scandal	-4026
▁behavior	-4027
▁deadline	-4028
▁witnesses	-4029
do	-4030
aki	-4031
▁gn	-4032
eing	-4033
▁ari	-4034
▁bat	-4035
▁gal	-4036
▁nar	-4037
ilipp	-4038
▁band	-4039
▁fine	-4040
▁mist	-4041
▁burma	-4042
▁sudan	-4043
▁ending	-4044
▁mugabe	-4045
▁victim	-4046
▁philipp	-4047
▁premier	-4048
▁species	-4049
▁activity	-4050
▁magazine	-4051
ko	-4052
uj	-4053
mon	-4054
olas	-4055
▁pick	-4056
▁rang	-4057
▁downt	-4058
▁somal	-4059
▁canada	-4060
▁records	-4061
▁systems	-4062
▁talking	-4063
▁bombings	-4064
▁missiles	-4065
▁software	-4066
▁challenge	-4067
▁traditional	-4068
▁constitutional	-4069
▁48	-4070
▁52	-4071
reme	-4072
wang	-4073
▁bey	-4074
▁bil	-4075
▁gon	-4076
▁ign	-4077
▁2009	-4078
▁dark	-4079
▁score	-4080
▁surge	-4081
▁tight	-4082
▁decade	-4083
▁doctor	-4084
▁actions	-4085
▁married	-4086
▁usually	-4087
▁politics	-4088
▁prepared	-4089
▁demanding	-4090
▁northeast	-4091
ube	-4092
▁ba	-4093
fort	-4094
ront	-4095
▁bed	-4096
▁dial	-4097
▁door	-4098
▁tank	-4099
▁ocean	-4100
▁purch	-4101
ologist	-4102
▁anonym	-4103
▁houses	-4104
▁demonst	-4105
▁extreme	-4106
▁hussein	-4107
▁imposed	-4108
▁pentagon	-4109
▁targeted	-4110
▁williams	-4111
▁christian	-4112
▁consumers	-4113
▁helicopter	-4114
tern	-4115
▁lic	-4116
▁fled	-4117
▁mind	-4118
ictions	-4119
ano	-4120
bon	-4121
▁ic	-4122
aska	-4123
ender	-4124
▁beck	-4125
▁knew	-4126
▁plot	-4127
▁fraud	-4128
▁meant	-4129
▁rebel	-4130
▁atomic	-4131
▁gordon	-4132
▁losses	-4133
▁airline	-4134
▁collapse	-4135
▁proposal	-4136
▁francisco	-4137
▁recession	-4138
▁foreigners	-4139
▁51	-4140
oded	-4141
ogue	-4142
unch	-4143
▁194	-4144
▁sac	-4145
▁spl	-4146
asons	-4147
▁pope	-4148
▁coach	-4149
▁lived	-4150
▁owned	-4151
▁stars	-4152
▁steve	-4153
▁places	-4154
▁sports	-4155
▁surviv	-4156
▁temper	-4157
▁weight	-4158
▁consult	-4159
▁deliver	-4160
▁reuters	-4161
▁sending	-4162
▁waiting	-4163
▁agencies	-4164
▁required	-4165
▁computers	-4166
▁controlled	-4167
▁convention	-4168
▁revolution	-4169
▁resignation	-4170
▁particularly	-4171
▁eld	-4172
▁eye	-4173
▁ult	-4174
ashes	-4175
isher	-4176
▁male	-4177
▁frank	-4178
▁syria	-4179
itarian	-4180
▁beyond	-4181
▁declar	-4182
▁koreas	-4183
▁losing	-4184
▁object	-4185
▁ronald	-4186
▁spring	-4187
▁hostage	-4188
▁airlines	-4189
▁presence	-4190
▁determine	-4191
▁prosecutor	-4192
rer	-4193
the	-4194
▁44	-4195
▁din	-4196
▁gnp	-4197
▁walk	-4198
ateral	-4199
▁cells	-4200
▁draft	-4201
▁heads	-4202
▁crimes	-4203
▁maliki	-4204
▁relief	-4205
heastern	-4206
▁condole	-4207
▁festival	-4208
▁pictures	-4209
▁traveling	-4210
▁governments	-4211
▁republicans	-4212
gas	-4213
une	-4214
ezza	-4215
like	-4216
▁abu	-4217
▁bom	-4218
▁hil	-4219
▁mir	-4220
▁nep	-4221
▁scr	-4222
▁sov	-4223
ately	-4224
wards	-4225
▁clot	-4226
▁thai	-4227
▁abuse	-4228
▁fully	-4229
▁occup	-4230
▁oppon	-4231
itation	-4232
▁deadly	-4233
▁resort	-4234
▁secure	-4235
▁served	-4236
▁settle	-4237
▁unless	-4238
▁content	-4239
▁receive	-4240
▁setting	-4241
▁treasury	-4242
▁crackdown	-4243
▁developed	-4244
▁condoleezza	-4245
apt	-4246
▁34	-4247
abad	-4248
ique	-4249
▁eru	-4250
▁gay	-4251
▁rus	-4252
aming	-4253
astic	-4254
▁cong	-4255
▁tony	-4256
▁unit	-4257
▁style	-4258
▁gather	-4259
▁palace	-4260
▁portug	-4261
▁punish	-4262
▁actress	-4263
▁resolve	-4264
▁serving	-4265
▁various	-4266
▁visited	-4267
▁supplies	-4268
▁implement	-4269
▁competition	-4270
▁politicians	-4271
▁fix	-4272
▁gra	-4273
▁1999	-4274
▁acqu	-4275
▁monit	-4276
▁kosovo	-4277
▁sharif	-4278
▁singer	-4279
▁soviet	-4280
▁wealth	-4281
▁adviser	-4282
▁finding	-4283
▁approval	-4284
▁forecast	-4285
▁suffering	-4286
▁demonstrators	-4287
nic	-4288
aked	-4289
illa	-4290
imum	-4291
▁kyi	-4292
▁rub	-4293
gered	-4294
▁bern	-4295
▁corn	-4296
▁inqu	-4297
▁text	-4298
ifying	-4299
▁consp	-4300
▁honor	-4301
▁obser	-4302
▁happen	-4303
▁select	-4304
▁charles	-4305
▁quality	-4306
▁removed	-4307
▁dialogue	-4308
▁continues	-4309
▁religious	-4310
▁sometimes	-4311
▁determined	-4312
▁ku	-4313
iced	-4314
lets	-4315
rawn	-4316
▁hor	-4317
▁teh	-4318
enger	-4319
▁boyc	-4320
▁purp	-4321
▁trib	-4322
ension	-4323
▁exerc	-4324
▁teams	-4325
▁touch	-4326
▁whole	-4327
▁bomber	-4328
▁camera	-4329
▁finish	-4330
▁howard	-4331
▁widely	-4332
▁changed	-4333
▁tibetan	-4334
▁demanded	-4335
▁apartment	-4336
▁questioned	-4337
ye	-4338
ami	-4339
ein	-4340
enn	-4341
rog	-4342
▁der	-4343
▁luc	-4344
▁cath	-4345
▁cuts	-4346
▁save	-4347
▁spar	-4348
▁unve	-4349
▁exist	-4350
▁kabul	-4351
▁taxes	-4352
▁users	-4353
▁affect	-4354
▁depart	-4355
▁facing	-4356
▁pervez	-4357
▁academy	-4358
▁express	-4359
▁lawyers	-4360
▁historic	-4361
▁property	-4362
▁influence	-4363
▁declaration	-4364
fur	-4365
▁55	-4366
ford	-4367
▁rum	-4368
▁ones	-4369
▁onto	-4370
▁prin	-4371
▁pull	-4372
▁floor	-4373
▁image	-4374
▁argent	-4375
▁beckham	-4376
▁becoming	-4377
▁original	-4378
▁organizations	-4379
dom	-4380
oph	-4381
acts	-4382
azir	-4383
▁lou	-4384
▁pra	-4385
▁1980	-4386
▁1998	-4387
▁mine	-4388
▁roll	-4389
▁stad	-4390
▁trop	-4391
▁virt	-4392
▁alert	-4393
▁delay	-4394
▁diana	-4395
▁rapid	-4396
▁route	-4397
▁smoke	-4398
▁torch	-4399
▁troop	-4400
▁picked	-4401
▁planet	-4402
▁retail	-4403
▁ukrain	-4404
ferences	-4405
▁located	-4406
▁produce	-4407
▁accepted	-4408
▁character	-4409
▁businesses	-4410
▁46	-4411
▁enj	-4412
▁mix	-4413
▁suu	-4414
etnam	-4415
▁chem	-4416
▁mahm	-4417
▁items	-4418
▁sense	-4419
▁highly	-4420
▁pounds	-4421
▁saddam	-4422
▁tehran	-4423
▁causing	-4424
▁finally	-4425
▁kurdish	-4426
▁believes	-4427
▁michigan	-4428
▁estimates	-4429
▁providing	-4430
▁struggling	-4431
▁increasingly	-4432
▁demonstrations	-4433
win	-4434
▁nad	-4435
aksin	-4436
anium	-4437
▁1990	-4438
▁cruc	-4439
▁hang	-4440
enders	-4441
▁alive	-4442
▁firef	-4443
▁pregn	-4444
▁arabia	-4445
▁kenned	-4446
▁modern	-4447
▁housing	-4448
▁thaksin	-4449
▁attempts	-4450
▁division	-4451
▁tensions	-4452
▁collapsed	-4453
▁explosives	-4454
▁withdrawal	-4455
▁discussions	-4456
▁transportation	-4457
▁53	-4458
▁gm	-4459
▁gov	-4460
▁nev	-4461
▁sev	-4462
ented	-4463
▁boat	-4464
▁ring	-4465
▁troub	-4466
▁belong	-4467
▁slight	-4468
▁unlike	-4469
▁heavily	-4470
▁highway	-4471
▁keeping	-4472
▁require	-4473
▁telling	-4474
▁uranium	-4475
▁vietnam	-4476
▁approach	-4477
▁captured	-4478
▁standing	-4479
▁attempted	-4480
▁indicated	-4481
▁initially	-4482
▁neighboring	-4483
iri	-4484
uth	-4485
▁43	-4486
▁od	-4487
oses	-4488
▁cha	-4489
▁fal	-4490
▁orb	-4491
▁rac	-4492
itzer	-4493
▁cler	-4494
▁diss	-4495
▁pret	-4496
▁thin	-4497
ground	-4498
▁equip	-4499
▁joong	-4500
▁stone	-4501
▁stood	-4502
▁value	-4503
▁virus	-4504
▁asking	-4505
▁banned	-4506
▁broken	-4507
▁device	-4508
▁fellow	-4509
▁channel	-4510
▁culture	-4511
▁kennedy	-4512
▁partner	-4513
▁penalty	-4514
▁tourism	-4515
▁refugees	-4516
▁entertain	-4517
▁southeast	-4518
▁assistance	-4519
nd	-4520
zai	-4521
▁250	-4522
▁hab	-4523
▁ally	-4524
▁ariz	-4525
ounced	-4526
▁climb	-4527
▁colon	-4528
▁faced	-4529
▁holds	-4530
▁junta	-4531
▁liver	-4532
▁seems	-4533
▁spons	-4534
▁accomp	-4535
▁flying	-4536
▁photos	-4537
▁scored	-4538
▁comfort	-4539
▁contain	-4540
▁picture	-4541
▁exploded	-4542
▁possibly	-4543
▁solution	-4544
▁appearance	-4545
▁kidnapping	-4546
▁profession	-4547
▁championship	-4548
ki	-4549
ob	-4550
ici	-4551
▁ib	-4552
hens	-4553
oral	-4554
▁bow	-4555
▁zoo	-4556
arant	-4557
inger	-4558
verse	-4559
▁bure	-4560
▁mile	-4561
▁rape	-4562
isions	-4563
▁exact	-4564
▁ships	-4565
▁tough	-4566
▁vegas	-4567
issions	-4568
▁injury	-4569
▁phones	-4570
▁thanks	-4571
▁arizona	-4572
▁clashes	-4573
▁conspir	-4574
▁reserve	-4575
▁stadium	-4576
▁warming	-4577
▁bringing	-4578
▁currency	-4579
▁governing	-4580
▁islamabad	-4581
▁foundation	-4582
▁threatening	-4583
▁correspondent	-4584
cel	-4585
iny	-4586
ipp	-4587
adian	-4588
▁bond	-4589
▁cuba	-4590
▁gain	-4591
▁meth	-4592
▁sadr	-4593
▁symb	-4594
▁carri	-4595
▁kenya	-4596
▁probe	-4597
▁table	-4598
western	-4599
▁handed	-4600
▁tribal	-4601
▁greater	-4602
▁offices	-4603
▁partners	-4604
▁visiting	-4605
▁completed	-4606
▁personnel	-4607
▁disappoint	-4608
ova	-4609
owa	-4610
ugg	-4611
▁62	-4612
etts	-4613
▁arr	-4614
▁dna	-4615
▁obt	-4616
▁sar	-4617
achus	-4618
▁blow	-4619
▁chec	-4620
▁goog	-4621
▁rall	-4622
▁sams	-4623
▁tons	-4624
▁unem	-4625
usalem	-4626
▁films	-4627
▁goals	-4628
▁goods	-4629
▁reven	-4630
▁scale	-4631
▁resour	-4632
▁entered	-4633
▁nicolas	-4634
▁opposed	-4635
achusetts	-4636
▁finished	-4637
▁projects	-4638
▁jerusalem	-4639
▁journalist	-4640
▁supporting	-4641
▁massachusetts	-4642
aro	-4643
aker	-4644
aren	-4645
idel	-4646
▁log	-4647
oning	-4648
▁gamb	-4649
▁hoped	-4650
▁looks	-4651
▁nepal	-4652
▁vowed	-4653
▁ethnic	-4654
▁spears	-4655
▁delayed	-4656
▁allowing	-4657
▁unemploy	-4658
▁executives	-4659
▁nationwide	-4660
▁speculation	-4661
▁representatives	-4662
ols	-4663
oney	-4664
▁bea	-4665
▁ceo	-4666
▁pel	-4667
ulate	-4668
▁fash	-4669
▁gets	-4670
▁kang	-4671
▁mand	-4672
▁rein	-4673
▁warr	-4674
▁wire	-4675
▁yell	-4676
idency	-4677
ighter	-4678
▁angry	-4679
▁examp	-4680
▁budget	-4681
▁extrem	-4682
▁income	-4683
▁martin	-4684
▁narrow	-4685
▁remote	-4686
▁enforce	-4687
▁equipment	-4688
▁connection	-4689
▁negotiator	-4690
▁commissioner	-4691
mo	-4692
ope	-4693
▁gri	-4694
▁rid	-4695
▁sat	-4696
anted	-4697
▁dogs	-4698
▁hung	-4699
▁lose	-4700
▁defin	-4701
▁fatah	-4702
▁innoc	-4703
▁abduct	-4704
▁buying	-4705
▁driver	-4706
▁google	-4707
▁ancient	-4708
▁crashed	-4709
▁crucial	-4710
▁footage	-4711
▁downtown	-4712
▁reaction	-4713
▁evacuated	-4714
▁eventually	-4715
▁involvement	-4716
wa	-4717
ena	-4718
▁54	-4719
rison	-4720
▁cart	-4721
▁jury	-4722
▁path	-4723
▁agric	-4724
▁books	-4725
chester	-4726
▁carbon	-4727
▁mahmoud	-4728
▁samsung	-4729
▁smaller	-4730
▁threats	-4731
▁tonight	-4732
▁treated	-4733
▁version	-4734
▁administ	-4735
▁intended	-4736
▁discovery	-4737
▁dismissed	-4738
za	-4739
hem	-4740
enty	-4741
icip	-4742
rees	-4743
rian	-4744
tery	-4745
▁cbs	-4746
ropri	-4747
▁heat	-4748
▁pray	-4749
▁wake	-4750
mitted	-4751
▁categ	-4752
▁frequ	-4753
▁haven	-4754
▁oscar	-4755
▁closer	-4756
▁iraqis	-4757
▁weapon	-4758
▁fashion	-4759
▁guarant	-4760
▁reasons	-4761
▁strateg	-4762
▁studies	-4763
▁windows	-4764
▁facility	-4765
▁killings	-4766
▁lawmaker	-4767
▁relative	-4768
▁seriously	-4769
▁delegation	-4770
▁ji	-4771
haps	-4772
rect	-4773
time	-4774
▁tun	-4775
▁cauc	-4776
▁dong	-4777
▁sand	-4778
▁thom	-4779
▁wolf	-4780
▁cents	-4781
▁maybe	-4782
▁active	-4783
▁estate	-4784
▁movies	-4785
▁nevada	-4786
▁outbre	-4787
▁seeing	-4788
▁stress	-4789
▁heading	-4790
▁jackson	-4791
▁perhaps	-4792
▁agricult	-4793
▁canceled	-4794
▁resident	-4795
▁stations	-4796
▁surprise	-4797
▁condemned	-4798
pe	-4799
him	-4800
▁ash	-4801
▁jim	-4802
▁uns	-4803
aches	-4804
anged	-4805
▁ford	-4806
▁iowa	-4807
▁isol	-4808
incial	-4809
nament	-4810
▁dutch	-4811
▁nobel	-4812
▁noted	-4813
▁piece	-4814
▁rough	-4815
▁subur	-4816
▁abroad	-4817
▁cruise	-4818
▁ensure	-4819
▁export	-4820
▁karzai	-4821
▁recall	-4822
▁tempor	-4823
▁unable	-4824
▁concert	-4825
▁perfect	-4826
▁simpson	-4827
▁walking	-4828
▁watched	-4829
▁audience	-4830
▁memorial	-4831
▁trillion	-4832
▁magnitude	-4833
▁completely	-4834
▁provincial	-4835
▁tournament	-4836
▁humanitarian	-4837
cle	-4838
ita	-4839
lig	-4840
ura	-4841
▁nbc	-4842
ivity	-4843
lands	-4844
osing	-4845
▁chos	-4846
icient	-4847
▁album	-4848
▁comed	-4849
▁forum	-4850
▁initi	-4851
▁milan	-4852
▁advant	-4853
▁patrol	-4854
▁status	-4855
▁treaty	-4856
▁bailout	-4857
▁sheriff	-4858
▁speaker	-4859
▁challeng	-4860
▁standard	-4861
▁corporate	-4862
▁diplomats	-4863
▁insurance	-4864
▁relatives	-4865
▁travelers	-4866
ea	-4867
va	-4868
lad	-4869
udd	-4870
▁rh	-4871
icks	-4872
oard	-4873
ucks	-4874
▁atm	-4875
▁cia	-4876
▁max	-4877
▁yes	-4878
anced	-4879
ategy	-4880
usted	-4881
▁dani	-4882
▁mike	-4883
▁slam	-4884
▁torn	-4885
▁upon	-4886
▁dubai	-4887
▁throw	-4888
▁alaska	-4889
▁applic	-4890
▁babies	-4891
▁owners	-4892
▁weekly	-4893
▁display	-4894
▁exports	-4895
▁farmers	-4896
▁liberal	-4897
▁putting	-4898
▁extended	-4899
▁strategy	-4900
▁presidency	-4901
oth	-4902
▁41	-4903
▁64	-4904
rich	-4905
▁pit	-4906
▁toy	-4907
ously	-4908
▁outr	-4909
▁wine	-4910
▁roads	-4911
▁aboard	-4912
▁berlin	-4913
▁decide	-4914
▁gunmen	-4915
▁perman	-4916
▁walked	-4917
▁limited	-4918
▁proceed	-4919
▁claiming	-4920
▁reporter	-4921
▁specific	-4922
▁watching	-4923
▁photograp	-4924
▁casualties	-4925
▁manchester	-4926
▁officially	-4927
▁organizers	-4928
▁photograph	-4929
30	-4930
rys	-4931
wal	-4932
fire	-4933
sequ	-4934
uals	-4935
▁syd	-4936
▁wen	-4937
ersey	-4938
▁aide	-4939
▁lady	-4940
▁stim	-4941
▁zeal	-4942
▁cited	-4943
▁stake	-4944
▁cheney	-4945
▁guards	-4946
▁sudden	-4947
▁clearly	-4948
▁covered	-4949
▁kingdom	-4950
▁ranking	-4951
▁turning	-4952
▁champion	-4953
▁invasion	-4954
▁strongly	-4955
▁appointed	-4956
▁offensive	-4957
ny	-4958
aze	-4959
ills	-4960
onom	-4961
pool	-4962
▁dod	-4963
▁ker	-4964
▁lob	-4965
ivals	-4966
ports	-4967
▁dram	-4968
▁flow	-4969
▁skin	-4970
▁toys	-4971
▁louis	-4972
▁niger	-4973
▁quite	-4974
▁columb	-4975
▁spirit	-4976
▁sydney	-4977
▁auction	-4978
▁muslims	-4979
▁smoking	-4980
▁princess	-4981
▁recovery	-4982
▁anonymity	-4983
▁standards	-4984
▁survivors	-4985
▁venezuela	-4986
▁newspapers	-4987
▁unemployment	-4988
iano	-4989
▁eve	-4990
iring	-4991
▁mont	-4992
▁type	-4993
▁brand	-4994
▁diego	-4995
▁doubt	-4996
▁maker	-4997
▁pound	-4998
▁sport	-4999
▁worse	-5000
▁answer	-5001
▁bought	-5002
▁experi	-5003
▁hilton	-5004
▁sister	-5005
▁wonder	-5006
▁founder	-5007
▁benefits	-5008
▁confront	-5009
▁mohammed	-5010
▁revealed	-5011
▁detention	-5012
▁commitment	-5013
▁entertainment	-5014
isc	-5015
▁ec	-5016
abor	-5017
oked	-5018
▁bob	-5019
▁spr	-5020
pread	-5021
▁chel	-5022
▁easy	-5023
▁eyes	-5024
▁feed	-5025
▁harm	-5026
▁suit	-5027
▁tear	-5028
▁visa	-5029
▁agent	-5030
▁nadal	-5031
▁wides	-5032
▁advert	-5033
▁awards	-5034
▁buried	-5035
▁formal	-5036
▁humans	-5037
▁tested	-5038
▁example	-5039
▁johnson	-5040
▁raising	-5041
▁tomorrow	-5042
▁tradition	-5043
▁electronic	-5044
▁widespread	-5045
▁destruction	-5046
da	-5047
awa	-5048
gar	-5049
ikh	-5050
▁(2	-5051
esty	-5052
iang	-5053
olit	-5054
▁sem	-5055
▁carl	-5056
▁hamp	-5057
▁swim	-5058
▁tape	-5059
▁wars	-5060
▁deton	-5061
▁monks	-5062
▁relay	-5063
▁rooms	-5064
▁santa	-5065
▁sound	-5066
▁spend	-5067
▁altern	-5068
▁atmosp	-5069
▁devast	-5070
▁except	-5071
▁judges	-5072
▁powers	-5073
▁profit	-5074
▁cutting	-5075
▁landing	-5076
▁seconds	-5077
▁insisted	-5078
▁internal	-5079
▁electoral	-5080
▁returning	-5081
oke	-5082
onh	-5083
sea	-5084
uce	-5085
ume	-5086
zen	-5087
▁iv	-5088
▁mu	-5089
book	-5090
inal	-5091
unte	-5092
well	-5093
▁cow	-5094
▁kat	-5095
▁lie	-5096
▁unp	-5097
inces	-5098
▁samp	-5099
▁wave	-5100
▁wins	-5101
atures	-5102
▁agend	-5103
▁catch	-5104
▁delta	-5105
▁grave	-5106
▁knows	-5107
▁ordin	-5108
▁pilot	-5109
▁recru	-5110
▁renew	-5111
essions	-5112
▁assess	-5113
▁landed	-5114
▁lowest	-5115
▁prompt	-5116
▁resist	-5117
▁simply	-5118
▁soccer	-5119
▁trouble	-5120
▁volunte	-5121
▁catholic	-5122
▁physical	-5123
▁passenger	-5124
▁provinces	-5125
▁resources	-5126
▁continuing	-5127
▁transition	-5128
▁electricity	-5129
▁acknowledged	-5130
▁assassination	-5131
ho	-5132
ju	-5133
bac	-5134
▁39	-5135
▁65	-5136
▁lt	-5137
▁dal	-5138
▁fan	-5139
▁suc	-5140
uster	-5141
works	-5142
▁guns	-5143
▁none	-5144
▁rome	-5145
▁stal	-5146
rysler	-5147
▁begun	-5148
▁enjoy	-5149
▁equal	-5150
▁faith	-5151
▁leads	-5152
▁loans	-5153
▁towns	-5154
▁jersey	-5155
▁jumped	-5156
▁urging	-5157
▁apology	-5158
▁reflect	-5159
▁trapped	-5160
▁ukraine	-5161
▁unclear	-5162
▁creating	-5163
▁drinking	-5164
▁malaysia	-5165
▁medicine	-5166
▁household	-5167
▁organized	-5168
▁triggered	-5169
▁communications	-5170
bar	-5171
rey	-5172
set	-5173
▁km	-5174
uers	-5175
▁195	-5176
elled	-5177
ollah	-5178
osure	-5179
ville	-5180
▁2010	-5181
▁appl	-5182
▁budd	-5183
▁cool	-5184
▁copy	-5185
▁diam	-5186
▁hero	-5187
▁runs	-5188
▁task	-5189
▁tort	-5190
▁birds	-5191
▁agenda	-5192
▁choose	-5193
▁marked	-5194
▁planes	-5195
vernight	-5196
▁achieve	-5197
▁aggress	-5198
▁chelsea	-5199
▁learned	-5200
▁promote	-5201
▁targets	-5202
▁attended	-5203
▁cultural	-5204
▁negative	-5205
▁upcoming	-5206
▁certainly	-5207
▁colombian	-5208
▁discussed	-5209
▁liverpool	-5210
▁percentage	-5211
▁investigate	-5212
▁restrictions	-5213
80	-5214
aug	-5215
unk	-5216
▁56	-5217
byon	-5218
fall	-5219
fare	-5220
feld	-5221
▁ble	-5222
▁era	-5223
▁jes	-5224
ental	-5225
ipped	-5226
▁calm	-5227
▁outp	-5228
▁pref	-5229
▁unus	-5230
▁apart	-5231
▁basis	-5232
▁enemy	-5233
▁gains	-5234
▁overw	-5235
▁youth	-5236
▁assets	-5237
▁burned	-5238
▁daniel	-5239
▁examin	-5240
▁proced	-5241
▁atlanta	-5242
▁centers	-5243
▁decline	-5244
▁indiana	-5245
▁install	-5246
▁pushing	-5247
▁chemical	-5248
▁favorite	-5249
▁offering	-5250
▁advantage	-5251
▁extremely	-5252
▁interests	-5253
▁overnight	-5254
▁conspiracy	-5255
▁differences	-5256
lor	-5257
uri	-5258
otic	-5259
▁adj	-5260
▁ath	-5261
▁bon	-5262
▁ric	-5263
▁spy	-5264
▁tan	-5265
stein	-5266
▁coff	-5267
▁debt	-5268
▁dict	-5269
▁pair	-5270
▁plus	-5271
action	-5272
ivered	-5273
▁corps	-5274
▁divor	-5275
▁exile	-5276
▁fewer	-5277
▁fires	-5278
▁reloc	-5279
▁acting	-5280
▁allows	-5281
▁gained	-5282
▁hoping	-5283
▁nature	-5284
▁potter	-5285
▁thomas	-5286
▁valley	-5287
▁diamond	-5288
▁mention	-5289
▁sparked	-5290
▁tourist	-5291
▁breaking	-5292
▁deployed	-5293
▁rescuers	-5294
▁standoff	-5295
▁wounding	-5296
▁yongbyon	-5297
▁confident	-5298
▁preparing	-5299
▁referring	-5300
▁reporting	-5301
▁successful	-5302
▁legislation	-5303
▁regulations	-5304
gen	-5305
gnp	-5306
kok	-5307
rig	-5308
erer	-5309
rend	-5310
▁tab	-5311
▁dump	-5312
▁khan	-5313
▁matt	-5314
▁prol	-5315
▁rebu	-5316
▁shan	-5317
▁sick	-5318
▁tall	-5319
▁aides	-5320
▁prost	-5321
▁rural	-5322
▁stret	-5323
▁disarm	-5324
▁driven	-5325
▁filled	-5326
▁lifted	-5327
▁rivals	-5328
▁struct	-5329
▁welcom	-5330
▁bangkok	-5331
▁chances	-5332
▁islands	-5333
▁lawsuit	-5334
▁reduced	-5335
▁strikes	-5336
▁succeed	-5337
▁maryland	-5338
▁roadside	-5339
▁substant	-5340
▁unveiled	-5341
▁concluded	-5342
▁hospitals	-5343
▁generation	-5344
▁questioning	-5345
zb	-5346
mun	-5347
nis	-5348
war	-5349
▁mr	-5350
▁pc	-5351
gage	-5352
ading	-5353
attle	-5354
limin	-5355
▁ghaz	-5356
▁pump	-5357
▁vlad	-5358
iously	-5359
▁boats	-5360
▁gives	-5361
imately	-5362
▁bureau	-5363
▁expert	-5364
▁frozen	-5365
▁plants	-5366
▁effects	-5367
▁federer	-5368
▁follows	-5369
▁healthy	-5370
▁herself	-5371
▁abdullah	-5372
▁entering	-5373
▁prelimin	-5374
▁reaching	-5375
▁slightly	-5376
▁teachers	-5377
▁delivered	-5378
▁permanent	-5379
▁producing	-5380
fl	-5381
ctic	-5382
etic	-5383
▁bah	-5384
▁cry	-5385
▁fab	-5386
▁hug	-5387
▁jul	-5388
▁lev	-5389
▁sam	-5390
▁via	-5391
oline	-5392
▁boss	-5393
▁ease	-5394
▁fier	-5395
▁gulf	-5396
▁hezb	-5397
▁hole	-5398
▁jeff	-5399
▁tsun	-5400
▁adopt	-5401
▁basic	-5402
▁bench	-5403
▁dress	-5404
▁fayed	-5405
▁hwang	-5406
▁optim	-5407
▁petro	-5408
▁editor	-5409
▁enrich	-5410
▁golden	-5411
▁presum	-5412
▁proper	-5413
▁ranked	-5414
▁simple	-5415
▁stores	-5416
▁ability	-5417
▁advance	-5418
▁closing	-5419
▁complic	-5420
▁connect	-5421
▁edwards	-5422
▁focused	-5423
▁invited	-5424
▁zealand	-5425
▁canadian	-5426
▁homeland	-5427
▁location	-5428
▁suggests	-5429
▁bilateral	-5430
▁inflation	-5431
▁opponents	-5432
▁supported	-5433
▁inspectors	-5434
▁statements	-5435
▁controversy	-5436
amm	-5437
cri	-5438
iat	-5439
ipe	-5440
kel	-5441
sid	-5442
▁eh	-5443
▁ru	-5444
arta	-5445
iami	-5446
life	-5447
▁raf	-5448
▁wil	-5449
▁amaz	-5450
▁bell	-5451
▁boys	-5452
▁edge	-5453
▁gonz	-5454
▁leng	-5455
▁mour	-5456
▁swed	-5457
▁inaug	-5458
▁miami	-5459
▁palin	-5460
▁proud	-5461
▁prove	-5462
▁solar	-5463
▁spect	-5464
▁darfur	-5465
▁detain	-5466
▁remove	-5467
▁banking	-5468
▁digital	-5469
▁falling	-5470
▁meaning	-5471
▁rockets	-5472
▁statist	-5473
▁tsunami	-5474
▁chrysler	-5475
▁practice	-5476
▁hezbollah	-5477
▁materials	-5478
▁presented	-5479
▁preliminary	-5480
▁unification	-5481
▁conservation	-5482
era	-5483
ram	-5484
▁61	-5485
▁66	-5486
▁du	-5487
iest	-5488
part	-5489
rell	-5490
▁guy	-5491
▁wis	-5492
▁aids	-5493
▁bost	-5494
▁emot	-5495
▁flew	-5496
▁grab	-5497
▁manh	-5498
▁note	-5499
▁sail	-5500
▁shir	-5501
▁sust	-5502
▁volc	-5503
▁exhib	-5504
▁fatal	-5505
▁learn	-5506
▁broadc	-5507
▁campus	-5508
▁couldn	-5509
▁fisher	-5510
▁formed	-5511
▁fought	-5512
▁method	-5513
▁trains	-5514
▁yellow	-5515
▁convers	-5516
▁journey	-5517
▁radical	-5518
▁overwhel	-5519
▁strength	-5520
▁southwest	-5521
▁administrat	-5522
▁firefighters	-5523
▁hospitalized	-5524
uts	-5525
▁49	-5526
▁58	-5527
▁59	-5528
▁95	-5529
agan	-5530
bery	-5531
rick	-5532
stri	-5533
▁jon	-5534
▁sor	-5535
▁wid	-5536
abeth	-5537
onhap	-5538
▁argu	-5539
▁lake	-5540
▁lind	-5541
▁quit	-5542
▁scot	-5543
▁sean	-5544
▁tiny	-5545
▁yout	-5546
akarta	-5547
▁threw	-5548
▁truth	-5549
▁bottom	-5550
▁fallen	-5551
▁intens	-5552
▁interp	-5553
▁pretty	-5554
▁pushed	-5555
▁yonhap	-5556
ropriate	-5557
▁arrival	-5558
▁benazir	-5559
▁coordin	-5560
▁couples	-5561
▁dismant	-5562
▁options	-5563
▁refugee	-5564
▁retired	-5565
▁staying	-5566
▁testing	-5567
▁welcome	-5568
▁exercise	-5569
▁findings	-5570
▁flooding	-5571
▁prompted	-5572
▁warnings	-5573
▁emissions	-5574
▁neighbors	-5575
▁manufacture	-5576
pa	-5577
awi	-5578
bur	-5579
isf	-5580
oria	-5581
▁aer	-5582
▁hat	-5583
▁mph	-5584
▁ped	-5585
▁holy	-5586
▁lama	-5587
▁mars	-5588
▁sony	-5589
▁absol	-5590
▁blame	-5591
▁breat	-5592
▁dalai	-5593
▁lying	-5594
▁macau	-5595
▁older	-5596
▁split	-5597
▁gunman	-5598
▁inches	-5599
▁larger	-5600
▁offers	-5601
▁remark	-5602
▁shrine	-5603
entially	-5604
▁boycott	-5605
▁promise	-5606
▁reading	-5607
▁recover	-5608
▁youtube	-5609
▁colorado	-5610
▁delivery	-5611
▁outbreak	-5612
▁resigned	-5613
▁shopping	-5614
▁disappear	-5615
▁predicted	-5616
▁requested	-5617
▁repeatedly	-5618
ded	-5619
eed	-5620
rec	-5621
thr	-5622
▁ak	-5623
▁pu	-5624
▁ta	-5625
outs	-5626
pect	-5627
zing	-5628
▁hub	-5629
ailed	-5630
ledge	-5631
leine	-5632
ptive	-5633
undai	-5634
▁drew	-5635
▁fate	-5636
▁pace	-5637
▁plat	-5638
▁scen	-5639
▁tack	-5640
▁vari	-5641
▁ideas	-5642
▁overt	-5643
▁afford	-5644
▁sector	-5645
▁hyundai	-5646
▁neither	-5647
▁profile	-5648
▁surface	-5649
▁towards	-5650
▁gasoline	-5651
▁northwest	-5652
▁girlfriend	-5653
▁restaurant	-5654
▁immigration	-5655
▁temperatures	-5656
ox	-5657
hab	-5658
▁az	-5659
▁ox	-5660
emic	-5661
iaea	-5662
ouri	-5663
▁abc	-5664
▁gap	-5665
▁tay	-5666
rated	-5667
water	-5668
▁exit	-5669
atican	-5670
▁cease	-5671
▁drawn	-5672
▁glass	-5673
▁globe	-5674
▁steel	-5675
▁strip	-5676
▁upper	-5677
istered	-5678
▁boston	-5679
▁cleric	-5680
▁detect	-5681
▁jailed	-5682
▁landsl	-5683
▁seemed	-5684
▁stimul	-5685
▁vladim	-5686
▁edition	-5687
▁engaged	-5688
▁erupted	-5689
▁escaped	-5690
▁expects	-5691
▁funding	-5692
▁reality	-5693
▁vatican	-5694
▁writing	-5695
▁absolute	-5696
▁accompan	-5697
▁changing	-5698
▁searching	-5699
▁stability	-5700
▁atmosphere	-5701
▁individuals	-5702
▁professional	-5703
▁congressional	-5704
rae	-5705
omes	-5706
▁bac	-5707
▁ess	-5708
▁mun	-5709
▁mut	-5710
▁sin	-5711
illed	-5712
iters	-5713
▁cycl	-5714
▁drag	-5715
▁gard	-5716
▁liqu	-5717
▁neck	-5718
▁sets	-5719
▁drove	-5720
▁label	-5721
▁osama	-5722
▁sarah	-5723
▁scott	-5724
▁shock	-5725
▁degree	-5726
▁disney	-5727
▁earned	-5728
▁length	-5729
▁orders	-5730
▁airstri	-5731
▁captain	-5732
▁compens	-5733
▁drivers	-5734
▁patient	-5735
▁regions	-5736
▁younger	-5737
▁friendly	-5738
▁messages	-5739
▁survived	-5740
▁argentina	-5741
▁knowledge	-5742
▁recovered	-5743
▁targeting	-5744
▁enforcement	-5745
oma	-5746
see	-5747
enth	-5748
hist	-5749
▁eat	-5750
▁fox	-5751
▁gib	-5752
▁nav	-5753
▁rig	-5754
▁rio	-5755
acity	-5756
shire	-5757
▁1994	-5758
▁chap	-5759
▁grew	-5760
▁norm	-5761
▁stro	-5762
▁tied	-5763
▁tree	-5764
▁vast	-5765
▁vent	-5766
▁wait	-5767
minent	-5768
▁bound	-5769
▁jesus	-5770
▁adults	-5771
▁bigger	-5772
▁circum	-5773
▁flames	-5774
▁lights	-5775
▁closely	-5776
▁failing	-5777
▁subject	-5778
▁telecom	-5779
▁atlantic	-5780
▁formally	-5781
▁identify	-5782
▁producer	-5783
▁publicly	-5784
▁scotland	-5785
▁struggle	-5786
▁madeleine	-5787
▁observers	-5788
▁responded	-5789
▁astronauts	-5790
▁restaurants	-5791
▁communication	-5792
kk	-5793
aka	-5794
ato	-5795
ini	-5796
rad	-5797
▁uh	-5798
▁kaz	-5799
ansas	-5800
erved	-5801
osite	-5802
▁aren	-5803
▁ehud	-5804
▁exam	-5805
▁reun	-5806
▁thro	-5807
▁escal	-5808
▁firms	-5809
▁manip	-5810
▁paint	-5811
▁shout	-5812
▁sixth	-5813
mission	-5814
▁athlet	-5815
▁corner	-5816
▁desert	-5817
▁master	-5818
▁multip	-5819
▁option	-5820
▁papers	-5821
▁termin	-5822
▁coastal	-5823
▁managed	-5824
▁pirates	-5825
▁reforms	-5826
▁stepped	-5827
▁wedding	-5828
▁estimate	-5829
▁innocent	-5830
▁vladimir	-5831
▁helicopters	-5832
▁broadcasting	-5833
▁expectations	-5834
bod	-5835
jad	-5836
anch	-5837
cher	-5838
look	-5839
onic	-5840
ques	-5841
rete	-5842
▁191	-5843
▁cos	-5844
▁lux	-5845
acing	-5846
ordan	-5847
▁brut	-5848
▁chun	-5849
▁eliz	-5850
▁emph	-5851
▁ends	-5852
▁merc	-5853
▁arsen	-5854
▁delhi	-5855
▁limit	-5856
▁marks	-5857
▁newly	-5858
▁uncon	-5859
▁views	-5860
▁waste	-5861
▁barcel	-5862
▁convoy	-5863
▁escape	-5864
▁paying	-5865
▁runner	-5866
ologists	-5867
▁matches	-5868
▁teacher	-5869
▁accounts	-5870
▁diplomat	-5871
▁pregnant	-5872
▁positions	-5873
▁reduction	-5874
▁attempting	-5875
▁indonesian	-5876
▁introduced	-5877
▁counterpart	-5878
▁disarmament	-5879
▁established	-5880
▁philippines	-5881
ias	-5882
uct	-5883
agues	-5884
deleg	-5885
erous	-5886
raeus	-5887
▁airb	-5888
▁beef	-5889
▁duty	-5890
▁warm	-5891
atever	-5892
▁abdul	-5893
▁debut	-5894
▁habit	-5895
▁squad	-5896
▁unity	-5897
▁boeing	-5898
▁counts	-5899
▁jordan	-5900
▁memory	-5901
▁serbia	-5902
▁shared	-5903
▁string	-5904
▁blocked	-5905
▁divided	-5906
▁feeling	-5907
▁license	-5908
▁birthday	-5909
▁circumst	-5910
▁contests	-5911
▁islamist	-5912
▁petraeus	-5913
▁recorded	-5914
▁whatever	-5915
▁alexander	-5916
▁barcelona	-5917
▁deployment	-5918
▁superdeleg	-5919
▁surrounded	-5920
ek	-5921
gl	-5922
▁cz	-5923
▁gi	-5924
▁ug	-5925
form	-5926
ghai	-5927
orse	-5928
▁gop	-5929
lling	-5930
▁barb	-5931
▁halt	-5932
▁lift	-5933
▁migr	-5934
▁ride	-5935
▁sort	-5936
▁verd	-5937
rating	-5938
▁accus	-5939
▁anger	-5940
▁anton	-5941
▁kevin	-5942
vereign	-5943
▁beaten	-5944
▁bright	-5945
▁firing	-5946
▁adopted	-5947
▁cleared	-5948
▁illness	-5949
▁stories	-5950
▁shanghai	-5951
▁stronger	-5952
▁troubled	-5953
▁villages	-5954
▁welcomed	-5955
▁direction	-5956
▁elizabeth	-5957
▁gathering	-5958
▁illegally	-5959
▁peacekeep	-5960
▁sovereign	-5961
▁suspicion	-5962
▁challenges	-5963
gs	-5964
oen	-5965
akers	-5966
inals	-5967
night	-5968
▁gore	-5969
▁summ	-5970
▁veto	-5971
inejad	-5972
▁civic	-5973
▁hawai	-5974
▁moves	-5975
▁plung	-5976
▁shift	-5977
▁sight	-5978
▁trees	-5979
▁crowds	-5980
▁ghazni	-5981
▁mainly	-5982
▁margin	-5983
▁metrop	-5984
▁superv	-5985
▁anticip	-5986
▁beating	-5987
▁deliber	-5988
▁rallies	-5989
▁infected	-5990
▁maintain	-5991
▁traveled	-5992
▁wildlife	-5993
▁hampshire	-5994
▁transform	-5995
▁federation	-5996
▁registered	-5997
▁venezuelan	-5998
▁ahmadinejad	-5999
▁participate	-6000
▁representative	-6001
dc	-6002
ola	-6003
rif	-6004
▁69	-6005
▁ay	-6006
▁obv	-6007
acked	-6008
attan	-6009
▁2012	-6010
▁acts	-6011
▁belg	-6012
▁chen	-6013
▁crop	-6014
▁ramp	-6015
▁basra	-6016
▁kerry	-6017
▁urban	-6018
▁wheel	-6019
▁begins	-6020
▁bloody	-6021
▁causes	-6022
▁reagan	-6023
▁reject	-6024
▁unions	-6025
▁videos	-6026
▁burning	-6027
▁forcing	-6028
▁hopeful	-6029
▁jakarta	-6030
▁sharply	-6031
▁airports	-6032
▁watchdog	-6033
▁engineers	-6034
▁primaries	-6035
▁sensitive	-6036
▁colleagues	-6037
▁difference	-6038
▁enrichment	-6039
▁monitoring	-6040
▁punishment	-6041
▁revolutionary	-6042
zo	-6043
aid	-6044
daq	-6045
kin	-6046
pan	-6047
pet	-6048
san	-6049
vey	-6050
chen	-6051
ilit	-6052
ovic	-6053
▁120	-6054
▁130	-6055
▁cra	-6056
▁gor	-6057
▁jam	-6058
▁kib	-6059
▁ages	-6060
▁imag	-6061
▁knee	-6062
▁vacc	-6063
▁gradu	-6064
▁hills	-6065
▁lohan	-6066
▁comedy	-6067
▁deeply	-6068
▁eating	-6069
▁elimin	-6070
▁floods	-6071
▁morgan	-6072
▁pledge	-6073
▁prepar	-6074
▁stance	-6075
▁arsenal	-6076
▁bombers	-6077
▁dealing	-6078
▁letters	-6079
▁patrick	-6080
▁routine	-6081
▁secular	-6082
▁stalled	-6083
▁abducted	-6084
▁capacity	-6085
▁compound	-6086
▁stressed	-6087
▁thinking	-6088
▁unlikely	-6089
▁vacation	-6090
▁economist	-6091
▁effective	-6092
▁expensive	-6093
▁highlight	-6094
▁manhattan	-6095
▁regarding	-6096
▁scientist	-6097
▁televised	-6098
▁violation	-6099
▁disappointed	-6100
▁understanding	-6101
dy	-6102
chi	-6103
jev	-6104
umi	-6105
▁63	-6106
▁68	-6107
▁dv	-6108
aret	-6109
icit	-6110
▁cig	-6111
▁pad	-6112
▁pin	-6113
▁sli	-6114
▁slo	-6115
▁dick	-6116
▁farc	-6117
▁foss	-6118
▁hunt	-6119
▁link	-6120
▁lung	-6121
▁mate	-6122
▁nick	-6123
▁peru	-6124
▁wear	-6125
olitan	-6126
▁bened	-6127
▁blago	-6128
▁camps	-6129
▁chile	-6130
▁grown	-6131
▁loved	-6132
▁metal	-6133
▁swept	-6134
▁chosen	-6135
▁cooper	-6136
▁packed	-6137
▁subsid	-6138
▁worker	-6139
▁capable	-6140
▁emerged	-6141
▁accusing	-6142
▁briefing	-6143
▁caucuses	-6144
▁features	-6145
▁numerous	-6146
▁portugal	-6147
▁everybody	-6148
▁intention	-6149
▁nominated	-6150
▁apologized	-6151
▁individual	-6152
▁alternative	-6153
▁demonstration	-6154
▁manufacturing	-6155
ean	-6156
ero	-6157
iop	-6158
ios	-6159
uls	-6160
▁ye	-6161
olis	-6162
pass	-6163
▁moh	-6164
▁sha	-6165
▁unn	-6166
inson	-6167
itely	-6168
owitz	-6169
point	-6170
▁1996	-6171
▁bull	-6172
▁toug	-6173
illing	-6174
ocking	-6175
▁extin	-6176
▁novel	-6177
▁roman	-6178
▁schol	-6179
illance	-6180
▁arrive	-6181
▁bitter	-6182
▁faster	-6183
▁hotels	-6184
▁jewish	-6185
▁leaves	-6186
▁scores	-6187
▁stands	-6188
▁conclus	-6189
▁earning	-6190
▁funeral	-6191
▁imports	-6192
▁intense	-6193
▁mississ	-6194
▁plastic	-6195
▁restore	-6196
▁ronaldo	-6197
▁roughly	-6198
▁worried	-6199
▁buddhist	-6200
▁columbia	-6201
▁directed	-6202
▁mortgage	-6203
▁obtained	-6204
▁remember	-6205
▁tropical	-6206
▁brazilian	-6207
▁detonated	-6208
▁initiative	-6209
▁scientific	-6210
▁engineering	-6211
▁southeastern	-6212
▁surveillance	-6213
▁circumstances	-6214
oms	-6215
aine	-6216
airo	-6217
bing	-6218
ippi	-6219
▁alt	-6220
▁hid	-6221
▁ire	-6222
▁jol	-6223
▁woo	-6224
board	-6225
icial	-6226
illas	-6227
oking	-6228
onium	-6229
watch	-6230
▁brig	-6231
▁sole	-6232
▁uses	-6233
asters	-6234
▁barri	-6235
▁bills	-6236
▁elder	-6237
▁entry	-6238
▁liter	-6239
▁mouth	-6240
▁archae	-6241
▁guests	-6242
▁hawaii	-6243
▁kibaki	-6244
▁michel	-6245
▁talked	-6246
▁factory	-6247
▁machine	-6248
▁maximum	-6249
▁militia	-6250
▁rescued	-6251
▁sitting	-6252
▁whaling	-6253
▁commerce	-6254
▁greatest	-6255
▁midnight	-6256
▁reconcil	-6257
▁supposed	-6258
▁decisions	-6259
▁dominated	-6260
▁successor	-6261
▁mississippi	-6262
▁southwestern	-6263
alf	-6264
aph	-6265
arr	-6266
asc	-6267
dro	-6268
ori	-6269
▁ka	-6270
anke	-6271
ipel	-6272
wart	-6273
▁ank	-6274
▁dur	-6275
▁gmt	-6276
▁nik	-6277
known	-6278
usive	-6279
▁aged	-6280
▁epic	-6281
▁harv	-6282
▁hasn	-6283
▁hide	-6284
▁impe	-6285
jevich	-6286
▁aware	-6287
▁false	-6288
▁henry	-6289
▁quiet	-6290
▁toxic	-6291
through	-6292
▁bullet	-6293
▁cambod	-6294
▁coffee	-6295
▁debris	-6296
▁inquir	-6297
▁mccann	-6298
▁promot	-6299
▁specif	-6300
▁backing	-6301
▁charity	-6302
▁cyclone	-6303
▁degrees	-6304
▁devices	-6305
▁founded	-6306
▁rapidly	-6307
▁virtual	-6308
▁bankrupt	-6309
▁identity	-6310
▁multiple	-6311
▁replaced	-6312
▁discussion	-6313
▁originally	-6314
▁blagojevich	-6315
▁breakthrough	-6316
▁investigations	-6317
▁superdelegates	-6318
bow	-6319
isa	-6320
▁na	-6321
▁si	-6322
adel	-6323
▁hiv	-6324
▁lew	-6325
▁pav	-6326
antly	-6327
eared	-6328
ighth	-6329
iliar	-6330
imony	-6331
▁1995	-6332
▁chad	-6333
▁elev	-6334
▁guer	-6335
▁iaea	-6336
▁sons	-6337
▁tend	-6338
▁chong	-6339
▁disag	-6340
▁drama	-6341
▁forec	-6342
▁greet	-6343
▁multi	-6344
▁oblig	-6345
▁persu	-6346
▁polar	-6347
▁shops	-6348
▁swiss	-6349
attered	-6350
▁castro	-6351
▁chiefs	-6352
▁conver	-6353
▁feared	-6354
▁fields	-6355
▁greece	-6356
▁nasdaq	-6357
▁wouldn	-6358
▁citizen	-6359
▁endorse	-6360
▁exactly	-6361
▁mohamed	-6362
▁musical	-6363
▁section	-6364
▁striker	-6365
▁theater	-6366
▁warrant	-6367
▁battling	-6368
▁benedict	-6369
▁brothers	-6370
▁concrete	-6371
▁egyptian	-6372
▁encourage	-6373
▁technical	-6374
▁presidents	-6375
▁agriculture	-6376
▁participants	-6377
vi	-6378
cts	-6379
inn	-6380
anes	-6381
wise	-6382
▁lit	-6383
▁pap	-6384
▁sri	-6385
▁yem	-6386
adesh	-6387
bacco	-6388
essed	-6389
maker	-6390
verty	-6391
▁1950	-6392
▁beer	-6393
▁boom	-6394
▁crus	-6395
▁kick	-6396
▁lank	-6397
▁stun	-6398
▁typh	-6399
▁unif	-6400
▁yous	-6401
tering	-6402
▁adult	-6403
▁amend	-6404
▁apply	-6405
▁conce	-6406
▁loyal	-6407
▁phoen	-6408
▁shore	-6409
▁shots	-6410
▁vital	-6411
▁dinner	-6412
▁excess	-6413
▁makers	-6414
▁native	-6415
▁steven	-6416
▁cameras	-6417
▁concent	-6418
▁consequ	-6419
▁explain	-6420
▁mexican	-6421
▁poverty	-6422
▁referen	-6423
▁survive	-6424
▁tobacco	-6425
▁unknown	-6426
▁mainland	-6427
▁moderate	-6428
▁normally	-6429
▁mountains	-6430
▁recommend	-6431
▁collection	-6432
▁complained	-6433
▁depression	-6434
▁campaigning	-6435
▁underground	-6436
▁metropolitan	-6437
esc	-6438
ius	-6439
osi	-6440
▁dy	-6441
▁eb	-6442
irty	-6443
izes	-6444
▁awa	-6445
▁coc	-6446
▁seg	-6447
▁wre	-6448
erves	-6449
▁1991	-6450
▁anal	-6451
▁glac	-6452
▁porn	-6453
▁stan	-6454
▁sung	-6455
ancing	-6456
ashing	-6457
ortion	-6458
ration	-6459
▁antar	-6460
▁bangl	-6461
▁drink	-6462
▁error	-6463
▁links	-6464
▁orche	-6465
▁photo	-6466
▁yemen	-6467
▁airbus	-6468
▁argued	-6469
▁assert	-6470
▁emphas	-6471
▁height	-6472
▁joseph	-6473
▁prohib	-6474
▁somali	-6475
▁symbol	-6476
▁window	-6477
▁borders	-6478
▁correct	-6479
▁fortune	-6480
▁phoenix	-6481
▁sharing	-6482
▁unusual	-6483
▁category	-6484
▁schedule	-6485
▁stimulus	-6486
▁boyfriend	-6487
▁prompting	-6488
▁testimony	-6489
▁authorized	-6490
▁suggesting	-6491
▁communities	-6492
▁overwhelming	-6493
po	-6494
ito	-6495
uma	-6496
uni	-6497
won	-6498
zed	-6499
▁85	-6500
▁kl	-6501
▁ms	-6502
▁fit	-6503
▁gye	-6504
▁rif	-6505
▁ske	-6506
enses	-6507
orted	-6508
▁bags	-6509
▁brad	-6510
▁cham	-6511
▁file	-6512
▁golf	-6513
▁murd	-6514
▁palm	-6515
▁plut	-6516
▁pose	-6517
▁sche	-6518
encing	-6519
ichuan	-6520
▁alban	-6521
▁chest	-6522
▁czech	-6523
▁deals	-6524
▁gross	-6525
▁harsh	-6526
▁smugg	-6527
▁stern	-6528
▁sweep	-6529
achment	-6530
▁dubbed	-6531
▁easily	-6532
▁insist	-6533
▁integr	-6534
▁runway	-6535
▁sheikh	-6536
▁staged	-6537
▁thirds	-6538
standing	-6539
ulations	-6540
▁austria	-6541
▁becomes	-6542
▁marines	-6543
▁rebuild	-6544
▁somalia	-6545
▁stephen	-6546
▁uniform	-6547
▁striking	-6548
▁unfortun	-6549
▁violated	-6550
▁attending	-6551
▁contained	-6552
▁increases	-6553
▁performed	-6554
▁plutonium	-6555
▁corporation	-6556
▁negotiators	-6557
▁reconciliation	-6558
agn	-6559
met	-6560
oli	-6561
oto	-6562
roc	-6563
▁zo	-6564
achi	-6565
aint	-6566
ardo	-6567
eces	-6568
ella	-6569
▁bes	-6570
▁bor	-6571
▁dad	-6572
▁dan	-6573
▁joe	-6574
▁joh	-6575
▁lah	-6576
▁pkk	-6577
▁ray	-6578
▁tel	-6579
▁vit	-6580
ecess	-6581
inted	-6582
▁busy	-6583
▁lapt	-6584
▁mete	-6585
▁wors	-6586
dering	-6587
▁bases	-6588
▁doors	-6589
▁feels	-6590
▁plays	-6591
▁solid	-6592
▁defect	-6593
▁fierce	-6594
▁gallon	-6595
▁mccorm	-6596
▁parent	-6597
▁storms	-6598
▁strict	-6599
▁temple	-6600
▁tennes	-6601
▁underw	-6602
▁benefit	-6603
▁fishing	-6604
▁hitting	-6605
▁outrage	-6606
▁separat	-6607
▁trigger	-6608
▁worries	-6609
▁distance	-6610
▁dramatic	-6611
▁familiar	-6612
▁payments	-6613
▁alongside	-6614
▁locations	-6615
▁otherwise	-6616
▁conducting	-6617
▁relatively	-6618
▁legislative	-6619
▁transferred	-6620
di	-6621
ua	-6622
bor	-6623
dum	-6624
ema	-6625
had	-6626
rie	-6627
uro	-6628
gers	-6629
iani	-6630
wait	-6631
▁gad	-6632
aters	-6633
echan	-6634
icked	-6635
▁1960	-6636
▁1993	-6637
▁aung	-6638
▁fern	-6639
▁kent	-6640
▁sang	-6641
▁sees	-6642
▁shif	-6643
▁spac	-6644
▁capit	-6645
▁chris	-6646
▁cloud	-6647
▁legit	-6648
▁sweet	-6649
▁turns	-6650
▁write	-6651
ography	-6652
▁courts	-6653
▁depend	-6654
▁factor	-6655
▁hosted	-6656
▁kuwait	-6657
▁observ	-6658
▁romney	-6659
▁tackle	-6660
▁briefly	-6661
▁comprom	-6662
▁divorce	-6663
▁inaugur	-6664
▁privacy	-6665
▁ranging	-6666
▁controls	-6667
▁defended	-6668
▁networks	-6669
▁ordinary	-6670
▁platform	-6671
▁priority	-6672
▁celebrity	-6673
▁generally	-6674
▁tennessee	-6675
▁absolutely	-6676
▁defendants	-6677
▁referendum	-6678
▁responding	-6679
▁electronics	-6680
▁institutions	-6681
hs	-6682
km	-6683
efa	-6684
exp	-6685
aire	-6686
enna	-6687
hips	-6688
mand	-6689
ourt	-6690
reek	-6691
▁ski	-6692
▁tam	-6693
▁yen	-6694
dinga	-6695
dogan	-6696
owing	-6697
umbai	-6698
uting	-6699
▁1992	-6700
▁dust	-6701
▁khal	-6702
▁kiss	-6703
▁ryan	-6704
▁uefa	-6705
ducing	-6706
▁cargo	-6707
▁flags	-6708
▁frust	-6709
▁larry	-6710
▁nancy	-6711
▁pilgr	-6712
▁raids	-6713
▁teens	-6714
▁tiger	-6715
▁worry	-6716
ception	-6717
▁artist	-6718
▁carter	-6719
▁endors	-6720
▁infant	-6721
▁meteor	-6722
▁motion	-6723
▁mumbai	-6724
▁myster	-6725
▁odinga	-6726
▁oldest	-6727
▁satisf	-6728
▁shield	-6729
▁stable	-6730
▁thinks	-6731
▁unrest	-6732
▁antonio	-6733
▁barrels	-6734
▁consist	-6735
▁erdogan	-6736
▁gambari	-6737
▁kidnapp	-6738
▁pointed	-6739
▁prepare	-6740
▁returns	-6741
▁suspend	-6742
▁writers	-6743
▁advanced	-6744
▁baseball	-6745
▁combined	-6746
▁handling	-6747
▁improved	-6748
▁inspired	-6749
▁interrog	-6750
▁purchase	-6751
▁receiving	-6752
▁temporary	-6753
▁wolfowitz	-6754
▁occupation	-6755
▁appointment	-6756
▁compensation	-6757
▁administrative	-6758
dd	-6759
ala	-6760
kets	-6761
mont	-6762
▁ded	-6763
▁emp	-6764
▁hee	-6765
▁hij	-6766
▁jac	-6767
▁jae	-6768
▁mit	-6769
▁nam	-6770
▁sir	-6771
anded	-6772
liest	-6773
mates	-6774
usion	-6775
▁anth	-6776
▁cave	-6777
▁kate	-6778
▁loan	-6779
▁pitt	-6780
ansion	-6781
makers	-6782
▁advoc	-6783
▁galax	-6784
▁libya	-6785
▁paulo	-6786
▁saved	-6787
▁thank	-6788
▁walls	-6789
angered	-6790
▁advice	-6791
▁athens	-6792
▁listed	-6793
▁mechan	-6794
▁poland	-6795
▁unders	-6796
▁wounds	-6797
idelines	-6798
▁balance	-6799
▁capture	-6800
▁crossed	-6801
▁fernand	-6802
▁mistake	-6803
▁monitor	-6804
▁operate	-6805
▁profits	-6806
▁spotted	-6807
▁switzer	-6808
▁turnout	-6809
▁typhoon	-6810
▁veteran	-6811
▁athletes	-6812
▁imprison	-6813
▁isolated	-6814
▁throwing	-6815
▁explosive	-6816
▁incidents	-6817
▁recognize	-6818
▁shootings	-6819
▁announcing	-6820
▁bangladesh	-6821
▁containing	-6822
▁advertising	-6823
▁switzerland	-6824
▁northeastern	-6825
ka	-6826
law	-6827
sey	-6828
▁81	-6829
▁91	-6830
▁900	-6831
▁amn	-6832
▁anch	-6833
▁bath	-6834
▁bowl	-6835
▁excl	-6836
▁legs	-6837
▁marc	-6838
▁soil	-6839
▁aside	-6840
▁cable	-6841
▁crist	-6842
▁fleet	-6843
▁laure	-6844
▁mixed	-6845
▁nowak	-6846
▁orbit	-6847
▁slump	-6848
▁units	-6849
oration	-6850
▁advent	-6851
▁agents	-6852
▁andrew	-6853
▁destin	-6854
▁donald	-6855
▁ethiop	-6856
▁extend	-6857
▁imposs	-6858
▁legend	-6859
▁liquid	-6860
▁ousted	-6861
▁pelosi	-6862
▁amnesty	-6863
▁amounts	-6864
▁arrests	-6865
▁awarded	-6866
▁carrier	-6867
▁clothes	-6868
▁joining	-6869
▁praised	-6870
▁purpose	-6871
▁trained	-6872
▁appealed	-6873
▁delegate	-6874
▁gonzales	-6875
▁indicate	-6876
▁provides	-6877
▁benchmark	-6878
▁fundament	-6879
▁mccormack	-6880
▁producers	-6881
▁promoting	-6882
▁shortages	-6883
▁structure	-6884
▁villagers	-6885
▁endangered	-6886
▁relocation	-6887
▁settlement	-6888
▁disappeared	-6889
▁sovereignty	-6890
gi	-6891
no	-6892
▁yi	-6893
amas	-6894
ario	-6895
atra	-6896
irai	-6897
roit	-6898
then	-6899
ucky	-6900
uter	-6901
▁dry	-6902
▁jin	-6903
▁sav	-6904
▁tsv	-6905
ulner	-6906
under	-6907
▁acce	-6908
▁clar	-6909
▁eric	-6910
▁huck	-6911
▁roof	-6912
▁shah	-6913
▁tent	-6914
▁wart	-6915
▁wish	-6916
▁breed	-6917
▁embry	-6918
▁guerr	-6919
▁hamid	-6920
▁meter	-6921
▁moore	-6922
▁solve	-6923
▁wreck	-6924
▁actors	-6925
▁attrib	-6926
▁beauty	-6927
▁darwin	-6928
▁easier	-6929
▁gyeong	-6930
▁miners	-6931
▁missed	-6932
▁motors	-6933
▁pursue	-6934
▁rivers	-6935
▁stalin	-6936
▁therap	-6937
▁transl	-6938
▁values	-6939
▁airways	-6940
▁capitol	-6941
▁dealers	-6942
▁detroit	-6943
▁hunting	-6944
▁ireland	-6945
▁seventh	-6946
▁shelter	-6947
▁volcano	-6948
▁welfare	-6949
▁winners	-6950
▁mohammad	-6951
▁prospect	-6952
▁referred	-6953
▁senators	-6954
▁thousand	-6955
▁attorneys	-6956
▁complaint	-6957
▁improving	-6958
▁negotiate	-6959
▁pollution	-6960
▁submitted	-6961
▁surprised	-6962
▁extraordin	-6963
▁extremists	-6964
▁volunteers	-6965
▁appropriate	-6966
▁successfully	-6967
bl	-6968
ads	-6969
bes	-6970
imp	-6971
quo	-6972
▁(4	-6973
brid	-6974
gans	-6975
mond	-6976
oren	-6977
phia	-6978
uese	-6979
▁les	-6980
▁naz	-6981
▁soo	-6982
burgh	-6983
rahim	-6984
space	-6985
▁fulf	-6986
▁hugo	-6987
▁inch	-6988
▁leak	-6989
▁orle	-6990
▁outs	-6991
▁spur	-6992
▁unac	-6993
▁burst	-6994
▁charl	-6995
▁lobby	-6996
▁opens	-6997
▁phill	-6998
▁weigh	-6999
▁whale	-7000
angirai	-7001
▁copies	-7002
▁eighth	-7003
▁freeze	-7004
▁nether	-7005
▁orange	-7006
▁regret	-7007
▁runoff	-7008
▁stabil	-7009
▁starts	-7010
▁strain	-7011
▁visits	-7012
▁whales	-7013
adelphia	-7014
atically	-7015
▁caution	-7016
▁dressed	-7017
▁pleaded	-7018
▁samples	-7019
▁seattle	-7020
▁torture	-7021
▁variety	-7022
▁wartime	-7023
▁detected	-7024
▁employee	-7025
▁petition	-7026
▁quarterf	-7027
▁recalled	-7028
▁wireless	-7029
▁efficient	-7030
▁approached	-7031
▁complaints	-7032
▁economists	-7033
▁impossible	-7034
▁portuguese	-7035
▁securities	-7036
▁tsvangirai	-7037
▁accusations	-7038
▁documentary	-7039
▁experienced	-7040
▁negotiating	-7041
▁netherlands	-7042
▁photographs	-7043
▁philadelphia	-7044
ez	-7045
akh	-7046
rit	-7047
uez	-7048
apes	-7049
bour	-7050
▁hud	-7051
▁mog	-7052
▁vig	-7053
ining	-7054
oping	-7055
▁bars	-7056
▁core	-7057
▁emir	-7058
▁fred	-7059
▁giul	-7060
▁gren	-7061
▁mall	-7062
▁obst	-7063
▁peak	-7064
▁touc	-7065
▁chain	-7066
▁chaos	-7067
▁crews	-7068
▁latin	-7069
▁posts	-7070
▁semif	-7071
▁toile	-7072
actions	-7073
entions	-7074
▁conven	-7075
▁divers	-7076
▁finger	-7077
▁hybrid	-7078
▁rushed	-7079
▁syrian	-7080
▁twenty	-7081
▁abandon	-7082
▁arrange	-7083
▁declare	-7084
▁disable	-7085
▁minimum	-7086
▁orleans	-7087
▁polling	-7088
▁renewed	-7089
▁revenue	-7090
▁sailors	-7091
▁viewers	-7092
▁assassin	-7093
▁billions	-7094
▁dictator	-7095
▁executed	-7096
▁homeless	-7097
▁informed	-7098
▁learning	-7099
▁missions	-7100
▁missouri	-7101
▁requires	-7102
▁sexually	-7103
▁swimming	-7104
▁abandoned	-7105
▁contracts	-7106
▁elsewhere	-7107
▁guarantee	-7108
▁strengthe	-7109
▁winehouse	-7110
▁bankruptcy	-7111
▁classified	-7112
▁historical	-7113
▁interested	-7114
▁politician	-7115
▁popularity	-7116
▁richardson	-7117
aud	-7118
iya	-7119
lah	-7120
▁88	-7121
▁gy	-7122
elly	-7123
more	-7124
ocol	-7125
omen	-7126
onia	-7127
oons	-7128
ysis	-7129
▁egg	-7130
▁fol	-7131
▁hin	-7132
▁que	-7133
▁tie	-7134
▁unh	-7135
▁yas	-7136
berto	-7137
ledon	-7138
rence	-7139
rimin	-7140
▁chol	-7141
▁entr	-7142
▁flat	-7143
▁laid	-7144
▁mamm	-7145
▁rand	-7146
▁rudd	-7147
▁stol	-7148
▁todd	-7149
▁whit	-7150
▁wimb	-7151
▁zero	-7152
ecraft	-7153
rupted	-7154
▁annan	-7155
▁cards	-7156
▁consc	-7157
▁davis	-7158
▁eleph	-7159
▁explo	-7160
▁grass	-7161
▁lanka	-7162
▁motiv	-7163
▁posed	-7164
▁stuff	-7165
▁timet	-7166
holders	-7167
ructure	-7168
▁blasts	-7169
▁centre	-7170
▁merkel	-7171
▁rodrig	-7172
▁spoken	-7173
▁topped	-7174
▁volunt	-7175
▁warner	-7176
▁yangon	-7177
▁compete	-7178
▁feature	-7179
▁interim	-7180
▁legally	-7181
▁monthly	-7182
▁passing	-7183
▁quoting	-7184
▁tension	-7185
▁arriving	-7186
▁contrast	-7187
▁giuliani	-7188
▁interven	-7189
▁purposes	-7190
▁studying	-7191
▁suddenly	-7192
identified	-7193
▁addressed	-7194
▁attacking	-7195
▁defending	-7196
▁sectarian	-7197
▁technolog	-7198
▁violating	-7199
▁wimbledon	-7200
▁assessment	-7201
▁greenhouse	-7202
▁interviews	-7203
▁spacecraft	-7204
▁potentially	-7205
▁inauguration	-7206
20	-7207
sl	-7208
ti	-7209
ira	-7210
mor	-7211
▁(3	-7212
▁99	-7213
▁fi	-7214
cons	-7215
kins	-7216
otti	-7217
wers	-7218
▁dol	-7219
▁hou	-7220
▁map	-7221
▁mud	-7222
▁sab	-7223
ching	-7224
sfeld	-7225
state	-7226
▁1989	-7227
▁barg	-7228
▁blan	-7229
▁burn	-7230
▁chip	-7231
▁dawn	-7232
▁dean	-7233
▁diet	-7234
▁dign	-7235
▁empt	-7236
▁hack	-7237
▁yoon	-7238
▁yuan	-7239
apolis	-7240
icting	-7241
▁acres	-7242
▁discl	-7243
▁euros	-7244
▁heath	-7245
▁jerry	-7246
▁proof	-7247
▁rains	-7248
▁robot	-7249
▁rocks	-7250
▁shoes	-7251
▁theme	-7252
▁trend	-7253
▁trick	-7254
▁unpre	-7255
▁upset	-7256
▁waves	-7257
▁brutal	-7258
▁impose	-7259
▁listen	-7260
▁murray	-7261
▁reiter	-7262
▁stolen	-7263
▁surren	-7264
▁vulner	-7265
▁aftersh	-7266
▁cloning	-7267
▁granted	-7268
▁matters	-7269
▁resumed	-7270
▁sichuan	-7271
▁slammed	-7272
▁verdict	-7273
▁vessels	-7274
▁astronom	-7275
▁attitude	-7276
▁consecut	-7277
▁disputed	-7278
▁exposure	-7279
▁function	-7280
▁momentum	-7281
▁campaigns	-7282
▁denuclear	-7283
▁departure	-7284
▁louisiana	-7285
▁spreading	-7286
▁strategic	-7287
▁agreements	-7288
▁experiment	-7289
▁represents	-7290
▁strengthen	-7291
▁violations	-7292
▁broadcaster	-7293
▁conversation	-7294
▁representing	-7295
▁unidentified	-7296
▁extraordinary	-7297
rd	-7298
wr	-7299
hdi	-7300
iel	-7301
abee	-7302
aman	-7303
aste	-7304
onda	-7305
▁160	-7306
▁dim	-7307
▁ioc	-7308
▁jav	-7309
▁len	-7310
▁lun	-7311
▁nin	-7312
▁nut	-7313
▁tra	-7314
▁urg	-7315
apova	-7316
igned	-7317
itage	-7318
▁calc	-7319
▁caps	-7320
▁gate	-7321
▁gray	-7322
▁iron	-7323
▁jews	-7324
▁meat	-7325
▁nice	-7326
▁riot	-7327
▁sequ	-7328
arched	-7329
▁acted	-7330
▁clash	-7331
▁cleve	-7332
▁fever	-7333
▁frame	-7334
▁laugh	-7335
▁mehdi	-7336
▁postp	-7337
▁raquo	-7338
▁repro	-7339
▁risks	-7340
▁swift	-7341
▁usual	-7342
▁woods	-7343
▁apprec	-7344
▁behalf	-7345
▁client	-7346
▁handle	-7347
▁mental	-7348
▁powell	-7349
▁rumors	-7350
▁trucks	-7351
▁classic	-7352
▁constit	-7353
▁element	-7354
▁enterpr	-7355
▁outcome	-7356
▁pending	-7357
▁pulling	-7358
▁tickets	-7359
▁colonial	-7360
▁huckabee	-7361
▁indicted	-7362
▁injuring	-7363
▁occasion	-7364
▁rumsfeld	-7365
▁selected	-7366
▁teenager	-7367
▁criminals	-7368
▁deadliest	-7369
▁detainees	-7370
▁followers	-7371
▁marketing	-7372
▁residence	-7373
▁sentiment	-7374
▁sharapova	-7375
▁spiritual	-7376
▁protecting	-7377
▁ultimately	-7378
▁consecutive	-7379
▁nominations	-7380
▁investigated	-7381
▁technologies	-7382
▁disappearance	-7383
▁significantly	-7384
fk	-7385
yc	-7386
zi	-7387
cho	-7388
ico	-7389
osa	-7390
▁sg	-7391
char	-7392
heim	-7393
icts	-7394
ribe	-7395
▁jur	-7396
▁lag	-7397
▁rot	-7398
▁tum	-7399
▁yel	-7400
ensus	-7401
oster	-7402
place	-7403
▁abol	-7404
▁blew	-7405
▁earn	-7406
▁embr	-7407
▁fert	-7408
▁gian	-7409
▁hits	-7410
▁jane	-7411
▁jint	-7412
▁opec	-7413
▁pand	-7414
▁soph	-7415
▁unco	-7416
▁utah	-7417
keeper	-7418
▁cheap	-7419
▁grant	-7420
▁intel	-7421
▁preca	-7422
▁relax	-7423
▁roger	-7424
▁shape	-7425
▁wales	-7426
▁affili	-7427
▁arabic	-7428
▁kansas	-7429
▁models	-7430
▁notice	-7431
▁pilots	-7432
▁retire	-7433
▁slaves	-7434
▁suburb	-7435
▁switch	-7436
▁tracks	-7437
▁traged	-7438
▁barbara	-7439
▁classes	-7440
▁drawing	-7441
▁exposed	-7442
▁houston	-7443
▁inquiry	-7444
▁signals	-7445
▁collabor	-7446
▁detailed	-7447
▁deterior	-7448
▁earnings	-7449
▁withdrew	-7450
▁accidents	-7451
▁celebrate	-7452
▁denounced	-7453
▁happening	-7454
▁stationed	-7455
▁testified	-7456
▁employment	-7457
▁inspection	-7458
▁investigator	-7459
▁confrontation	-7460
ela	-7461
ila	-7462
odo	-7463
▁86	-7464
▁wy	-7465
ache	-7466
bell	-7467
ette	-7468
irac	-7469
moil	-7470
ores	-7471
rast	-7472
▁ads	-7473
▁ark	-7474
▁ast	-7475
▁cul	-7476
▁gig	-7477
▁kun	-7478
▁nov	-7479
▁rav	-7480
antic	-7481
icken	-7482
▁eval	-7483
▁nurs	-7484
▁stir	-7485
▁ward	-7486
atched	-7487
iliate	-7488
▁blaze	-7489
▁bones	-7490
▁buses	-7491
▁chose	-7492
▁clock	-7493
▁crops	-7494
▁crown	-7495
▁decre	-7496
▁greek	-7497
▁oklah	-7498
▁pipel	-7499
▁ahmadi	-7500
▁arctic	-7501
▁belief	-7502
▁delays	-7503
▁denies	-7504
▁hudson	-7505
▁indeed	-7506
▁jintao	-7507
▁lahore	-7508
▁massac	-7509
▁pieces	-7510
▁prefer	-7511
▁proved	-7512
▁raided	-7513
▁safely	-7514
▁submit	-7515
▁wright	-7516
▁ceremon	-7517
▁counsel	-7518
▁factors	-7519
▁karachi	-7520
▁objects	-7521
▁parking	-7522
▁plunged	-7523
▁reconst	-7524
▁robbery	-7525
▁tornado	-7526
▁transpl	-7527
▁turmoil	-7528
▁clothing	-7529
▁israelis	-7530
▁landmark	-7531
▁resolved	-7532
▁stepping	-7533
▁construct	-7534
▁malaysian	-7535
▁nationals	-7536
▁projected	-7537
▁releasing	-7538
▁sentences	-7539
▁timetable	-7540
▁uncertain	-7541
▁undermine	-7542
▁virtually	-7543
▁characters	-7544
▁conclusion	-7545
▁designated	-7546
▁maintained	-7547
▁devastating	-7548
▁substantial	-7549
▁trafficking	-7550
▁specifically	-7551
▁conservatives	-7552
jo	-7553
uz	-7554
bul	-7555
gue	-7556
iox	-7557
por	-7558
▁ni	-7559
ahar	-7560
fast	-7561
rate	-7562
▁bae	-7563
▁dvd	-7564
▁ecu	-7565
▁fuj	-7566
▁lav	-7567
▁mbc	-7568
▁sao	-7569
▁sci	-7570
▁upd	-7571
ooter	-7572
▁adds	-7573
▁barr	-7574
▁fant	-7575
▁nuri	-7576
▁omar	-7577
▁rank	-7578
▁sett	-7579
▁shed	-7580
▁tomb	-7581
intend	-7582
▁flown	-7583
▁jihad	-7584
▁lewis	-7585
▁monet	-7586
▁mosul	-7587
▁phase	-7588
▁retal	-7589
▁timor	-7590
▁abuses	-7591
▁bodygu	-7592
▁carlos	-7593
▁desper	-7594
▁engage	-7595
▁instru	-7596
▁kenyan	-7597
▁luxury	-7598
▁peters	-7599
▁physic	-7600
▁shaped	-7601
▁slated	-7602
▁steady	-7603
▁taylor	-7604
▁theory	-7605
▁titles	-7606
▁tunnel	-7607
▁vienna	-7608
▁viewed	-7609
▁warren	-7610
cedented	-7611
▁approve	-7612
▁condemn	-7613
▁ibrahim	-7614
▁inquest	-7615
▁marched	-7616
▁masters	-7617
▁moments	-7618
▁pleased	-7619
▁tragedy	-7620
▁crossing	-7621
▁diseases	-7622
▁existing	-7623
▁instruct	-7624
▁midfield	-7625
▁oklahoma	-7626
▁prisoner	-7627
▁reducing	-7628
▁apologize	-7629
▁centuries	-7630
▁cleveland	-7631
▁execution	-7632
▁expansion	-7633
▁expecting	-7634
▁protected	-7635
▁sustained	-7636
▁indicating	-7637
▁industries	-7638
▁laboratory	-7639
▁personally	-7640
▁prevention	-7641
▁protesting	-7642
▁celebrities	-7643
▁effectively	-7644
▁presumptive	-7645
▁proceedings	-7646
▁recommended	-7647
▁respondents	-7648
▁unprecedented	-7649
hy	-7650
je	-7651
ji	-7652
ui	-7653
urn	-7654
▁84	-7655
iful	-7656
lock	-7657
ouch	-7658
tsin	-7659
▁140	-7660
▁hye	-7661
▁tar	-7662
▁zaw	-7663
▁brus	-7664
▁cats	-7665
▁dall	-7666
▁evil	-7667
▁publ	-7668
▁tact	-7669
▁tale	-7670
▁urge	-7671
consin	-7672
icated	-7673
lusive	-7674
▁beaut	-7675
▁craig	-7676
▁disab	-7677
▁empty	-7678
▁imper	-7679
▁maria	-7680
▁medal	-7681
▁naked	-7682
▁seung	-7683
▁songs	-7684
▁trips	-7685
▁amazon	-7686
▁chirac	-7687
▁disord	-7688
▁distur	-7689
▁interf	-7690
▁nobody	-7691
▁reluct	-7692
▁rounds	-7693
▁salmon	-7694
▁studio	-7695
▁sweden	-7696
▁telesc	-7697
▁unfair	-7698
▁vision	-7699
▁beneath	-7700
▁carries	-7701
▁cocaine	-7702
▁congrat	-7703
▁ecuador	-7704
▁knocked	-7705
▁marking	-7706
▁soaring	-7707
▁tougher	-7708
▁unnamed	-7709
▁yeltsin	-7710
▁deciding	-7711
▁dropping	-7712
▁endorsed	-7713
▁passport	-7714
▁ballistic	-7715
▁extensive	-7716
▁featuring	-7717
▁rodriguez	-7718
▁socialist	-7719
▁surrender	-7720
▁teenagers	-7721
▁wisconsin	-7722
▁explosions	-7723
▁indication	-7724
▁suspicious	-7725
▁anticipated	-7726
▁impeachment	-7727
ca	-7728
pi	-7729
xi	-7730
amo	-7731
rah	-7732
tan	-7733
udh	-7734
▁ax	-7735
acle	-7736
gger	-7737
held	-7738
irut	-7739
loid	-7740
oric	-7741
rist	-7742
uous	-7743
uten	-7744
▁dor	-7745
▁mcd	-7746
▁raj	-7747
▁sgt	-7748
itors	-7749
izumi	-7750
ounce	-7751
▁cafe	-7752
▁cosm	-7753
▁deny	-7754
▁kitt	-7755
▁plum	-7756
▁scar	-7757
weight	-7758
▁celeb	-7759
▁cuban	-7760
▁genoc	-7761
▁keeps	-7762
▁parks	-7763
▁patri	-7764
▁pitch	-7765
▁risen	-7766
▁seeks	-7767
▁shell	-7768
▁thick	-7769
▁unexp	-7770
iveness	-7771
▁beirut	-7772
▁consol	-7773
▁embezz	-7774
▁extrad	-7775
▁hunger	-7776
▁implic	-7777
▁nicole	-7778
▁revive	-7779
▁scheme	-7780
▁shinzo	-7781
▁signal	-7782
▁stroke	-7783
▁writer	-7784
▁autonom	-7785
▁broader	-7786
▁chapter	-7787
▁clashed	-7788
▁genetic	-7789
▁koizumi	-7790
▁outlook	-7791
▁rowling	-7792
▁slipped	-7793
▁tabloid	-7794
▁touched	-7795
▁underst	-7796
▁aviation	-7797
▁centered	-7798
▁contains	-7799
▁covering	-7800
▁discover	-7801
▁kentucky	-7802
▁mounting	-7803
▁resulted	-7804
▁stranded	-7805
▁wreckage	-7806
▁ambitions	-7807
▁consensus	-7808
▁displaced	-7809
▁economies	-7810
▁evolution	-7811
▁indicates	-7812
▁launching	-7813
▁predecess	-7814
▁prominent	-7815
▁promising	-7816
▁recording	-7817
▁aggressive	-7818
▁commanders	-7819
▁importance	-7820
▁membership	-7821
▁permission	-7822
▁unexpected	-7823
▁concessions	-7824
▁fundamental	-7825
▁universities	-7826
sa	-7827
eav	-7828
gun	-7829
oys	-7830
pay	-7831
rav	-7832
anic	-7833
cape	-7834
hand	-7835
iser	-7836
keys	-7837
roll	-7838
shot	-7839
▁350	-7840
▁dak	-7841
▁gil	-7842
▁pye	-7843
▁rah	-7844
ingly	-7845
lects	-7846
▁flex	-7847
▁gest	-7848
▁idol	-7849
▁jets	-7850
▁kath	-7851
▁lies	-7852
▁lord	-7853
▁pard	-7854
▁pron	-7855
▁puts	-7856
▁tiss	-7857
▁tool	-7858
▁wore	-7859
▁yard	-7860
arrass	-7861
attled	-7862
rehens	-7863
▁aired	-7864
▁airpl	-7865
▁ambul	-7866
▁badly	-7867
▁branc	-7868
▁spani	-7869
▁steep	-7870
▁stops	-7871
▁zawah	-7872
ulating	-7873
▁downlo	-7874
▁endeav	-7875
▁funded	-7876
▁galaxy	-7877
▁hearts	-7878
▁rafael	-7879
▁repair	-7880
▁stayed	-7881
▁acceler	-7882
▁advised	-7883
▁elderly	-7884
▁explore	-7885
▁flooded	-7886
▁happens	-7887
▁impover	-7888
▁jobless	-7889
▁longest	-7890
▁nigeria	-7891
▁passion	-7892
▁pressed	-7893
▁signing	-7894
▁teenage	-7895
▁attached	-7896
▁frontier	-7897
▁heritage	-7898
▁longtime	-7899
▁overcome	-7900
▁searched	-7901
▁shoulder	-7902
▁slowdown	-7903
▁cooperate	-7904
▁embarrass	-7905
▁mandatory	-7906
▁penalties	-7907
▁principle	-7908
▁universal	-7909
▁discussing	-7910
▁frequently	-7911
▁geological	-7912
▁insurgency	-7913
▁philippine	-7914
▁principles	-7915
▁recognized	-7916
▁resistance	-7917
▁politically	-7918
▁consequences	-7919
▁impoverished	-7920
▁shareholders	-7921
▁manufacturers	-7922
ati	-7923
ima	-7924
iot	-7925
pro	-7926
ums	-7927
▁98	-7928
▁dj	-7929
▁ja	-7930
▁om	-7931
▁pm	-7932
cker	-7933
dick	-7934
ials	-7935
indi	-7936
mail	-7937
math	-7938
ooth	-7939
stra	-7940
uman	-7941
▁125	-7942
▁193	-7943
▁fta	-7944
▁kyu	-7945
▁mrs	-7946
▁pig	-7947
▁sed	-7948
▁sym	-7949
▁tae	-7950
▁tut	-7951
▁unw	-7952
▁yoo	-7953
ables	-7954
emies	-7955
olved	-7956
rical	-7957
teria	-7958
vedev	-7959
▁curb	-7960
▁katr	-7961
▁mans	-7962
▁marg	-7963
▁mide	-7964
▁rans	-7965
▁bears	-7966
▁daugh	-7967
▁diagn	-7968
▁flame	-7969
▁flash	-7970
▁forth	-7971
▁graph	-7972
▁jolie	-7973
▁lists	-7974
▁marit	-7975
▁naval	-7976
▁prest	-7977
▁scrap	-7978
▁skull	-7979
▁spill	-7980
▁truce	-7981
▁accuse	-7982
▁checks	-7983
▁commem	-7984
▁conced	-7985
▁elabor	-7986
▁forget	-7987
▁incred	-7988
▁judici	-7989
▁myself	-7990
▁rubble	-7991
▁stages	-7992
▁videot	-7993
▁battles	-7994
▁customs	-7995
▁deficit	-7996
▁disrupt	-7997
▁enemies	-7998
▁fighter	-7999
▁harvard	-8000
▁imagine	-8001
▁infrast	-8002
▁insists	-8003
▁mideast	-8004
▁prosper	-8005
▁railway	-8006
▁shocked	-8007
▁totally	-8008
▁veterin	-8009
▁wrapped	-8010
▁chancell	-8011
▁describe	-8012
▁genocide	-8013
▁medvedev	-8014
▁michelle	-8015
▁pilgrims	-8016
▁pursuing	-8017
▁supports	-8018
▁unaccept	-8019
▁aftermath	-8020
▁attracted	-8021
▁daughters	-8022
▁diplomacy	-8023
▁promotion	-8024
▁reference	-8025
▁resulting	-8026
▁christians	-8027
▁everywhere	-8028
▁goalkeeper	-8029
▁procedures	-8030
▁reiterated	-8031
▁accompanied	-8032
▁outstanding	-8033
▁personality	-8034
▁temporarily	-8035
▁peacekeeping	-8036
asa	-8037
hou	-8038
iti	-8039
net	-8040
phy	-8041
▁02	-8042
anim	-8043
itis	-8044
ylum	-8045
▁180	-8046
▁agg	-8047
▁ori	-8048
▁reh	-8049
eller	-8050
igers	-8051
rible	-8052
right	-8053
▁alab	-8054
▁chan	-8055
▁chat	-8056
▁diox	-8057
▁forg	-8058
▁horm	-8059
▁kand	-8060
▁pool	-8061
▁rush	-8062
▁topp	-8063
elling	-8064
inding	-8065
▁canal	-8066
▁diver	-8067
▁mobil	-8068
▁puert	-8069
▁raped	-8070
▁riots	-8071
▁shirt	-8072
▁shook	-8073
▁wider	-8074
▁asylum	-8075
▁compon	-8076
▁dating	-8077
▁garden	-8078
▁limits	-8079
▁marath	-8080
▁riding	-8081
▁saving	-8082
▁taxpay	-8083
▁colored	-8084
▁dioxide	-8085
▁excited	-8086
▁futures	-8087
▁katrina	-8088
▁lifting	-8089
▁monarch	-8090
▁realize	-8091
▁roddick	-8092
▁vermont	-8093
▁abortion	-8094
▁analysis	-8095
▁anderson	-8096
▁disagree	-8097
▁disputes	-8098
▁focusing	-8099
▁incoming	-8100
▁judicial	-8101
▁kandahar	-8102
▁maritime	-8103
▁militias	-8104
▁minority	-8105
▁persuade	-8106
▁register	-8107
▁shutdown	-8108
▁abduction	-8109
▁affiliate	-8110
▁automaker	-8111
▁emotional	-8112
▁judiciary	-8113
▁obviously	-8114
▁offenders	-8115
▁retailers	-8116
▁therefore	-8117
▁typically	-8118
▁addressing	-8119
▁attributed	-8120
▁celebrated	-8121
▁legitimate	-8122
▁remarkable	-8123
▁suspension	-8124
▁vulnerable	-8125
▁confirmation	-8126
eva	-8127
few	-8128
ien	-8129
▁(6	-8130
▁zh	-8131
agic	-8132
aken	-8133
away	-8134
born	-8135
droe	-8136
lers	-8137
offs	-8138
oner	-8139
raid	-8140
▁alf	-8141
▁chi	-8142
▁enh	-8143
▁fda	-8144
▁gus	-8145
▁jay	-8146
▁roy	-8147
▁sul	-8148
▁syn	-8149
aimed	-8150
chers	-8151
eland	-8152
▁alan	-8153
▁bare	-8154
▁clay	-8155
▁dorm	-8156
▁fake	-8157
▁frag	-8158
▁musc	-8159
▁reop	-8160
▁span	-8161
bourne	-8162
itious	-8163
▁ahmed	-8164
▁bloom	-8165
▁chase	-8166
▁exped	-8167
▁guang	-8168
▁henin	-8169
▁kyoto	-8170
▁minds	-8171
▁pharm	-8172
▁pitts	-8173
▁shark	-8174
▁skept	-8175
▁stamp	-8176
▁types	-8177
▁cheong	-8178
▁curfew	-8179
▁equity	-8180
▁giants	-8181
▁hailed	-8182
▁noting	-8183
▁output	-8184
▁scenes	-8185
▁serves	-8186
▁toyota	-8187
▁unique	-8188
▁alabama	-8189
▁applied	-8190
▁bottles	-8191
▁closest	-8192
▁crowded	-8193
▁exchang	-8194
▁habitat	-8195
▁myspace	-8196
▁sectors	-8197
▁vitamin	-8198
▁contamin	-8199
▁emirates	-8200
▁featured	-8201
▁managers	-8202
▁mistakes	-8203
▁monetary	-8204
▁operated	-8205
▁properly	-8206
▁religion	-8207
▁sponsors	-8208
▁victoria	-8209
▁interpret	-8210
▁landslide	-8211
▁procedure	-8212
▁regularly	-8213
▁uncovered	-8214
▁chancellor	-8215
▁conviction	-8216
▁kidnappers	-8217
▁laundering	-8218
▁liberation	-8219
▁statistics	-8220
▁consumption	-8221
▁institution	-8222
▁interviewed	-8223
▁northwestern	-8224
▁championships	-8225
▁unfortunately	-8226
▁correspondents	-8227
▁infrastructure	-8228
esh	-8229
umn	-8230
▁83	-8231
▁92	-8232
▁pf	-8233
atri	-8234
aved	-8235
efin	-8236
elro	-8237
ican	-8238
inos	-8239
mans	-8240
oles	-8241
rets	-8242
sell	-8243
uits	-8244
vili	-8245
▁dun	-8246
▁ell	-8247
▁ing	-8248
▁keb	-8249
▁lyn	-8250
▁oxy	-8251
▁uni	-8252
anamo	-8253
erald	-8254
inced	-8255
oured	-8256
▁buzz	-8257
▁cert	-8258
▁exha	-8259
▁flee	-8260
▁geun	-8261
▁glas	-8262
▁kaes	-8263
▁lean	-8264
▁leon	-8265
▁roma	-8266
▁salv	-8267
▁thus	-8268
iments	-8269
umbled	-8270
▁antib	-8271
▁assum	-8272
▁clubs	-8273
▁enorm	-8274
▁falls	-8275
▁fault	-8276
▁fined	-8277
▁guant	-8278
▁guild	-8279
▁kelly	-8280
▁kyodo	-8281
▁kyung	-8282
▁lunch	-8283
▁ramos	-8284
▁relie	-8285
▁singh	-8286
▁sorry	-8287
▁stead	-8288
▁tower	-8289
▁veget	-8290
▁venue	-8291
▁vigil	-8292
▁volat	-8293
▁wound	-8294
umbling	-8295
▁afraid	-8296
▁banner	-8297
▁branch	-8298
▁compar	-8299
▁doping	-8300
▁geneva	-8301
▁graham	-8302
▁hiding	-8303
▁killer	-8304
▁lasted	-8305
▁prolif	-8306
▁provoc	-8307
▁skills	-8308
▁unanim	-8309
▁wilson	-8310
▁battery	-8311
▁concept	-8312
▁courage	-8313
▁everest	-8314
▁grounds	-8315
▁indefin	-8316
▁leftist	-8317
▁methods	-8318
▁prestig	-8319
▁prolong	-8320
▁studios	-8321
▁traders	-8322
▁tribute	-8323
▁vaccine	-8324
▁anywhere	-8325
▁convince	-8326
▁coverage	-8327
▁elements	-8328
▁frequent	-8329
▁interpol	-8330
▁shipping	-8331
▁surveyed	-8332
▁convinced	-8333
▁declaring	-8334
▁extension	-8335
▁movements	-8336
▁reclusive	-8337
▁struggled	-8338
▁wonderful	-8339
▁compromise	-8340
▁guantanamo	-8341
▁pittsburgh	-8342
▁legislature	-8343
▁respectively	-8344
▁transactions	-8345
▁unacceptable	-8346
▁opportunities	-8347
oe	-8348
iev	-8349
onn	-8350
uda	-8351
uja	-8352
▁ry	-8353
inho	-8354
osex	-8355
vant	-8356
zene	-8357
▁cel	-8358
▁fee	-8359
▁kir	-8360
▁tas	-8361
enter	-8362
etown	-8363
iller	-8364
liner	-8365
prime	-8366
rooms	-8367
ulous	-8368
▁1986	-8369
▁bone	-8370
▁dece	-8371
▁eggs	-8372
▁grav	-8373
▁kash	-8374
▁pill	-8375
▁plea	-8376
▁pole	-8377
▁poly	-8378
▁reid	-8379
▁rely	-8380
▁seas	-8381
▁thor	-8382
▁zard	-8383
airobi	-8384
icking	-8385
person	-8386
stream	-8387
▁brook	-8388
▁casey	-8389
▁congo	-8390
▁dolph	-8391
▁elite	-8392
▁feder	-8393
▁forms	-8394
▁guide	-8395
▁lined	-8396
▁moral	-8397
▁notes	-8398
▁swine	-8399
▁theft	-8400
ressive	-8401
unction	-8402
▁boycot	-8403
▁clinic	-8404
▁comply	-8405
▁dallas	-8406
▁exceed	-8407
▁finals	-8408
▁harder	-8409
▁interv	-8410
▁locked	-8411
▁openly	-8412
▁oxygen	-8413
▁panama	-8414
▁plenty	-8415
▁poison	-8416
▁reward	-8417
▁thirty	-8418
▁uganda	-8419
▁absence	-8420
▁artists	-8421
▁belgium	-8422
▁blasted	-8423
▁intends	-8424
▁kaesong	-8425
▁lending	-8426
▁nairobi	-8427
▁noticed	-8428
▁portion	-8429
▁pursued	-8430
▁refusal	-8431
▁silence	-8432
▁visible	-8433
▁zardari	-8434
ibilities	-8435
▁campbell	-8436
▁constant	-8437
▁creation	-8438
▁emerging	-8439
▁engineer	-8440
▁entrance	-8441
▁operator	-8442
▁opponent	-8443
▁psychiat	-8444
▁veterans	-8445
▁admission	-8446
▁airstrike	-8447
▁composite	-8448
▁counterfe	-8449
▁infection	-8450
▁insurgent	-8451
▁intercept	-8452
▁paintings	-8453
▁populated	-8454
▁separated	-8455
▁strongest	-8456
▁threatens	-8457
▁executions	-8458
▁guerrillas	-8459
▁optimistic	-8460
▁possession	-8461
▁regardless	-8462
▁surprising	-8463
▁complicated	-8464
▁distributed	-8465
▁encouraging	-8466
▁residential	-8467
▁distribution	-8468
dp	-8469
run	-8470
ses	-8471
▁96	-8472
▁ga	-8473
▁ip	-8474
▁wo	-8475
abet	-8476
acks	-8477
adei	-8478
cont	-8479
iner	-8480
izer	-8481
lose	-8482
mese	-8483
onto	-8484
tada	-8485
yala	-8486
▁amy	-8487
▁fah	-8488
▁haz	-8489
▁hyd	-8490
▁ibm	-8491
▁nap	-8492
▁nba	-8493
▁suk	-8494
▁usa	-8495
aniya	-8496
child	-8497
eless	-8498
etime	-8499
gment	-8500
regon	-8501
sters	-8502
▁acid	-8503
▁aims	-8504
▁benj	-8505
▁caut	-8506
▁croc	-8507
▁epid	-8508
▁fame	-8509
▁ferg	-8510
▁gear	-8511
▁guys	-8512
▁holl	-8513
▁jenn	-8514
▁krem	-8515
▁lots	-8516
▁mere	-8517
▁mood	-8518
▁neut	-8519
▁pich	-8520
▁rays	-8521
▁seal	-8522
▁slim	-8523
▁symp	-8524
▁twel	-8525
▁twin	-8526
active	-8527
igroup	-8528
nesota	-8529
▁alger	-8530
▁andre	-8531
▁audio	-8532
▁brian	-8533
▁carac	-8534
▁chart	-8535
▁coinc	-8536
▁craft	-8537
▁cyber	-8538
▁dying	-8539
▁helps	-8540
▁marty	-8541
▁meets	-8542
▁pleas	-8543
▁radar	-8544
▁reput	-8545
▁simon	-8546
▁teeth	-8547
▁toler	-8548
▁unpop	-8549
▁wrest	-8550
areness	-8551
▁actual	-8552
▁allied	-8553
▁anchor	-8554
▁archit	-8555
▁ballot	-8556
▁blacks	-8557
▁burden	-8558
▁button	-8559
▁buyers	-8560
▁denver	-8561
▁desire	-8562
▁encoun	-8563
▁gender	-8564
▁hitler	-8565
▁incumb	-8566
▁infect	-8567
▁jungle	-8568
▁kazakh	-8569
▁laptop	-8570
▁libyan	-8571
▁miller	-8572
▁oregon	-8573
▁philip	-8574
▁voiced	-8575
▁waited	-8576
cription	-8577
▁appeals	-8578
▁bahamas	-8579
▁burmese	-8580
▁damages	-8581
▁enjoyed	-8582
▁greeted	-8583
▁hanging	-8584
▁kremlin	-8585
▁lieuten	-8586
▁prostit	-8587
▁serbian	-8588
▁shouldn	-8589
▁spectac	-8590
▁surveys	-8591
▁testify	-8592
▁achieved	-8593
▁activist	-8594
▁bernanke	-8595
▁graduate	-8596
▁instance	-8597
▁marathon	-8598
▁massacre	-8599
▁promises	-8600
▁reflects	-8601
▁removing	-8602
▁requests	-8603
▁reserved	-8604
▁universe	-8605
▁zawahiri	-8606
▁awareness	-8607
▁beautiful	-8608
▁citigroup	-8609
▁competing	-8610
▁contacted	-8611
▁directors	-8612
▁minnesota	-8613
▁policeman	-8614
▁postponed	-8615
▁probation	-8616
▁telescope	-8617
▁contenders	-8618
▁definitely	-8619
▁landslides	-8620
▁separately	-8621
▁separatist	-8622
▁specialist	-8623
▁investments	-8624
▁represented	-8625
▁agricultural	-8626
▁proliferation	-8627
can	-8628
rez	-8629
▁93	-8630
▁pp	-8631
ampa	-8632
awaz	-8633
iffe	-8634
iffs	-8635
ishu	-8636
mate	-8637
orta	-8638
prom	-8639
sels	-8640
wind	-8641
▁avo	-8642
▁bio	-8643
▁hut	-8644
▁lod	-8645
▁meg	-8646
▁mum	-8647
▁pod	-8648
anche	-8649
isive	-8650
lined	-8651
stone	-8652
▁audi	-8653
▁aven	-8654
▁drow	-8655
▁elig	-8656
▁epis	-8657
▁fees	-8658
▁flaw	-8659
▁mats	-8660
▁mice	-8661
▁milk	-8662
▁nich	-8663
▁phen	-8664
▁rhet	-8665
▁scan	-8666
ecture	-8667
essing	-8668
▁bever	-8669
▁dates	-8670
▁foods	-8671
▁intim	-8672
▁outdo	-8673
▁rocky	-8674
▁tears	-8675
▁terry	-8676
▁tours	-8677
▁yield	-8678
▁ankara	-8679
▁approx	-8680
▁blocks	-8681
▁castle	-8682
▁contem	-8683
▁crocod	-8684
▁danish	-8685
▁kidney	-8686
▁partly	-8687
▁rooney	-8688
▁rulers	-8689
▁schwar	-8690
▁tanker	-8691
▁thrown	-8692
▁tigers	-8693
▁volume	-8694
▁chamber	-8695
▁fossett	-8696
▁honored	-8697
▁instant	-8698
▁passage	-8699
▁rallied	-8700
▁ratings	-8701
▁revised	-8702
▁stretch	-8703
▁thanked	-8704
▁wealthy	-8705
rehensive	-8706
▁argument	-8707
▁arranged	-8708
▁barriers	-8709
▁benjamin	-8710
▁cambodia	-8711
▁consolid	-8712
▁generals	-8713
▁machines	-8714
▁opposite	-8715
▁pressing	-8716
▁realized	-8717
▁scandals	-8718
▁shortage	-8719
▁subprime	-8720
▁terminal	-8721
▁warrants	-8722
▁yourself	-8723
▁amendment	-8724
▁continent	-8725
▁excessive	-8726
▁generated	-8727
▁incumbent	-8728
▁prevented	-8729
▁publicist	-8730
▁resolving	-8731
▁reviewing	-8732
▁unpopular	-8733
▁accounting	-8734
▁background	-8735
▁checkpoint	-8736
▁contribute	-8737
▁critically	-8738
▁guidelines	-8739
▁immigrants	-8740
▁midfielder	-8741
▁peacefully	-8742
▁recovering	-8743
▁undergoing	-8744
▁appearances	-8745
▁combination	-8746
▁competitive	-8747
▁mountainous	-8748
▁operational	-8749
▁publication	-8750
▁replacement	-8751
▁preparations	-8752
▁prostitution	-8753
▁photographers	-8754
▁reconstruction	-8755
tv	-8756
ahn	-8757
bil	-8758
fit	-8759
ils	-8760
una	-8761
▁89	-8762
▁hs	-8763
beat	-8764
bons	-8765
fish	-8766
icut	-8767
ifer	-8768
illy	-8769
itar	-8770
odes	-8771
onna	-8772
rome	-8773
teen	-8774
▁cdc	-8775
▁hos	-8776
▁inh	-8777
▁nah	-8778
▁rug	-8779
▁tru	-8780
▁wol	-8781
angel	-8782
irmed	-8783
peace	-8784
print	-8785
urned	-8786
▁1988	-8787
▁2011	-8788
▁auth	-8789
▁bans	-8790
▁cape	-8791
▁clim	-8792
▁curt	-8793
▁ivan	-8794
▁loud	-8795
▁luis	-8796
▁owns	-8797
▁synd	-8798
▁taxi	-8799
▁ware	-8800
▁wool	-8801
adishu	-8802
closed	-8803
father	-8804
manuel	-8805
ompson	-8806
▁aster	-8807
▁blind	-8808
▁bruni	-8809
▁finds	-8810
▁hindu	-8811
▁hosts	-8812
▁jewel	-8813
▁nawaz	-8814
▁pages	-8815
▁print	-8816
▁remem	-8817
▁rings	-8818
▁roles	-8819
▁samar	-8820
▁serge	-8821
▁sworn	-8822
▁tanks	-8823
▁tries	-8824
station	-8825
▁adjust	-8826
▁angela	-8827
▁borrow	-8828
▁dakota	-8829
▁diyala	-8830
▁exclud	-8831
▁exiled	-8832
▁insult	-8833
▁locals	-8834
▁madoff	-8835
▁oppose	-8836
▁piracy	-8837
▁ransom	-8838
▁rarely	-8839
▁reveal	-8840
▁scramb	-8841
▁sealed	-8842
▁silver	-8843
▁stones	-8844
▁toilet	-8845
▁traded	-8846
ographic	-8847
zenegger	-8848
▁abusing	-8849
▁checked	-8850
▁doubled	-8851
▁fleeing	-8852
▁gazprom	-8853
▁hostile	-8854
▁hosting	-8855
▁ignored	-8856
▁mercury	-8857
▁motorcy	-8858
▁powered	-8859
▁prophet	-8860
▁reverse	-8861
▁scoring	-8862
▁smashed	-8863
▁toronto	-8864
▁animated	-8865
▁asteroid	-8866
▁exciting	-8867
▁freezing	-8868
▁heathrow	-8869
▁nominees	-8870
▁rhetoric	-8871
▁severely	-8872
▁suburban	-8873
▁superior	-8874
▁teaching	-8875
▁thompson	-8876
▁appearing	-8877
▁confessed	-8878
▁connected	-8879
▁discrimin	-8880
▁expanding	-8881
▁factories	-8882
▁installed	-8883
▁mogadishu	-8884
▁orchestra	-8885
▁primarily	-8886
▁selection	-8887
▁somewhere	-8888
▁underwent	-8889
▁challenged	-8890
▁greenpeace	-8891
▁performing	-8892
▁professors	-8893
▁satellites	-8894
▁astronomers	-8895
▁comfortable	-8896
▁connecticut	-8897
▁dismantling	-8898
▁maintaining	-8899
▁statistical	-8900
▁temperature	-8901
▁manipulation	-8902
▁registration	-8903
▁comprehensive	-8904
▁schwarzenegger	-8905
ci	-8906
adi	-8907
equ	-8908
hus	-8909
kir	-8910
tic	-8911
yah	-8912
▁lg	-8913
▁mi	-8914
adic	-8915
argo	-8916
bean	-8917
ione	-8918
rics	-8919
uson	-8920
▁aig	-8921
▁bra	-8922
▁kum	-8923
▁mol	-8924
▁ppp	-8925
▁rit	-8926
▁sod	-8927
▁tip	-8928
▁vin	-8929
▁zap	-8930
allah	-8931
aping	-8932
aware	-8933
cript	-8934
qtada	-8935
ricts	-8936
vinen	-8937
▁blaz	-8938
▁buff	-8939
▁cher	-8940
▁cole	-8941
▁dies	-8942
▁duck	-8943
▁fare	-8944
▁ling	-8945
▁maur	-8946
▁medi	-8947
▁mong	-8948
▁nazi	-8949
▁noon	-8950
▁odds	-8951
▁orth	-8952
▁pear	-8953
▁pure	-8954
▁seok	-8955
▁shep	-8956
▁trav	-8957
▁unre	-8958
estone	-8959
hedral	-8960
heimer	-8961
ichiro	-8962
rising	-8963
▁allen	-8964
▁argue	-8965
▁bonds	-8966
▁boxes	-8967
▁bruce	-8968
▁gases	-8969
▁holes	-8970
▁magic	-8971
▁marry	-8972
▁overs	-8973
▁param	-8974
▁quant	-8975
▁rawal	-8976
▁reass	-8977
▁recyc	-8978
▁remin	-8979
▁spray	-8980
▁stall	-8981
▁sympt	-8982
iciency	-8983
▁aiming	-8984
▁barred	-8985
▁basket	-8986
▁bolton	-8987
▁bottle	-8988
▁burial	-8989
▁hidden	-8990
▁hijack	-8991
▁incent	-8992
▁islets	-8993
▁preced	-8994
▁revers	-8995
▁strang	-8996
▁subway	-8997
▁twelve	-8998
▁urgent	-8999
▁useful	-9000
▁alberto	-9001
▁anybody	-9002
▁arguing	-9003
▁assured	-9004
▁ballots	-9005
▁climbed	-9006
▁crocker	-9007
▁denmark	-9008
▁equival	-9009
▁fastest	-9010
▁gesture	-9011
▁intimid	-9012
▁lengthy	-9013
▁paulson	-9014
▁picking	-9015
▁prayers	-9016
▁predict	-9017
▁purport	-9018
▁rehabil	-9019
▁secured	-9020
▁sevilla	-9021
▁shouted	-9022
▁adoption	-9023
▁atlantis	-9024
▁commemor	-9025
▁customer	-9026
▁disorder	-9027
▁employed	-9028
▁enormous	-9029
▁entirely	-9030
▁expanded	-9031
▁expelled	-9032
▁ferguson	-9033
▁johndroe	-9034
▁managing	-9035
▁pointing	-9036
▁romantic	-9037
▁sciences	-9038
▁sudanese	-9039
▁survival	-9040
▁sweeping	-9041
▁theaters	-9042
▁adventure	-9043
▁antarctic	-9044
▁carefully	-9045
▁considers	-9046
▁introduce	-9047
▁maintains	-9048
▁principal	-9049
▁taiwanese	-9050
▁withdrawn	-9051
▁automakers	-9052
▁ceremonies	-9053
▁dispatched	-9054
▁evacuation	-9055
▁qualifying	-9056
▁strategist	-9057
▁billionaire	-9058
▁spectacular	-9059
▁willingness	-9060
▁applications	-9061
▁photographer	-9062
▁participating	-9063
eg	-9064
ja	-9065
la	-9066
amy	-9067
asy	-9068
iko	-9069
kei	-9070
▁oz	-9071
▁wu	-9072
▁ww	-9073
ails	-9074
frey	-9075
inks	-9076
isan	-9077
mble	-9078
onte	-9079
pers	-9080
▁bry	-9081
▁gut	-9082
▁mao	-9083
▁nel	-9084
▁nix	-9085
▁nur	-9086
▁sid	-9087
▁ted	-9088
▁uss	-9089
armed	-9090
atoes	-9091
grade	-9092
iders	-9093
munic	-9094
pindi	-9095
ramid	-9096
▁bold	-9097
▁cord	-9098
▁desk	-9099
▁dodi	-9100
▁gwan	-9101
▁hell	-9102
▁jama	-9103
▁lisa	-9104
▁pist	-9105
▁rash	-9106
▁raul	-9107
▁scul	-9108
▁shim	-9109
▁sued	-9110
▁ther	-9111
▁trem	-9112
▁user	-9113
arotti	-9114
awatra	-9115
giving	-9116
mother	-9117
tanbul	-9118
▁adapt	-9119
▁carib	-9120
▁depos	-9121
▁eager	-9122
▁fixed	-9123
▁guest	-9124
▁hired	-9125
▁horta	-9126
▁incor	-9127
▁ivory	-9128
▁lucky	-9129
▁mcdon	-9130
▁moroc	-9131
▁ninth	-9132
▁ranch	-9133
▁revel	-9134
▁spraw	-9135
▁tired	-9136
▁uribe	-9137
▁villa	-9138
▁weren	-9139
osexual	-9140
▁carpet	-9141
▁covers	-9142
▁duties	-9143
▁enthus	-9144
▁fabric	-9145
▁franco	-9146
▁honest	-9147
▁incurs	-9148
▁iphone	-9149
▁kicked	-9150
▁knight	-9151
▁mining	-9152
▁mortar	-9153
▁murphy	-9154
▁mutual	-9155
▁overha	-9156
▁parker	-9157
▁please	-9158
▁propag	-9159
▁random	-9160
▁retrie	-9161
▁spaces	-9162
▁suffer	-9163
▁tissue	-9164
ilateral	-9165
▁captors	-9166
▁caracas	-9167
▁closure	-9168
▁counted	-9169
▁engines	-9170
▁exhibit	-9171
▁filming	-9172
▁handful	-9173
▁indians	-9174
▁inmates	-9175
▁madonna	-9176
▁murders	-9177
▁neutral	-9178
▁posting	-9179
▁pyramid	-9180
▁revenge	-9181
▁subsequ	-9182
▁tripoli	-9183
▁typical	-9184
▁winfrey	-9185
▁wrongdo	-9186
▁bacteria	-9187
▁branches	-9188
▁broadway	-9189
▁brussels	-9190
▁disclose	-9191
▁formerly	-9192
▁generate	-9193
▁hometown	-9194
▁istanbul	-9195
▁jennifer	-9196
▁mourning	-9197
▁occupied	-9198
▁phenomen	-9199
▁refusing	-9200
▁regarded	-9201
▁volatile	-9202
▁ambitious	-9203
▁associate	-9204
▁candidacy	-9205
▁cathedral	-9206
▁collected	-9207
▁crocodile	-9208
▁donations	-9209
▁elaborate	-9210
▁epicenter	-9211
▁essential	-9212
▁explained	-9213
▁financing	-9214
▁landscape	-9215
▁pavarotti	-9216
▁pregnancy	-9217
▁proposals	-9218
▁sponsored	-9219
▁supporter	-9220
▁technique	-9221
▁elementary	-9222
▁extinction	-9223
▁households	-9224
▁rawalpindi	-9225
▁reputation	-9226
▁restricted	-9227
▁shinawatra	-9228
▁application	-9229
▁businessman	-9230
▁celebrating	-9231
▁contributed	-9232
▁criticizing	-9233
▁educational	-9234
▁influential	-9235
▁obligations	-9236
▁participation	-9237
380	-9238
lan	-9239
weg	-9240
zer	-9241
zes	-9242
▁(5	-9243
▁05	-9244
▁08	-9245
ader	-9246
anol	-9247
care	-9248
hart	-9249
icef	-9250
ilia	-9251
nold	-9252
umin	-9253
umph	-9254
▁duc	-9255
▁joy	-9256
▁kit	-9257
▁liv	-9258
▁yan	-9259
▁zar	-9260
agger	-9261
charg	-9262
gging	-9263
isons	-9264
kirts	-9265
opard	-9266
udhry	-9267
▁adam	-9268
▁amin	-9269
▁brib	-9270
▁echo	-9271
▁fisc	-9272
▁gram	-9273
▁hate	-9274
▁juan	-9275
▁lion	-9276
▁rent	-9277
▁rove	-9278
▁shoe	-9279
▁tang	-9280
▁tong	-9281
▁unsu	-9282
▁webs	-9283
ouring	-9284
teries	-9285
ushkin	-9286
▁accur	-9287
▁clark	-9288
▁clues	-9289
▁depth	-9290
▁disgr	-9291
▁drunk	-9292
▁gangs	-9293
▁gonna	-9294
▁guess	-9295
▁haiti	-9296
▁merch	-9297
▁mines	-9298
▁nixon	-9299
▁oprah	-9300
▁plate	-9301
▁pusan	-9302
▁ranks	-9303
▁rifle	-9304
▁shame	-9305
▁smart	-9306
▁spots	-9307
▁squee	-9308
▁stick	-9309
▁tampa	-9310
ancourt	-9311
itorial	-9312
respons	-9313
uations	-9314
▁anthem	-9315
▁autops	-9316
▁destro	-9317
▁diabet	-9318
▁dumped	-9319
▁empire	-9320
▁explan	-9321
▁greens	-9322
▁guided	-9323
▁indict	-9324
▁infilt	-9325
▁intent	-9326
▁invent	-9327
▁manila	-9328
▁medics	-9329
▁nikkei	-9330
▁norway	-9331
▁paraly	-9332
▁pepper	-9333
▁premie	-9334
▁resemb	-9335
▁sacrif	-9336
▁smooth	-9337
▁suppli	-9338
▁surged	-9339
▁titled	-9340
▁transp	-9341
▁travol	-9342
▁tribun	-9343
▁wooden	-9344
▁automob	-9345
▁bedroom	-9346
▁dispers	-9347
▁dragged	-9348
▁forests	-9349
▁forming	-9350
▁helmand	-9351
▁knowing	-9352
▁mammoth	-9353
▁montana	-9354
▁offense	-9355
▁petrole	-9356
▁portray	-9357
▁publish	-9358
▁restart	-9359
▁surpass	-9360
▁triumph	-9361
▁attacker	-9362
▁chaudhry	-9363
▁discount	-9364
▁elevator	-9365
▁facebook	-9366
▁glaciers	-9367
▁hearings	-9368
▁johnston	-9369
▁monitors	-9370
▁quarters	-9371
▁releases	-9372
▁restored	-9373
▁revision	-9374
▁somebody	-9375
▁symptoms	-9376
▁textbook	-9377
▁thorough	-9378
▁argentine	-9379
▁arguments	-9380
▁attackers	-9381
▁bloomberg	-9382
▁breathing	-9383
▁caribbean	-9384
▁cautioned	-9385
▁defectors	-9386
▁desperate	-9387
▁kilometer	-9388
▁outskirts	-9389
▁slaughter	-9390
▁smuggling	-9391
▁unsuccess	-9392
▁airstrikes	-9393
▁betancourt	-9394
▁engagement	-9395
▁equivalent	-9396
▁guarantees	-9397
▁pichushkin	-9398
▁preventing	-9399
▁stronghold	-9400
▁transplant	-9401
▁forecasters	-9402
▁predecessor	-9403
▁prestigious	-9404
▁territorial	-9405
▁demonstrated	-9406
▁intervention	-9407
▁thanksgiving	-9408
▁interrogation	-9409
ii	-9410
agu	-9411
erb	-9412
oca	-9413
vis	-9414
yad	-9415
▁kc	-9416
cars	-9417
iary	-9418
isen	-9419
lein	-9420
lete	-9421
name	-9422
phan	-9423
zhou	-9424
▁(10	-9425
▁450	-9426
▁alz	-9427
▁bos	-9428
▁cin	-9429
▁clo	-9430
▁hay	-9431
▁hog	-9432
▁jab	-9433
▁kuz	-9434
▁nan	-9435
▁rud	-9436
▁sib	-9437
▁suv	-9438
▁ups	-9439
▁voc	-9440
▁zah	-9441
akash	-9442
arity	-9443
chell	-9444
front	-9445
lando	-9446
ouses	-9447
terns	-9448
wered	-9449
world	-9450
▁arts	-9451
▁bish	-9452
▁blat	-9453
▁blog	-9454
▁brid	-9455
▁caff	-9456
▁ebay	-9457
▁fifa	-9458
▁gift	-9459
▁hind	-9460
▁icon	-9461
▁nose	-9462
▁pier	-9463
▁qari	-9464
▁slip	-9465
▁sway	-9466
▁tips	-9467
▁aging	-9468
▁aquar	-9469
▁burns	-9470
▁farms	-9471
▁files	-9472
▁grace	-9473
▁jeong	-9474
▁lynch	-9475
▁maine	-9476
▁pants	-9477
▁ports	-9478
▁pride	-9479
▁seren	-9480
▁sized	-9481
▁swall	-9482
▁tools	-9483
▁wayne	-9484
regular	-9485
working	-9486
▁breach	-9487
▁breaks	-9488
▁crunch	-9489
▁drinks	-9490
▁halted	-9491
▁kimchi	-9492
▁muscle	-9493
▁norweg	-9494
▁passes	-9495
▁routes	-9496
▁sounds	-9497
▁stated	-9498
▁tennis	-9499
▁tragic	-9500
▁trails	-9501
▁unicef	-9502
children	-9503
▁automot	-9504
▁brigade	-9505
▁extinct	-9506
▁gunshot	-9507
▁mothers	-9508
▁orlando	-9509
▁outpost	-9510
▁persons	-9511
▁planets	-9512
▁recruit	-9513
▁shepher	-9514
▁shooter	-9515
▁venture	-9516
▁advisers	-9517
▁aquarium	-9518
▁belonged	-9519
▁captives	-9520
▁counties	-9521
▁defeated	-9522
▁diabetes	-9523
▁evacuate	-9524
▁factions	-9525
▁imminent	-9526
▁involves	-9527
▁optimism	-9528
▁outgoing	-9529
▁restruct	-9530
▁shutting	-9531
▁stopping	-9532
▁summoned	-9533
▁afterward	-9534
▁alzheimer	-9535
▁breakfast	-9536
▁economics	-9537
▁endeavour	-9538
▁ethiopian	-9539
▁existence	-9540
▁extending	-9541
▁fortified	-9542
▁framework	-9543
▁musicians	-9544
▁policemen	-9545
▁protested	-9546
▁provision	-9547
▁publisher	-9548
▁reinforce	-9549
▁solutions	-9550
▁substance	-9551
▁tentative	-9552
▁affiliated	-9553
▁biological	-9554
▁describing	-9555
▁electrical	-9556
▁emphasized	-9557
▁overturned	-9558
▁pronounced	-9559
▁researcher	-9560
▁acknowledge	-9561
▁contractors	-9562
▁endorsement	-9563
▁examination	-9564
▁inspections	-9565
▁legislators	-9566
▁retaliation	-9567
▁difficulties	-9568
▁traditionally	-9569
cr	-9570
dr	-9571
uo	-9572
uy	-9573
abi	-9574
eta	-9575
ofi	-9576
oty	-9577
▁09	-9578
abao	-9579
anny	-9580
arre	-9581
athy	-9582
case	-9583
heon	-9584
iors	-9585
mann	-9586
play	-9587
▁110	-9588
▁192	-9589
▁dir	-9590
▁hip	-9591
▁kan	-9592
▁kas	-9593
▁nag	-9594
▁nod	-9595
▁tag	-9596
▁vic	-9597
▁wip	-9598
aired	-9599
cedes	-9600
itled	-9601
orous	-9602
▁1981	-9603
▁bart	-9604
▁chim	-9605
▁craw	-9606
▁dana	-9607
▁estr	-9608
▁grim	-9609
▁hike	-9610
▁indo	-9611
▁joon	-9612
▁mitt	-9613
▁okin	-9614
▁pact	-9615
▁peer	-9616
▁root	-9617
▁shia	-9618
▁soul	-9619
▁stab	-9620
▁ster	-9621
▁tayy	-9622
▁warn	-9623
▁wrap	-9624
ishing	-9625
rition	-9626
▁asset	-9627
▁dealt	-9628
▁dynam	-9629
▁enact	-9630
▁fujim	-9631
▁inner	-9632
▁irbil	-9633
▁kinds	-9634
▁minim	-9635
▁opera	-9636
▁poore	-9637
▁scrut	-9638
▁surpl	-9639
▁swing	-9640
▁truly	-9641
▁uncom	-9642
▁undis	-9643
▁yards	-9644
esterol	-9645
▁affair	-9646
▁cannes	-9647
▁crater	-9648
▁discip	-9649
▁fairly	-9650
▁jiabao	-9651
▁manner	-9652
▁mirror	-9653
▁overth	-9654
▁parade	-9655
▁rating	-9656
▁refuse	-9657
▁remind	-9658
▁slowly	-9659
▁soared	-9660
▁amazing	-9661
▁artific	-9662
▁authors	-9663
▁beatles	-9664
▁bernard	-9665
▁beverly	-9666
▁clients	-9667
▁infring	-9668
▁rolling	-9669
▁samarra	-9670
▁substit	-9671
▁undersc	-9672
▁utility	-9673
▁actively	-9674
▁airplane	-9675
▁damaging	-9676
▁dispatch	-9677
▁holidays	-9678
▁humanity	-9679
▁investor	-9680
▁lifetime	-9681
▁lighting	-9682
▁margaret	-9683
▁mercedes	-9684
▁mitchell	-9685
▁pipeline	-9686
▁predomin	-9687
▁sessions	-9688
▁shouting	-9689
▁sleeping	-9690
▁supervis	-9691
▁takeover	-9692
▁threaten	-9693
▁tribunal	-9694
▁youngest	-9695
▁colleague	-9696
▁conscious	-9697
▁dedicated	-9698
▁describes	-9699
▁exchanges	-9700
▁favorable	-9701
▁fishermen	-9702
▁irrespons	-9703
▁mentioned	-9704
▁privately	-9705
▁prolonged	-9706
▁purported	-9707
▁shattered	-9708
▁sophistic	-9709
▁sprawling	-9710
▁challenger	-9711
▁devastated	-9712
▁precaution	-9713
▁psychology	-9714
▁regulators	-9715
▁cholesterol	-9716
▁citizenship	-9717
▁coordinated	-9718
▁pornography	-9719
▁recognition	-9720
▁assassinated	-9721
▁approximately	-9722
▁restructuring	-9723
bid	-9724
chs	-9725
dem	-9726
hew	-9727
iac	-9728
jan	-9729
lev	-9730
osh	-9731
say	-9732
▁(8	-9733
▁01	-9734
▁bm	-9735
▁hi	-9736
adow	-9737
araz	-9738
ello	-9739
heit	-9740
rors	-9741
stan	-9742
thel	-9743
unes	-9744
▁abn	-9745
▁dok	-9746
▁dot	-9747
▁fet	-9748
▁hui	-9749
▁hyp	-9750
▁nfl	-9751
▁rou	-9752
ierra	-9753
rific	-9754
ushed	-9755
▁1982	-9756
▁500)	-9757
▁abor	-9758
▁bash	-9759
▁flic	-9760
▁hans	-9761
▁kofi	-9762
▁lobb	-9763
▁lock	-9764
▁melt	-9765
▁nerv	-9766
▁qass	-9767
▁rend	-9768
▁scri	-9769
▁vest	-9770
▁wage	-9771
▁wang	-9772
iotics	-9773
lessly	-9774
ortium	-9775
▁ammun	-9776
▁arena	-9777
▁atroc	-9778
▁banco	-9779
▁bulls	-9780
▁corre	-9781
▁croat	-9782
▁cryst	-9783
▁dated	-9784
▁donor	-9785
▁famed	-9786
▁ferry	-9787
▁folks	-9788
▁incon	-9789
▁midst	-9790
▁paral	-9791
▁races	-9792
▁remov	-9793
▁rider	-9794
▁roots	-9795
▁stuck	-9796
▁voter	-9797
▁wazir	-9798
▁wheat	-9799
▁wings	-9800
▁ambush	-9801
▁divide	-9802
▁doubts	-9803
▁edward	-9804
▁gotten	-9805
▁hubble	-9806
▁hunter	-9807
▁legacy	-9808
▁monkey	-9809
▁nelson	-9810
▁organs	-9811
▁oscars	-9812
▁perino	-9813
▁praise	-9814
▁puerto	-9815
▁racial	-9816
▁sensit	-9817
▁slowed	-9818
▁stream	-9819
▁visual	-9820
▁waving	-9821
▁youths	-9822
▁autopsy	-9823
▁battled	-9824
▁britney	-9825
▁chicken	-9826
▁clooney	-9827
▁conglom	-9828
▁conting	-9829
▁dancing	-9830
▁dignity	-9831
▁embrace	-9832
▁evangel	-9833
▁gaining	-9834
▁gibbons	-9835
▁gunfire	-9836
▁okinawa	-9837
▁painful	-9838
▁pursuit	-9839
▁rampage	-9840
▁saakash	-9841
▁setback	-9842
▁shipman	-9843
▁singing	-9844
▁swedish	-9845
▁undergo	-9846
▁bathroom	-9847
▁cautious	-9848
▁deadlock	-9849
▁designer	-9850
▁distress	-9851
▁eligible	-9852
▁equipped	-9853
▁imperial	-9854
▁imported	-9855
▁overhaul	-9856
▁patterns	-9857
▁russians	-9858
▁scholars	-9859
▁shelters	-9860
▁sporting	-9861
▁survivor	-9862
▁thoughts	-9863
▁declining	-9864
▁depending	-9865
▁disrupted	-9866
▁finishing	-9867
▁incursion	-9868
▁irregular	-9869
▁kurdistan	-9870
▁petroleum	-9871
▁practices	-9872
▁purchased	-9873
▁screening	-9874
▁witnessed	-9875
▁ammunition	-9876
▁automotive	-9877
▁capability	-9878
▁chairwoman	-9879
▁consortium	-9880
▁dissidents	-9881
▁encouraged	-9882
▁enterprise	-9883
▁invitation	-9884
▁retirement	-9885
▁antibiotics	-9886
▁commitments	-9887
▁grandfather	-9888
▁grandmother	-9889
▁intensified	-9890
▁interesting	-9891
▁partnership	-9892
▁saakashvili	-9893
▁technically	-9894
▁territories	-9895
▁peacekeepers	-9896
▁performances	-9897
▁telecommunic	-9898
▁determination	-9899
▁neighborhoods	-9900
▁relationships	-9901
▁counterfeiting	-9902
▁implementation	-9903
fo	-9904
din	-9905
hev	-9906
how	-9907
icy	-9908
iza	-9909
mao	-9910
mes	-9911
mir	-9912
olo	-9913
rov	-9914
rup	-9915
▁jr	-9916
▁yu	-9917
alay	-9918
asty	-9919
glas	-9920
hasa	-9921
heng	-9922
iane	-9923
iley	-9924
opez	-9925
oult	-9926
quba	-9927
roph	-9928
rows	-9929
spec	-9930
▁101	-9931
▁ana	-9932
▁bee	-9933
▁bun	-9934
▁cri	-9935
▁imf	-9936
▁mdc	-9937
▁mes	-9938
▁oak	-9939
▁poc	-9940
▁rab	-9941
▁raw	-9942
▁raz	-9943
▁tea	-9944
▁yog	-9945
annes	-9946
bered	-9947
earns	-9948
eling	-9949
fires	-9950
icing	-9951
ighed	-9952
jiang	-9953
lings	-9954
▁1945	-9955
▁andy	-9956
▁aziz	-9957
▁bali	-9958
▁crem	-9959
▁fitz	-9960
▁gill	-9961
▁gran	-9962
▁hadn	-9963
▁hwan	-9964
▁intr	-9965
▁jank	-9966
▁keen	-9967
▁lect	-9968
▁luck	-9969
▁nebr	-9970
▁pale	-9971
▁panc	-9972
▁rita	-9973
▁sank	-9974
▁unch	-9975
antile	-9976
illery	-9977
istics	-9978
mental	-9979
▁alarm	-9980
▁brave	-9981
▁brick	-9982
▁claus	-9983
▁deuts	-9984
▁genes	-9985
▁homic	-9986
▁horse	-9987
▁irish	-9988
▁jiang	-9989
▁lakes	-9990
▁lance	-9991
▁laser	-9992
▁linda	-9993
▁lopez	-9994
▁marsh	-9995
▁meals	-9996
▁pione	-9997
▁reaff	-9998
▁searc	-9999
▁shake	-10000
▁suits	-10001
▁susan	-10002
▁valid	-10003
ignment	-10004
ouncing	-10005
renheit	-10006
▁aggrav	-10007
▁baquba	-10008
▁blockb	-10009
▁caucus	-10010
▁chairs	-10011
▁chosun	-10012
▁clinch	-10013
▁commod	-10014
▁condol	-10015
▁donors	-10016
▁easter	-10017
▁foster	-10018
▁fueled	-10019
▁gusmao	-10020
▁heated	-10021
▁kidnap	-10022
▁manage	-10023
▁manuel	-10024
▁merger	-10025
▁modest	-10026
▁outlaw	-10027
▁perpet	-10028
▁polish	-10029
▁racing	-10030
▁reserv	-10031
▁respir	-10032
▁shirts	-10033
▁sierra	-10034
▁statue	-10035
▁throne	-10036
▁venues	-10037
▁angered	-10038
▁bargain	-10039
▁barrier	-10040
▁blanket	-10041
▁brothel	-10042
▁cheaper	-10043
▁choices	-10044
▁formula	-10045
▁handing	-10046
▁handled	-10047
▁hardest	-10048
▁hawking	-10049
▁jointly	-10050
▁mandate	-10051
▁municip	-10052
▁mystery	-10053
▁obvious	-10054
▁paparaz	-10055
▁payment	-10056
▁plummet	-10057
▁reacted	-10058
▁removal	-10059
▁retreat	-10060
▁runners	-10061
▁stewart	-10062
▁strange	-10063
▁transit	-10064
▁annually	-10065
▁checking	-10066
▁clinical	-10067
▁creative	-10068
▁defender	-10069
▁gyeonggi	-10070
▁judgment	-10071
▁justices	-10072
▁nebraska	-10073
▁orbiting	-10074
▁preserve	-10075
▁protocol	-10076
▁reserves	-10077
▁reviewed	-10078
▁stunning	-10079
▁tracking	-10080
▁troubles	-10081
▁anonymous	-10082
▁artillery	-10083
▁captivity	-10084
▁collision	-10085
▁copyright	-10086
▁exclusive	-10087
▁greenland	-10088
▁happiness	-10089
▁inspector	-10090
▁languages	-10091
▁mastermin	-10092
▁melbourne	-10093
▁norwegian	-10094
▁operators	-10095
▁ownership	-10096
▁stabilize	-10097
▁voluntary	-10098
▁volunteer	-10099
▁wildfires	-10100
▁artificial	-10101
▁fahrenheit	-10102
▁fatalities	-10103
▁lieutenant	-10104
▁mercantile	-10105
▁phenomenon	-10106
▁propaganda	-10107
▁reasonable	-10108
▁salmonella	-10109
▁waziristan	-10110
▁destination	-10111
▁transparent	-10112
▁celebrations	-10113
▁contribution	-10114
▁governmental	-10115
▁implications	-10116
▁spokesperson	-10117
▁sophisticated	-10118
▁archaeologists	-10119
▁rehabilitation	-10120
eb	-10121
bie	-10122
cro	-10123
erg	-10124
gow	-10125
mus	-10126
put	-10127
ros	-10128
tes	-10129
tse	-10130
▁94	-10131
▁bb	-10132
club	-10133
enos	-10134
oung	-10135
sson	-10136
thur	-10137
ules	-10138
yans	-10139
▁(11	-10140
▁135	-10141
▁bru	-10142
▁cyc	-10143
▁dug	-10144
▁jir	-10145
▁mam	-10146
▁ras	-10147
abani	-10148
anson	-10149
arded	-10150
ctica	-10151
eanor	-10152
iated	-10153
ishes	-10154
licts	-10155
mouth	-10156
piece	-10157
▁1984	-10158
▁anne	-10159
▁bosn	-10160
▁bout	-10161
▁bris	-10162
▁bron	-10163
▁chur	-10164
▁ftse	-10165
▁ghan	-10166
▁kerv	-10167
▁lamp	-10168
▁lenn	-10169
▁limb	-10170
▁mini	-10171
▁oath	-10172
▁pink	-10173
▁reck	-10174
▁rick	-10175
▁slum	-10176
▁stor	-10177
▁tire	-10178
▁toss	-10179
ainted	-10180
atemal	-10181
forced	-10182
lights	-10183
terror	-10184
ultane	-10185
utical	-10186
▁arson	-10187
▁chess	-10188
▁cripp	-10189
▁decor	-10190
▁dense	-10191
▁elbar	-10192
▁exter	-10193
▁frost	-10194
▁genet	-10195
▁griff	-10196
▁humor	-10197
▁ideal	-10198
▁kwang	-10199
▁loose	-10200
▁minus	-10201
▁panda	-10202
▁rosen	-10203
▁slush	-10204
▁starb	-10205
▁trump	-10206
▁widow	-10207
▁yanke	-10208
▁aerial	-10209
▁ancest	-10210
▁arnold	-10211
▁behead	-10212
▁catast	-10213
▁circle	-10214
▁convey	-10215
▁dement	-10216
▁distin	-10217
▁ethics	-10218
▁fiscal	-10219
▁franch	-10220
▁fright	-10221
▁fundra	-10222
▁guitar	-10223
▁hariri	-10224
▁harvey	-10225
▁hassan	-10226
▁humili	-10227
▁loaded	-10228
▁motive	-10229
▁naming	-10230
▁pardon	-10231
▁parked	-10232
▁ripped	-10233
▁sharks	-10234
▁tayyip	-10235
▁thwart	-10236
▁tradem	-10237
▁tribes	-10238
ductions	-10239
▁affects	-10240
▁afghans	-10241
▁beaches	-10242
▁belgian	-10243
▁cancell	-10244
▁careful	-10245
▁cartoon	-10246
▁chanted	-10247
▁consent	-10248
▁contrad	-10249
▁credits	-10250
▁dolphin	-10251
▁douglas	-10252
▁examine	-10253
▁exhaust	-10254
▁glasgow	-10255
▁goldman	-10256
▁holland	-10257
▁jacques	-10258
▁janeiro	-10259
▁kerviel	-10260
▁layoffs	-10261
▁liberty	-10262
▁lowered	-10263
▁persist	-10264
▁proport	-10265
▁russell	-10266
▁secrets	-10267
▁settled	-10268
▁shelves	-10269
▁sponsor	-10270
▁stanley	-10271
▁stearns	-10272
▁stormed	-10273
▁studied	-10274
▁tactics	-10275
▁answered	-10276
▁assigned	-10277
▁austrian	-10278
▁climbing	-10279
▁comeback	-10280
▁concerts	-10281
▁consumed	-10282
▁creature	-10283
▁fernando	-10284
▁fujimori	-10285
▁guatemal	-10286
▁johannes	-10287
▁measured	-10288
▁murdered	-10289
▁patience	-10290
▁railroad	-10291
▁securing	-10292
▁shepherd	-10293
▁symbolic	-10294
▁talabani	-10295
▁travolta	-10296
▁weakness	-10297
▁cristiano	-10298
▁elbaradei	-10299
▁fernandez	-10300
▁intensive	-10301
▁pressures	-10302
▁propelled	-10303
▁replacing	-10304
▁secretive	-10305
▁semifinal	-10306
▁shipments	-10307
▁simultane	-10308
▁victories	-10309
▁warehouse	-10310
▁accordance	-10311
▁antarctica	-10312
▁applicants	-10313
▁committees	-10314
▁destroying	-10315
▁expedition	-10316
▁friendship	-10317
▁indictment	-10318
▁medication	-10319
▁networking	-10320
▁sentencing	-10321
▁challenging	-10322
▁complaining	-10323
▁experiments	-10324
▁ministerial	-10325
▁populations	-10326
▁preparation	-10327
▁unanimously	-10328
▁embezzlement	-10329
▁consideration	-10330
▁counterterror	-10331
▁predominantly	-10332
▁quarterfinals	-10333
▁strengthening	-10334
▁overwhelmingly	-10335
eu	-10336
oi	-10337
kat	-10338
oft	-10339
oni	-10340
opp	-10341
utt	-10342
uum	-10343
▁04	-10344
▁mw	-10345
afat	-10346
alez	-10347
appy	-10348
asse	-10349
aval	-10350
bach	-10351
bala	-10352
enza	-10353
furt	-10354
hbow	-10355
ista	-10356
kers	-10357
odox	-10358
ospi	-10359
otte	-10360
rant	-10361
shad	-10362
ttes	-10363
umes	-10364
▁103	-10365
▁afp	-10366
▁alg	-10367
▁bog	-10368
▁cad	-10369
▁dat	-10370
▁fuk	-10371
▁gif	-10372
▁gym	-10373
▁kia	-10374
▁lug	-10375
▁odd	-10376
▁umb	-10377
▁xvi	-10378
eches	-10379
ensed	-10380
heads	-10381
netso	-10382
ommod	-10383
ongch	-10384
shine	-10385
storm	-10386
▁1953	-10387
▁2014	-10388
▁asks	-10389
▁bees	-10390
▁bust	-10391
▁cook	-10392
▁cous	-10393
▁dent	-10394
▁hors	-10395
▁inac	-10396
▁kcna	-10397
▁lane	-10398
▁lima	-10399
▁pean	-10400
▁ross	-10401
▁scor	-10402
▁sket	-10403
▁snap	-10404
▁succ	-10405
▁swap	-10406
▁tops	-10407
▁trin	-10408
▁usfk	-10409
▁whis	-10410
▁yush	-10411
itable	-10412
ithner	-10413
ocaust	-10414
▁adequ	-10415
▁aires	-10416
▁ankle	-10417
▁bread	-10418
▁bride	-10419
▁brill	-10420
▁busan	-10421
▁cairo	-10422
▁chips	-10423
▁dance	-10424
▁dokdo	-10425
▁enric	-10426
▁facts	-10427
▁fifty	-10428
▁fines	-10429
▁grade	-10430
▁honey	-10431
▁indec	-10432
▁jirga	-10433
▁knife	-10434
▁libby	-10435
▁marie	-10436
▁pengu	-10437
▁quell	-10438
▁rhode	-10439
▁taste	-10440
▁trash	-10441
arettes	-10442
parency	-10443
▁abused	-10444
▁acquis	-10445
▁arafat	-10446
▁bribes	-10447
▁buenos	-10448
▁butter	-10449
▁cattle	-10450
▁deeper	-10451
▁deport	-10452
▁extent	-10453
▁filing	-10454
▁garage	-10455
▁globes	-10456
▁harbor	-10457
▁hinted	-10458
▁ignore	-10459
▁monica	-10460
▁seeded	-10461
▁sheets	-10462
▁silent	-10463
▁vacuum	-10464
▁verify	-10465
▁victor	-10466
▁binding	-10467
▁charism	-10468
▁charter	-10469
▁creates	-10470
▁diverse	-10471
▁drowned	-10472
▁ethanol	-10473
▁extract	-10474
▁facilit	-10475
▁fearing	-10476
▁feeding	-10477
▁fulfill	-10478
▁grabbed	-10479
▁gravity	-10480
▁harmful	-10481
▁incheon	-10482
▁issuing	-10483
▁nervous	-10484
▁pageant	-10485
▁pension	-10486
▁premium	-10487
▁prisons	-10488
▁romance	-10489
▁spitzer	-10490
▁weighed	-10491
▁accommod	-10492
▁arkansas	-10493
▁assisted	-10494
▁cartoons	-10495
▁choosing	-10496
▁conclude	-10497
▁contents	-10498
▁diamonds	-10499
▁downturn	-10500
▁elephant	-10501
▁entitled	-10502
▁epidemic	-10503
▁feelings	-10504
▁flexible	-10505
▁geithner	-10506
▁grenades	-10507
▁imposing	-10508
▁jankovic	-10509
▁kuznetso	-10510
▁mcdonald	-10511
▁meantime	-10512
▁memories	-10513
▁nigerian	-10514
▁opposing	-10515
▁scenario	-10516
▁shoppers	-10517
▁speeches	-10518
▁sunshine	-10519
▁terrible	-10520
▁treasure	-10521
▁treating	-10522
▁ultimate	-10523
▁uprising	-10524
▁vershbow	-10525
▁weakened	-10526
▁basically	-10527
▁batteries	-10528
▁biologist	-10529
▁brilliant	-10530
▁creatures	-10531
▁districts	-10532
▁examining	-10533
▁formation	-10534
▁holocaust	-10535
▁intervene	-10536
▁isolation	-10537
▁medicines	-10538
▁motivated	-10539
▁nightclub	-10540
▁ourselves	-10541
▁starbucks	-10542
▁accomplish	-10543
▁aggression	-10544
▁cigarettes	-10545
▁consistent	-10546
▁developers	-10547
▁difficulty	-10548
▁exhibition	-10549
▁impressive	-10550
▁imprisoned	-10551
▁incentives	-10552
▁kazakhstan	-10553
▁motorcycle	-10554
▁petersburg	-10555
▁processing	-10556
▁resumption	-10557
▁suspicions	-10558
▁wrongdoing	-10559
▁aftershocks	-10560
▁condolences	-10561
▁earthquakes	-10562
▁implemented	-10563
▁negotiation	-10564
▁prostitutes	-10565
▁respiratory	-10566
▁sensitivity	-10567
▁undisclosed	-10568
▁withdrawing	-10569
▁manufacturer	-10570
▁quarterfinal	-10571
▁transparency	-10572
▁recommendations	-10573
mi	-10574
oh	-10575
anu	-10576
bec	-10577
emi	-10578
fol	-10579
iba	-10580
ifi	-10581
oir	-10582
▁cd	-10583
agen	-10584
cade	-10585
dale	-10586
eman	-10587
inqu	-10588
lord	-10589
olla	-10590
raib	-10591
rams	-10592
rill	-10593
toff	-10594
ught	-10595
uine	-10596
▁280	-10597
▁anx	-10598
▁biz	-10599
▁caf	-10600
▁das	-10601
▁jok	-10602
▁kam	-10603
▁kay	-10604
▁leh	-10605
▁lia	-10606
▁rog	-10607
▁spa	-10608
▁wet	-10609
incol	-10610
loved	-10611
ourse	-10612
parts	-10613
rella	-10614
▁acre	-10615
▁cant	-10616
▁chae	-10617
▁choi	-10618
▁cinc	-10619
▁drum	-10620
▁hart	-10621
▁ingr	-10622
▁java	-10623
▁knut	-10624
▁kwon	-10625
▁leap	-10626
▁mant	-10627
▁mild	-10628
▁monu	-10629
▁nest	-10630
▁pets	-10631
▁reli	-10632
▁sadd	-10633
▁sars	-10634
▁stom	-10635
▁swat	-10636
▁tatt	-10637
▁tren	-10638
▁yeah	-10639
artney	-10640
innati	-10641
ionage	-10642
itated	-10643
▁anbar	-10644
▁barry	-10645
▁blues	-10646
▁fitzg	-10647
▁gerry	-10648
▁inapp	-10649
▁kilog	-10650
▁kitty	-10651
▁likes	-10652
▁lungs	-10653
▁mails	-10654
▁notor	-10655
▁offsh	-10656
▁overd	-10657
▁panic	-10658
▁pearl	-10659
▁poses	-10660
▁quart	-10661
▁reign	-10662
▁safer	-10663
▁slain	-10664
▁spell	-10665
▁spice	-10666
▁vocal	-10667
▁wages	-10668
▁zones	-10669
claimed	-10670
▁absent	-10671
▁ashore	-10672
▁austin	-10673
▁bombed	-10674
▁broker	-10675
▁browne	-10676
▁cancel	-10677
▁casino	-10678
▁column	-10679
▁copper	-10680
▁dreams	-10681
▁easing	-10682
▁envoys	-10683
▁format	-10684
▁ghraib	-10685
▁holder	-10686
▁intend	-10687
▁junior	-10688
▁lincol	-10689
▁pastor	-10690
▁prayer	-10691
▁prizes	-10692
▁queens	-10693
▁repeat	-10694
▁rolled	-10695
▁scared	-10696
▁taught	-10697
▁trials	-10698
▁undert	-10699
▁versus	-10700
▁weaken	-10701
▁yousuf	-10702
▁anthony	-10703
▁circuit	-10704
▁curious	-10705
▁episode	-10706
▁flowers	-10707
▁lenders	-10708
▁outdoor	-10709
▁outlets	-10710
▁savings	-10711
▁shaking	-10712
▁stunned	-10713
▁surplus	-10714
▁sustain	-10715
▁thunder	-10716
▁tremend	-10717
▁viruses	-10718
▁website	-10719
▁battered	-10720
▁channels	-10721
▁decrease	-10722
▁engaging	-10723
▁enriched	-10724
▁eruption	-10725
▁escorted	-10726
▁floating	-10727
▁founding	-10728
▁gonzalez	-10729
▁orthodox	-10730
▁plotting	-10731
▁portland	-10732
▁produces	-10733
▁spaniard	-10734
▁starring	-10735
▁underway	-10736
▁accepting	-10737
▁acquitted	-10738
▁ambulance	-10739
▁conflicts	-10740
▁confusion	-10741
▁courtroom	-10742
▁diagnosed	-10743
▁directing	-10744
▁disclosed	-10745
▁dismantle	-10746
▁editorial	-10747
▁eliminate	-10748
▁embryonic	-10749
▁employers	-10750
▁encounter	-10751
▁espionage	-10752
▁frankfurt	-10753
▁intellect	-10754
▁intensity	-10755
▁legendary	-10756
▁listening	-10757
▁mccartney	-10758
▁municipal	-10759
▁paparazzi	-10760
▁premature	-10761
▁qualified	-10762
▁radiation	-10763
▁reluctant	-10764
▁sacrifice	-10765
▁scattered	-10766
▁surviving	-10767
▁unusually	-10768
▁worsening	-10769
▁apartments	-10770
▁basketball	-10771
▁cincinnati	-10772
▁concerning	-10773
▁contracted	-10774
▁disruption	-10775
▁impression	-10776
▁negotiated	-10777
▁prosperity	-10778
▁rebuilding	-10779
▁reductions	-10780
▁semifinals	-10781
▁sufficient	-10782
▁suggestion	-10783
▁communicate	-10784
▁extradition	-10785
▁highlighted	-10786
▁developments	-10787
▁dramatically	-10788
▁imprisonment	-10789
▁indefinitely	-10790
▁johannesburg	-10791
▁characterized	-10792
▁inappropriate	-10793
▁irresponsible	-10794
▁irregularities	-10795
bu	-10796
aho	-10797
aul	-10798
bit	-10799
enh	-10800
izz	-10801
omy	-10802
ora	-10803
rep	-10804
uds	-10805
▁nh	-10806
acom	-10807
asha	-10808
bage	-10809
dles	-10810
ikes	-10811
long	-10812
rane	-10813
uate	-10814
udes	-10815
▁190	-10816
▁240	-10817
▁360	-10818
▁ace	-10819
▁asc	-10820
▁bmw	-10821
▁cac	-10822
▁cec	-10823
▁enl	-10824
▁kph	-10825
▁lau	-10826
▁lig	-10827
▁por	-10828
▁soy	-10829
▁une	-10830
acute	-10831
adona	-10832
ascus	-10833
berts	-10834
eding	-10835
harto	-10836
imore	-10837
iques	-10838
mandu	-10839
ratic	-10840
round	-10841
unken	-10842
▁anna	-10843
▁aver	-10844
▁balt	-10845
▁bloc	-10846
▁bros	-10847
▁bund	-10848
▁dell	-10849
▁dili	-10850
▁flav	-10851
▁furn	-10852
▁gary	-10853
▁hend	-10854
▁horn	-10855
▁ment	-10856
▁mikh	-10857
▁mwai	-10858
▁olds	-10859
▁perm	-10860
▁sacr	-10861
▁seiz	-10862
▁snip	-10863
▁spin	-10864
▁thri	-10865
charts	-10866
inging	-10867
istice	-10868
neider	-10869
riests	-10870
strong	-10871
urance	-10872
▁boliv	-10873
▁boris	-10874
▁chant	-10875
▁delic	-10876
▁digit	-10877
▁downs	-10878
▁gifts	-10879
▁grabs	-10880
▁honda	-10881
▁inhab	-10882
▁lunar	-10883
▁osaka	-10884
▁outsp	-10885
▁rogge	-10886
▁rouge	-10887
▁santi	-10888
▁shall	-10889
▁sheep	-10890
▁silva	-10891
▁slide	-10892
▁spate	-10893
▁tally	-10894
▁tumor	-10895
▁ultra	-10896
▁venus	-10897
▁wells	-10898
▁zhang	-10899
▁arthur	-10900
▁booked	-10901
▁breath	-10902
▁brings	-10903
▁compos	-10904
▁crying	-10905
▁dispos	-10906
▁farmer	-10907
▁forbid	-10908
▁hatred	-10909
▁havana	-10910
▁hawass	-10911
▁horses	-10912
▁ismail	-10913
▁leaked	-10914
▁mattel	-10915
▁merely	-10916
▁misdem	-10917
▁multim	-10918
▁permit	-10919
▁poised	-10920
▁priest	-10921
▁rugged	-10922
▁sculpt	-10923
▁speaks	-10924
▁sprint	-10925
▁strait	-10926
▁tenure	-10927
▁throat	-10928
▁trophy	-10929
▁walker	-10930
▁alerted	-10931
▁aspects	-10932
▁belongs	-10933
▁beloved	-10934
▁bizarre	-10935
▁bolster	-10936
▁bonuses	-10937
▁boosted	-10938
▁bridges	-10939
▁bullets	-10940
▁compass	-10941
▁debates	-10942
▁enthusi	-10943
▁equally	-10944
▁ethical	-10945
▁expense	-10946
▁falluja	-10947
▁farming	-10948
▁filling	-10949
▁forever	-10950
▁genuine	-10951
▁glacier	-10952
▁guarded	-10953
▁holders	-10954
▁hunters	-10955
▁iceland	-10956
▁laurean	-10957
▁lincoln	-10958
▁midwest	-10959
▁migrant	-10960
▁mikhail	-10961
▁monkeys	-10962
▁precise	-10963
▁relaxed	-10964
▁sincere	-10965
▁smiling	-10966
▁somehow	-10967
▁sounded	-10968
▁springs	-10969
▁unconsc	-10970
▁woolmer	-10971
abilities	-10972
intendent	-10973
▁academic	-10974
▁awaiting	-10975
▁basement	-10976
▁brothels	-10977
▁certific	-10978
▁cheering	-10979
▁christie	-10980
▁collided	-10981
▁damascus	-10982
▁destruct	-10983
▁disabled	-10984
▁earliest	-10985
▁farewell	-10986
▁fortress	-10987
▁highways	-10988
▁incorpor	-10989
▁infantry	-10990
▁interfax	-10991
▁iranians	-10992
▁laureate	-10993
▁maradona	-10994
▁opinions	-10995
▁ordering	-10996
▁phillies	-10997
▁phillips	-10998
▁portable	-10999
▁profound	-11000
▁relevant	-11001
▁reunited	-11002
▁sections	-11003
▁shifting	-11004
▁shocking	-11005
▁undermin	-11006
▁watchers	-11007
▁wildfire	-11008
▁armistice	-11009
▁cambodian	-11010
▁chemicals	-11011
▁converted	-11012
▁displayed	-11013
▁elephants	-11014
▁embassies	-11015
▁embattled	-11016
▁forecasts	-11017
▁governors	-11018
▁headlines	-11019
▁inaugural	-11020
▁milestone	-11021
▁schneider	-11022
▁videotape	-11023
▁weakening	-11024
▁aftershock	-11025
▁allegation	-11026
▁atrocities	-11027
▁bodyguards	-11028
▁homosexual	-11029
▁incredibly	-11030
▁mechanical	-11031
▁nationally	-11032
▁pakistanis	-11033
▁prefecture	-11034
▁subsidiary	-11035
▁controlling	-11036
▁countryside	-11037
▁essentially	-11038
▁explanation	-11039
▁improvement	-11040
▁progressive	-11041
▁projections	-11042
▁confidential	-11043
▁considerable	-11044
▁counterparts	-11045
▁establishing	-11046
▁independents	-11047
▁participated	-11048
▁prescription	-11049
▁presentation	-11050
▁unsuccessful	-11051
▁independently	-11052
▁meteorological	-11053
▁superintendent	-11054
▁internationally	-11055
fa	-11056
fp	-11057
gb	-11058
tr	-11059
bro	-11060
die	-11061
gro	-11062
kov	-11063
ook	-11064
oum	-11065
reb	-11066
soo	-11067
uki	-11068
▁(0	-11069
▁(9	-11070
▁hd	-11071
▁kt	-11072
▁lp	-11073
▁nk	-11074
aver	-11075
bish	-11076
eled	-11077
gets	-11078
inch	-11079
irst	-11080
nett	-11081
opes	-11082
osis	-11083
rard	-11084
real	-11085
royo	-11086
thal	-11087
▁210	-11088
▁bbk	-11089
▁bub	-11090
▁eta	-11091
▁lam	-11092
▁sie	-11093
court	-11094
croft	-11095
ested	-11096
iband	-11097
irect	-11098
iture	-11099
rates	-11100
▁apec	-11101
▁belt	-11102
▁bulg	-11103
▁carn	-11104
▁cens	-11105
▁cock	-11106
▁deem	-11107
▁dual	-11108
▁gust	-11109
▁hail	-11110
▁imus	-11111
▁ipod	-11112
▁lets	-11113
▁mend	-11114
▁nasr	-11115
▁neil	-11116
▁nude	-11117
▁pond	-11118
▁seaf	-11119
▁skid	-11120
▁stev	-11121
▁tail	-11122
▁tone	-11123
amento	-11124
arette	-11125
arming	-11126
asions	-11127
cheong	-11128
cliffe	-11129
ellick	-11130
holder	-11131
itched	-11132
runner	-11133
ulsion	-11134
▁admit	-11135
▁aston	-11136
▁audit	-11137
▁barak	-11138
▁buyer	-11139
▁caret	-11140
▁coord	-11141
▁dimin	-11142
▁dirty	-11143
▁eased	-11144
▁fidel	-11145
▁henri	-11146
▁idaho	-11147
▁innov	-11148
▁insoo	-11149
▁jamie	-11150
▁karen	-11151
▁khmer	-11152
▁kospi	-11153
▁laura	-11154
▁minne	-11155
▁mouse	-11156
▁mummy	-11157
▁neuro	-11158
▁pills	-11159
▁prosp	-11160
▁recep	-11161
▁ridic	-11162
▁sends	-11163
▁smell	-11164
▁squid	-11165
▁sugar	-11166
▁tamil	-11167
▁tapes	-11168
▁tense	-11169
▁twins	-11170
▁undec	-11171
▁whist	-11172
▁wives	-11173
▁alfred	-11174
▁anyway	-11175
▁arroyo	-11176
▁assume	-11177
▁authen	-11178
▁chocol	-11179
▁cloned	-11180
▁fossil	-11181
▁hadley	-11182
▁harass	-11183
▁harper	-11184
▁honors	-11185
▁inflam	-11186
▁ingred	-11187
▁minist	-11188
▁newest	-11189
▁nonpro	-11190
▁pandas	-11191
▁qassam	-11192
▁qualif	-11193
▁raises	-11194
▁rocked	-11195
▁sharia	-11196
▁sooner	-11197
▁stockp	-11198
▁viacom	-11199
▁walter	-11200
▁acquire	-11201
▁answers	-11202
▁armored	-11203
▁avoided	-11204
▁bearing	-11205
▁cameron	-11206
▁cooking	-11207
▁cricket	-11208
▁crystal	-11209
▁deposed	-11210
▁distant	-11211
▁drunken	-11212
▁enhance	-11213
▁estonia	-11214
▁fallout	-11215
▁fatally	-11216
▁hormone	-11217
▁jeffrey	-11218
▁jeopard	-11219
▁karbala	-11220
▁kenyans	-11221
▁muqtada	-11222
▁pattern	-11223
▁priests	-11224
▁richest	-11225
▁sailing	-11226
▁screens	-11227
▁seasons	-11228
▁slogans	-11229
▁staging	-11230
▁stomach	-11231
▁thermal	-11232
▁toddler	-11233
▁toppled	-11234
▁travels	-11235
▁yankees	-11236
▁advisory	-11237
▁ambushed	-11238
▁autonomy	-11239
▁breeding	-11240
▁churches	-11241
▁clearing	-11242
▁compiled	-11243
▁contacts	-11244
▁contrary	-11245
▁credited	-11246
▁crushing	-11247
▁decisive	-11248
▁declines	-11249
▁divorced	-11250
▁eventual	-11251
▁faithful	-11252
▁harrison	-11253
▁migrants	-11254
▁offshore	-11255
▁santiago	-11256
▁sometime	-11257
▁stripped	-11258
▁tomatoes	-11259
▁tortured	-11260
▁zoellick	-11261
▁affecting	-11262
▁baltimore	-11263
▁belonging	-11264
▁bulgarian	-11265
▁cigarette	-11266
▁detective	-11267
▁dictators	-11268
▁extremism	-11269
▁innocence	-11270
▁insisting	-11271
▁lightning	-11272
▁marriages	-11273
▁objective	-11274
▁permitted	-11275
▁radcliffe	-11276
▁restraint	-11277
▁satisfied	-11278
▁subsidies	-11279
▁taxpayers	-11280
▁unchanged	-11281
▁condemning	-11282
▁consulting	-11283
▁contingent	-11284
▁explaining	-11285
▁healthcare	-11286
▁heightened	-11287
▁highlights	-11288
▁nominating	-11289
▁organizing	-11290
▁sacramento	-11291
▁celebration	-11292
▁contentious	-11293
▁demonstrate	-11294
▁identifying	-11295
▁minneapolis	-11296
▁nationalist	-11297
▁specialists	-11298
▁voluntarily	-11299
▁concentrated	-11300
▁coordination	-11301
▁deliberately	-11302
▁intellectual	-11303
▁administrator	-11304
▁conversations	-11305
▁reunification	-11306
▁identification	-11307
▁representation	-11308
25	-11309
40	-11310
bn	-11311
afe	-11312
auc	-11313
boy	-11314
eon	-11315
fta	-11316
iju	-11317
ika	-11318
lie	-11319
lyn	-11320
oro	-11321
ouf	-11322
ulf	-11323
wed	-11324
xon	-11325
▁bp	-11326
▁cm	-11327
▁iw	-11328
cell	-11329
flow	-11330
ipei	-11331
loyd	-11332
omon	-11333
onga	-11334
oped	-11335
rary	-11336
star	-11337
walk	-11338
witt	-11339
yard	-11340
▁(12	-11341
▁225	-11342
▁bip	-11343
▁ced	-11344
▁dup	-11345
▁fog	-11346
▁gps	-11347
▁hae	-11348
▁kor	-11349
▁kye	-11350
▁liu	-11351
▁pcs	-11352
▁qat	-11353
▁sla	-11354
▁sne	-11355
▁sup	-11356
▁tat	-11357
▁tok	-11358
▁wan	-11359
acles	-11360
asser	-11361
athan	-11362
eline	-11363
eston	-11364
hetic	-11365
ilton	-11366
olics	-11367
oulos	-11368
oying	-11369
raham	-11370
uther	-11371
▁abst	-11372
▁clip	-11373
▁duke	-11374
▁ears	-11375
▁encl	-11376
▁hawk	-11377
▁lawn	-11378
▁lpga	-11379
▁lump	-11380
▁mccl	-11381
▁menu	-11382
▁nash	-11383
▁pave	-11384
▁penn	-11385
▁pipe	-11386
▁pont	-11387
▁quad	-11388
▁quot	-11389
▁rats	-11390
▁refr	-11391
▁rico	-11392
▁rift	-11393
▁sits	-11394
▁stap	-11395
▁sult	-11396
▁sund	-11397
▁tian	-11398
▁ugly	-11399
▁vanc	-11400
▁yale	-11401
bridge	-11402
estyle	-11403
▁absor	-11404
▁alien	-11405
▁backs	-11406
▁bible	-11407
▁billy	-11408
▁blunt	-11409
▁bobby	-11410
▁couch	-11411
▁datab	-11412
▁depri	-11413
▁dwind	-11414
▁erect	-11415
▁fence	-11416
▁forty	-11417
▁holed	-11418
▁irrit	-11419
▁jason	-11420
▁knock	-11421
▁lhasa	-11422
▁marin	-11423
▁masri	-11424
▁prodi	-11425
▁raila	-11426
▁rehab	-11427
▁sachs	-11428
▁scrat	-11429
▁snake	-11430
▁theat	-11431
▁topic	-11432
▁unite	-11433
▁vault	-11434
▁waved	-11435
▁wield	-11436
▁youss	-11437
instein	-11438
intendo	-11439
naments	-11440
roponte	-11441
▁abrupt	-11442
▁ailing	-11443
▁barely	-11444
▁brands	-11445
▁cheers	-11446
▁colony	-11447
▁elders	-11448
▁emerge	-11449
▁gloria	-11450
▁immune	-11451
▁inland	-11452
▁labour	-11453
▁ledger	-11454
▁lennon	-11455
▁midday	-11456
▁multin	-11457
▁neglig	-11458
▁nurses	-11459
▁obtain	-11460
▁parole	-11461
▁plains	-11462
▁portra	-11463
▁priced	-11464
▁rashid	-11465
▁richie	-11466
▁riders	-11467
▁sharon	-11468
▁streak	-11469
▁superb	-11470
▁taipei	-11471
▁timing	-11472
▁venice	-11473
▁washed	-11474
▁wholes	-11475
function	-11476
▁abolish	-11477
▁accuses	-11478
▁besides	-11479
▁bidding	-11480
▁blaming	-11481
▁blatter	-11482
▁ceiling	-11483
▁collins	-11484
▁colonel	-11485
▁coroner	-11486
▁defined	-11487
▁delight	-11488
▁denying	-11489
▁graphic	-11490
▁hamburg	-11491
▁handgun	-11492
▁illicit	-11493
▁jewelry	-11494
▁kitchen	-11495
▁labeled	-11496
▁laptops	-11497
▁magistr	-11498
▁millenn	-11499
▁monster	-11500
▁muscles	-11501
▁protein	-11502
▁quartet	-11503
▁ravaged	-11504
▁roberts	-11505
▁romania	-11506
▁slavery	-11507
▁suharto	-11508
aceutical	-11509
▁advances	-11510
▁alleging	-11511
▁casualty	-11512
▁conceded	-11513
▁counting	-11514
▁destabil	-11515
▁educated	-11516
▁examined	-11517
▁explorer	-11518
▁gambling	-11519
▁gorillas	-11520
▁guardian	-11521
▁hardware	-11522
▁hopefuls	-11523
▁informal	-11524
▁levinson	-11525
▁lowering	-11526
▁nintendo	-11527
▁polaroid	-11528
▁promoted	-11529
▁relieved	-11530
▁restrict	-11531
▁showdown	-11532
▁steadily	-11533
▁strained	-11534
▁uniforms	-11535
▁weighing	-11536
▁addiction	-11537
▁addresses	-11538
▁annapolis	-11539
▁automatic	-11540
▁bodyguard	-11541
▁caretaker	-11542
▁chocolate	-11543
▁component	-11544
▁container	-11545
▁designers	-11546
▁favorites	-11547
▁federline	-11548
▁franchise	-11549
▁gradually	-11550
▁greenspan	-11551
▁guatemala	-11552
▁junichiro	-11553
▁oversight	-11554
▁prospects	-11555
▁rejection	-11556
▁stalinist	-11557
▁undecided	-11558
▁attractive	-11559
▁commanding	-11560
▁definition	-11561
▁fitzgerald	-11562
▁identities	-11563
▁ministries	-11564
▁negroponte	-11565
▁overweight	-11566
▁patrolling	-11567
▁priorities	-11568
▁properties	-11569
▁regulation	-11570
▁substitute	-11571
▁successive	-11572
▁tremendous	-11573
▁australians	-11574
▁campaigners	-11575
▁experiences	-11576
▁exploration	-11577
▁generations	-11578
▁provocative	-11579
▁supervision	-11580
▁uncertainty	-11581
▁unconscious	-11582
▁understands	-11583
▁accompanying	-11584
▁arrangements	-11585
▁condemnation	-11586
▁contaminated	-11587
▁economically	-11588
▁introduction	-11589
▁strengthened	-11590
▁transmission	-11591
▁installations	-11592
▁multinational	-11593
▁psychological	-11594
▁discrimination	-11595
▁pharmaceutical	-11596
eo	-11597
ih	-11598
aut	-11599
aya	-11600
bee	-11601
eme	-11602
iah	-11603
lel	-11604
lem	-11605
map	-11606
oka	-11607
rek	-11608
rin	-11609
▁um	-11610
▁yo	-11611
aria	-11612
avia	-11613
erts	-11614
ffen	-11615
hift	-11616
hill	-11617
holm	-11618
oken	-11619
ollo	-11620
ouds	-11621
qawi	-11622
week	-11623
will	-11624
▁115	-11625
▁fay	-11626
▁gam	-11627
▁goh	-11628
▁hag	-11629
▁hak	-11630
▁jos	-11631
▁kin	-11632
▁muk	-11633
▁pas	-11634
▁rib	-11635
▁sox	-11636
▁sta	-11637
▁wii	-11638
aires	-11639
amine	-11640
arcia	-11641
arest	-11642
atisf	-11643
aults	-11644
bound	-11645
elrod	-11646
inter	-11647
keley	-11648
lying	-11649
naiss	-11650
power	-11651
worth	-11652
▁1910	-11653
▁1949	-11654
▁bump	-11655
▁cove	-11656
▁dave	-11657
▁exem	-11658
▁fasc	-11659
▁fold	-11660
▁godd	-11661
▁graz	-11662
▁hank	-11663
▁hein	-11664
▁hire	-11665
▁jaze	-11666
▁lith	-11667
▁logo	-11668
▁lugg	-11669
▁musa	-11670
▁obsc	-11671
▁pigs	-11672
▁plun	-11673
▁till	-11674
▁tosh	-11675
▁tyco	-11676
▁unst	-11677
▁zanu	-11678
arized	-11679
charge	-11680
chenko	-11681
erable	-11682
infeld	-11683
itudes	-11684
oultry	-11685
points	-11686
ranean	-11687
ucking	-11688
vering	-11689
▁adams	-11690
▁artif	-11691
▁atlet	-11692
▁baker	-11693
▁biden	-11694
▁blown	-11695
▁bould	-11696
▁brink	-11697
▁brush	-11698
▁chuck	-11699
▁clips	-11700
▁debts	-11701
▁excav	-11702
▁excer	-11703
▁fails	-11704
▁foley	-11705
▁fract	-11706
▁fried	-11707
▁fruit	-11708
▁hicks	-11709
▁keith	-11710
▁leone	-11711
▁lucas	-11712
▁males	-11713
▁melan	-11714
▁misle	-11715
▁noise	-11716
▁piano	-11717
▁rated	-11718
▁risky	-11719
▁saint	-11720
▁scuff	-11721
▁semin	-11722
▁smile	-11723
▁spare	-11724
▁stole	-11725
▁tires	-11726
▁tooth	-11727
▁torre	-11728
▁trace	-11729
▁tribe	-11730
▁uncle	-11731
charged	-11732
ionally	-11733
▁agrees	-11734
▁apollo	-11735
▁avenue	-11736
▁battal	-11737
▁brains	-11738
▁breast	-11739
▁cables	-11740
▁claren	-11741
▁clouds	-11742
▁colors	-11743
▁cousin	-11744
▁decree	-11745
▁denial	-11746
▁errors	-11747
▁fixing	-11748
▁garcia	-11749
▁grammy	-11750
▁graves	-11751
▁habits	-11752
▁hazard	-11753
▁hispan	-11754
▁lineup	-11755
▁makeup	-11756
▁novels	-11757
▁oxford	-11758
▁pediat	-11759
▁philos	-11760
▁poured	-11761
▁rifles	-11762
▁rubber	-11763
▁sacked	-11764
▁serena	-11765
▁shadow	-11766
▁surrog	-11767
▁trader	-11768
▁unspec	-11769
▁upheld	-11770
▁wheels	-11771
rendered	-11772
▁axelrod	-11773
▁backers	-11774
▁balloon	-11775
▁chasing	-11776
▁chilean	-11777
▁croatia	-11778
▁devoted	-11779
▁drought	-11780
▁emanuel	-11781
▁embryos	-11782
▁fiction	-11783
▁fitness	-11784
▁fragile	-11785
▁greatly	-11786
▁griffin	-11787
▁harmony	-11788
▁helpful	-11789
▁himalay	-11790
▁jazeera	-11791
▁kashmir	-11792
▁lindsay	-11793
▁luggage	-11794
▁opposes	-11795
▁organic	-11796
▁painted	-11797
▁pledges	-11798
▁poultry	-11799
▁qualify	-11800
▁quarant	-11801
▁readers	-11802
▁rioters	-11803
▁rioting	-11804
▁seafood	-11805
▁slowing	-11806
▁slumped	-11807
▁smokers	-11808
▁tainted	-11809
▁terrain	-11810
▁tumbled	-11811
▁unaware	-11812
▁youssif	-11813
▁zarqawi	-11814
astically	-11815
naissance	-11816
▁accurate	-11817
▁articles	-11818
▁balanced	-11819
▁berkeley	-11820
▁boosting	-11821
▁carriers	-11822
▁comedian	-11823
▁commands	-11824
▁commonwe	-11825
▁darkness	-11826
▁ethiopia	-11827
▁examiner	-11828
▁finances	-11829
▁ignoring	-11830
▁lobbying	-11831
▁miliband	-11832
▁packages	-11833
▁premiere	-11834
▁presumed	-11835
▁reactors	-11836
▁reckless	-11837
▁respects	-11838
▁sanction	-11839
▁scottish	-11840
▁scrutiny	-11841
▁sparking	-11842
▁strapped	-11843
▁suicides	-11844
▁sympathy	-11845
▁trailing	-11846
▁volcanic	-11847
istrations	-11848
▁accounted	-11849
▁advertise	-11850
▁apologies	-11851
▁armstrong	-11852
▁assertion	-11853
▁broadband	-11854
▁catholics	-11855
▁commuters	-11856
▁contempor	-11857
▁cosmonaut	-11858
▁exchanged	-11859
▁exporters	-11860
▁fantastic	-11861
▁filmmaker	-11862
▁immigrant	-11863
▁kathmandu	-11864
▁literally	-11865
▁makeshift	-11866
▁outbreaks	-11867
▁overthrow	-11868
▁paralyzed	-11869
▁passports	-11870
▁practical	-11871
▁publicity	-11872
▁reception	-11873
▁recycling	-11874
▁shoulders	-11875
▁textbooks	-11876
▁underwear	-11877
▁affordable	-11878
▁associates	-11879
▁autonomous	-11880
▁collecting	-11881
▁committing	-11882
▁escalating	-11883
▁evaluation	-11884
▁interstate	-11885
▁millennium	-11886
▁procession	-11887
▁remembered	-11888
▁substances	-11889
▁triggering	-11890
▁vietnamese	-11891
▁acquisition	-11892
▁congressman	-11893
▁frontrunner	-11894
▁misdemeanor	-11895
▁observation	-11896
▁observatory	-11897
▁playstation	-11898
▁programming	-11899
▁separatists	-11900
▁surrendered	-11901
▁unspecified	-11902
▁accidentally	-11903
▁commissioned	-11904
▁manufactured	-11905
▁photographed	-11906
▁requirements	-11907
▁investigative	-11908
▁disappointment	-11909
11	-11910
jj	-11911
vy	-11912
abs	-11913
afa	-11914
arn	-11915
ecd	-11916
ete	-11917
irm	-11918
jas	-11919
tha	-11920
tun	-11921
ulu	-11922
vic	-11923
yar	-11924
▁ng	-11925
▁rw	-11926
anna	-11927
anns	-11928
arer	-11929
arms	-11930
cies	-11931
dong	-11932
fuel	-11933
hire	-11934
iega	-11935
ivan	-11936
kind	-11937
lied	-11938
note	-11939
omed	-11940
ongs	-11941
sons	-11942
ture	-11943
utor	-11944
vent	-11945
▁230	-11946
▁550	-11947
▁850	-11948
▁aar	-11949
▁ail	-11950
▁bai	-11951
▁bok	-11952
▁ian	-11953
▁ine	-11954
▁jal	-11955
▁koo	-11956
▁lak	-11957
▁lap	-11958
▁org	-11959
▁oss	-11960
▁rhy	-11961
▁sou	-11962
▁tap	-11963
▁tik	-11964
▁von	-11965
▁wai	-11966
▁xia	-11967
▁zeb	-11968
acher	-11969
andro	-11970
berra	-11971
ifies	-11972
inery	-11973
onian	-11974
ossip	-11975
rogen	-11976
▁1965	-11977
▁1985	-11978
▁2050	-11979
▁bald	-11980
▁bicy	-11981
▁bore	-11982
▁chop	-11983
▁clad	-11984
▁deck	-11985
▁ferr	-11986
▁gent	-11987
▁glob	-11988
▁greg	-11989
▁grip	-11990
▁haul	-11991
▁hect	-11992
▁hsbc	-11993
▁irre	-11994
▁jean	-11995
▁kiev	-11996
▁lesb	-11997
▁lure	-11998
▁mast	-11999
▁narc	-12000
▁neal	-12001
▁oust	-12002
▁pile	-12003
▁proc	-12004
▁refe	-12005
▁sook	-12006
atross	-12007
bright	-12008
castle	-12009
graded	-12010
iginal	-12011
inchum	-12012
onduct	-12013
onnell	-12014
orsese	-12015
osaurs	-12016
phones	-12017
prints	-12018
ptions	-12019
rative	-12020
thouse	-12021
vation	-12022
▁alter	-12023
▁bands	-12024
▁blake	-12025
▁cafes	-12026
▁cheer	-12027
▁cruel	-12028
▁demol	-12029
▁devil	-12030
▁diane	-12031
▁discs	-12032
▁disgu	-12033
▁edged	-12034
▁exxon	-12035
▁fiery	-12036
▁flour	-12037
▁hards	-12038
▁jimmy	-12039
▁juven	-12040
▁kicks	-12041
▁klein	-12042
▁lover	-12043
▁mates	-12044
▁muham	-12045
▁perce	-12046
▁portr	-12047
▁scope	-12048
▁serbs	-12049
▁siege	-12050
▁stunt	-12051
▁subsc	-12052
▁swear	-12053
▁teleg	-12054
▁turks	-12055
▁ashley	-12056
▁barric	-12057
▁blames	-12058
▁butler	-12059
▁bypass	-12060
▁calend	-12061
▁chased	-12062
▁clarke	-12063
▁confed	-12064
▁dealer	-12065
▁domain	-12066
▁echoed	-12067
▁enable	-12068
▁facial	-12069
▁filmed	-12070
▁gossip	-12071
▁hammer	-12072
▁hardly	-12073
▁incomp	-12074
▁inject	-12075
▁inning	-12076
▁inspir	-12077
▁intact	-12078
▁itunes	-12079
▁jurors	-12080
▁laying	-12081
▁lender	-12082
▁lethal	-12083
▁mailed	-12084
▁parach	-12085
▁plunge	-12086
▁pocket	-12087
▁polled	-12088
▁proven	-12089
▁rahman	-12090
▁retain	-12091
▁snakes	-12092
▁stalem	-12093
▁strife	-12094
▁talent	-12095
▁tipped	-12096
▁toured	-12097
▁towers	-12098
▁turner	-12099
▁tycoon	-12100
▁valent	-12101
▁valued	-12102
uterbach	-12103
▁abraham	-12104
▁advisor	-12105
▁algeria	-12106
▁applaud	-12107
▁awaited	-12108
▁biofuel	-12109
▁briefed	-12110
▁captive	-12111
▁categor	-12112
▁cecilia	-12113
▁confisc	-12114
▁cracked	-12115
▁creator	-12116
▁dangers	-12117
▁dumping	-12118
▁expires	-12119
▁gallery	-12120
▁gallons	-12121
▁germans	-12122
▁gerrard	-12123
▁linking	-12124
▁mccanns	-12125
▁mediter	-12126
▁noriega	-12127
▁partial	-12128
▁persian	-12129
▁poorest	-12130
▁pounded	-12131
▁propose	-12132
▁prototy	-12133
▁rangers	-12134
▁recount	-12135
▁refrain	-12136
▁reminis	-12137
▁replied	-12138
▁reviews	-12139
▁rounded	-12140
▁shiites	-12141
▁shipped	-12142
▁singles	-12143
▁sinking	-12144
▁sisters	-12145
▁studded	-12146
▁surging	-12147
▁tighter	-12148
▁torrent	-12149
▁wheelch	-12150
▁wyoming	-12151
▁angelina	-12152
▁applause	-12153
▁atletico	-12154
▁blankets	-12155
▁blocking	-12156
▁canberra	-12157
▁chanting	-12158
▁clarence	-12159
▁commuter	-12160
▁database	-12161
▁daylight	-12162
▁dementia	-12163
▁departed	-12164
▁disposal	-12165
▁dominant	-12166
▁flinchum	-12167
▁inconven	-12168
▁misunder	-12169
▁observed	-12170
▁painting	-12171
▁presents	-12172
▁rankings	-12173
▁revenues	-12174
▁scorsese	-12175
▁shipment	-12176
▁speeding	-12177
▁staffers	-12178
▁stealing	-12179
▁stemming	-12180
▁whenever	-12181
▁albanians	-12182
▁albatross	-12183
▁appealing	-12184
▁childhood	-12185
▁classroom	-12186
▁contender	-12187
▁criticize	-12188
▁dinosaurs	-12189
▁dominican	-12190
▁exercises	-12191
▁fertility	-12192
▁informant	-12193
▁investing	-12194
▁measuring	-12195
▁naturally	-12196
▁newcastle	-12197
▁nonprofit	-12198
▁partially	-12199
▁physician	-12200
▁preserved	-12201
▁providers	-12202
▁quarterly	-12203
▁screaming	-12204
▁sidelines	-12205
▁stretched	-12206
▁workforce	-12207
▁abandoning	-12208
▁aboriginal	-12209
▁accidental	-12210
▁attendance	-12211
▁campaigned	-12212
▁categories	-12213
▁collapsing	-12214
▁completing	-12215
▁discharged	-12216
▁efficiency	-12217
▁expressing	-12218
▁frustrated	-12219
▁infections	-12220
▁persistent	-12221
▁prohibited	-12222
▁purchasing	-12223
▁regulatory	-12224
▁solidarity	-12225
▁structures	-12226
▁techniques	-12227
▁understood	-12228
▁zimbabwean	-12229
▁attractions	-12230
▁chungcheong	-12231
▁departments	-12232
▁discoveries	-12233
▁enterprises	-12234
▁indications	-12235
▁intelligent	-12236
▁necessarily	-12237
▁transaction	-12238
▁unfortunate	-12239
▁commonwealth	-12240
▁conglomerate	-12241
▁psychologist	-12242
▁significance	-12243
▁verification	-12244
▁establishment	-12245
▁mediterranean	-12246
cs	-12247
fr	-12248
kt	-12249
mz	-12250
tz	-12251
aby	-12252
ali	-12253
aza	-12254
gie	-12255
ido	-12256
iov	-12257
lee	-12258
lex	-12259
log	-12260
mat	-12261
oos	-12262
rio	-12263
▁gw	-12264
▁jp	-12265
▁kw	-12266
▁ny	-12267
echn	-12268
eine	-12269
erie	-12270
eter	-12271
idal	-12272
imon	-12273
iora	-12274
mund	-12275
omet	-12276
ompl	-12277
pace	-12278
quet	-12279
town	-12280
uket	-12281
vals	-12282
what	-12283
wing	-12284
▁112	-12285
▁155	-12286
▁165	-12287
▁186	-12288
▁cob	-12289
▁eag	-12290
▁gem	-12291
▁idf	-12292
▁kad	-12293
▁ltd	-12294
▁mcl	-12295
▁mul	-12296
▁nts	-12297
▁piz	-12298
▁pon	-12299
▁rak	-12300
▁ros	-12301
▁shy	-12302
▁sue	-12303
▁suz	-12304
▁ufo	-12305
▁yun	-12306
acent	-12307
agged	-12308
andra	-12309
dling	-12310
ether	-12311
ggers	-12312
henko	-12313
incts	-12314
itous	-12315
olene	-12316
olese	-12317
organ	-12318
tingu	-12319
uable	-12320
ukuni	-12321
uties	-12322
ystem	-12323
▁1930	-12324
▁1964	-12325
▁1983	-12326
▁bent	-12327
▁buck	-12328
▁cage	-12329
▁cope	-12330
▁davy	-12331
▁dish	-12332
▁djok	-12333
▁enab	-12334
▁fing	-12335
▁glad	-12336
▁hood	-12337
▁hump	-12338
▁inev	-12339
▁jang	-12340
▁joel	-12341
▁leaf	-12342
▁math	-12343
▁plug	-12344
▁rear	-12345
▁rudy	-12346
▁saud	-12347
▁scam	-12348
▁shen	-12349
▁shwe	-12350
▁tran	-12351
▁trek	-12352
▁unse	-12353
▁vick	-12354
▁wend	-12355
author	-12356
bachev	-12357
contin	-12358
estine	-12359
incing	-12360
inness	-12361
irable	-12362
ospace	-12363
pering	-12364
planes	-12365
preter	-12366
▁accum	-12367
▁acute	-12368
▁alloc	-12369
▁ayman	-12370
▁backl	-12371
▁basin	-12372
▁boast	-12373
▁bulld	-12374
▁bunch	-12375
▁coins	-12376
▁draws	-12377
▁emper	-12378
▁gibbs	-12379
▁hutch	-12380
▁julia	-12381
▁kumar	-12382
▁leung	-12383
▁liked	-12384
▁limbs	-12385
▁maneu	-12386
▁redep	-12387
▁reset	-12388
▁rogue	-12389
▁roofs	-12390
▁scare	-12391
▁steam	-12392
▁sting	-12393
▁unlaw	-12394
▁unoff	-12395
▁vista	-12396
▁waged	-12397
▁wiped	-12398
▁zheng	-12399
sterdam	-12400
▁antiqu	-12401
▁argues	-12402
▁basque	-12403
▁bipart	-12404
▁bogota	-12405
▁bronze	-12406
▁chapel	-12407
▁drives	-12408
▁eacute	-12409
▁eleven	-12410
▁engulf	-12411
▁enters	-12412
▁flower	-12413
▁forens	-12414
▁forgot	-12415
▁haniya	-12416
▁harmed	-12417
▁hugely	-12418
▁ingrid	-12419
▁lander	-12420
▁libert	-12421
▁lyrics	-12422
▁marred	-12423
▁maurit	-12424
▁medium	-12425
▁mullah	-12426
▁munich	-12427
▁phuket	-12428
▁pistol	-12429
▁plates	-12430
▁robust	-12431
▁salary	-12432
▁torres	-12433
▁truman	-12434
▁unbeat	-12435
▁uncond	-12436
▁weaker	-12437
▁winger	-12438
▁arabian	-12439
▁bicycle	-12440
▁blitzer	-12441
▁booming	-12442
▁bribery	-12443
▁britons	-12444
▁cholera	-12445
▁clinics	-12446
▁colombo	-12447
▁cycling	-12448
▁delinqu	-12449
▁demilit	-12450
▁embargo	-12451
▁extingu	-12452
▁favored	-12453
▁hurting	-12454
▁jamaica	-12455
▁jumping	-12456
▁keating	-12457
▁keynote	-12458
▁leaking	-12459
▁lessons	-12460
▁library	-12461
▁lottery	-12462
▁madison	-12463
▁mammals	-12464
▁massage	-12465
▁mounted	-12466
▁nursing	-12467
▁physics	-12468
▁privile	-12469
▁rampant	-12470
▁rattled	-12471
▁recalls	-12472
▁shields	-12473
▁snapped	-12474
▁solving	-12475
▁starred	-12476
▁steroid	-12477
▁storage	-12478
▁sumatra	-12479
▁symbols	-12480
▁technic	-12481
▁vincent	-12482
▁airliner	-12483
▁archives	-12484
▁arrivals	-12485
▁balloons	-12486
▁bloggers	-12487
▁caffeine	-12488
▁calendar	-12489
▁cameroon	-12490
▁catching	-12491
▁constitu	-12492
▁deported	-12493
▁deputies	-12494
▁disperse	-12495
▁distinct	-12496
▁diverted	-12497
▁djokovic	-12498
▁emotions	-12499
▁enduring	-12500
▁everyday	-12501
▁famously	-12502
▁freedoms	-12503
▁goodwill	-12504
▁hijacked	-12505
▁homicide	-12506
▁licensed	-12507
▁licenses	-12508
▁monaster	-12509
▁narrowly	-12510
▁notified	-12511
▁operates	-12512
▁orchestr	-12513
▁oriented	-12514
▁pancreat	-12515
▁perspect	-12516
▁peterson	-12517
▁promptly	-12518
▁regained	-12519
▁retained	-12520
▁retiring	-12521
▁retrieve	-12522
▁seasonal	-12523
▁secretly	-12524
▁segolene	-12525
▁signaled	-12526
▁supermar	-12527
▁surfaced	-12528
▁thriller	-12529
▁township	-12530
▁umbrella	-12531
▁unauthor	-12532
▁widening	-12533
▁yasukuni	-12534
▁achieving	-12535
▁advocates	-12536
▁aerospace	-12537
▁amsterdam	-12538
▁animation	-12539
▁authentic	-12540
▁congolese	-12541
▁contested	-12542
▁dependent	-12543
▁diversity	-12544
▁exploited	-12545
▁extremist	-12546
▁fireworks	-12547
▁furniture	-12548
▁gorbachev	-12549
▁justified	-12550
▁mcconnell	-12551
▁recruited	-12552
▁requiring	-12553
▁responses	-12554
▁routinely	-12555
▁supplying	-12556
▁trademark	-12557
▁warplanes	-12558
▁acceptance	-12559
▁blackwater	-12560
▁components	-12561
▁confirming	-12562
▁deliberate	-12563
▁eliminated	-12564
▁expression	-12565
▁filmmakers	-12566
▁instructed	-12567
▁intervened	-12568
▁lauterbach	-12569
▁mainstream	-12570
▁mysterious	-12571
▁profitable	-12572
▁recommends	-12573
▁scrambling	-12574
▁situations	-12575
▁blockbuster	-12576
▁contracting	-12577
▁disablement	-12578
▁evangelical	-12579
▁interpreter	-12580
▁medications	-12581
▁restoration	-12582
▁shareholder	-12583
▁suggestions	-12584
▁tournaments	-12585
▁transported	-12586
▁capabilities	-12587
▁contributing	-12588
▁improvements	-12589
▁multilateral	-12590
▁authorization	-12591
90	-12592
fi	-12593
hr	-12594
kh	-12595
vo	-12596
aha	-12597
anz	-12598
bin	-12599
box	-12600
hea	-12601
hof	-12602
ibu	-12603
jud	-12604
nie	-12605
nny	-12606
och	-12607
orf	-12608
rot	-12609
sef	-12610
tar	-12611
yer	-12612
zel	-12613
anni	-12614
ardi	-12615
comm	-12616
full	-12617
gang	-12618
jeon	-12619
keli	-12620
lett	-12621
mers	-12622
nity	-12623
othe	-12624
othy	-12625
phis	-12626
uala	-12627
urry	-12628
▁106	-12629
▁aus	-12630
▁boo	-12631
▁ces	-12632
▁cyn	-12633
▁gau	-12634
▁hoi	-12635
▁kom	-12636
▁nab	-12637
▁oun	-12638
▁pam	-12639
▁ree	-12640
▁rey	-12641
▁rim	-12642
▁rup	-12643
▁taj	-12644
▁yam	-12645
asses	-12646
ateur	-12647
cheon	-12648
encia	-12649
glary	-12650
icism	-12651
ieves	-12652
licit	-12653
parov	-12654
xiety	-12655
▁000)	-12656
▁1968	-12657
▁atop	-12658
▁bulk	-12659
▁cels	-12660
▁coat	-12661
▁coer	-12662
▁cort	-12663
▁cruz	-12664
▁dirt	-12665
▁dvds	-12666
▁folk	-12667
▁frog	-12668
▁glam	-12669
▁grat	-12670
▁helm	-12671
▁hoon	-12672
▁kamp	-12673
▁karl	-12674
▁karr	-12675
▁keys	-12676
▁liga	-12677
▁loya	-12678
▁lynn	-12679
▁lyon	-12680
▁maln	-12681
▁mode	-12682
▁nist	-12683
▁plag	-12684
▁qala	-12685
▁repr	-12686
▁ruth	-12687
▁samb	-12688
▁slay	-12689
▁slic	-12690
▁slot	-12691
▁soap	-12692
▁solo	-12693
▁tast	-12694
▁tina	-12695
▁tore	-12696
▁unav	-12697
▁vary	-12698
▁wond	-12699
abilia	-12700
abouts	-12701
ateful	-12702
elrooy	-12703
erving	-12704
mented	-12705
owners	-12706
reated	-12707
▁armen	-12708
▁array	-12709
▁bared	-12710
▁barks	-12711
▁batch	-12712
▁byeon	-12713
▁carla	-12714
▁cliff	-12715
▁cream	-12716
▁cycle	-12717
▁fatig	-12718
▁guilt	-12719
▁immun	-12720
▁ineff	-12721
▁jerem	-12722
▁krist	-12723
▁kuala	-12724
▁packs	-12725
▁plain	-12726
▁prone	-12727
▁rojas	-12728
▁sabot	-12729
▁seism	-12730
▁seize	-12731
▁shaft	-12732
▁spies	-12733
▁spree	-12734
▁stiff	-12735
▁tokto	-12736
▁twist	-12737
ensions	-12738
ivities	-12739
ortions	-12740
▁adjour	-12741
▁aiding	-12742
▁bryant	-12743
▁chains	-12744
▁charts	-12745
▁cultiv	-12746
▁deemed	-12747
▁dennis	-12748
▁dignit	-12749
▁floren	-12750
▁forbes	-12751
▁freely	-12752
▁gibson	-12753
▁intrig	-12754
▁invite	-12755
▁khalid	-12756
▁kidman	-12757
▁lovers	-12758
▁maoist	-12759
▁misman	-12760
▁nights	-12761
▁orphan	-12762
▁pedest	-12763
▁powder	-12764
▁prints	-12765
▁quotes	-12766
▁recess	-12767
▁roller	-12768
▁sacred	-12769
▁sailor	-12770
▁shrink	-12771
▁spying	-12772
▁superm	-12773
▁tikrit	-12774
▁traced	-12775
▁update	-12776
▁voices	-12777
▁watson	-12778
▁zapeta	-12779
osterone	-12780
▁accompl	-12781
▁anthrop	-12782
▁anxiety	-12783
▁anxious	-12784
▁baggage	-12785
▁bahrain	-12786
▁banning	-12787
▁battleg	-12788
▁benefic	-12789
▁biology	-12790
▁branson	-12791
▁breathe	-12792
▁bureauc	-12793
▁capello	-12794
▁celsius	-12795
▁centime	-12796
▁chadian	-12797
▁charred	-12798
▁chronic	-12799
▁cleaner	-12800
▁cooling	-12801
▁daejeon	-12802
▁deposit	-12803
▁digging	-12804
▁evasion	-12805
▁fantasy	-12806
▁garbage	-12807
▁gradual	-12808
▁immense	-12809
▁implant	-12810
▁leather	-12811
▁lecture	-12812
▁lesbian	-12813
▁liaison	-12814
▁looming	-12815
▁memphis	-12816
▁newborn	-12817
▁packing	-12818
▁patriot	-12819
▁pioneer	-12820
▁presley	-12821
▁preston	-12822
▁pullout	-12823
▁rebound	-12824
▁rigging	-12825
▁robotic	-12826
▁scholar	-12827
▁severed	-12828
▁swiftly	-12829
▁therapy	-12830
▁unhappy	-12831
▁walters	-12832
▁blessing	-12833
▁burglary	-12834
▁commonly	-12835
▁compatri	-12836
▁confined	-12837
▁crawford	-12838
▁dadullah	-12839
▁dealings	-12840
▁deutsche	-12841
▁download	-12842
▁equality	-12843
▁external	-12844
▁grateful	-12845
▁hampered	-12846
▁holdings	-12847
▁ideology	-12848
▁kasparov	-12849
▁landfall	-12850
▁outlined	-12851
▁outraged	-12852
▁oversees	-12853
▁pandemic	-12854
▁parallel	-12855
▁penguins	-12856
▁portrait	-12857
▁probable	-12858
▁recruits	-12859
▁redeploy	-12860
▁reliable	-12861
▁resisted	-12862
▁searches	-12863
▁sequence	-12864
▁sergeant	-12865
▁servants	-12866
▁somewhat	-12867
▁speakers	-12868
▁stricken	-12869
▁syndrome	-12870
▁taxpayer	-12871
▁thatcher	-12872
▁unbeaten	-12873
▁vaccines	-12874
▁valuable	-12875
▁verified	-12876
▁violates	-12877
▁worsened	-12878
▁boycotted	-12879
▁brutality	-12880
▁cardinals	-12881
▁coastline	-12882
▁defendant	-12883
▁descended	-12884
▁disgraced	-12885
▁exploring	-12886
▁exporting	-12887
▁illnesses	-12888
▁jefferson	-12889
▁lucrative	-12890
▁monitored	-12891
▁obtaining	-12892
▁paramount	-12893
▁philosoph	-12894
▁platforms	-12895
▁preferred	-12896
▁purchases	-12897
▁regulator	-12898
▁reprocess	-12899
▁seemingly	-12900
▁sightings	-12901
▁signature	-12902
▁stalemate	-12903
▁suppliers	-12904
▁acceptable	-12905
▁aggravated	-12906
▁ambulances	-12907
▁broadcasts	-12908
▁collective	-12909
▁deliveries	-12910
▁disclosure	-12911
▁disturbing	-12912
▁nistelrooy	-12913
▁objections	-12914
▁pancreatic	-12915
▁perception	-12916
▁queensland	-12917
▁reaffirmed	-12918
▁recruiting	-12919
▁ronaldinho	-12920
▁spectators	-12921
▁transcript	-12922
▁treatments	-12923
▁veterinary	-12924
▁approaching	-12925
▁checkpoints	-12926
▁destructive	-12927
▁frustration	-12928
▁humiliating	-12929
▁memorabilia	-12930
▁perspective	-12931
▁precautions	-12932
▁recruitment	-12933
▁substantive	-12934
▁supervisory	-12935
▁considerably	-12936
▁consistently	-12937
▁distributing	-12938
▁evolutionary	-12939
▁experiencing	-12940
▁interference	-12941
▁productivity	-12942
▁surprisingly	-12943
▁testosterone	-12944
▁unauthorized	-12945
▁veterinarian	-12946
▁acknowledging	-12947
▁collaboration	-12948
▁demilitarized	-12949
▁grandchildren	-12950
▁archaeological	-12951
▁recommendation	-12952
60	-12953
uh	-12954
yn	-12955
aws	-12956
col	-12957
ctv	-12958
ede	-12959
ere	-12960
fia	-12961
gio	-12962
iaz	-12963
nan	-12964
pat	-12965
rix	-12966
uca	-12967
urf	-12968
via	-12969
yeh	-12970
yon	-12971
▁cu	-12972
▁fu	-12973
▁nu	-12974
▁xp	-12975
anne	-12976
bane	-12977
beki	-12978
crib	-12979
esco	-12980
grad	-12981
horn	-12982
icap	-12983
illo	-12984
imat	-12985
isco	-12986
isms	-12987
itzl	-12988
mens	-12989
orne	-12990
oyed	-12991
stam	-12992
ujah	-12993
▁(19	-12994
▁104	-12995
▁118	-12996
▁126	-12997
▁145	-12998
▁alv	-12999
▁bou	-13000
▁cla	-13001
▁cpl	-13002
▁daw	-13003
▁dyn	-13004
▁eli	-13005
▁gab	-13006
▁jen	-13007
▁jup	-13008
▁laf	-13009
▁lan	-13010
▁mig	-13011
▁mps	-13012
▁mtv	-13013
▁nim	-13014
▁tir	-13015
▁tub	-13016
▁vil	-13017
▁wta	-13018
▁yok	-13019
anski	-13020
atero	-13021
berry	-13022
cover	-13023
eries	-13024
heric	-13025
itter	-13026
luded	-13027
osaur	-13028
ouver	-13029
roper	-13030
scale	-13031
still	-13032
ucked	-13033
▁1962	-13034
▁2030	-13035
▁adri	-13036
▁asif	-13037
▁bamb	-13038
▁bapt	-13039
▁beth	-13040
▁bras	-13041
▁ceme	-13042
▁clap	-13043
▁clut	-13044
▁cram	-13045
▁diff	-13046
▁dmit	-13047
▁eyed	-13048
▁gene	-13049
▁heir	-13050
▁hint	-13051
▁kook	-13052
▁kwan	-13053
▁levy	-13054
▁lows	-13055
▁mash	-13056
▁megh	-13057
▁mell	-13058
▁moss	-13059
▁nahr	-13060
▁nets	-13061
▁nike	-13062
▁nong	-13063
▁nood	-13064
▁owen	-13065
▁patt	-13066
▁quds	-13067
▁reef	-13068
▁rejo	-13069
▁riza	-13070
▁salt	-13071
▁sind	-13072
▁sink	-13073
▁slid	-13074
▁soda	-13075
▁stip	-13076
▁sull	-13077
▁tube	-13078
▁tuck	-13079
▁usgs	-13080
▁wand	-13081
▁wash	-13082
▁wise	-13083
▁yach	-13084
▁zamb	-13085
andong	-13086
andson	-13087
anging	-13088
artoum	-13089
boards	-13090
enting	-13091
ijuana	-13092
ington	-13093
lander	-13094
regate	-13095
stated	-13096
uggish	-13097
ulates	-13098
▁abdel	-13099
▁amuse	-13100
▁brent	-13101
▁cheng	-13102
▁clown	-13103
▁comet	-13104
▁crush	-13105
▁fabio	-13106
▁filip	-13107
▁funny	-13108
▁grain	-13109
▁grapp	-13110
▁helen	-13111
▁hello	-13112
▁highs	-13113
▁hyung	-13114
▁josef	-13115
▁julie	-13116
▁juris	-13117
▁kings	-13118
▁kurds	-13119
▁laund	-13120
▁lions	-13121
▁masks	-13122
▁mbeki	-13123
▁metro	-13124
▁monte	-13125
▁opted	-13126
▁outer	-13127
▁pedro	-13128
▁perry	-13129
▁plame	-13130
▁plead	-13131
▁ratio	-13132
▁reads	-13133
▁recei	-13134
▁renov	-13135
▁rhyth	-13136
▁roses	-13137
▁ruins	-13138
▁sanct	-13139
▁seeds	-13140
▁sheet	-13141
▁sided	-13142
▁skysc	-13143
▁sochi	-13144
▁soren	-13145
▁spiel	-13146
▁stere	-13147
▁tenor	-13148
▁utter	-13149
▁visas	-13150
▁warns	-13151
▁weird	-13152
▁wrist	-13153
▁xiang	-13154
ilitary	-13155
rencies	-13156
ription	-13157
tenance	-13158
vinenko	-13159
▁advers	-13160
▁bloods	-13161
▁bother	-13162
▁bounce	-13163
▁costly	-13164
▁cowell	-13165
▁diving	-13166
▁dormit	-13167
▁enroll	-13168
▁excell	-13169
▁exclus	-13170
▁favors	-13171
▁firmly	-13172
▁forecl	-13173
▁heroes	-13174
▁hewitt	-13175
▁indoor	-13176
▁locate	-13177
▁lumpur	-13178
▁malawi	-13179
▁mayors	-13180
▁norris	-13181
▁orient	-13182
▁overhe	-13183
▁peanut	-13184
▁posing	-13185
▁quebec	-13186
▁raging	-13187
▁relied	-13188
▁renown	-13189
▁rigged	-13190
▁roland	-13191
▁rooted	-13192
▁safegu	-13193
▁scaled	-13194
▁script	-13195
▁serial	-13196
▁spider	-13197
▁sunnis	-13198
▁trauma	-13199
▁tsonga	-13200
▁unesco	-13201
▁viable	-13202
attering	-13203
ongchang	-13204
restrial	-13205
▁anytime	-13206
▁auvinen	-13207
▁capsule	-13208
▁charlie	-13209
▁checkup	-13210
▁crowned	-13211
▁crushed	-13212
▁curator	-13213
▁darling	-13214
▁debated	-13215
▁defence	-13216
▁defiant	-13217
▁dentist	-13218
▁descent	-13219
▁deserve	-13220
▁disband	-13221
▁emperor	-13222
▁envelop	-13223
▁ferraro	-13224
▁frankly	-13225
▁grenade	-13226
▁halfway	-13227
▁inflamm	-13228
▁inspire	-13229
▁justine	-13230
▁killers	-13231
▁lawless	-13232
▁letting	-13233
▁methane	-13234
▁morocco	-13235
▁printed	-13236
▁quietly	-13237
▁revered	-13238
▁revived	-13239
▁roadmap	-13240
▁seizure	-13241
▁solomon	-13242
▁spurred	-13243
▁statues	-13244
▁stevens	-13245
▁surgeon	-13246
▁tallest	-13247
▁toilets	-13248
▁unified	-13249
▁wanting	-13250
▁whoever	-13251
itutional	-13252
▁acquired	-13253
▁adequate	-13254
▁adjacent	-13255
▁albanian	-13256
▁archipel	-13257
▁backlash	-13258
▁beheaded	-13259
▁brisbane	-13260
▁composed	-13261
▁confirms	-13262
▁defining	-13263
▁enjoying	-13264
▁ensuring	-13265
▁excerpts	-13266
▁failures	-13267
▁forensic	-13268
▁francois	-13269
▁grandson	-13270
▁hamilton	-13271
▁humpback	-13272
▁improper	-13273
▁juvenile	-13274
▁khartoum	-13275
▁labeling	-13276
▁launches	-13277
▁mentally	-13278
▁mourners	-13279
▁nepalese	-13280
▁offenses	-13281
▁plunging	-13282
▁proceeds	-13283
▁railways	-13284
▁receives	-13285
▁saddened	-13286
▁schuster	-13287
▁sickened	-13288
▁sluggish	-13289
▁stallone	-13290
▁subjects	-13291
▁switched	-13292
▁theories	-13293
▁trafford	-13294
▁amusement	-13295
▁artifacts	-13296
▁assaulted	-13297
▁audiences	-13298
▁companion	-13299
▁delighted	-13300
▁depressed	-13301
▁disabling	-13302
▁disasters	-13303
▁dissatisf	-13304
▁divisions	-13305
▁europeans	-13306
▁guangdong	-13307
▁guangzhou	-13308
▁himalayan	-13309
▁initiated	-13310
▁integrity	-13311
▁kilograms	-13312
▁liquidity	-13313
▁logistics	-13314
▁marijuana	-13315
▁messenger	-13316
▁middleton	-13317
▁occurring	-13318
▁operative	-13319
▁pipelines	-13320
▁prototype	-13321
▁shrinking	-13322
▁sorenstam	-13323
▁succeeded	-13324
▁successes	-13325
▁ukrainian	-13326
▁vancouver	-13327
▁violently	-13328
▁welcoming	-13329
▁wholesale	-13330
▁workplace	-13331
▁accessible	-13332
▁attracting	-13333
▁bipartisan	-13334
▁courthouse	-13335
▁currencies	-13336
▁definitive	-13337
▁delivering	-13338
▁distribute	-13339
▁escalation	-13340
▁guaranteed	-13341
▁historians	-13342
▁incredible	-13343
▁literature	-13344
▁litvinenko	-13345
▁minorities	-13346
▁outrageous	-13347
▁overcoming	-13348
▁physically	-13349
▁pyeongyang	-13350
▁speculated	-13351
▁translator	-13352
▁unofficial	-13353
▁wheelchair	-13354
▁yushchenko	-13355
▁antiquities	-13356
▁convictions	-13357
▁coordinator	-13358
▁destabilize	-13359
▁evacuations	-13360
▁forthcoming	-13361
▁genetically	-13362
▁instruments	-13363
▁integration	-13364
▁kidnappings	-13365
▁maintenance	-13366
▁overwhelmed	-13367
▁pyeongchang	-13368
▁whereabouts	-13369
▁battleground	-13370
▁constructive	-13371
▁conventional	-13372
▁corporations	-13373
▁dictatorship	-13374
▁exploitation	-13375
▁implementing	-13376
▁occasionally	-13377
▁subsequently	-13378
▁complications	-13379
▁consultations	-13380
▁deteriorating	-13381
▁disagreements	-13382
▁professionals	-13383
▁simultaneously	-13384
oa	-13385
aga	-13386
ahy	-13387
bag	-13388
eal	-13389
fty	-13390
ilo	-13391
isi	-13392
lec	-13393
len	-13394
lif	-13395
nom	-13396
top	-13397
urt	-13398
▁aa	-13399
▁mp	-13400
abel	-13401
anga	-13402
ansa	-13403
bank	-13404
comb	-13405
coni	-13406
eded	-13407
eria	-13408
gart	-13409
girl	-13410
gone	-13411
haal	-13412
hang	-13413
igor	-13414
ingu	-13415
leas	-13416
muss	-13417
onen	-13418
opic	-13419
qual	-13420
uart	-13421
ulla	-13422
velt	-13423
ylan	-13424
▁ald	-13425
▁aur	-13426
▁cer	-13427
▁dax	-13428
▁dil	-13429
▁duj	-13430
▁eut	-13431
▁fom	-13432
▁gry	-13433
▁lip	-13434
▁liz	-13435
▁lon	-13436
▁nhk	-13437
▁pga	-13438
▁tow	-13439
▁tus	-13440
▁tvs	-13441
▁wie	-13442
▁wit	-13443
▁wiz	-13444
▁www	-13445
▁xan	-13446
▁zhu	-13447
about	-13448
amped	-13449
ausen	-13450
bling	-13451
denko	-13452
duces	-13453
enary	-13454
erbai	-13455
essim	-13456
gages	-13457
herty	-13458
impse	-13459
imura	-13460
inity	-13461
ipper	-13462
neath	-13463
ovich	-13464
oween	-13465
ppers	-13466
quito	-13467
▁(100	-13468
▁2015	-13469
▁accl	-13470
▁bids	-13471
▁cmdr	-13472
▁dodd	-13473
▁eleg	-13474
▁fart	-13475
▁feud	-13476
▁frig	-13477
▁grac	-13478
▁heal	-13479
▁irna	-13480
▁kaka	-13481
▁kirk	-13482
▁lend	-13483
▁leve	-13484
▁maid	-13485
▁myth	-13486
▁nile	-13487
▁offs	-13488
▁onsl	-13489
▁oval	-13490
▁penh	-13491
▁pupp	-13492
▁rack	-13493
▁ripp	-13494
▁rust	-13495
▁sala	-13496
▁semi	-13497
▁seng	-13498
▁shak	-13499
▁sham	-13500
▁shun	-13501
▁skip	-13502
▁upro	-13503
▁vend	-13504
▁vinc	-13505
▁worn	-13506
alling	-13507
arians	-13508
averal	-13509
forest	-13510
italia	-13511
katiri	-13512
mussen	-13513
osures	-13514
ourage	-13515
retary	-13516
▁aaron	-13517
▁alike	-13518
▁arabs	-13519
▁asean	-13520
▁blank	-13521
▁catal	-13522
▁cheon	-13523
▁colin	-13524
▁compr	-13525
▁crest	-13526
▁diarr	-13527
▁dicap	-13528
▁dodge	-13529
▁drops	-13530
▁dylan	-13531
▁emerg	-13532
▁enron	-13533
▁facto	-13534
▁flick	-13535
▁homem	-13536
▁inher	-13537
▁karim	-13538
▁kyong	-13539
▁leahy	-13540
▁lever	-13541
▁livni	-13542
▁navig	-13543
▁noble	-13544
▁nutri	-13545
▁phnom	-13546
▁qatar	-13547
▁raced	-13548
▁revol	-13549
▁rooft	-13550
▁rover	-13551
▁serie	-13552
▁sheik	-13553
▁siber	-13554
▁soyuz	-13555
▁stump	-13556
▁sword	-13557
▁taped	-13558
▁tents	-13559
▁unear	-13560
▁unrel	-13561
akening	-13562
ductive	-13563
olitano	-13564
rations	-13565
urances	-13566
▁abnorm	-13567
▁aliens	-13568
▁allawi	-13569
▁assure	-13570
▁backup	-13571
▁boards	-13572
▁bosses	-13573
▁bulgar	-13574
▁candle	-13575
▁capita	-13576
▁chilly	-13577
▁chimps	-13578
▁cinema	-13579
▁conner	-13580
▁corrid	-13581
▁counse	-13582
▁crises	-13583
▁dmitry	-13584
▁endang	-13585
▁euthan	-13586
▁exists	-13587
▁expire	-13588
▁fertil	-13589
▁forged	-13590
▁fukuda	-13591
▁genome	-13592
▁gerald	-13593
▁harris	-13594
▁hiring	-13595
▁humane	-13596
▁hungry	-13597
▁jeremy	-13598
▁justin	-13599
▁labels	-13600
▁labore	-13601
▁loving	-13602
▁malibu	-13603
▁mammal	-13604
▁medals	-13605
▁minded	-13606
▁offset	-13607
▁ordeal	-13608
▁pessim	-13609
▁podium	-13610
▁poorly	-13611
▁portal	-13612
▁postal	-13613
▁purely	-13614
▁reopen	-13615
▁resurg	-13616
▁roadbl	-13617
▁saudis	-13618
▁speeds	-13619
▁spends	-13620
▁stiles	-13621
▁submar	-13622
▁sultan	-13623
▁suzuki	-13624
▁trends	-13625
▁triple	-13626
▁uncont	-13627
▁ventil	-13628
▁wishes	-13629
▁xanana	-13630
breaking	-13631
▁abusive	-13632
▁amateur	-13633
▁anymore	-13634
▁azerbai	-13635
▁ballmer	-13636
▁banners	-13637
▁boarded	-13638
▁bosnian	-13639
▁busiest	-13640
▁centrif	-13641
▁cheered	-13642
▁clapton	-13643
▁cluster	-13644
▁commons	-13645
▁corpses	-13646
▁designs	-13647
▁donated	-13648
▁downing	-13649
▁endured	-13650
▁exagger	-13651
▁farther	-13652
▁finland	-13653
▁floated	-13654
▁frances	-13655
▁fueling	-13656
▁glimpse	-13657
▁halting	-13658
▁heating	-13659
▁infants	-13660
▁interfe	-13661
▁jupiter	-13662
▁lighter	-13663
▁mandela	-13664
▁merrill	-13665
▁mineral	-13666
▁miracle	-13667
▁mortars	-13668
▁observe	-13669
▁padilla	-13670
▁pouring	-13671
▁praying	-13672
▁pumping	-13673
▁referee	-13674
▁refiner	-13675
▁repatri	-13676
▁sensors	-13677
▁shifted	-13678
▁siniora	-13679
▁staunch	-13680
▁suburbs	-13681
▁temples	-13682
▁tighten	-13683
▁tracked	-13684
▁unconst	-13685
▁upscale	-13686
▁urgency	-13687
▁warfare	-13688
▁abruptly	-13689
▁advisors	-13690
▁alkatiri	-13691
▁archbish	-13692
▁barracks	-13693
▁belgrade	-13694
▁breached	-13695
▁brooklyn	-13696
▁cardinal	-13697
▁climbers	-13698
▁coincide	-13699
▁credible	-13700
▁defiance	-13701
▁dicaprio	-13702
▁dinosaur	-13703
▁displays	-13704
▁donation	-13705
▁drilling	-13706
▁drinkers	-13707
▁engulfed	-13708
▁grounded	-13709
▁handover	-13710
▁horrific	-13711
▁hydrogen	-13712
▁industri	-13713
▁laughing	-13714
▁magnetic	-13715
▁meltdown	-13716
▁mosquito	-13717
▁provoked	-13718
▁reacting	-13719
▁resource	-13720
▁resuming	-13721
▁salaries	-13722
▁siblings	-13723
▁slipping	-13724
▁supplied	-13725
▁zapatero	-13726
vernmental	-13727
▁admitting	-13728
▁affection	-13729
▁ancestors	-13730
▁arresting	-13731
▁breakdown	-13732
▁canaveral	-13733
▁cancelled	-13734
▁chartered	-13735
▁commented	-13736
▁computing	-13737
▁consulate	-13738
▁crossings	-13739
▁davydenko	-13740
▁defeating	-13741
▁detaining	-13742
▁dissident	-13743
▁dissolved	-13744
▁fisheries	-13745
▁guerrilla	-13746
▁halloween	-13747
▁henderson	-13748
▁inquiries	-13749
▁jordanian	-13750
▁lifestyle	-13751
▁magazines	-13752
▁mortgages	-13753
▁notorious	-13754
▁nutrition	-13755
▁objection	-13756
▁obstacles	-13757
▁particles	-13758
▁patriotic	-13759
▁plummeted	-13760
▁precincts	-13761
▁rasmussen	-13762
▁remainder	-13763
▁resistant	-13764
▁respected	-13765
▁restoring	-13766
▁scrambled	-13767
▁shortfall	-13768
▁specially	-13769
▁specifics	-13770
▁speculate	-13771
▁spielberg	-13772
▁stressing	-13773
▁tightened	-13774
▁accelerate	-13775
▁accusation	-13776
▁amendments	-13777
▁appreciate	-13778
▁approaches	-13779
▁architects	-13780
▁attraction	-13781
▁automobile	-13782
▁blacksburg	-13783
▁boycotting	-13784
▁classrooms	-13785
▁consultant	-13786
▁convincing	-13787
▁courageous	-13788
▁frightened	-13789
▁napolitano	-13790
▁obligation	-13791
▁performers	-13792
▁portsmouth	-13793
▁productive	-13794
▁references	-13795
▁respective	-13796
▁ridiculous	-13797
▁separation	-13798
▁skepticism	-13799
▁standstill	-13800
▁subsequent	-13801
▁torrential	-13802
▁underneath	-13803
▁achievement	-13804
▁archipelago	-13805
▁automobiles	-13806
▁commodities	-13807
▁conflicting	-13808
▁contestants	-13809
▁cooperative	-13810
▁drastically	-13811
▁exclusively	-13812
▁fingerprint	-13813
▁functioning	-13814
▁fundraising	-13815
▁importantly	-13816
▁infiltrated	-13817
▁ingredients	-13818
▁installment	-13819
▁interpreted	-13820
▁quarterback	-13821
▁suppression	-13822
▁translation	-13823
▁achievements	-13824
▁contemporary	-13825
▁destinations	-13826
▁intimidation	-13827
▁confederation	-13828
▁consciousness	-13829
▁disappointing	-13830
▁reinforcements	-13831
35	-13832
84	-13833
lu	-13834
ux	-13835
ben	-13836
but	-13837
bye	-13838
fts	-13839
ggy	-13840
ieu	-13841
jab	-13842
keb	-13843
lls	-13844
ono	-13845
ovs	-13846
ras	-13847
von	-13848
yen	-13849
zio	-13850
▁dh	-13851
abed	-13852
adan	-13853
ante	-13854
asia	-13855
awar	-13856
biqu	-13857
conn	-13858
dled	-13859
drop	-13860
ecca	-13861
ffer	-13862
huff	-13863
ichi	-13864
idav	-13865
inea	-13866
inge	-13867
mons	-13868
nate	-13869
neum	-13870
oshi	-13871
ours	-13872
raph	-13873
rett	-13874
riel	-13875
shmi	-13876
step	-13877
udge	-13878
ufth	-13879
umbo	-13880
word	-13881
▁114	-13882
▁122	-13883
▁189	-13884
▁320	-13885
▁330	-13886
▁bib	-13887
▁cox	-13888
▁edu	-13889
▁emi	-13890
▁gue	-13891
▁hed	-13892
▁kal	-13893
▁naj	-13894
▁omx	-13895
▁plc	-13896
▁rut	-13897
▁spi	-13898
▁til	-13899
▁tin	-13900
▁tyr	-13901
▁ung	-13902
▁vom	-13903
▁zay	-13904
▁zur	-13905
acies	-13906
actic	-13907
aguay	-13908
arked	-13909
asive	-13910
azaki	-13911
emaah	-13912
emics	-13913
encer	-13914
gling	-13915
khead	-13916
leton	-13917
mbley	-13918
oding	-13919
osity	-13920
oyama	-13921
sider	-13922
table	-13923
think	-13924
uffed	-13925
ulent	-13926
▁airs	-13927
▁alle	-13928
▁amel	-13929
▁bain	-13930
▁balk	-13931
▁beno	-13932
▁butt	-13933
▁dann	-13934
▁dear	-13935
▁deer	-13936
▁emmy	-13937
▁fren	-13938
▁hamm	-13939
▁hats	-13940
▁impl	-13941
▁jess	-13942
▁joke	-13943
▁lied	-13944
▁lula	-13945
▁misc	-13946
▁mous	-13947
▁orig	-13948
▁pais	-13949
▁pesh	-13950
▁prey	-13951
▁rapp	-13952
▁stam	-13953
▁subs	-13954
▁swam	-13955
▁tier	-13956
▁trim	-13957
▁unin	-13958
▁unle	-13959
anchez	-13960
ansson	-13961
around	-13962
athers	-13963
ichton	-13964
luster	-13965
marked	-13966
rophic	-13967
waters	-13968
▁anwar	-13969
▁appet	-13970
▁arche	-13971
▁arrow	-13972
▁barcl	-13973
▁barro	-13974
▁belly	-13975
▁braun	-13976
▁comic	-13977
▁costa	-13978
▁cough	-13979
▁derby	-13980
▁drain	-13981
▁drift	-13982
▁dwell	-13983
▁evans	-13984
▁fargo	-13985
▁fiber	-13986
▁fuels	-13987
▁horiz	-13988
▁hover	-13989
▁inhal	-13990
▁input	-13991
▁irwin	-13992
▁lufth	-13993
▁moder	-13994
▁nurse	-13995
▁olive	-13996
▁paths	-13997
▁penny	-13998
▁pneum	-13999
▁rides	-14000
▁rolls	-14001
▁sorts	-14002
▁spike	-14003
▁spurs	-14004
▁tadic	-14005
▁teach	-14006
▁teddy	-14007
▁tenth	-14008
▁thorn	-14009
▁thumb	-14010
▁ubiqu	-14011
▁usher	-14012
▁vinci	-14013
▁wraps	-14014
atorium	-14015
entials	-14016
itement	-14017
keepers	-14018
mingham	-14019
theless	-14020
▁adoles	-14021
▁albums	-14022
▁anders	-14023
▁askari	-14024
▁barney	-14025
▁bayern	-14026
▁bishop	-14027
▁blackl	-14028
▁bricks	-14029
▁bubble	-14030
▁canyon	-14031
▁cartel	-14032
▁carved	-14033
▁celest	-14034
▁decent	-14035
▁diesel	-14036
▁doming	-14037
▁floors	-14038
▁foiled	-14039
▁fritzl	-14040
▁guinea	-14041
▁holmes	-14042
▁influx	-14043
▁inmate	-14044
▁insure	-14045
▁interc	-14046
▁jemaah	-14047
▁johnny	-14048
▁kazemi	-14049
▁keeper	-14050
▁latter	-14051
▁lavish	-14052
▁likeli	-14053
▁luther	-14054
▁memoir	-14055
▁nephew	-14056
▁nerves	-14057
▁outlet	-14058
▁picket	-14059
▁punjab	-14060
▁regain	-14061
▁ritual	-14062
▁robots	-14063
▁sample	-14064
▁slower	-14065
▁spared	-14066
▁tables	-14067
▁tongue	-14068
▁unveil	-14069
▁vetoed	-14070
▁vowing	-14071
▁waiver	-14072
▁yemeni	-14073
▁zebari	-14074
ecretary	-14075
izations	-14076
▁affidav	-14077
▁assumed	-14078
▁baldwin	-14079
▁beliefs	-14080
▁bennett	-14081
▁blanche	-14082
▁bombard	-14083
▁boulder	-14084
▁bystand	-14085
▁cleanup	-14086
▁clemens	-14087
▁coaches	-14088
▁costing	-14089
▁disqual	-14090
▁dynasty	-14091
▁evolved	-14092
▁existed	-14093
▁faction	-14094
▁goodbye	-14095
▁harvest	-14096
▁hawkins	-14097
▁hossein	-14098
▁kissing	-14099
▁lakshmi	-14100
▁lasting	-14101
▁lenient	-14102
▁lindsey	-14103
▁martial	-14104
▁matchup	-14105
▁nearest	-14106
▁noodles	-14107
▁pilgrim	-14108
▁pitched	-14109
▁placing	-14110
▁plagued	-14111
▁planted	-14112
▁precond	-14113
▁rangoon	-14114
▁regards	-14115
▁reshuff	-14116
▁retract	-14117
▁ringing	-14118
▁rushing	-14119
▁sanchez	-14120
▁segment	-14121
▁spirits	-14122
▁spouses	-14123
▁stabbed	-14124
▁touring	-14125
▁trailer	-14126
▁twisted	-14127
▁violate	-14128
▁visitor	-14129
▁warlord	-14130
▁wembley	-14131
▁winston	-14132
itiveness	-14133
▁algerian	-14134
▁applying	-14135
▁artistic	-14136
▁birkhead	-14137
▁blackout	-14138
▁bleeding	-14139
▁bulgaria	-14140
▁cemetery	-14141
▁charisma	-14142
▁cheating	-14143
▁cleaning	-14144
▁competed	-14145
▁crichton	-14146
▁criteria	-14147
▁delicate	-14148
▁deserves	-14149
▁diarrhea	-14150
▁disappro	-14151
▁excluded	-14152
▁finalize	-14153
▁globally	-14154
▁hatoyama	-14155
▁homemade	-14156
▁honoring	-14157
▁horrible	-14158
▁immunity	-14159
▁ivanovic	-14160
▁joongang	-14161
▁lawrence	-14162
▁leonardo	-14163
▁limiting	-14164
▁mediator	-14165
▁monarchy	-14166
▁musician	-14167
▁outright	-14168
▁overdose	-14169
▁overlook	-14170
▁overshad	-14171
▁paraguay	-14172
▁portions	-14173
▁precious	-14174
▁premises	-14175
▁printing	-14176
▁provider	-14177
▁regiment	-14178
▁relation	-14179
▁relocate	-14180
▁renowned	-14181
▁robinson	-14182
▁sabotage	-14183
▁sampling	-14184
▁showcase	-14185
▁surgeons	-14186
▁tackling	-14187
▁tibetans	-14188
▁unnecess	-14189
▁valencia	-14190
▁versions	-14191
▁wielding	-14192
▁xinjiang	-14193
▁alcoholic	-14194
▁awakening	-14195
▁battalion	-14196
▁bloodshed	-14197
▁bollywood	-14198
▁carmakers	-14199
▁compounds	-14200
▁consulted	-14201
▁defensive	-14202
▁endurance	-14203
▁escalated	-14204
▁estranged	-14205
▁excellent	-14206
▁forbidden	-14207
▁frenchman	-14208
▁hopefully	-14209
▁impressed	-14210
▁influenza	-14211
▁interfere	-14212
▁johansson	-14213
▁lufthansa	-14214
▁mediation	-14215
▁motorcade	-14216
▁nasrallah	-14217
▁offerings	-14218
▁organizer	-14219
▁outspoken	-14220
▁perceived	-14221
▁resigning	-14222
▁revealing	-14223
▁sensation	-14224
▁spaniards	-14225
▁spotlight	-14226
▁unrelated	-14227
▁adolescent	-14228
▁archbishop	-14229
▁birmingham	-14230
▁capitalist	-14231
▁commentary	-14232
▁comparison	-14233
▁compatriot	-14234
▁confronted	-14235
▁denouncing	-14236
▁encourages	-14237
▁excitement	-14238
▁homeowners	-14239
▁institutes	-14240
▁lackluster	-14241
▁likelihood	-14242
▁meaningful	-14243
▁operatives	-14244
▁passionate	-14245
▁protective	-14246
▁provisions	-14247
▁publicized	-14248
▁quarantine	-14249
▁reconsider	-14250
▁socialists	-14251
▁thoroughly	-14252
▁ubiquitous	-14253
▁undercover	-14254
▁accountable	-14255
▁appreciated	-14256
▁battlefield	-14257
▁certificate	-14258
▁circulating	-14259
▁commemorate	-14260
▁conclusions	-14261
▁confiscated	-14262
▁connections	-14263
▁credentials	-14264
▁credibility	-14265
▁delegations	-14266
▁deportation	-14267
▁dignitaries	-14268
▁distributor	-14269
▁expectation	-14270
▁festivities	-14271
▁radioactive	-14272
▁sustainable	-14273
▁alternatives	-14274
▁consultation	-14275
▁embarrassing	-14276
▁installation	-14277
▁nevertheless	-14278
▁reprocessing	-14279
▁unexpectedly	-14280
▁concentration	-14281
▁contributions	-14282
▁globalization	-14283
▁technological	-14284
▁industrialized	-14285
▁transformation	-14286
▁undersecretary	-14287
▁competitiveness	-14288
10	-14289
85	-14290
ls	-14291
ws	-14292
aba	-14293
azz	-14294
bat	-14295
bok	-14296
cha	-14297
cut	-14298
far	-14299
gel	-14300
gom	-14301
hey	-14302
idi	-14303
imi	-14304
new	-14305
oly	-14306
oop	-14307
ser	-14308
vak	-14309
vet	-14310
▁06	-14311
▁aj	-14312
▁bj	-14313
addy	-14314
atan	-14315
blor	-14316
bury	-14317
cery	-14318
daem	-14319
etti	-14320
folk	-14321
guet	-14322
hima	-14323
icon	-14324
imbo	-14325
inez	-14326
isle	-14327
kill	-14328
nish	-14329
odel	-14330
oeba	-14331
onso	-14332
oret	-14333
ouad	-14334
ovoi	-14335
uees	-14336
uges	-14337
vian	-14338
▁(13	-14339
▁168	-14340
▁260	-14341
▁380	-14342
▁acr	-14343
▁cay	-14344
▁cds	-14345
▁cot	-14346
▁doo	-14347
▁dre	-14348
▁dys	-14349
▁ern	-14350
▁eva	-14351
▁faa	-14352
▁fug	-14353
▁gag	-14354
▁hes	-14355
▁hob	-14356
▁iii	-14357
▁jel	-14358
▁kap	-14359
▁kbs	-14360
▁kra	-14361
▁lik	-14362
▁lur	-14363
▁mik	-14364
▁mub	-14365
▁nak	-14366
▁phr	-14367
▁ply	-14368
▁pup	-14369
▁sag	-14370
▁sob	-14371
▁thy	-14372
▁uci	-14373
▁ump	-14374
▁vib	-14375
▁wfp	-14376
▁yuk	-14377
▁zub	-14378
adors	-14379
andan	-14380
angle	-14381
anmen	-14382
esity	-14383
ilder	-14384
itate	-14385
nants	-14386
oused	-14387
overs	-14388
reeze	-14389
rians	-14390
roads	-14391
rophe	-14392
shots	-14393
tered	-14394
uling	-14395
yssey	-14396
▁2018	-14397
▁adap	-14398
▁axis	-14399
▁bast	-14400
▁bolt	-14401
▁bong	-14402
▁bour	-14403
▁cake	-14404
▁cogn	-14405
▁coin	-14406
▁cure	-14407
▁danc	-14408
▁deaf	-14409
▁deby	-14410
▁depl	-14411
▁diaz	-14412
▁drac	-14413
▁edin	-14414
▁eyew	-14415
▁fool	-14416
▁fret	-14417
▁glor	-14418
▁gond	-14419
▁grey	-14420
▁gymn	-14421
▁hajj	-14422
▁inex	-14423
▁jagu	-14424
▁jams	-14425
▁laud	-14426
▁mald	-14427
▁nost	-14428
▁outf	-14429
▁pork	-14430
▁puzz	-14431
▁ratt	-14432
▁rept	-14433
▁scow	-14434
▁shal	-14435
▁sore	-14436
▁spaw	-14437
▁tarm	-14438
▁util	-14439
▁wary	-14440
▁woke	-14441
▁yoga	-14442
akable	-14443
assing	-14444
atable	-14445
atible	-14446
emaker	-14447
estock	-14448
gomery	-14449
iances	-14450
inated	-14451
ishers	-14452
istrib	-14453
linary	-14454
morgan	-14455
resses	-14456
usters	-14457
zeguet	-14458
▁allan	-14459
▁altog	-14460
▁amber	-14461
▁basil	-14462
▁blogs	-14463
▁chunk	-14464
▁clamp	-14465
▁claud	-14466
▁clerk	-14467
▁crazy	-14468
▁drill	-14469
▁femin	-14470
▁ferre	-14471
▁flatt	-14472
▁freud	-14473
▁gamba	-14474
▁gauge	-14475
▁giggs	-14476
▁glenn	-14477
▁globo	-14478
▁goers	-14479
▁grows	-14480
▁janet	-14481
▁julio	-14482
▁katie	-14483
▁keane	-14484
▁lacks	-14485
▁lahim	-14486
▁layer	-14487
▁lifel	-14488
▁lloyd	-14489
▁maxim	-14490
▁nanot	-14491
▁osman	-14492
▁ought	-14493
▁parad	-14494
▁peers	-14495
▁penet	-14496
▁plaza	-14497
▁pools	-14498
▁recip	-14499
▁releg	-14500
▁rises	-14501
▁roose	-14502
▁saves	-14503
▁sixty	-14504
▁skies	-14505
▁snack	-14506
▁spear	-14507
▁stays	-14508
▁tebow	-14509
▁tempt	-14510
▁thigh	-14511
▁tract	-14512
ication	-14513
ifiable	-14514
lington	-14515
morning	-14516
thritis	-14517
written	-14518
▁airing	-14519
▁amoeba	-14520
▁anglic	-14521
▁benoit	-14522
▁betray	-14523
▁biting	-14524
▁blazes	-14525
▁boasts	-14526
[...]
