<pad>	0
<s>	0
</s>	0
<unk>	0
▁t	-0
▁a	-1
he	-2
in	-3
▁s	-4
▁the	-5
re	-6
on	-7
er	-8
▁w	-9
▁c	-10
▁.	-11
▁,	-12
▁o	-13
en	-14
▁p	-15
▁b	-16
an	-17
ed	-18
at	-19
▁f	-20
or	-21
▁m	-22
it	-23
es	-24
▁in	-25
is	-26
ar	-27
ing	-28
▁to	-29
▁h	-30
al	-31
▁an	-32
▁of	-33
▁d	-34
ou	-35
as	-36
ic	-37
▁n	-38
id	-39
le	-40
▁and	-41
ion	-42
ro	-43
il	-44
▁th	-45
ent	-46
▁re	-47
▁g	-48
▁l	-49
▁e	-50
ay	-51
om	-52
▁be	-53
▁u	-54
ve	-55
st	-56
ad	-57
▁on	-58
ut	-59
▁st	-60
▁sa	-61
▁for	-62
ol	-63
▁he	-64
ir	-65
ter	-66
ur	-67
▁k	-68
ac	-69
im	-70
ig	-71
am	-72
▁said	-73
ly	-74
ot	-75
ec	-76
▁is	-77
ation	-78
ver	-79
▁that	-80
ill	-81
ore	-82
▁r	-83
▁we	-84
et	-85
▁it	-86
ow	-87
ld	-88
▁wh	-89
us	-90
▁y	-91
▁as	-92
▁at	-93
ort	-94
▁j	-95
▁was	-96
▁de	-97
ce	-98
▁al	-99
ith	-100
▁ch	-101
▁con	-102
▁with	-103
un	-104
oun	-105
ers	-106
▁ne	-107
ment	-108
res	-109
se	-110
▁pro	-111
ist	-112
day	-113
est	-114
op	-115
ate	-116
▁v	-117
ak	-118
her	-119
el	-120
ul	-121
▁com	-122
and	-123
ain	-124
▁un	-125
ri	-126
out	-127
▁le	-128
ct	-129
ap	-130
ave	-131
rom	-132
ch	-133
ag	-134
▁se	-135
▁sh	-136
▁from	-137
▁by	-138
igh	-139
os	-140
ial	-141
art	-142
if	-143
▁has	-144
▁sp	-145
▁su	-146
ast	-147
▁af	-148
ear	-149
▁are	-150
▁ex	-151
▁his	-152
▁off	-153
▁have	-154
▁go	-155
ity	-156
red	-157
pp	-158
ies	-159
▁ab	-160
ice	-161
oc	-162
▁pres	-163
▁tr	-164
ould	-165
▁kore	-166
▁year	-167
end	-168
ts	-169
our	-170
▁will	-171
▁but	-172
em	-173
ident	-174
ab	-175
um	-176
ack	-177
ong	-178
▁rep	-179
▁not	-180
▁were	-181
▁ag	-182
▁ar	-183
ive	-184
ud	-185
▁pl	-186
all	-187
ian	-188
od	-189
th	-190
ess	-191
qu	-192
▁who	-193
ia	-194
▁new	-195
iv	-196
▁wor	-197
▁pol	-198
ary	-199
▁or	-200
cc	-201
▁pe	-202
gh	-203
▁cl	-204
▁after	-205
▁they	-206
ry	-207
▁mon	-208
ie	-209
ight	-210
ect	-211
▁whe	-212
ust	-213
ok	-214
ren	-215
▁had	-216
ich	-217
ound	-218
ost	-219
mer	-220
ome	-221
ard	-222
ide	-223
▁been	-224
▁ro	-225
ant	-226
▁president	-227
ge	-228
ra	-229
▁this	-230
▁i	-231
▁min	-232
▁its	-233
▁tw	-234
ther	-235
▁their	-236
▁res	-237
▁peop	-238
▁say	-239
▁people	-240
▁out	-241
▁ad	-242
▁part	-243
ign	-244
▁int	-245
▁offic	-246
▁about	-247
▁more	-248
ber	-249
ord	-250
ount	-251
ated	-252
vern	-253
ime	-254
▁ir	-255
ine	-256
▁nort	-257
▁pr	-258
ans	-259
▁per	-260
ions	-261
▁two	-262
▁me	-263
▁exp	-264
▁govern	-265
ks	-266
uc	-267
▁sec	-268
▁inc	-269
▁comp	-270
▁up	-271
▁acc	-272
▁her	-273
▁en	-274
ace	-275
▁korea	-276
▁dis	-277
▁report	-278
▁which	-279
▁all	-280
▁over	-281
ous	-282
▁she	-283
▁one	-284
ree	-285
▁man	-286
ations	-287
iz	-288
ough	-289
▁cont	-290
so	-291
esday	-292
ke	-293
▁gr	-294
▁government	-295
age	-296
ates	-297
▁sout	-298
pt	-299
▁would	-300
▁official	-301
▁mil	-302
▁mar	-303
▁att	-304
▁br	-305
cent	-306
ib	-307
ip	-308
▁than	-309
▁north	-310
man	-311
▁state	-312
ub	-313
▁us	-314
ational	-315
▁inter	-316
▁count	-317
ors	-318
▁also	-319
▁do	-320
▁sc	-321
▁cr	-322
av	-323
ure	-324
▁fir	-325
own	-326
ang	-327
der	-328
ass	-329
▁im	-330
▁comm	-331
ff	-332
ical	-333
▁other	-334
ue	-335
ake	-336
ite	-337
ters	-338
▁no	-339
ile	-340
▁can	-341
nn	-342
▁ind	-343
ail	-344
▁last	-345
lo	-346
▁cnn	-347
▁day	-348
▁police	-349
hed	-350
aq	-351
▁mo	-352
▁jo	-353
ish	-354
▁when	-355
▁dec	-356
ited	-357
▁first	-358
ond	-359
ire	-360
▁south	-361
▁iraq	-362
▁app	-363
ict	-364
ence	-365
ition	-366
▁la	-367
▁lead	-368
▁so	-369
▁qu	-370
▁te	-371
ell	-372
▁there	-373
lect	-374
▁wee	-375
▁milit	-376
illion	-377
▁inv	-378
ase	-379
▁bus	-380
▁co	-381
▁am	-382
▁bec	-383
▁dem	-384
act	-385
▁some	-386
▁into	-387
int	-388
ade	-389
▁fin	-390
one	-391
▁ob	-392
▁car	-393
ild	-394
iss	-395
▁cam	-396
ince	-397
▁ev	-398
ning	-399
og	-400
▁fr	-401
▁chin	-402
▁ser	-403
ied	-404
aus	-405
▁bl	-406
ep	-407
▁kill	-408
lic	-409
old	-410
enc	-411
▁tal	-412
▁war	-413
▁told	-414
oup	-415
▁op	-416
▁time	-417
ll	-418
ose	-419
▁world	-420
ned	-421
ress	-422
lear	-423
ru	-424
▁li	-425
▁years	-426
▁work	-427
ved	-428
▁percent	-429
ance	-430
▁pre	-431
▁fe	-432
▁call	-433
▁korean	-434
ally	-435
itt	-436
▁sun	-437
ama	-438
lud	-439
▁bo	-440
▁elect	-441
ens	-442
ey	-443
li	-444
▁act	-445
▁month	-446
very	-447
orm	-448
are	-449
▁them	-450
▁week	-451
ater	-452
▁again	-453
▁accord	-454
wn	-455
▁united	-456
▁you	-457
ities	-458
we	-459
con	-460
▁officials	-461
▁could	-462
ces	-463
▁fl	-464
fe	-465
▁if	-466
oll	-467
▁according	-468
▁under	-469
▁ear	-470
reat	-471
▁country	-472
▁includ	-473
hing	-474
arg	-475
▁bet	-476
▁imp	-477
▁party	-478
▁three	-479
▁cons	-480
ister	-481
▁tu	-482
▁ass	-483
▁monday	-484
▁says	-485
urs	-486
▁national	-487
▁rec	-488
ked	-489
▁air	-490
▁news	-491
ese	-492
▁sur	-493
▁lo	-494
uring	-495
vers	-496
ected	-497
▁tuesday	-498
▁military	-499
▁kn	-500
▁plan	-501
ause	-502
▁par	-503
ons	-504
▁cent	-505
meric	-506
▁americ	-507
ory	-508
▁just	-509
▁intern	-510
▁wed	-511
▁states	-512
ings	-513
▁may	-514
▁reg	-515
▁ter	-516
ath	-517
able	-518
▁ban	-519
fore	-520
ital	-521
ult	-522
ach	-523
▁down	-524
▁group	-525
▁aut	-526
ft	-527
ublic	-528
▁obama	-529
▁old	-530
▁sen	-531
▁him	-532
istan	-533
▁minister	-534
▁attack	-535
▁end	-536
▁fore	-537
▁spok	-538
▁win	-539
▁what	-540
▁supp	-541
▁wedn	-542
▁wednesday	-543
apan	-544
▁japan	-545
ased	-546
▁before	-547
land	-548
▁most	-549
▁dep	-550
▁rem	-551
▁since	-552
▁ann	-553
ah	-554
ouse	-555
▁rel	-556
leg	-557
▁against	-558
▁sunday	-559
▁million	-560
▁econ	-561
▁show	-562
uclear	-563
▁econom	-564
▁like	-565
▁now	-566
ious	-567
▁back	-568
▁cap	-569
rat	-570
ency	-571
▁any	-572
▁law	-573
▁how	-574
ket	-575
ents	-576
▁ac	-577
▁china	-578
med	-579
▁bush	-580
▁nuclear	-581
▁gen	-582
▁mem	-583
du	-584
ix	-585
▁ph	-586
▁where	-587
rop	-588
▁des	-589
▁invest	-590
▁em	-591
row	-592
ced	-593
▁near	-594
app	-595
▁prov	-596
ists	-597
▁killed	-598
uss	-599
▁po	-600
▁med	-601
king	-602
way	-603
▁add	-604
▁prot	-605
▁secur	-606
▁during	-607
▁bro	-608
vel	-609
▁city	-610
▁because	-611
▁str	-612
aking	-613
▁spokes	-614
▁get	-615
▁made	-616
ursday	-617
▁thursday	-618
▁former	-619
ton	-620
▁bu	-621
gan	-622
▁ap	-623
led	-624
hn	-625
ame	-626
rest	-627
▁reported	-628
▁security	-629
az	-630
▁while	-631
▁only	-632
▁bar	-633
air	-634
ween	-635
▁ins	-636
other	-637
▁thr	-638
▁democ	-639
▁four	-640
▁between	-641
ered	-642
▁tur	-643
ating	-644
▁cour	-645
orn	-646
ants	-647
▁ret	-648
▁house	-649
gr	-650
▁high	-651
▁being	-652
▁bel	-653
▁def	-654
▁inf	-655
▁found	-656
▁z	-657
▁ma	-658
ution	-659
▁my	-660
oss	-661
▁compan	-662
eral	-663
▁sm	-664
▁brit	-665
▁gu	-666
▁col	-667
▁mus	-668
▁meet	-669
anc	-670
▁many	-671
ood	-672
rent	-673
▁stud	-674
und	-675
▁wom	-676
▁hel	-677
▁through	-678
▁camp	-679
ai	-680
▁vis	-681
▁miss	-682
▁tri	-683
hor	-684
▁conf	-685
▁set	-686
▁rele	-687
les	-688
▁child	-689
▁sy	-690
ester	-691
ral	-692
▁head	-693
ops	-694
ower	-695
xt	-696
ick	-697
▁called	-698
▁eu	-699
ert	-700
▁fam	-701
▁long	-702
▁author	-703
ments	-704
ret	-705
▁including	-706
▁play	-707
▁ref	-708
ared	-709
omb	-710
▁foreign	-711
▁ve	-712
ward	-713
▁press	-714
▁won	-715
▁did	-716
▁our	-717
duct	-718
ling	-719
▁international	-720
ork	-721
als	-722
ife	-723
▁run	-724
▁help	-725
▁opp	-726
▁vi	-727
ision	-728
ss	-729
ug	-730
ily	-731
ung	-732
▁tro	-733
olog	-734
▁six	-735
ands	-736
▁disc	-737
▁polit	-738
ange	-739
min	-740
imes	-741
▁home	-742
▁reports	-743
oul	-744
▁che	-745
▁democrat	-746
ble	-747
ric	-748
▁second	-749
ms	-750
bers	-751
ise	-752
me	-753
▁spokesman	-754
▁sch	-755
▁see	-756
▁eff	-757
▁iss	-758
▁days	-759
▁take	-760
▁statement	-761
▁sl	-762
ful	-763
▁conc	-764
▁eng	-765
▁next	-766
▁resp	-767
▁talks	-768
ual	-769
▁way	-770
ives	-771
▁public	-772
ting	-773
ized	-774
▁five	-775
▁announ	-776
▁num	-777
▁those	-778
▁death	-779
▁still	-780
ind	-781
rael	-782
▁israel	-783
ying	-784
atur	-785
ief	-786
▁bot	-787
▁serv	-788
▁court	-789
io	-790
▁even	-791
ures	-792
▁spe	-793
▁loc	-794
▁sus	-795
▁troops	-796
▁start	-797
sel	-798
▁pak	-799
▁open	-800
▁investig	-801
▁make	-802
▁need	-803
▁det	-804
hern	-805
ross	-806
▁prime	-807
▁seoul	-808
iew	-809
▁ra	-810
▁maj	-811
ink	-812
ics	-813
ries	-814
ivers	-815
▁least	-816
▁top	-817
ecut	-818
▁pakistan	-819
▁terr	-820
ool	-821
▁ke	-822
▁sign	-823
▁around	-824
▁afgh	-825
istr	-826
▁american	-827
att	-828
osed	-829
istry	-830
ven	-831
gram	-832
ices	-833
▁recent	-834
▁another	-835
▁vot	-836
iday	-837
▁hour	-838
▁susp	-839
▁contin	-840
▁program	-841
ady	-842
▁pal	-843
▁want	-844
▁cor	-845
ollow	-846
▁dire	-847
▁afghan	-848
▁market	-849
▁hum	-850
ible	-851
▁such	-852
oci	-853
▁follow	-854
▁ministry	-855
▁trans	-856
ages	-857
▁then	-858
ather	-859
▁clint	-860
▁direct	-861
▁pers	-862
▁oper	-863
▁viol	-864
ash	-865
▁iran	-866
per	-867
alth	-868
▁major	-869
▁put	-870
▁visit	-871
▁commun	-872
▁vict	-873
▁contro	-874
ior	-875
▁clinton	-876
▁washing	-877
ained	-878
▁leader	-879
▁every	-880
ody	-881
▁spec	-882
▁washington	-883
ee	-884
ged	-885
▁big	-886
▁russ	-887
▁bomb	-888
▁fil	-889
▁mor	-890
uch	-891
ians	-892
▁office	-893
ute	-894
▁should	-895
osp	-896
▁company	-897
osition	-898
▁dr	-899
▁cur	-900
▁retur	-901
▁secret	-902
te	-903
▁support	-904
▁pa	-905
▁belie	-906
▁times	-907
▁saying	-908
▁agency	-909
ger	-910
▁expected	-911
ense	-912
ern	-913
▁presidential	-914
oot	-915
▁ed	-916
ights	-917
▁fire	-918
▁don	-919
▁look	-920
▁pass	-921
▁dead	-922
▁well	-923
▁forces	-924
ought	-925
au	-926
▁chief	-927
▁nation	-928
aim	-929
ative	-930
▁inst	-931
ient	-932
▁members	-933
ular	-934
ism	-935
ving	-936
▁ext	-937
▁cond	-938
▁very	-939
▁power	-940
rope	-941
hip	-942
aign	-943
ility	-944
▁europe	-945
atch	-946
port	-947
▁children	-948
▁campaign	-949
▁test	-950
son	-951
▁sub	-952
▁sold	-953
ph	-954
ale	-955
▁billion	-956
ird	-957
▁ent	-958
▁far	-959
▁good	-960
feren	-961
▁bank	-962
▁main	-963
▁york	-964
amp	-965
▁both	-966
▁pop	-967
▁earli	-968
▁leg	-969
▁sever	-970
▁political	-971
▁school	-972
ner	-973
▁est	-974
hes	-975
▁ge	-976
arch	-977
▁died	-978
aw	-979
▁mcc	-980
▁coun	-981
▁early	-982
▁leaders	-983
ember	-984
▁satur	-985
▁authorities	-986
▁john	-987
▁arrest	-988
▁deal	-989
ull	-990
▁rest	-991
▁british	-992
▁several	-993
used	-994
aster	-995
▁saturday	-996
rib	-997
▁know	-998
▁earlier	-999
▁wr	-1000
ament	-1001
ock	-1002
▁pri	-1003
▁sw	-1004
▁incre	-1005
▁hop	-1006
▁white	-1007
▁friday	-1008
▁election	-1009
ier	-1010
▁ce	-1011
gin	-1012
▁art	-1013
▁hal	-1014
▁months	-1015
▁tak	-1016
gg	-1017
▁number	-1018
ured	-1019
▁crit	-1020
ific	-1021
▁kim	-1022
▁countries	-1023
ark	-1024
ene	-1025
▁move	-1026
▁chinese	-1027
▁bur	-1028
gress	-1029
▁women	-1030
▁cre	-1031
▁meeting	-1032
▁iraqi	-1033
▁arm	-1034
▁claim	-1035
▁left	-1036
▁democratic	-1037
ator	-1038
▁team	-1039
▁health	-1040
▁inj	-1041
▁sent	-1042
▁going	-1043
▁capital	-1044
reed	-1045
ines	-1046
gy	-1047
▁fed	-1048
ty	-1049
▁came	-1050
▁among	-1051
▁neg	-1052
▁own	-1053
▁rul	-1054
▁terror	-1055
ison	-1056
line	-1057
▁took	-1058
▁poss	-1059
▁night	-1060
velop	-1061
▁build	-1062
▁pros	-1063
▁family	-1064
▁dif	-1065
artment	-1066
ued	-1067
▁associ	-1068
▁cal	-1069
▁economic	-1070
▁aff	-1071
▁hosp	-1072
▁general	-1073
iness	-1074
▁tour	-1075
orts	-1076
up	-1077
▁organ	-1078
▁person	-1079
▁expl	-1080
▁prev	-1081
orters	-1082
▁hospital	-1083
▁har	-1084
▁used	-1085
▁later	-1086
▁univers	-1087
▁men	-1088
▁much	-1089
▁lee	-1090
ised	-1091
ided	-1092
▁mid	-1093
▁host	-1094
ij	-1095
▁ste	-1096
▁rese	-1097
▁human	-1098
ues	-1099
▁cand	-1100
▁develop	-1101
ves	-1102
ony	-1103
▁sum	-1104
▁peace	-1105
ky	-1106
ched	-1107
▁charg	-1108
▁life	-1109
▁threat	-1110
▁ago	-1111
▁bag	-1112
▁yester	-1113
▁yesterday	-1114
ax	-1115
loy	-1116
▁gre	-1117
▁ant	-1118
▁alleg	-1119
its	-1120
stem	-1121
▁prom	-1122
▁secretary	-1123
ames	-1124
▁adv	-1125
▁tele	-1126
ins	-1127
▁char	-1128
ened	-1129
▁pen	-1130
ones	-1131
▁civ	-1132
▁allow	-1133
▁aust	-1134
▁announced	-1135
ains	-1136
ont	-1137
▁fac	-1138
▁think	-1139
uel	-1140
▁sim	-1141
▁record	-1142
▁hy	-1143
▁free	-1144
▁star	-1145
▁admin	-1146
▁system	-1147
ired	-1148
ys	-1149
ets	-1150
▁site	-1151
▁post	-1152
bal	-1153
▁grow	-1154
▁held	-1155
▁stre	-1156
▁hold	-1157
▁past	-1158
▁area	-1159
▁met	-1160
▁glo	-1161
▁candid	-1162
▁san	-1163
▁ger	-1164
▁same	-1165
▁region	-1166
▁committ	-1167
lam	-1168
▁poll	-1169
ted	-1170
▁den	-1171
ference	-1172
▁financ	-1173
▁business	-1174
▁q	-1175
ified	-1176
▁ur	-1177
▁oil	-1178
▁invol	-1179
side	-1180
▁tec	-1181
ending	-1182
▁right	-1183
▁use	-1184
ects	-1185
▁pat	-1186
▁const	-1187
▁unt	-1188
▁today	-1189
▁hand	-1190
▁hom	-1191
estin	-1192
ention	-1193
▁university	-1194
▁place	-1195
▁job	-1196
▁prop	-1197
▁based	-1198
ov	-1199
ruct	-1200
▁proble	-1201
icle	-1202
iers	-1203
ering	-1204
▁case	-1205
▁stri	-1206
ury	-1207
▁cut	-1208
▁economy	-1209
ness	-1210
▁third	-1211
▁opposition	-1212
aff	-1213
ize	-1214
▁hit	-1215
▁released	-1216
view	-1217
▁bre	-1218
▁red	-1219
▁these	-1220
▁department	-1221
acy	-1222
▁hill	-1223
▁agree	-1224
▁roh	-1225
▁el	-1226
▁del	-1227
hd	-1228
▁your	-1229
▁il	-1230
▁morning	-1231
▁chr	-1232
▁media	-1233
▁half	-1234
▁quest	-1235
▁financial	-1236
oti	-1237
cept	-1238
iban	-1239
▁dri	-1240
riend	-1241
▁center	-1242
▁inform	-1243
aving	-1244
▁civil	-1245
▁prof	-1246
▁few	-1247
▁until	-1248
▁negoti	-1249
▁republic	-1250
co	-1251
▁ang	-1252
▁sit	-1253
▁come	-1254
▁find	-1255
▁trave	-1256
▁fight	-1257
▁hours	-1258
ondon	-1259
▁jun	-1260
▁late	-1261
▁islam	-1262
▁fund	-1263
▁local	-1264
▁indust	-1265
▁london	-1266
▁taliban	-1267
▁whether	-1268
▁without	-1269
ns	-1270
ides	-1271
▁protest	-1272
to	-1273
cess	-1274
▁bill	-1275
▁decl	-1276
aly	-1277
iting	-1278
aring	-1279
▁youn	-1280
istration	-1281
amed	-1282
▁disp	-1283
omin	-1284
ended	-1285
▁defense	-1286
▁som	-1287
▁weap	-1288
▁attacks	-1289
▁close	-1290
▁emer	-1291
▁vide	-1292
▁water	-1293
▁requ	-1294
▁taken	-1295
ik	-1296
▁led	-1297
▁nearly	-1298
▁nations	-1299
▁jan	-1300
▁sex	-1301
▁sing	-1302
▁appro	-1303
ason	-1304
▁beij	-1305
▁step	-1306
▁beijing	-1307
mp	-1308
▁space	-1309
▁strong	-1310
▁workers	-1311
uck	-1312
ually	-1313
▁money	-1314
ever	-1315
▁afghanistan	-1316
head	-1317
ished	-1318
▁japanese	-1319
▁palestin	-1320
▁others	-1321
▁austral	-1322
▁stand	-1323
▁geor	-1324
▁plans	-1325
▁py	-1326
▁vo	-1327
▁best	-1328
▁mccain	-1329
▁organiz	-1330
▁does	-1331
aining	-1332
▁polic	-1333
▁sour	-1334
▁short	-1335
▁deb	-1336
▁ris	-1337
ready	-1338
ds	-1339
ators	-1340
▁stop	-1341
▁administration	-1342
ived	-1343
▁laun	-1344
ats	-1345
▁exper	-1346
▁product	-1347
▁trad	-1348
▁baghd	-1349
▁comple	-1350
iving	-1351
iate	-1352
▁larg	-1353
▁already	-1354
▁service	-1355
▁appe	-1356
▁town	-1357
▁german	-1358
▁baghdad	-1359
▁central	-1360
▁lar	-1361
▁land	-1362
▁mass	-1363
self	-1364
▁beh	-1365
ove	-1366
▁kid	-1367
▁along	-1368
▁keep	-1369
els	-1370
▁conv	-1371
▁happ	-1372
▁hist	-1373
ield	-1374
▁activ	-1375
▁began	-1376
▁small	-1377
▁web	-1378
▁real	-1379
pped	-1380
▁confir	-1381
▁rights	-1382
▁es	-1383
aged	-1384
▁fail	-1385
ject	-1386
▁food	-1387
▁rece	-1388
▁force	-1389
mb	-1390
ission	-1391
▁env	-1392
rench	-1393
▁level	-1394
▁er	-1395
▁dam	-1396
▁army	-1397
▁known	-1398
▁control	-1399
ints	-1400
ology	-1401
▁let	-1402
▁hol	-1403
▁miles	-1404
▁christ	-1405
raw	-1406
▁emb	-1407
▁away	-1408
▁face	-1409
▁jud	-1410
▁thous	-1411
ium	-1412
ney	-1413
augh	-1414
▁parli	-1415
▁province	-1416
ounded	-1417
▁weeks	-1418
▁prison	-1419
irl	-1420
▁sn	-1421
▁each	-1422
▁current	-1423
▁decision	-1424
▁parliament	-1425
aper	-1426
▁french	-1427
▁sal	-1428
▁return	-1429
utes	-1430
▁lab	-1431
▁vote	-1432
▁clear	-1433
▁techn	-1434
▁however	-1435
ck	-1436
▁wal	-1437
ump	-1438
▁across	-1439
by	-1440
▁vir	-1441
▁av	-1442
▁lat	-1443
ae	-1444
ined	-1445
▁film	-1446
▁eight	-1447
▁southern	-1448
▁conference	-1449
ban	-1450
ety	-1451
▁soldiers	-1452
▁gas	-1453
idence	-1454
▁ju	-1455
▁ham	-1456
▁attem	-1457
▁barack	-1458
▁release	-1459
▁young	-1460
olution	-1461
▁woman	-1462
▁discuss	-1463
ims	-1464
▁aid	-1465
mak	-1466
▁information	-1467
get	-1468
▁issue	-1469
oo	-1470
str	-1471
▁hot	-1472
gency	-1473
less	-1474
▁pay	-1475
▁asked	-1476
▁trade	-1477
▁bord	-1478
▁girl	-1479
▁violence	-1480
▁relations	-1481
cil	-1482
yang	-1483
▁east	-1484
oon	-1485
▁here	-1486
▁point	-1487
▁weapons	-1488
▁global	-1489
▁arrested	-1490
▁agreement	-1491
▁foot	-1492
▁coup	-1493
▁final	-1494
▁russia	-1495
▁militants	-1496
go	-1497
▁making	-1498
sh	-1499
▁tot	-1500
▁march	-1501
▁care	-1502
▁park	-1503
ession	-1504
▁change	-1505
▁prices	-1506
lood	-1507
▁form	-1508
▁taking	-1509
▁students	-1510
▁fact	-1511
▁demand	-1512
▁execut	-1513
▁european	-1514
▁thousands	-1515
▁largest	-1516
▁following	-1517
▁inte	-1518
erv	-1519
ploy	-1520
▁reb	-1521
avy	-1522
▁friend	-1523
▁israeli	-1524
be	-1525
▁killing	-1526
▁di	-1527
▁mal	-1528
▁body	-1529
▁key	-1530
▁arri	-1531
ically	-1532
▁northern	-1533
ina	-1534
ases	-1535
▁tax	-1536
▁cost	-1537
▁video	-1538
ongyang	-1539
▁appear	-1540
▁calif	-1541
▁seven	-1542
▁gun	-1543
▁give	-1544
▁seen	-1545
ried	-1546
▁afric	-1547
bo	-1548
▁internet	-1549
arth	-1550
▁caus	-1551
▁become	-1552
▁federal	-1553
▁fur	-1554
ience	-1555
▁black	-1556
▁ident	-1557
▁agreed	-1558
▁scient	-1559
ards	-1560
▁fall	-1561
▁import	-1562
▁californ	-1563
▁port	-1564
▁got	-1565
▁mod	-1566
▁large	-1567
▁alleged	-1568
▁desp	-1569
▁added	-1570
▁california	-1571
ars	-1572
eng	-1573
har	-1574
▁net	-1575
▁great	-1576
▁concern	-1577
ank	-1578
ham	-1579
▁britain	-1580
▁might	-1581
▁points	-1582
duc	-1583
ressed	-1584
▁telev	-1585
▁tre	-1586
▁list	-1587
▁begin	-1588
▁committee	-1589
▁pyongyang	-1590
▁hund	-1591
▁never	-1592
▁trying	-1593
▁hundred	-1594
▁targ	-1595
mediate	-1596
▁congress	-1597
▁rad	-1598
▁airport	-1599
▁prosecut	-1600
ech	-1601
▁batt	-1602
▁cris	-1603
uge	-1604
▁hig	-1605
estern	-1606
▁interview	-1607
▁article	-1608
▁elections	-1609
ially	-1610
▁ahead	-1611
▁chair	-1612
▁island	-1613
▁director	-1614
rap	-1615
▁outside	-1616
ley	-1617
▁ri	-1618
▁jour	-1619
▁working	-1620
▁immediate	-1621
ract	-1622
uary	-1623
ption	-1624
▁shar	-1625
▁despite	-1626
ergy	-1627
ittle	-1628
▁accused	-1629
rug	-1630
▁went	-1631
▁associated	-1632
hers	-1633
▁meas	-1634
ection	-1635
▁likely	-1636
ef	-1637
ored	-1638
▁super	-1639
▁partic	-1640
▁emergency	-1641
mar	-1642
▁gaz	-1643
mit	-1644
▁mean	-1645
atic	-1646
▁hard	-1647
▁less	-1648
▁perf	-1649
▁charges	-1650
▁palestinian	-1651
oy	-1652
▁must	-1653
lymp	-1654
▁fut	-1655
▁olymp	-1656
ulation	-1657
eda	-1658
lom	-1659
▁cho	-1660
▁shot	-1661
▁broad	-1662
▁little	-1663
ival	-1664
▁somet	-1665
▁coll	-1666
▁estim	-1667
▁crisis	-1668
br	-1669
▁dav	-1670
▁mos	-1671
▁earth	-1672
▁senior	-1673
▁possible	-1674
▁research	-1675
▁low	-1676
▁side	-1677
▁energy	-1678
▁investigation	-1679
▁ord	-1680
ached	-1681
▁border	-1682
ults	-1683
▁sept	-1684
▁union	-1685
▁critic	-1686
▁amb	-1687
▁road	-1688
▁france	-1689
▁groups	-1690
▁council	-1691
▁process	-1692
lish	-1693
▁chang	-1694
▁station	-1695
▁companies	-1696
▁qa	-1697
▁los	-1698
▁too	-1699
imin	-1700
▁lot	-1701
ccess	-1702
▁commission	-1703
ler	-1704
▁dip	-1705
▁priv	-1706
▁west	-1707
▁policy	-1708
▁fell	-1709
▁grand	-1710
▁january	-1711
▁interest	-1712
ew	-1713
▁believe	-1714
urch	-1715
▁bas	-1716
▁suff	-1717
▁question	-1718
▁mot	-1719
▁coast	-1720
▁newsp	-1721
itions	-1722
▁boy	-1723
▁mag	-1724
▁mat	-1725
▁val	-1726
▁corp	-1727
▁deleg	-1728
▁total	-1729
▁latest	-1730
com	-1731
▁june	-1732
▁command	-1733
che	-1734
ggest	-1735
▁game	-1736
▁suggest	-1737
▁reporters	-1738
rem	-1739
▁live	-1740
▁suic	-1741
▁qaeda	-1742
▁x	-1743
ape	-1744
▁ill	-1745
▁occ	-1746
▁within	-1747
▁tell	-1748
▁continue	-1749
▁mov	-1750
▁dest	-1751
▁july	-1752
astern	-1753
ald	-1754
ona	-1755
▁desc	-1756
▁showed	-1757
▁attempt	-1758
▁special	-1759
▁previous	-1760
pr	-1761
▁gl	-1762
▁shut	-1763
▁front	-1764
nal	-1765
▁diplom	-1766
▁toward	-1767
▁travel	-1768
▁further	-1769
▁drug	-1770
▁sk	-1771
most	-1772
▁due	-1773
ming	-1774
▁line	-1775
▁break	-1776
▁watch	-1777
▁building	-1778
▁rev	-1779
▁member	-1780
▁america	-1781
▁candidate	-1782
▁once	-1783
▁cross	-1784
ta	-1785
▁anti	-1786
▁prim	-1787
▁heart	-1788
▁treat	-1789
ann	-1790
cast	-1791
▁capt	-1792
▁name	-1793
▁carry	-1794
raft	-1795
▁dist	-1796
itution	-1797
▁minutes	-1798
▁respons	-1799
▁weekend	-1800
▁mur	-1801
▁cust	-1802
▁england	-1803
iven	-1804
ane	-1805
▁ran	-1806
▁george	-1807
▁efforts	-1808
ush	-1809
▁sea	-1810
▁ship	-1811
ertain	-1812
inc	-1813
▁success	-1814
▁gaza	-1815
▁september	-1816
ighb	-1817
▁neighb	-1818
▁round	-1819
eration	-1820
▁consid	-1821
▁mess	-1822
par	-1823
▁anim	-1824
▁lost	-1825
▁order	-1826
▁hundreds	-1827
▁television	-1828
ino	-1829
▁soc	-1830
▁doll	-1831
▁ruling	-1832
▁medical	-1833
▁suicide	-1834
▁class	-1835
▁storm	-1836
▁lawmak	-1837
▁div	-1838
idents	-1839
raf	-1840
▁equ	-1841
▁mak	-1842
▁event	-1843
▁pot	-1844
epend	-1845
▁employ	-1846
▁independ	-1847
ening	-1848
▁surve	-1849
▁sol	-1850
uation	-1851
▁using	-1852
▁russian	-1853
ways	-1854
▁rom	-1855
▁consum	-1856
▁americans	-1857
ibility	-1858
ya	-1859
▁cit	-1860
▁squ	-1861
asing	-1862
▁race	-1863
▁sched	-1864
▁study	-1865
▁explos	-1866
▁repres	-1867
▁victory	-1868
oman	-1869
icted	-1870
▁nomin	-1871
▁serious	-1872
ude	-1873
▁ky	-1874
▁hur	-1875
▁hus	-1876
▁demon	-1877
▁comput	-1878
▁future	-1879
▁series	-1880
▁resc	-1881
▁soon	-1882
▁stay	-1883
▁better	-1884
cl	-1885
na	-1886
▁term	-1887
▁deter	-1888
ril	-1889
thing	-1890
▁father	-1891
▁mother	-1892
▁target	-1893
▁full	-1894
▁confirmed	-1895
urg	-1896
uty	-1897
ague	-1898
▁nat	-1899
▁trip	-1900
▁mount	-1901
▁produc	-1902
▁street	-1903
▁industry	-1904
▁communist	-1905
oint	-1906
▁react	-1907
▁journal	-1908
▁feb	-1909
▁december	-1910
ades	-1911
▁tem	-1912
woman	-1913
▁phot	-1914
harraf	-1915
▁bring	-1916
▁musharraf	-1917
ili	-1918
xic	-1919
▁fuel	-1920
▁april	-1921
▁action	-1922
▁dev	-1923
▁cell	-1924
▁ever	-1925
▁ground	-1926
ze	-1927
▁tv	-1928
▁doct	-1929
▁almost	-1930
▁wa	-1931
aced	-1932
apped	-1933
▁view	-1934
▁aug	-1935
▁dou	-1936
▁able	-1937
▁book	-1938
▁injured	-1939
▁homes	-1940
▁wounded	-1941
▁ty	-1942
oring	-1943
▁though	-1944
▁yet	-1945
▁really	-1946
iam	-1947
mber	-1948
▁hope	-1949
▁mich	-1950
▁champ	-1951
▁inside	-1952
dle	-1953
▁oct	-1954
ada	-1955
ari	-1956
ten	-1957
▁veh	-1958
ising	-1959
▁init	-1960
▁angel	-1961
▁enough	-1962
▁having	-1963
▁describ	-1964
▁koreans	-1965
▁started	-1966
▁important	-1967
arc	-1968
ees	-1969
imb	-1970
key	-1971
▁alth	-1972
▁history	-1973
▁although	-1974
ule	-1975
ring	-1976
▁vol	-1977
▁involved	-1978
ances	-1979
▁nove	-1980
▁analy	-1981
▁david	-1982
▁november	-1983
▁asia	-1984
▁behind	-1985
▁coming	-1986
▁sources	-1987
▁chairman	-1988
iron	-1989
▁cle	-1990
▁wall	-1991
▁western	-1992
▁quar	-1993
▁result	-1994
▁season	-1995
▁republican	-1996
ani	-1997
pre	-1998
▁ken	-1999
▁roc	-2000
▁believed	-2001
▁fighting	-2002
que	-2003
▁fig	-2004
▁wife	-2005
▁given	-2006
▁accept	-2007
▁king	-2008
▁rice	-2009
▁design	-2010
▁environ	-2011
itional	-2012
▁leading	-2013
▁cred	-2014
▁dise	-2015
▁room	-2016
▁areas	-2017
▁flight	-2018
▁amid	-2019
▁exch	-2020
▁nine	-2021
▁arg	-2022
▁vill	-2023
▁private	-2024
▁comes	-2025
▁whose	-2026
yal	-2027
▁india	-2028
ruction	-2029
▁environment	-2030
ida	-2031
tle	-2032
▁labor	-2033
▁stock	-2034
▁search	-2035
▁conduct	-2036
zy	-2037
▁arab	-2038
▁rich	-2039
ferent	-2040
uled	-2041
▁ide	-2042
▁coal	-2043
▁indic	-2044
imate	-2045
▁sell	-2046
▁problems	-2047
bc	-2048
▁detail	-2049
▁organization	-2050
ole	-2051
▁ball	-2052
▁role	-2053
▁plane	-2054
▁august	-2055
▁middle	-2056
▁ben	-2057
▁hyun	-2058
▁victims	-2059
▁different	-2060
▁fear	-2061
▁son	-2062
aps	-2063
▁bad	-2064
▁base	-2065
▁newspaper	-2066
▁represent	-2067
▁doc	-2068
▁mer	-2069
▁doz	-2070
▁mill	-2071
▁insp	-2072
▁evidence	-2073
▁pet	-2074
▁comb	-2075
▁kidn	-2076
▁rate	-2077
▁surv	-2078
▁voters	-2079
umb	-2080
itted	-2081
▁wants	-2082
▁planned	-2083
ably	-2084
ging	-2085
▁distr	-2086
▁heavy	-2087
▁mic	-2088
ellig	-2089
▁infl	-2090
▁wanted	-2091
▁mark	-2092
▁shoot	-2093
▁mission	-2094
▁intellig	-2095
▁scientists	-2096
pl	-2097
▁gave	-2098
▁light	-2099
▁music	-2100
▁turned	-2101
ago	-2102
▁cat	-2103
▁paul	-2104
▁australia	-2105
ster	-2106
▁looking	-2107
▁increase	-2108
▁cab	-2109
▁dro	-2110
ruary	-2111
▁didn	-2112
▁brown	-2113
▁compet	-2114
▁problem	-2115
▁february	-2116
▁crow	-2117
▁withd	-2118
▁results	-2119
ex	-2120
oud	-2121
▁board	-2122
▁assist	-2123
ograp	-2124
▁read	-2125
▁resign	-2126
▁islamic	-2127
gest	-2128
▁wat	-2129
arent	-2130
itive	-2131
▁calls	-2132
▁illeg	-2133
▁senate	-2134
▁analyst	-2135
▁pan	-2136
▁flor	-2137
▁lawy	-2138
▁movie	-2139
▁train	-2140
▁deaths	-2141
▁spokeswoman	-2142
▁crew	-2143
▁goal	-2144
▁announce	-2145
let	-2146
off	-2147
▁age	-2148
▁sad	-2149
iding	-2150
▁pack	-2151
▁green	-2152
▁received	-2153
cer	-2154
oted	-2155
▁ver	-2156
▁asse	-2157
▁tried	-2158
▁summit	-2159
▁markets	-2160
▁appeared	-2161
▁incident	-2162
▁bid	-2163
▁feel	-2164
▁conserv	-2165
fic	-2166
wan	-2167
▁ll	-2168
▁recently	-2169
▁supporters	-2170
▁ren	-2171
▁prosecutors	-2172
bert	-2173
▁bab	-2174
▁lim	-2175
▁pub	-2176
▁negotiations	-2177
▁os	-2178
▁tib	-2179
verage	-2180
▁price	-2181
▁assemb	-2182
▁loss	-2183
esters	-2184
▁couple	-2185
▁situation	-2186
ober	-2187
▁turn	-2188
gether	-2189
▁october	-2190
▁thought	-2191
▁together	-2192
▁protesters	-2193
▁docu	-2194
▁tibet	-2195
▁scheduled	-2196
▁development	-2197
▁intelligence	-2198
ays	-2199
ify	-2200
duce	-2201
▁bri	-2202
▁mad	-2203
▁saf	-2204
▁cele	-2205
▁district	-2206
▁constitution	-2207
▁nas	-2208
▁needed	-2209
▁foc	-2210
▁separ	-2211
▁florida	-2212
▁germany	-2213
▁something	-2214
han	-2215
kyo	-2216
men	-2217
work	-2218
▁vice	-2219
▁cause	-2220
▁citiz	-2221
▁hotel	-2222
▁tokyo	-2223
aughter	-2224
▁request	-2225
▁ca	-2226
down	-2227
▁kil	-2228
atives	-2229
▁games	-2230
▁disease	-2231
ma	-2232
band	-2233
wide	-2234
▁cup	-2235
▁lin	-2236
▁services	-2237
▁adm	-2238
▁chall	-2239
▁hamas	-2240
▁caused	-2241
▁issues	-2242
▁immediately	-2243
▁mom	-2244
orney	-2245
▁leban	-2246
▁decided	-2247
▁attorney	-2248
▁technology	-2249
▁bh	-2250
▁hong	-2251
▁seem	-2252
▁simp	-2253
▁judge	-2254
▁staff	-2255
▁growth	-2256
▁online	-2257
ael	-2258
itz	-2259
▁lif	-2260
▁tit	-2261
▁clos	-2262
▁deep	-2263
▁musl	-2264
▁paris	-2265
▁eastern	-2266
▁include	-2267
▁operation	-2268
▁uk	-2269
▁moo	-2270
▁shi	-2271
▁biggest	-2272
▁getting	-2273
▁growing	-2274
▁reached	-2275
ador	-2276
▁aim	-2277
▁fat	-2278
▁quick	-2279
▁church	-2280
rew	-2281
ula	-2282
ager	-2283
▁popular	-2284
ayed	-2285
▁kar	-2286
▁beat	-2287
▁prep	-2288
▁impro	-2289
▁lower	-2290
▁claimed	-2291
▁quarter	-2292
▁coalition	-2293
ots	-2294
use	-2295
▁gold	-2296
lished	-2297
▁missing	-2298
▁pressure	-2299
▁lawmakers	-2300
▁esc	-2301
▁try	-2302
▁award	-2303
▁assembly	-2304
▁officers	-2305
▁saw	-2306
▁expect	-2307
▁apparent	-2308
lin	-2309
▁league	-2310
▁strike	-2311
▁warning	-2312
▁pakistani	-2313
▁nec	-2314
▁pos	-2315
itness	-2316
▁summer	-2317
▁exchange	-2318
stand	-2319
▁polls	-2320
▁closed	-2321
▁hillary	-2322
roy	-2323
iana	-2324
over	-2325
▁kind	-2326
▁phone	-2327
▁project	-2328
▁tex	-2329
▁deli	-2330
▁sark	-2331
▁colle	-2332
▁angeles	-2333
▁condition	-2334
▁executive	-2335
yl	-2336
ither	-2337
▁effect	-2338
▁speech	-2339
▁provide	-2340
wh	-2341
oid	-2342
ball	-2343
here	-2344
▁tens	-2345
▁joint	-2346
▁mexic	-2347
▁warned	-2348
▁officer	-2349
val	-2350
▁fav	-2351
overed	-2352
▁sarko	-2353
▁remain	-2354
▁survey	-2355
▁protests	-2356
▁educ	-2357
▁jail	-2358
▁democr	-2359
▁issued	-2360
▁charged	-2361
ni	-2362
▁id	-2363
▁repl	-2364
▁failed	-2365
▁instit	-2366
hu	-2367
▁dang	-2368
▁jobs	-2369
▁prob	-2370
▁share	-2371
▁address	-2372
▁protect	-2373
raz	-2374
▁effort	-2375
▁sarkozy	-2376
hen	-2377
igr	-2378
ode	-2379
▁wind	-2380
▁sanct	-2381
▁counter	-2382
▁rob	-2383
▁pain	-2384
▁lives	-2385
▁transf	-2386
▁hostages	-2387
ories	-2388
ential	-2389
▁match	-2390
▁speak	-2391
▁texas	-2392
▁running	-2393
ural	-2394
▁fle	-2395
▁asian	-2396
▁olympic	-2397
▁democracy	-2398
zz	-2399
▁send	-2400
▁flood	-2401
▁experts	-2402
▁respond	-2403
▁speaking	-2404
rents	-2405
▁cann	-2406
▁pred	-2407
▁opened	-2408
▁social	-2409
▁justice	-2410
den	-2411
▁je	-2412
▁story	-2413
ounding	-2414
▁colomb	-2415
▁complete	-2416
▁majority	-2417
bs	-2418
cy	-2419
▁hon	-2420
▁blast	-2421
▁doing	-2422
▁community	-2423
▁offer	-2424
▁sales	-2425
▁things	-2426
▁launched	-2427
ires	-2428
ners	-2429
▁field	-2430
▁higher	-2431
▁named	-2432
▁forced	-2433
▁turkey	-2434
▁why	-2435
▁became	-2436
▁programs	-2437
▁continued	-2438
ilar	-2439
▁eth	-2440
arian	-2441
▁bhut	-2442
▁cult	-2443
▁battle	-2444
▁dail	-2445
▁safety	-2446
▁civilians	-2447
ott	-2448
▁wild	-2449
▁county	-2450
ounds	-2451
▁embass	-2452
▁senator	-2453
▁ten	-2454
ality	-2455
▁talk	-2456
▁celebr	-2457
▁diffic	-2458
▁virgin	-2459
▁researc	-2460
▁radio	-2461
▁urged	-2462
▁disapp	-2463
▁primary	-2464
iod	-2465
▁ey	-2466
▁bir	-2467
▁tom	-2468
▁tor	-2469
ensive	-2470
▁leave	-2471
▁arrived	-2472
▁parties	-2473
▁prevent	-2474
▁concerns	-2475
▁described	-2476
▁difficult	-2477
▁residents	-2478
uted	-2479
▁tim	-2480
▁rule	-2481
▁shows	-2482
▁similar	-2483
udi	-2484
▁damage	-2485
▁himself	-2486
▁indones	-2487
▁present	-2488
▁governor	-2489
▁measures	-2490
▁delegates	-2491
▁association	-2492
bi	-2493
ana	-2494
aled	-2495
vere	-2496
▁coop	-2497
▁compl	-2498
▁daily	-2499
▁comment	-2500
▁stat	-2501
▁often	-2502
▁bhutto	-2503
▁denied	-2504
▁oh	-2505
while	-2506
▁wide	-2507
▁william	-2508
▁witness	-2509
▁carrying	-2510
▁daughter	-2511
▁cast	-2512
▁conn	-2513
▁cerem	-2514
▁period	-2515
▁estimated	-2516
▁identified	-2517
ction	-2518
ortun	-2519
▁cars	-2520
▁prem	-2521
▁message	-2522
airs	-2523
ares	-2524
▁bod	-2525
uries	-2526
▁dism	-2527
▁hous	-2528
jected	-2529
▁fired	-2530
▁river	-2531
▁access	-2532
▁credit	-2533
▁deputy	-2534
▁destroy	-2535
▁ordered	-2536
ne	-2537
ote	-2538
▁buy	-2539
▁africa	-2540
▁calling	-2541
ron	-2542
uses	-2543
▁cop	-2544
▁non	-2545
▁ple	-2546
▁kong	-2547
▁laws	-2548
▁cabin	-2549
▁store	-2550
▁husband	-2551
▁progress	-2552
▁australian	-2553
▁resolution	-2554
▁always	-2555
▁parents	-2556
▁demonstr	-2557
aces	-2558
iles	-2559
▁wel	-2560
ilies	-2561
▁chance	-2562
▁launch	-2563
▁robert	-2564
▁average	-2565
ocks	-2566
pted	-2567
▁enc	-2568
ashed	-2569
▁done	-2570
▁scre	-2571
▁cases	-2572
▁traff	-2573
▁danger	-2574
▁minute	-2575
▁missile	-2576
▁families	-2577
▁meanwhile	-2578
▁production	-2579
rugg	-2580
▁dog	-2581
▁safe	-2582
▁smok	-2583
▁reform	-2584
▁michael	-2585
▁profess	-2586
▁champions	-2587
▁population	-2588
iff	-2589
▁hun	-2590
anmar	-2591
▁rout	-2592
▁funds	-2593
▁myanmar	-2594
oming	-2595
▁legal	-2596
▁scene	-2597
▁strugg	-2598
▁illegal	-2599
▁computer	-2600
uf	-2601
ask	-2602
igin	-2603
heast	-2604
▁details	-2605
▁included	-2606
▁suspected	-2607
ania	-2608
hest	-2609
▁club	-2610
▁pict	-2611
▁royal	-2612
▁spent	-2613
▁ambass	-2614
▁brought	-2615
▁certain	-2616
▁iranian	-2617
▁citizens	-2618
▁particip	-2619
▁withdraw	-2620
uk	-2621
ata	-2622
isl	-2623
▁brief	-2624
▁engine	-2625
▁ah	-2626
▁pled	-2627
▁armed	-2628
▁camer	-2629
ecution	-2630
▁sanctions	-2631
▁candidates	-2632
▁increasing	-2633
ches	-2634
iter	-2635
▁esp	-2636
▁resum	-2637
▁embassy	-2638
▁expressed	-2639
▁aw	-2640
▁cy	-2641
▁bit	-2642
▁bene	-2643
▁freed	-2644
▁custom	-2645
▁played	-2646
▁related	-2647
▁followed	-2648
▁transport	-2649
▁risk	-2650
▁guard	-2651
▁mater	-2652
▁commer	-2653
▁living	-2654
iled	-2655
▁dow	-2656
▁fif	-2657
▁mart	-2658
▁broke	-2659
▁aftern	-2660
▁terrorist	-2661
kn	-2662
rel	-2663
▁ele	-2664
ences	-2665
▁nato	-2666
▁rise	-2667
▁carried	-2668
▁english	-2669
irc	-2670
▁abd	-2671
▁cas	-2672
▁mob	-2673
▁obs	-2674
▁mult	-2675
▁rally	-2676
▁worst	-2677
▁afternoon	-2678
ault	-2679
▁bal	-2680
▁sud	-2681
enced	-2682
▁lear	-2683
▁norm	-2684
selves	-2685
▁doesn	-2686
▁ended	-2687
▁ready	-2688
▁trial	-2689
▁fourth	-2690
▁accident	-2691
▁comments	-2692
▁contract	-2693
▁activities	-2694
ilt	-2695
▁imm	-2696
▁pun	-2697
▁means	-2698
▁track	-2699
▁kilome	-2700
▁brother	-2701
▁friends	-2702
▁streets	-2703
een	-2704
orth	-2705
read	-2706
▁ber	-2707
▁huge	-2708
▁snow	-2709
▁favor	-2710
▁refuge	-2711
▁opening	-2712
▁refused	-2713
▁democrats	-2714
▁nomination	-2715
mad	-2716
▁chic	-2717
▁crowd	-2718
▁parts	-2719
▁raised	-2720
▁allowed	-2721
▁cabinet	-2722
▁doctors	-2723
▁millions	-2724
▁researchers	-2725
ev	-2726
tt	-2727
ges	-2728
hel	-2729
▁fly	-2730
▁nor	-2731
agement	-2732
▁bodies	-2733
▁claims	-2734
▁legisl	-2735
▁leaving	-2736
▁position	-2737
▁returned	-2738
▁bud	-2739
▁fun	-2740
▁rose	-2741
engers	-2742
▁blood	-2743
▁rival	-2744
▁source	-2745
▁account	-2746
▁african	-2747
▁controvers	-2748
▁tai	-2749
▁occur	-2750
▁matter	-2751
▁rocket	-2752
▁struck	-2753
▁ambassador	-2754
▁feat	-2755
▁turk	-2756
▁advis	-2757
▁crash	-2758
▁putin	-2759
▁resol	-2760
ead	-2761
iant	-2762
lant	-2763
orce	-2764
uing	-2765
▁fem	-2766
aging	-2767
▁rain	-2768
▁broadcast	-2769
▁terrorism	-2770
▁conditions	-2771
ceed	-2772
iance	-2773
▁braz	-2774
▁circ	-2775
▁sure	-2776
▁surr	-2777
▁rescue	-2778
hood	-2779
▁mis	-2780
atory	-2781
insula	-2782
▁needs	-2783
ighters	-2784
▁origin	-2785
▁peninsula	-2786
▁love	-2787
▁poor	-2788
▁birth	-2789
▁hopes	-2790
▁sites	-2791
▁stage	-2792
ilities	-2793
▁prince	-2794
▁instead	-2795
▁material	-2796
▁passengers	-2797
rial	-2798
▁typ	-2799
▁operations	-2800
amin	-2801
▁cub	-2802
▁pul	-2803
aries	-2804
going	-2805
▁reach	-2806
▁cities	-2807
▁traffic	-2808
amb	-2809
▁gn	-2810
▁ts	-2811
▁avail	-2812
▁estab	-2813
▁mexico	-2814
▁quoted	-2815
▁forward	-2816
ara	-2817
▁pic	-2818
inois	-2819
▁sect	-2820
▁debate	-2821
▁passed	-2822
▁taiwan	-2823
▁illinois	-2824
▁published	-2825
lled	-2826
onse	-2827
▁fans	-2828
▁gener	-2829
ability	-2830
▁course	-2831
▁holding	-2832
▁trading	-2833
aped	-2834
wood	-2835
▁brazil	-2836
▁spread	-2837
▁communic	-2838
▁interior	-2839
ha	-2840
▁nom	-2841
▁pil	-2842
▁card	-2843
▁banks	-2844
▁natur	-2845
▁spending	-2846
▁announcement	-2847
iet	-2848
ift	-2849
ows	-2850
resp	-2851
▁feet	-2852
▁hands	-2853
▁liber	-2854
▁restr	-2855
▁relationship	-2856
ece	-2857
aves	-2858
▁pus	-2859
▁swe	-2860
istic	-2861
▁repe	-2862
▁temp	-2863
▁smith	-2864
▁common	-2865
▁nothing	-2866
▁available	-2867
arks	-2868
▁bul	-2869
▁eas	-2870
ograph	-2871
▁chung	-2872
▁micro	-2873
▁contest	-2874
▁network	-2875
ped	-2876
▁gnp	-2877
itten	-2878
▁draw	-2879
▁evac	-2880
▁carol	-2881
▁crack	-2882
▁index	-2883
▁saudi	-2884
▁histor	-2885
▁insurg	-2886
ding	-2887
hold	-2888
▁fel	-2889
▁pow	-2890
izing	-2891
▁ital	-2892
▁franc	-2893
▁makes	-2894
▁chicago	-2895
▁suffered	-2896
emy	-2897
itor	-2898
▁aud	-2899
▁dae	-2900
anish	-2901
pping	-2902
▁focus	-2903
▁moved	-2904
▁surpr	-2905
▁murder	-2906
▁currently	-2907
ria	-2908
owed	-2909
▁und	-2910
▁aimed	-2911
▁concer	-2912
▁rising	-2913
ification	-2914
ateg	-2915
idge	-2916
▁pur	-2917
▁sle	-2918
▁vac	-2919
▁astr	-2920
itting	-2921
▁influ	-2922
▁annual	-2923
▁charge	-2924
▁longer	-2925
▁nomine	-2926
▁worked	-2927
▁contact	-2928
▁schools	-2929
▁ceremony	-2930
▁education	-2931
▁treatment	-2932
▁investment	-2933
▁dom	-2934
▁hen	-2935
▁unf	-2936
licop	-2937
▁soci	-2938
▁teen	-2939
▁trou	-2940
▁crimin	-2941
▁signed	-2942
▁helicop	-2943
▁winning	-2944
▁declared	-2945
oned	-2946
▁pac	-2947
▁data	-2948
▁sens	-2949
▁teac	-2950
▁worth	-2951
ization	-2952
▁cannot	-2953
▁either	-2954
▁rebels	-2955
▁square	-2956
▁decades	-2957
▁virginia	-2958
▁themselves	-2959
atell	-2960
ients	-2961
▁born	-2962
▁harry	-2963
▁steps	-2964
▁lawyer	-2965
▁letter	-2966
▁muslim	-2967
▁affairs	-2968
▁analysts	-2969
▁movement	-2970
▁response	-2971
▁signific	-2972
ugh	-2973
▁ol	-2974
▁mail	-2975
iation	-2976
▁cover	-2977
▁creat	-2978
▁thing	-2979
▁helped	-2980
▁satell	-2981
▁players	-2982
▁neighbor	-2983
▁increased	-2984
▁institute	-2985
▁diplomatic	-2986
▁bak	-2987
▁ice	-2988
icles	-2989
▁lack	-2990
inking	-2991
▁above	-2992
ruption	-2993
▁moment	-2994
▁professor	-2995
▁discovered	-2996
▁particular	-2997
ike	-2998
fully	-2999
overy	-3000
▁adding	-3001
▁atlant	-3002
▁century	-3003
▁weather	-3004
▁injuries	-3005
▁personal	-3006
▁probably	-3007
▁employees	-3008
▁dub	-3009
▁bang	-3010
▁appoint	-3011
▁remains	-3012
▁consider	-3013
▁commander	-3014
▁kilometers	-3015
hol	-3016
ker	-3017
▁moon	-3018
▁toll	-3019
▁italy	-3020
▁challen	-3021
▁collect	-3022
▁construction	-3023
▁asp	-3024
▁blo	-3025
aling	-3026
ocked	-3027
▁date	-3028
ological	-3029
▁questions	-3030
▁investigators	-3031
▁flo	-3032
▁fill	-3033
▁female	-3034
▁highest	-3035
▁quickly	-3036
▁destroyed	-3037
▁dar	-3038
▁opt	-3039
itude	-3040
▁nasa	-3041
▁rare	-3042
▁spot	-3043
▁weak	-3044
▁plant	-3045
▁dozens	-3046
▁indian	-3047
▁overse	-3048
▁playing	-3049
▁understand	-3050
aur	-3051
hua	-3052
▁ho	-3053
cing	-3054
▁row	-3055
▁xin	-3056
▁fort	-3057
apping	-3058
▁spain	-3059
▁create	-3060
▁deploy	-3061
▁dollars	-3062
▁earthqu	-3063
▁italian	-3064
▁natural	-3065
▁industrial	-3066
▁independent	-3067
uit	-3068
▁displ	-3069
▁jones	-3070
▁giving	-3071
▁manager	-3072
▁turkish	-3073
▁threatened	-3074
avez	-3075
gypt	-3076
▁exc	-3077
▁sil	-3078
house	-3079
preme	-3080
▁vers	-3081
idered	-3082
▁chavez	-3083
▁dollar	-3084
▁reason	-3085
▁supreme	-3086
▁anything	-3087
▁shooting	-3088
gu	-3089
nel	-3090
erve	-3091
▁abb	-3092
▁ful	-3093
▁unc	-3094
▁arch	-3095
▁drop	-3096
▁farm	-3097
▁egypt	-3098
▁espec	-3099
▁numbers	-3100
▁seeking	-3101
▁approved	-3102
▁detained	-3103
▁transfer	-3104
▁especially	-3105
▁everything	-3106
▁bi	-3107
▁ii	-3108
▁jer	-3109
▁nic	-3110
ional	-3111
▁mosc	-3112
▁paid	-3113
▁phys	-3114
▁maint	-3115
▁mayor	-3116
▁stren	-3117
▁necess	-3118
▁changes	-3119
▁vehicle	-3120
▁allegedly	-3121
▁considered	-3122
af	-3123
arm	-3124
omp	-3125
aded	-3126
▁die	-3127
▁song	-3128
isters	-3129
▁marri	-3130
▁speed	-3131
▁nearby	-3132
▁hearing	-3133
▁richard	-3134
of	-3135
nam	-3136
olf	-3137
▁kh	-3138
enez	-3139
room	-3140
west	-3141
▁mac	-3142
aught	-3143
craft	-3144
jects	-3145
▁defe	-3146
▁idea	-3147
▁jack	-3148
▁regul	-3149
▁barrel	-3150
▁commit	-3151
▁corpor	-3152
▁levels	-3153
▁moscow	-3154
▁review	-3155
▁evening	-3156
▁politic	-3157
▁opportun	-3158
▁allegations	-3159
outh	-3160
▁posted	-3161
▁single	-3162
▁streng	-3163
▁massive	-3164
▁additional	-3165
▁fre	-3166
▁code	-3167
▁kept	-3168
▁range	-3169
▁sides	-3170
▁condem	-3171
▁sexual	-3172
▁mountain	-3173
yan	-3174
come	-3175
▁abs	-3176
▁euro	-3177
▁lang	-3178
▁georg	-3179
▁wrong	-3180
▁perfor	-3181
▁dropped	-3182
▁session	-3183
▁carolina	-3184
▁apparently	-3185
▁prosecution	-3186
akes	-3187
▁kur	-3188
onaut	-3189
▁blue	-3190
▁doub	-3191
▁join	-3192
▁shin	-3193
▁autom	-3194
▁check	-3195
▁title	-3196
▁happened	-3197
▁attention	-3198
▁convicted	-3199
▁cro	-3200
▁bird	-3201
▁stra	-3202
▁backed	-3203
▁driving	-3204
▁remarks	-3205
▁investors	-3206
▁potential	-3207
▁criticized	-3208
▁responsible	-3209
▁significant	-3210
hi	-3211
ylv	-3212
body	-3213
mine	-3214
▁dig	-3215
ively	-3216
▁reve	-3217
▁shiite	-3218
▁aircraft	-3219
▁critical	-3220
▁training	-3221
quar	-3222
▁las	-3223
nsylv	-3224
▁jump	-3225
▁muse	-3226
▁extra	-3227
▁pennsylv	-3228
▁responsibility	-3229
▁sel	-3230
lines	-3231
▁firm	-3232
▁propos	-3233
▁college	-3234
▁visitors	-3235
pts	-3236
▁rod	-3237
apers	-3238
hered	-3239
▁purs	-3240
▁soft	-3241
▁cance	-3242
▁costs	-3243
▁sharp	-3244
▁venez	-3245
▁cancer	-3246
▁xinhua	-3247
▁society	-3248
▁admitted	-3249
▁venezuel	-3250
▁environmental	-3251
▁parliamentary	-3252
ken	-3253
▁ow	-3254
ream	-3255
▁ale	-3256
▁ron	-3257
▁uri	-3258
isted	-3259
phone	-3260
▁whom	-3261
▁crime	-3262
▁heard	-3263
ination	-3264
▁attend	-3265
▁animals	-3266
▁alliance	-3267
▁products	-3268
▁authority	-3269
▁buildings	-3270
ado	-3271
agon	-3272
ises	-3273
▁haw	-3274
ufact	-3275
▁arms	-3276
▁ohio	-3277
▁boost	-3278
▁subst	-3279
▁manufact	-3280
▁planning	-3281
▁indonesia	-3282
▁prisoners	-3283
▁conservative	-3284
▁independence	-3285
▁pennsylvania	-3286
kes	-3287
gery	-3288
▁bin	-3289
▁seat	-3290
ailand	-3291
▁museum	-3292
▁territ	-3293
▁consumer	-3294
▁thailand	-3295
▁performan	-3296
omm	-3297
▁ep	-3298
iger	-3299
▁raid	-3300
▁shop	-3301
▁medic	-3302
▁offered	-3303
▁student	-3304
▁suspects	-3305
▁management	-3306
back	-3307
▁ans	-3308
▁shr	-3309
▁jose	-3310
▁rail	-3311
▁benef	-3312
▁scand	-3313
▁pacific	-3314
▁respect	-3315
▁someone	-3316
▁written	-3317
▁electric	-3318
▁committed	-3319
▁worldwide	-3320
▁ps	-3321
orter	-3322
▁size	-3323
lement	-3324
▁motor	-3325
▁serve	-3326
▁combat	-3327
▁defend	-3328
▁severe	-3329
▁holiday	-3330
▁attacked	-3331
▁rejected	-3332
▁separate	-3333
▁beginning	-3334
▁previously	-3335
rs	-3336
ware	-3337
▁lib	-3338
alled	-3339
where	-3340
▁baby	-3341
▁abbas	-3342
▁domin	-3343
▁recon	-3344
▁tests	-3345
▁works	-3346
▁suspect	-3347
▁leadership	-3348
ao	-3349
bed	-3350
resh	-3351
▁hall	-3352
▁rules	-3353
▁seats	-3354
▁forest	-3355
▁regard	-3356
▁custody	-3357
▁nominee	-3358
▁shortly	-3359
▁includes	-3360
▁vehicles	-3361
ibly	-3362
ston	-3363
estic	-3364
▁ties	-3365
▁ruled	-3366
▁rather	-3367
▁commerc	-3368
▁regional	-3369
▁remained	-3370
▁insurgents	-3371
ezz	-3372
▁lu	-3373
ider	-3374
rote	-3375
▁gar	-3376
▁bail	-3377
▁phil	-3378
▁rock	-3379
▁avoid	-3380
▁langu	-3381
▁penal	-3382
▁allies	-3383
▁figure	-3384
▁herald	-3385
▁reactor	-3386
▁actually	-3387
▁proposed	-3388
▁criticism	-3389
pper	-3390
▁opin	-3391
▁contr	-3392
▁signs	-3393
▁occurred	-3394
▁olympics	-3395
▁explosion	-3396
▁corruption	-3397
▁earthquake	-3398
aks	-3399
ran	-3400
soft	-3401
▁bol	-3402
▁adop	-3403
▁mort	-3404
▁sale	-3405
▁giant	-3406
▁takes	-3407
▁votes	-3408
▁georgia	-3409
▁everyone	-3410
▁repeated	-3411
▁microsoft	-3412
▁satellite	-3413
▁mel	-3414
asion	-3415
▁zone	-3416
▁refer	-3417
▁relig	-3418
▁apolog	-3419
▁linked	-3420
▁moving	-3421
▁shares	-3422
▁civilian	-3423
▁starting	-3424
wor	-3425
▁mc	-3426
▁ul	-3427
know	-3428
▁han	-3429
▁sky	-3430
uters	-3431
lywood	-3432
▁paper	-3433
▁pract	-3434
▁treas	-3435
▁wrote	-3436
▁charac	-3437
▁events	-3438
▁elected	-3439
▁figures	-3440
▁improve	-3441
▁inspect	-3442
▁conducted	-3443
▁documents	-3444
rid	-3445
▁pi	-3446
▁bay	-3447
▁jew	-3448
▁sty	-3449
ently	-3450
field	-3451
oting	-3452
▁word	-3453
▁fifth	-3454
▁minor	-3455
respond	-3456
▁climate	-3457
▁correspond	-3458
wer	-3459
▁hu	-3460
chie	-3461
▁lad	-3462
▁mas	-3463
icket	-3464
vered	-3465
▁slow	-3466
▁built	-3467
▁myung	-3468
knowled	-3469
▁impact	-3470
▁attract	-3471
▁complex	-3472
▁science	-3473
▁acknowled	-3474
▁commercial	-3475
abe	-3476
ray	-3477
ych	-3478
▁fer	-3479
▁fest	-3480
▁actor	-3481
▁evacu	-3482
▁fresh	-3483
▁anyone	-3484
▁determin	-3485
eth	-3486
ris	-3487
▁fo	-3488
rain	-3489
force	-3490
using	-3491
▁fair	-3492
▁remo	-3493
▁yong	-3494
▁envoy	-3495
▁faces	-3496
▁girls	-3497
▁james	-3498
▁marine	-3499
▁bombing	-3500
▁spanish	-3501
▁surgery	-3502
▁addition	-3503
▁football	-3504
car	-3505
ivid	-3506
ping	-3507
▁ali	-3508
▁deg	-3509
▁guil	-3510
▁trig	-3511
▁wood	-3512
▁bombs	-3513
▁brain	-3514
▁prize	-3515
▁rates	-3516
▁perform	-3517
▁showing	-3518
ota	-3519
unt	-3520
vin	-3521
▁fish	-3522
▁jung	-3523
▁sant	-3524
▁blamed	-3525
▁guilty	-3526
▁itself	-3527
▁player	-3528
ties	-3529
▁flu	-3530
▁cash	-3531
▁ahmad	-3532
▁clean	-3533
▁spoke	-3534
▁career	-3535
▁created	-3536
▁flights	-3537
▁restaur	-3538
▁electron	-3539
▁tourists	-3540
▁fa	-3541
berg	-3542
▁alex	-3543
encies	-3544
▁fears	-3545
▁terms	-3546
▁encour	-3547
▁reduce	-3548
▁marriage	-3549
ogn	-3550
▁et	-3551
▁acad	-3552
▁jong	-3553
iction	-3554
▁behav	-3555
▁sleep	-3556
▁animal	-3557
▁citing	-3558
▁mosque	-3559
▁regime	-3560
▁confirm	-3561
▁suggested	-3562
▁au	-3563
abwe	-3564
▁fro	-3565
▁gat	-3566
ullah	-3567
▁hurt	-3568
▁self	-3569
▁zimb	-3570
▁gates	-3571
▁moham	-3572
▁queen	-3573
▁mobile	-3574
▁normal	-3575
▁recogn	-3576
▁colombia	-3577
▁domestic	-3578
▁peaceful	-3579
▁policies	-3580
▁provided	-3581
▁zimbabwe	-3582
▁concerned	-3583
▁ministers	-3584
▁operating	-3585
sp	-3586
ites	-3587
rators	-3588
▁filed	-3589
▁mostly	-3590
▁criminal	-3591
▁astronaut	-3592
ga	-3593
hib	-3594
ica	-3595
▁ha	-3596
anda	-3597
▁ens	-3598
▁names	-3599
▁owner	-3600
▁shown	-3601
▁winds	-3602
▁screen	-3603
▁supply	-3604
▁contrib	-3605
▁dispute	-3606
▁finance	-3607
▁measure	-3608
▁compared	-3609
▁patients	-3610
▁necessary	-3611
lies	-3612
rupt	-3613
usal	-3614
▁mah	-3615
▁rap	-3616
▁gall	-3617
▁push	-3618
▁panel	-3619
▁words	-3620
▁damaged	-3621
▁francis	-3622
▁individ	-3623
▁lebanon	-3624
▁replace	-3625
▁lebanese	-3626
▁terrorists	-3627
ba	-3628
erc	-3629
mert	-3630
▁ask	-3631
▁ton	-3632
▁gang	-3633
▁mary	-3634
▁stem	-3635
▁ways	-3636
▁intro	-3637
▁assass	-3638
▁stocks	-3639
▁stopped	-3640
▁promised	-3641
▁dangerous	-3642
▁neighborhood	-3643
▁palestinians	-3644
ett	-3645
uan	-3646
▁bbc	-3647
▁dut	-3648
▁ram	-3649
ature	-3650
erson	-3651
▁heav	-3652
▁ilbo	-3653
▁kids	-3654
▁kurd	-3655
▁magn	-3656
▁sher	-3657
▁achie	-3658
▁confl	-3659
▁drugs	-3660
▁magaz	-3661
▁bridge	-3662
▁voting	-3663
▁shuttle	-3664
▁affected	-3665
▁sentence	-3666
▁remaining	-3667
▁suspended	-3668
bel	-3669
ears	-3670
keep	-3671
onym	-3672
sein	-3673
▁lay	-3674
▁ven	-3675
▁fast	-3676
▁mach	-3677
▁shel	-3678
friend	-3679
▁lines	-3680
▁princ	-3681
▁sought	-3682
▁suspic	-3683
▁wearing	-3684
▁militant	-3685
▁positive	-3686
▁powerful	-3687
▁hollywood	-3688
▁involving	-3689
ips	-3690
uff	-3691
▁ki	-3692
mark	-3693
▁box	-3694
▁cru	-3695
▁fbi	-3696
▁gul	-3697
▁sho	-3698
ounts	-3699
▁else	-3700
▁seed	-3701
ulated	-3702
▁insur	-3703
▁abduct	-3704
▁assault	-3705
▁protection	-3706
bre	-3707
▁da	-3708
▁gh	-3709
▁inn	-3710
▁pir	-3711
▁cold	-3712
▁felt	-3713
▁flag	-3714
▁navy	-3715
▁voted	-3716
▁amount	-3717
▁joined	-3718
▁failure	-3719
▁ongoing	-3720
▁village	-3721
▁designed	-3722
▁document	-3723
▁forecast	-3724
▁territory	-3725
▁opportunity	-3726
▁performance	-3727
dog	-3728
itch	-3729
road	-3730
▁god	-3731
▁hav	-3732
▁yah	-3733
▁yang	-3734
coming	-3735
utions	-3736
▁joins	-3737
▁reduc	-3738
▁truck	-3739
ression	-3740
▁appeal	-3741
▁collaps	-3742
▁conflict	-3743
▁gathered	-3744
▁headquar	-3745
▁meetings	-3746
▁overseas	-3747
▁activists	-3748
▁confidence	-3749
▁journalists	-3750
dam	-3751
mas	-3752
ovo	-3753
▁abe	-3754
ander	-3755
ordin	-3756
▁hear	-3757
▁prec	-3758
▁seek	-3759
▁surf	-3760
▁color	-3761
▁psych	-3762
▁raise	-3763
▁caught	-3764
▁malays	-3765
▁placed	-3766
▁seized	-3767
▁waters	-3768
▁dismiss	-3769
▁annivers	-3770
▁cooperation	-3771
my	-3772
ttp	-3773
vert	-3774
▁oce	-3775
agers	-3776
▁http	-3777
▁wasn	-3778
▁wing	-3779
▁apple	-3780
▁beach	-3781
▁crude	-3782
▁memor	-3783
▁images	-3784
▁winter	-3785
▁helping	-3786
▁opinion	-3787
▁considering	-3788
▁possibility	-3789
de	-3790
ps	-3791
reg	-3792
▁km	-3793
eing	-3794
olic	-3795
omic	-3796
iling	-3797
▁drive	-3798
▁enter	-3799
▁olmert	-3800
▁initial	-3801
▁straight	-3802
▁experience	-3803
▁anniversary	-3804
▁headquarters	-3805
▁investigating	-3806
▁ze	-3807
▁isn	-3808
▁van	-3809
▁ves	-3810
apore	-3811
arily	-3812
▁serb	-3813
▁below	-3814
▁peter	-3815
▁quake	-3816
▁trail	-3817
▁voice	-3818
▁pulled	-3819
▁critics	-3820
▁propert	-3821
▁customers	-3822
▁singapore	-3823
▁telephone	-3824
▁reportedly	-3825
lus	-3826
nes	-3827
▁ko	-3828
▁ok	-3829
burg	-3830
igan	-3831
▁anc	-3832
▁alco	-3833
▁lone	-3834
▁dozen	-3835
▁hurric	-3836
▁immigr	-3837
▁looked	-3838
▁violent	-3839
▁sentenced	-3840
▁throughout	-3841
cri	-3842
iro	-3843
ancy	-3844
ille	-3845
erate	-3846
light	-3847
orrow	-3848
▁clin	-3849
▁item	-3850
▁qual	-3851
▁homel	-3852
▁laden	-3853
▁veter	-3854
▁yahoo	-3855
▁entire	-3856
▁resume	-3857
▁pledged	-3858
▁regular	-3859
▁reuters	-3860
▁christop	-3861
het	-3862
ror	-3863
vez	-3864
ales	-3865
ends	-3866
▁mug	-3867
▁bear	-3868
▁goes	-3869
▁page	-3870
▁blair	-3871
▁block	-3872
▁chann	-3873
▁lands	-3874
▁famous	-3875
▁madrid	-3876
▁appears	-3877
▁conclud	-3878
▁involve	-3879
▁directly	-3880
▁language	-3881
▁christmas	-3882
▁establish	-3883
▁controversial	-3884
iki	-3885
▁ly	-3886
▁ut	-3887
▁jet	-3888
iment	-3889
ordon	-3890
rency	-3891
▁auto	-3892
▁gone	-3893
▁spir	-3894
▁happy	-3895
▁defeat	-3896
▁recomm	-3897
▁vessel	-3898
▁winner	-3899
▁freedom	-3900
▁largely	-3901
▁package	-3902
▁princip	-3903
▁willing	-3904
▁complain	-3905
▁declined	-3906
▁disaster	-3907
▁produced	-3908
▁developing	-3909
▁facilities	-3910
▁christopher	-3911
gun	-3912
abil	-3913
abul	-3914
▁alb	-3915
▁hair	-3916
▁pent	-3917
▁tech	-3918
▁alone	-3919
▁choice	-3920
▁ticket	-3921
▁alcohol	-3922
▁fighters	-3923
▁kidnapped	-3924
ams	-3925
apse	-3926
▁fra	-3927
▁rat	-3928
▁var	-3929
▁bott	-3930
▁dream	-3931
▁prior	-3932
▁trust	-3933
▁twice	-3934
▁meters	-3935
▁selling	-3936
▁soldier	-3937
▁assistant	-3938
▁hurricane	-3939
▁surrounding	-3940
gn	-3941
ery	-3942
sen	-3943
▁ic	-3944
▁gro	-3945
▁kos	-3946
▁grad	-3947
▁true	-3948
aching	-3949
▁aband	-3950
▁model	-3951
▁patro	-3952
▁sunni	-3953
▁tells	-3954
▁casual	-3955
▁double	-3956
▁ending	-3957
▁expand	-3958
▁headed	-3959
▁demands	-3960
▁distrib	-3961
▁overall	-3962
▁scandal	-3963
▁systems	-3964
▁behavior	-3965
▁deadline	-3966
▁witnesses	-3967
aki	-3968
▁ari	-3969
▁bat	-3970
▁gal	-3971
▁nar	-3972
ilipp	-3973
▁band	-3974
▁fine	-3975
▁mist	-3976
▁pick	-3977
▁burma	-3978
▁sudan	-3979
▁mugabe	-3980
▁victim	-3981
▁philipp	-3982
▁premier	-3983
▁species	-3984
▁activity	-3985
▁magazine	-3986
▁missiles	-3987
do	-3988
uj	-3989
olas	-3990
▁rang	-3991
▁downt	-3992
▁somal	-3993
▁canada	-3994
▁records	-3995
▁talking	-3996
▁bombings	-3997
▁software	-3998
▁challenge	-3999
▁traditional	-4000
▁constitutional	-4001
ko	-4002
reme	-4003
wang	-4004
▁bey	-4005
▁bil	-4006
▁gon	-4007
▁ign	-4008
▁dark	-4009
▁score	-4010
▁surge	-4011
▁tight	-4012
▁decade	-4013
▁doctor	-4014
▁actions	-4015
▁married	-4016
▁usually	-4017
▁politics	-4018
▁prepared	-4019
▁demanding	-4020
▁northeast	-4021
mon	-4022
ube	-4023
▁ba	-4024
fort	-4025
ront	-4026
▁bed	-4027
▁dial	-4028
▁door	-4029
▁mind	-4030
▁tank	-4031
▁ocean	-4032
▁purch	-4033
ologist	-4034
▁anonym	-4035
▁houses	-4036
▁demonst	-4037
▁extreme	-4038
▁hussein	-4039
▁imposed	-4040
▁pentagon	-4041
▁targeted	-4042
▁williams	-4043
▁christian	-4044
▁consumers	-4045
▁helicopter	-4046
▁lic	-4047
▁beck	-4048
▁fled	-4049
ictions	-4050
▁reflect	-4051
ano	-4052
bon	-4053
aska	-4054
▁spl	-4055
ender	-4056
▁knew	-4057
▁plot	-4058
▁frank	-4059
▁fraud	-4060
▁meant	-4061
▁rebel	-4062
▁stars	-4063
▁atomic	-4064
▁gordon	-4065
▁losses	-4066
▁weight	-4067
▁airline	-4068
▁collapse	-4069
▁proposal	-4070
▁francisco	-4071
▁recession	-4072
▁foreigners	-4073
oded	-4074
ogue	-4075
unch	-4076
asons	-4077
▁male	-4078
▁pope	-4079
▁coach	-4080
▁lived	-4081
▁owned	-4082
▁steve	-4083
▁places	-4084
▁sports	-4085
▁spring	-4086
▁surviv	-4087
▁temper	-4088
▁consult	-4089
▁deliver	-4090
▁sending	-4091
▁waiting	-4092
▁agencies	-4093
▁required	-4094
▁computers	-4095
▁controlled	-4096
▁convention	-4097
▁prosecutor	-4098
▁revolution	-4099
▁resignation	-4100
▁particularly	-4101
▁eld	-4102
▁eye	-4103
▁ult	-4104
ashes	-4105
isher	-4106
▁syria	-4107
itarian	-4108
▁beyond	-4109
▁declar	-4110
▁koreas	-4111
▁losing	-4112
▁object	-4113
▁ronald	-4114
▁select	-4115
▁hostage	-4116
▁airlines	-4117
▁presence	-4118
▁determine	-4119
rer	-4120
tern	-4121
▁din	-4122
▁mir	-4123
▁walk	-4124
ateral	-4125
▁cells	-4126
▁draft	-4127
▁heads	-4128
▁crimes	-4129
▁maliki	-4130
▁relief	-4131
heastern	-4132
▁condole	-4133
▁festival	-4134
▁pictures	-4135
▁traveling	-4136
▁governments	-4137
▁republicans	-4138
ezza	-4139
like	-4140
▁abu	-4141
▁bom	-4142
▁hil	-4143
▁nep	-4144
▁scr	-4145
▁sov	-4146
ately	-4147
wards	-4148
▁clot	-4149
▁thai	-4150
▁tony	-4151
▁abuse	-4152
▁fully	-4153
▁occup	-4154
▁oppon	-4155
itation	-4156
▁deadly	-4157
▁resort	-4158
▁secure	-4159
▁served	-4160
▁settle	-4161
▁unless	-4162
▁content	-4163
▁receive	-4164
▁setting	-4165
▁treasury	-4166
▁crackdown	-4167
▁developed	-4168
▁condoleezza	-4169
apt	-4170
gas	-4171
une	-4172
abad	-4173
ique	-4174
▁eru	-4175
▁gay	-4176
▁rus	-4177
aming	-4178
astic	-4179
▁cong	-4180
▁trib	-4181
▁unit	-4182
▁style	-4183
▁gather	-4184
▁palace	-4185
▁portug	-4186
▁punish	-4187
▁actress	-4188
▁resolve	-4189
▁serving	-4190
▁various	-4191
▁visited	-4192
▁supplies	-4193
▁implement	-4194
▁competition	-4195
▁politicians	-4196
sc	-4197
▁fix	-4198
▁gra	-4199
▁acqu	-4200
▁monit	-4201
▁kosovo	-4202
▁sharif	-4203
▁singer	-4204
▁soviet	-4205
▁wealth	-4206
▁adviser	-4207
▁finding	-4208
▁approval	-4209
▁suffering	-4210
▁demonstrators	-4211
nic	-4212
aked	-4213
illa	-4214
imum	-4215
▁kyi	-4216
▁rub	-4217
gered	-4218
▁bern	-4219
▁corn	-4220
▁inqu	-4221
▁text	-4222
ifying	-4223
▁consp	-4224
▁honor	-4225
▁obser	-4226
▁depart	-4227
▁happen	-4228
▁charles	-4229
▁quality	-4230
▁removed	-4231
▁dialogue	-4232
▁continues	-4233
▁religious	-4234
▁sometimes	-4235
▁determined	-4236
▁ku	-4237
iced	-4238
lets	-4239
rawn	-4240
▁hor	-4241
▁luc	-4242
▁teh	-4243
enger	-4244
▁boyc	-4245
▁purp	-4246
ension	-4247
▁exerc	-4248
▁teams	-4249
▁touch	-4250
▁whole	-4251
▁bomber	-4252
▁camera	-4253
▁finish	-4254
▁howard	-4255
▁widely	-4256
▁changed	-4257
▁tibetan	-4258
▁demanded	-4259
▁apartment	-4260
▁questioned	-4261
ye	-4262
ami	-4263
ein	-4264
enn	-4265
rog	-4266
▁der	-4267
▁cath	-4268
▁cuts	-4269
▁save	-4270
▁spar	-4271
▁unve	-4272
▁exist	-4273
▁kabul	-4274
▁taxes	-4275
▁users	-4276
▁affect	-4277
▁facing	-4278
▁pervez	-4279
▁academy	-4280
▁beckham	-4281
▁express	-4282
▁lawyers	-4283
▁historic	-4284
▁property	-4285
▁influence	-4286
▁declaration	-4287
fur	-4288
▁gm	-4289
ford	-4290
▁rum	-4291
▁ones	-4292
▁onto	-4293
▁prin	-4294
▁pull	-4295
▁virt	-4296
▁floor	-4297
▁image	-4298
▁argent	-4299
▁becoming	-4300
▁original	-4301
▁organizations	-4302
dom	-4303
oph	-4304
acts	-4305
azir	-4306
▁lou	-4307
▁nad	-4308
▁pra	-4309
▁mine	-4310
▁roll	-4311
▁stad	-4312
▁trop	-4313
▁alert	-4314
▁delay	-4315
▁diana	-4316
▁rapid	-4317
▁route	-4318
▁smoke	-4319
▁torch	-4320
▁troop	-4321
▁picked	-4322
▁planet	-4323
▁retail	-4324
▁ukrain	-4325
ferences	-4326
▁located	-4327
▁produce	-4328
▁accepted	-4329
▁character	-4330
▁businesses	-4331
▁enj	-4332
▁mix	-4333
▁suu	-4334
etnam	-4335
▁chem	-4336
▁mahm	-4337
▁items	-4338
▁sense	-4339
▁highly	-4340
▁pounds	-4341
▁saddam	-4342
▁tehran	-4343
▁causing	-4344
▁finally	-4345
▁kurdish	-4346
▁believes	-4347
▁michigan	-4348
▁collapsed	-4349
▁estimates	-4350
▁providing	-4351
▁struggling	-4352
▁increasingly	-4353
▁demonstrations	-4354
win	-4355
aksin	-4356
anium	-4357
▁cruc	-4358
▁hang	-4359
▁ring	-4360
enders	-4361
▁alive	-4362
▁firef	-4363
▁pregn	-4364
▁arabia	-4365
▁kenned	-4366
▁modern	-4367
▁housing	-4368
▁thaksin	-4369
▁attempts	-4370
▁division	-4371
▁tensions	-4372
▁explosives	-4373
▁withdrawal	-4374
▁discussions	-4375
▁transportation	-4376
hens	-4377
▁gov	-4378
▁nev	-4379
▁sev	-4380
ented	-4381
▁boat	-4382
▁troub	-4383
▁belong	-4384
▁slight	-4385
▁unlike	-4386
▁heavily	-4387
▁highway	-4388
▁keeping	-4389
▁require	-4390
▁telling	-4391
▁uranium	-4392
▁vietnam	-4393
▁approach	-4394
▁captured	-4395
▁standing	-4396
▁attempted	-4397
▁indicated	-4398
▁initially	-4399
▁neighboring	-4400
iri	-4401
uth	-4402
▁od	-4403
oses	-4404
▁cha	-4405
▁fal	-4406
▁orb	-4407
▁rac	-4408
itzer	-4409
▁cler	-4410
▁diss	-4411
▁pret	-4412
▁thin	-4413
ground	-4414
▁equip	-4415
▁joong	-4416
▁stone	-4417
▁stood	-4418
▁value	-4419
▁virus	-4420
▁asking	-4421
▁banned	-4422
▁broken	-4423
▁device	-4424
▁fellow	-4425
▁channel	-4426
▁culture	-4427
▁kennedy	-4428
▁partner	-4429
▁penalty	-4430
▁tourism	-4431
▁refugees	-4432
▁entertain	-4433
▁southeast	-4434
▁assistance	-4435
zai	-4436
rect	-4437
▁hab	-4438
▁ally	-4439
▁ariz	-4440
▁meth	-4441
ounced	-4442
▁climb	-4443
▁colon	-4444
▁faced	-4445
▁holds	-4446
▁junta	-4447
▁liver	-4448
▁seems	-4449
▁spons	-4450
▁accomp	-4451
▁flying	-4452
▁photos	-4453
▁scored	-4454
▁comfort	-4455
▁contain	-4456
▁picture	-4457
▁exploded	-4458
▁possibly	-4459
▁solution	-4460
▁appearance	-4461
▁kidnapping	-4462
▁profession	-4463
▁championship	-4464
ki	-4465
ici	-4466
▁ib	-4467
oral	-4468
▁bow	-4469
▁zoo	-4470
arant	-4471
verse	-4472
▁bure	-4473
▁mile	-4474
▁rape	-4475
isions	-4476
▁exact	-4477
▁probe	-4478
▁ships	-4479
▁tough	-4480
▁vegas	-4481
issions	-4482
▁injury	-4483
▁phones	-4484
▁thanks	-4485
▁arizona	-4486
▁clashes	-4487
▁conspir	-4488
▁reserve	-4489
▁stadium	-4490
▁warming	-4491
▁bringing	-4492
▁currency	-4493
▁governing	-4494
▁islamabad	-4495
▁foundation	-4496
▁threatening	-4497
▁correspondent	-4498
ob	-4499
iny	-4500
ipp	-4501
▁sar	-4502
adian	-4503
inger	-4504
▁bond	-4505
▁cuba	-4506
▁gain	-4507
▁goog	-4508
▁sadr	-4509
▁symb	-4510
▁carri	-4511
▁kenya	-4512
▁table	-4513
western	-4514
▁handed	-4515
▁tribal	-4516
▁greater	-4517
▁offices	-4518
▁partners	-4519
▁visiting	-4520
▁completed	-4521
▁personnel	-4522
▁disappoint	-4523
cel	-4524
ova	-4525
owa	-4526
ugg	-4527
etts	-4528
▁arr	-4529
▁dna	-4530
▁obt	-4531
achus	-4532
▁blow	-4533
▁chec	-4534
▁rall	-4535
▁sams	-4536
▁tons	-4537
▁unem	-4538
usalem	-4539
▁films	-4540
▁goals	-4541
▁goods	-4542
▁reven	-4543
▁scale	-4544
ructure	-4545
▁resour	-4546
▁entered	-4547
▁nicolas	-4548
▁opposed	-4549
achusetts	-4550
▁finished	-4551
▁projects	-4552
▁jerusalem	-4553
▁journalist	-4554
▁supporting	-4555
▁massachusetts	-4556
aro	-4557
aker	-4558
aren	-4559
idel	-4560
part	-4561
▁log	-4562
oning	-4563
▁gamb	-4564
▁hoped	-4565
▁looks	-4566
▁nepal	-4567
▁vowed	-4568
▁budget	-4569
▁ethnic	-4570
▁spears	-4571
▁delayed	-4572
▁allowing	-4573
▁unemploy	-4574
▁executives	-4575
▁nationwide	-4576
▁speculation	-4577
▁representatives	-4578
ols	-4579
oney	-4580
▁bea	-4581
▁ceo	-4582
▁pel	-4583
ulate	-4584
▁cart	-4585
▁fash	-4586
▁gets	-4587
▁kang	-4588
▁mand	-4589
▁rein	-4590
▁warr	-4591
▁wire	-4592
▁yell	-4593
idency	-4594
ighter	-4595
▁angry	-4596
▁examp	-4597
▁extrem	-4598
▁income	-4599
▁martin	-4600
▁narrow	-4601
▁remote	-4602
▁ancient	-4603
▁enforce	-4604
▁equipment	-4605
▁connection	-4606
▁negotiator	-4607
▁commissioner	-4608
mo	-4609
ope	-4610
▁ji	-4611
▁gri	-4612
▁rid	-4613
▁sat	-4614
anted	-4615
▁dogs	-4616
▁hung	-4617
▁lose	-4618
▁defin	-4619
▁fatah	-4620
▁innoc	-4621
▁buying	-4622
▁driver	-4623
▁google	-4624
▁bailout	-4625
▁crashed	-4626
▁crucial	-4627
▁footage	-4628
▁tonight	-4629
▁downtown	-4630
▁reaction	-4631
▁evacuated	-4632
▁eventually	-4633
▁involvement	-4634
wa	-4635
ena	-4636
rison	-4637
▁heat	-4638
▁jury	-4639
▁path	-4640
▁agric	-4641
▁books	-4642
chester	-4643
▁carbon	-4644
▁mahmoud	-4645
▁samsung	-4646
▁smaller	-4647
▁strengt	-4648
▁threats	-4649
▁treated	-4650
▁version	-4651
▁administ	-4652
▁intended	-4653
▁discovery	-4654
▁dismissed	-4655
za	-4656
hem	-4657
enty	-4658
ests	-4659
icip	-4660
rees	-4661
rian	-4662
tery	-4663
▁cbs	-4664
ropri	-4665
▁pray	-4666
▁wake	-4667
mitted	-4668
▁categ	-4669
▁frequ	-4670
▁haven	-4671
▁oscar	-4672
▁closer	-4673
▁iraqis	-4674
▁karzai	-4675
▁weapon	-4676
▁fashion	-4677
▁guarant	-4678
▁reasons	-4679
▁strateg	-4680
▁studies	-4681
▁windows	-4682
▁facility	-4683
▁killings	-4684
▁lawmaker	-4685
▁relative	-4686
▁seriously	-4687
▁delegation	-4688
haps	-4689
time	-4690
▁tun	-4691
▁cauc	-4692
▁dong	-4693
▁sand	-4694
▁thom	-4695
▁wolf	-4696
▁cents	-4697
▁maybe	-4698
▁rough	-4699
duction	-4700
▁active	-4701
▁estate	-4702
▁movies	-4703
▁nevada	-4704
▁outbre	-4705
▁seeing	-4706
▁stress	-4707
▁heading	-4708
▁jackson	-4709
▁perhaps	-4710
▁agricult	-4711
▁canceled	-4712
▁resident	-4713
▁stations	-4714
▁surprise	-4715
▁condemned	-4716
▁ash	-4717
▁cia	-4718
▁jim	-4719
▁uns	-4720
aches	-4721
anged	-4722
▁dani	-4723
▁ford	-4724
▁iowa	-4725
▁isol	-4726
incial	-4727
nament	-4728
▁dutch	-4729
▁nobel	-4730
▁noted	-4731
▁piece	-4732
▁subur	-4733
▁abroad	-4734
▁cruise	-4735
▁ensure	-4736
▁export	-4737
▁recall	-4738
▁tempor	-4739
▁unable	-4740
▁concert	-4741
▁perfect	-4742
▁simpson	-4743
▁walking	-4744
▁watched	-4745
▁audience	-4746
▁memorial	-4747
▁trillion	-4748
▁magnitude	-4749
▁completely	-4750
▁provincial	-4751
▁tournament	-4752
▁humanitarian	-4753
ea	-4754
amm	-4755
him	-4756
ita	-4757
lig	-4758
ura	-4759
▁nbc	-4760
ivity	-4761
lands	-4762
osing	-4763
▁chos	-4764
icient	-4765
▁album	-4766
▁comed	-4767
▁forum	-4768
▁initi	-4769
▁milan	-4770
▁advant	-4771
▁patrol	-4772
▁status	-4773
▁treaty	-4774
▁sheriff	-4775
▁speaker	-4776
▁challeng	-4777
▁standard	-4778
▁corporate	-4779
▁diplomats	-4780
▁insurance	-4781
▁relatives	-4782
▁travelers	-4783
va	-4784
cle	-4785
lad	-4786
udd	-4787
▁rh	-4788
icks	-4789
oard	-4790
ucks	-4791
▁atm	-4792
▁max	-4793
▁yes	-4794
anced	-4795
ategy	-4796
usted	-4797
▁mike	-4798
▁slam	-4799
▁subs	-4800
▁torn	-4801
▁upon	-4802
▁dubai	-4803
▁throw	-4804
▁alaska	-4805
▁applic	-4806
▁babies	-4807
▁owners	-4808
▁walked	-4809
▁weekly	-4810
▁display	-4811
▁exports	-4812
▁farmers	-4813
▁liberal	-4814
▁putting	-4815
▁extended	-4816
▁strategy	-4817
▁presidency	-4818
▁counterpart	-4819
pe	-4820
oth	-4821
▁pit	-4822
▁toy	-4823
ously	-4824
▁outr	-4825
▁wine	-4826
▁roads	-4827
▁aboard	-4828
▁berlin	-4829
▁decide	-4830
▁gunmen	-4831
▁perman	-4832
▁limited	-4833
▁proceed	-4834
▁turning	-4835
▁claiming	-4836
▁reporter	-4837
▁specific	-4838
▁watching	-4839
▁photograp	-4840
▁casualties	-4841
▁manchester	-4842
▁officially	-4843
▁organizers	-4844
▁photograph	-4845
rys	-4846
rich	-4847
sequ	-4848
uals	-4849
▁dod	-4850
▁syd	-4851
▁wen	-4852
ersey	-4853
▁aide	-4854
▁lady	-4855
▁stim	-4856
▁zeal	-4857
▁cited	-4858
▁stake	-4859
▁cheney	-4860
▁guards	-4861
▁sudden	-4862
▁clearly	-4863
▁covered	-4864
▁kingdom	-4865
▁ranking	-4866
▁champion	-4867
▁invasion	-4868
▁strongly	-4869
▁appointed	-4870
▁offensive	-4871
ny	-4872
aze	-4873
wal	-4874
▁ec	-4875
fire	-4876
ills	-4877
onom	-4878
pool	-4879
▁ker	-4880
▁lob	-4881
ivals	-4882
▁dram	-4883
▁flow	-4884
▁mont	-4885
▁skin	-4886
▁toys	-4887
▁brand	-4888
▁diego	-4889
▁louis	-4890
▁niger	-4891
▁quite	-4892
▁sound	-4893
▁columb	-4894
▁spirit	-4895
▁sydney	-4896
▁auction	-4897
▁muslims	-4898
▁smoking	-4899
▁princess	-4900
▁recovery	-4901
▁anonymity	-4902
▁standards	-4903
▁survivors	-4904
▁venezuela	-4905
▁newspapers	-4906
▁unemployment	-4907
iano	-4908
▁eve	-4909
iring	-4910
▁type	-4911
▁doubt	-4912
▁maker	-4913
▁nadal	-4914
▁pound	-4915
▁sport	-4916
▁worse	-4917
▁answer	-4918
▁bought	-4919
▁experi	-4920
▁hilton	-4921
▁sister	-4922
▁wonder	-4923
▁founder	-4924
▁benefits	-4925
▁confront	-4926
▁mohammed	-4927
▁revealed	-4928
▁detention	-4929
▁commitment	-4930
▁entertainment	-4931
abor	-4932
oked	-4933
▁bob	-4934
▁spr	-4935
pread	-4936
▁chel	-4937
▁easy	-4938
▁eyes	-4939
▁feed	-4940
▁harm	-4941
▁suit	-4942
▁tear	-4943
▁visa	-4944
▁agent	-4945
▁wides	-4946
▁advert	-4947
▁awards	-4948
▁buried	-4949
▁formal	-4950
▁humans	-4951
▁tested	-4952
▁example	-4953
▁johnson	-4954
▁raising	-4955
▁tomorrow	-4956
▁electoral	-4957
▁tradition	-4958
▁electronic	-4959
▁widespread	-4960
▁destruction	-4961
da	-4962
awa	-4963
ikh	-4964
isc	-4965
esty	-4966
iang	-4967
▁cow	-4968
▁sem	-4969
▁carl	-4970
▁hamp	-4971
▁swim	-4972
▁tape	-4973
▁wars	-4974
▁catch	-4975
▁deton	-4976
▁monks	-4977
▁relay	-4978
▁rooms	-4979
▁santa	-4980
▁spend	-4981
▁altern	-4982
▁atmosp	-4983
▁devast	-4984
▁except	-4985
▁judges	-4986
▁powers	-4987
▁profit	-4988
▁soccer	-4989
▁cutting	-4990
▁landing	-4991
▁seconds	-4992
▁insisted	-4993
▁internal	-4994
▁returning	-4995
gar	-4996
oke	-4997
onh	-4998
uce	-4999
ume	-5000
zen	-5001
▁iv	-5002
▁mu	-5003
book	-5004
inal	-5005
olit	-5006
unte	-5007
well	-5008
▁kat	-5009
▁lie	-5010
▁unp	-5011
inces	-5012
▁samp	-5013
▁wave	-5014
▁wins	-5015
atures	-5016
▁agend	-5017
▁delta	-5018
▁grave	-5019
▁knows	-5020
▁ordin	-5021
▁pilot	-5022
▁recru	-5023
▁renew	-5024
essions	-5025
▁assess	-5026
▁landed	-5027
▁lowest	-5028
▁prompt	-5029
▁resist	-5030
▁simply	-5031
▁trouble	-5032
▁volunte	-5033
▁catholic	-5034
▁favorite	-5035
▁physical	-5036
▁passenger	-5037
▁provinces	-5038
▁resources	-5039
▁continuing	-5040
▁transition	-5041
▁electricity	-5042
▁acknowledged	-5043
▁assassination	-5044
ho	-5045
bac	-5046
▁lt	-5047
▁dal	-5048
▁fan	-5049
▁suc	-5050
uster	-5051
works	-5052
▁guns	-5053
▁none	-5054
▁rome	-5055
▁stal	-5056
rysler	-5057
▁begun	-5058
▁enjoy	-5059
▁equal	-5060
▁faith	-5061
▁leads	-5062
▁loans	-5063
▁towns	-5064
▁daniel	-5065
▁jersey	-5066
▁jumped	-5067
▁urging	-5068
▁apology	-5069
▁trapped	-5070
▁ukraine	-5071
▁unclear	-5072
▁creating	-5073
▁drinking	-5074
▁malaysia	-5075
▁medicine	-5076
▁household	-5077
▁organized	-5078
▁triggered	-5079
▁communications	-5080
bar	-5081
rey	-5082
sea	-5083
set	-5084
uers	-5085
elled	-5086
ollah	-5087
osure	-5088
ville	-5089
▁appl	-5090
▁budd	-5091
▁cool	-5092
▁copy	-5093
▁diam	-5094
▁hero	-5095
▁runs	-5096
▁task	-5097
▁tort	-5098
▁birds	-5099
▁overn	-5100
▁agenda	-5101
▁choose	-5102
▁marked	-5103
▁planes	-5104
▁achieve	-5105
▁aggress	-5106
▁chelsea	-5107
▁learned	-5108
▁promote	-5109
▁targets	-5110
▁attended	-5111
▁cultural	-5112
▁negative	-5113
▁upcoming	-5114
▁certainly	-5115
▁colombian	-5116
▁discussed	-5117
▁liverpool	-5118
▁overnight	-5119
▁percentage	-5120
▁investigate	-5121
▁restrictions	-5122
aug	-5123
unk	-5124
▁ia	-5125
byon	-5126
fare	-5127
feld	-5128
▁ble	-5129
▁era	-5130
▁jes	-5131
ental	-5132
ipped	-5133
▁calm	-5134
▁outp	-5135
▁pref	-5136
▁unus	-5137
▁apart	-5138
▁basis	-5139
▁enemy	-5140
▁gains	-5141
▁overw	-5142
▁youth	-5143
▁assets	-5144
▁burned	-5145
▁examin	-5146
▁proced	-5147
▁atlanta	-5148
▁centers	-5149
▁decline	-5150
▁indiana	-5151
▁install	-5152
▁pushing	-5153
▁chemical	-5154
▁introduc	-5155
▁offering	-5156
▁yongbyon	-5157
▁advantage	-5158
▁extremely	-5159
▁interests	-5160
▁conspiracy	-5161
▁differences	-5162
ju	-5163
lor	-5164
uri	-5165
▁pc	-5166
otic	-5167
▁adj	-5168
▁ath	-5169
▁bon	-5170
▁ric	-5171
▁spy	-5172
▁tan	-5173
stein	-5174
▁coff	-5175
▁debt	-5176
▁dict	-5177
▁pair	-5178
▁plus	-5179
action	-5180
ivered	-5181
▁corps	-5182
▁exile	-5183
▁fewer	-5184
▁fires	-5185
▁reloc	-5186
▁acting	-5187
▁allows	-5188
▁gained	-5189
▁hoping	-5190
▁nature	-5191
▁potter	-5192
▁thomas	-5193
▁valley	-5194
▁diamond	-5195
▁mention	-5196
▁sparked	-5197
▁tourist	-5198
▁breaking	-5199
▁deployed	-5200
▁rescuers	-5201
▁standoff	-5202
▁wounding	-5203
▁confident	-5204
▁preparing	-5205
▁referring	-5206
▁reporting	-5207
▁successful	-5208
▁legislation	-5209
▁regulations	-5210
gen	-5211
kok	-5212
rig	-5213
▁mr	-5214
erer	-5215
fall	-5216
rend	-5217
▁sac	-5218
▁tab	-5219
▁dump	-5220
▁khan	-5221
▁matt	-5222
▁prol	-5223
▁rebu	-5224
▁shan	-5225
▁sick	-5226
▁tall	-5227
▁aides	-5228
▁prost	-5229
▁rural	-5230
▁stret	-5231
▁disarm	-5232
▁driven	-5233
▁filled	-5234
▁lifted	-5235
▁rivals	-5236
▁welcom	-5237
▁bangkok	-5238
▁chances	-5239
▁islands	-5240
▁lawsuit	-5241
▁reduced	-5242
▁strikes	-5243
▁succeed	-5244
▁maryland	-5245
▁roadside	-5246
▁substant	-5247
▁unveiled	-5248
▁concluded	-5249
▁hospitals	-5250
▁generation	-5251
▁questioning	-5252
zb	-5253
mun	-5254
gage	-5255
ading	-5256
attle	-5257
limin	-5258
▁ghaz	-5259
▁jeff	-5260
▁pump	-5261
▁vlad	-5262
iously	-5263
▁boats	-5264
▁gives	-5265
imately	-5266
▁bureau	-5267
▁expert	-5268
▁frozen	-5269
▁golden	-5270
▁plants	-5271
▁effects	-5272
▁federer	-5273
▁follows	-5274
▁healthy	-5275
▁herself	-5276
▁abdullah	-5277
▁entering	-5278
▁prelimin	-5279
▁reaching	-5280
▁slightly	-5281
▁teachers	-5282
▁delivered	-5283
▁permanent	-5284
▁producing	-5285
ctic	-5286
etic	-5287
▁bah	-5288
▁cry	-5289
▁fab	-5290
▁hug	-5291
▁jul	-5292
▁mph	-5293
▁raf	-5294
▁sam	-5295
▁via	-5296
oline	-5297
▁bell	-5298
▁boss	-5299
▁ease	-5300
▁fier	-5301
▁gulf	-5302
▁hezb	-5303
▁hole	-5304
▁tsun	-5305
▁adopt	-5306
▁basic	-5307
▁bench	-5308
▁dress	-5309
▁fayed	-5310
▁hwang	-5311
▁optim	-5312
▁petro	-5313
▁editor	-5314
▁enrich	-5315
▁presum	-5316
▁proper	-5317
▁ranked	-5318
▁simple	-5319
▁stores	-5320
▁ability	-5321
▁advance	-5322
▁closing	-5323
▁complic	-5324
▁connect	-5325
▁digital	-5326
▁edwards	-5327
▁falling	-5328
▁focused	-5329
▁invited	-5330
▁zealand	-5331
▁canadian	-5332
▁homeland	-5333
▁location	-5334
▁suggests	-5335
▁bilateral	-5336
▁inflation	-5337
▁opponents	-5338
▁supported	-5339
▁inspectors	-5340
▁statements	-5341
▁controversy	-5342
fl	-5343
iat	-5344
ipe	-5345
kel	-5346
▁eh	-5347
▁ru	-5348
arta	-5349
iami	-5350
life	-5351
▁wil	-5352
▁amaz	-5353
▁boys	-5354
▁edge	-5355
▁gonz	-5356
▁leng	-5357
▁mour	-5358
▁swed	-5359
▁inaug	-5360
▁miami	-5361
▁palin	-5362
▁proud	-5363
▁prove	-5364
▁solar	-5365
▁spect	-5366
▁darfur	-5367
▁detain	-5368
▁remove	-5369
▁banking	-5370
▁meaning	-5371
▁rockets	-5372
▁statist	-5373
▁tsunami	-5374
▁chrysler	-5375
▁practice	-5376
▁hezbollah	-5377
▁materials	-5378
▁presented	-5379
▁preliminary	-5380
▁unification	-5381
▁conservation	-5382
era	-5383
▁du	-5384
iest	-5385
rell	-5386
▁guy	-5387
▁wis	-5388
▁aids	-5389
▁bost	-5390
▁emot	-5391
▁flew	-5392
▁grab	-5393
▁manh	-5394
▁note	-5395
▁sail	-5396
▁sean	-5397
▁shir	-5398
▁sust	-5399
▁volc	-5400
▁exhib	-5401
▁fatal	-5402
▁learn	-5403
▁campus	-5404
▁couldn	-5405
▁fisher	-5406
▁formed	-5407
▁fought	-5408
▁method	-5409
▁trains	-5410
▁yellow	-5411
▁convers	-5412
▁journey	-5413
▁radical	-5414
▁overwhel	-5415
▁strength	-5416
▁southwest	-5417
▁administrat	-5418
▁firefighters	-5419
▁hospitalized	-5420
kin	-5421
ram	-5422
uts	-5423
war	-5424
agan	-5425
bery	-5426
rick	-5427
stri	-5428
▁jon	-5429
▁wid	-5430
abeth	-5431
onhap	-5432
▁argu	-5433
▁holy	-5434
▁lake	-5435
▁lind	-5436
▁quit	-5437
▁scot	-5438
▁tiny	-5439
▁yout	-5440
akarta	-5441
▁split	-5442
▁threw	-5443
▁truth	-5444
▁bottom	-5445
▁fallen	-5446
▁intens	-5447
▁interp	-5448
▁margin	-5449
▁pretty	-5450
▁pushed	-5451
▁yonhap	-5452
ropriate	-5453
▁arrival	-5454
▁benazir	-5455
▁coordin	-5456
▁couples	-5457
▁dismant	-5458
▁options	-5459
▁reading	-5460
▁refugee	-5461
▁retired	-5462
▁staying	-5463
▁testing	-5464
▁welcome	-5465
▁colorado	-5466
▁exercise	-5467
▁findings	-5468
▁flooding	-5469
▁prompted	-5470
▁warnings	-5471
▁emissions	-5472
▁neighbors	-5473
▁manufacture	-5474
pa	-5475
awi	-5476
isf	-5477
▁pu	-5478
oria	-5479
▁aer	-5480
▁hat	-5481
▁ped	-5482
▁lama	-5483
▁mars	-5484
▁sony	-5485
▁absol	-5486
▁blame	-5487
▁breat	-5488
▁chart	-5489
▁dalai	-5490
▁lying	-5491
▁macau	-5492
▁older	-5493
▁shout	-5494
▁gunman	-5495
▁inches	-5496
▁larger	-5497
▁offers	-5498
▁remark	-5499
▁shrine	-5500
entially	-5501
▁boycott	-5502
▁promise	-5503
▁recover	-5504
▁youtube	-5505
▁delivery	-5506
▁outbreak	-5507
▁resigned	-5508
▁shopping	-5509
▁disappear	-5510
▁predicted	-5511
▁requested	-5512
▁repeatedly	-5513
ala	-5514
bur	-5515
ded	-5516
eed	-5517
▁ta	-5518
pect	-5519
zing	-5520
▁hub	-5521
ailed	-5522
ledge	-5523
leine	-5524
ptive	-5525
undai	-5526
▁drew	-5527
▁fate	-5528
▁pace	-5529
▁plat	-5530
▁scen	-5531
▁tack	-5532
▁vari	-5533
▁drawn	-5534
▁ideas	-5535
▁overt	-5536
▁upper	-5537
▁afford	-5538
▁sector	-5539
▁hyundai	-5540
▁neither	-5541
▁profile	-5542
▁surface	-5543
▁towards	-5544
▁gasoline	-5545
▁northwest	-5546
▁girlfriend	-5547
▁restaurant	-5548
▁immigration	-5549
▁temperatures	-5550
ox	-5551
hab	-5552
thr	-5553
▁az	-5554
▁ox	-5555
emic	-5556
inct	-5557
ouri	-5558
▁abc	-5559
▁gap	-5560
▁mut	-5561
▁sor	-5562
▁tay	-5563
rated	-5564
water	-5565
▁exit	-5566
▁iaea	-5567
atican	-5568
▁cease	-5569
▁glass	-5570
▁globe	-5571
▁steel	-5572
▁strip	-5573
istered	-5574
▁boston	-5575
▁cleric	-5576
▁detect	-5577
▁jailed	-5578
▁landsl	-5579
▁seemed	-5580
▁stimul	-5581
▁vladim	-5582
▁edition	-5583
▁engaged	-5584
▁erupted	-5585
▁escaped	-5586
▁expects	-5587
▁funding	-5588
▁reality	-5589
▁vatican	-5590
▁writing	-5591
▁absolute	-5592
▁accompan	-5593
▁changing	-5594
▁searching	-5595
▁stability	-5596
▁atmosphere	-5597
▁individuals	-5598
▁professional	-5599
▁congressional	-5600
rae	-5601
rec	-5602
▁ak	-5603
omes	-5604
▁bac	-5605
▁ess	-5606
▁gib	-5607
▁mun	-5608
▁sin	-5609
illed	-5610
iters	-5611
▁cycl	-5612
▁drag	-5613
▁gard	-5614
▁liqu	-5615
▁neck	-5616
▁sets	-5617
▁drove	-5618
▁label	-5619
▁osama	-5620
▁sarah	-5621
▁scott	-5622
▁shock	-5623
▁degree	-5624
▁disney	-5625
▁earned	-5626
▁length	-5627
▁orders	-5628
▁airstri	-5629
▁captain	-5630
▁compens	-5631
▁drivers	-5632
▁patient	-5633
▁regions	-5634
▁younger	-5635
▁friendly	-5636
▁messages	-5637
▁survived	-5638
▁argentina	-5639
▁knowledge	-5640
▁recovered	-5641
▁targeting	-5642
▁enforcement	-5643
oma	-5644
uct	-5645
▁uh	-5646
enth	-5647
hist	-5648
▁eat	-5649
▁fox	-5650
▁nav	-5651
▁rig	-5652
▁rio	-5653
▁syn	-5654
acity	-5655
shire	-5656
▁chap	-5657
▁grew	-5658
▁stro	-5659
▁tied	-5660
▁tree	-5661
▁vast	-5662
▁vent	-5663
▁wait	-5664
minent	-5665
▁bound	-5666
▁jesus	-5667
▁sight	-5668
▁adults	-5669
▁bigger	-5670
▁circum	-5671
▁desert	-5672
▁flames	-5673
▁lights	-5674
▁closely	-5675
▁failing	-5676
▁subject	-5677
▁telecom	-5678
▁atlantic	-5679
▁formally	-5680
▁identify	-5681
▁producer	-5682
▁publicly	-5683
▁scotland	-5684
▁struggle	-5685
▁madeleine	-5686
▁observers	-5687
▁responded	-5688
▁astronauts	-5689
▁restaurants	-5690
▁communication	-5691
kk	-5692
ato	-5693
ini	-5694
see	-5695
▁kaz	-5696
ansas	-5697
erved	-5698
lling	-5699
osite	-5700
▁aren	-5701
▁ehud	-5702
▁exam	-5703
▁reun	-5704
▁thro	-5705
▁escal	-5706
▁firms	-5707
▁manip	-5708
▁paint	-5709
▁sixth	-5710
mission	-5711
▁athlet	-5712
▁corner	-5713
▁master	-5714
▁multip	-5715
▁option	-5716
▁papers	-5717
▁termin	-5718
▁coastal	-5719
▁managed	-5720
▁pirates	-5721
▁reforms	-5722
▁stepped	-5723
▁wedding	-5724
▁estimate	-5725
▁innocent	-5726
▁vladimir	-5727
▁helicopters	-5728
▁broadcasting	-5729
▁expectations	-5730
bod	-5731
jad	-5732
nis	-5733
anch	-5734
onic	-5735
ques	-5736
rete	-5737
▁cos	-5738
▁lux	-5739
acing	-5740
ordan	-5741
▁airb	-5742
▁brut	-5743
▁chun	-5744
▁eliz	-5745
▁emph	-5746
▁ends	-5747
▁merc	-5748
▁arsen	-5749
▁delhi	-5750
▁limit	-5751
▁marks	-5752
▁newly	-5753
▁uncon	-5754
▁views	-5755
▁waste	-5756
▁barcel	-5757
▁convoy	-5758
▁escape	-5759
▁paying	-5760
▁runner	-5761
ologists	-5762
▁matches	-5763
▁teacher	-5764
▁accounts	-5765
▁diplomat	-5766
▁pregnant	-5767
▁positions	-5768
▁reduction	-5769
▁attempting	-5770
▁indonesian	-5771
▁introduced	-5772
▁disarmament	-5773
▁established	-5774
▁philippines	-5775
aka	-5776
ias	-5777
cher	-5778
look	-5779
agues	-5780
deleg	-5781
erous	-5782
raeus	-5783
▁beef	-5784
▁duty	-5785
▁warm	-5786
atever	-5787
▁abdul	-5788
▁debut	-5789
▁habit	-5790
▁squad	-5791
▁unity	-5792
▁boeing	-5793
▁counts	-5794
▁jordan	-5795
▁memory	-5796
▁serbia	-5797
▁shared	-5798
▁string	-5799
▁blocked	-5800
▁divided	-5801
▁feeling	-5802
▁license	-5803
▁birthday	-5804
▁circumst	-5805
▁contests	-5806
▁islamist	-5807
▁petraeus	-5808
▁recorded	-5809
▁whatever	-5810
▁alexander	-5811
▁barcelona	-5812
▁deployment	-5813
▁superdeleg	-5814
▁surrounded	-5815
ek	-5816
▁cz	-5817
▁gi	-5818
▁ug	-5819
form	-5820
ghai	-5821
orse	-5822
▁gop	-5823
▁barb	-5824
▁halt	-5825
▁lift	-5826
▁migr	-5827
▁ride	-5828
▁sort	-5829
▁verd	-5830
rating	-5831
▁accus	-5832
▁anger	-5833
▁anton	-5834
▁kevin	-5835
vereign	-5836
▁beaten	-5837
▁bright	-5838
▁firing	-5839
▁adopted	-5840
▁cleared	-5841
▁illness	-5842
▁stories	-5843
▁shanghai	-5844
▁stronger	-5845
▁troubled	-5846
▁villages	-5847
▁welcomed	-5848
▁elizabeth	-5849
▁gathering	-5850
▁illegally	-5851
▁peacekeep	-5852
▁sovereign	-5853
▁suspicion	-5854
▁challenges	-5855
dc	-5856
gl	-5857
vi	-5858
oen	-5859
rad	-5860
▁ay	-5861
outs	-5862
wart	-5863
akers	-5864
inals	-5865
night	-5866
▁summ	-5867
▁veto	-5868
inejad	-5869
▁civic	-5870
▁hawai	-5871
▁moves	-5872
▁plung	-5873
▁shift	-5874
▁trees	-5875
▁crowds	-5876
▁ghazni	-5877
▁mainly	-5878
▁metrop	-5879
▁superv	-5880
▁anticip	-5881
▁beating	-5882
▁deliber	-5883
▁rallies	-5884
▁infected	-5885
▁maintain	-5886
▁traveled	-5887
▁wildlife	-5888
▁hampshire	-5889
▁transform	-5890
▁federation	-5891
▁registered	-5892
▁venezuelan	-5893
▁ahmadinejad	-5894
▁participate	-5895
▁representative	-5896
ola	-5897
chen	-5898
▁obv	-5899
▁pad	-5900
acked	-5901
attan	-5902
▁acts	-5903
▁belg	-5904
▁chen	-5905
▁crop	-5906
▁farc	-5907
▁gore	-5908
▁link	-5909
▁ramp	-5910
▁basra	-5911
▁kerry	-5912
▁urban	-5913
▁wheel	-5914
▁begins	-5915
▁bloody	-5916
▁causes	-5917
▁reagan	-5918
▁reject	-5919
▁unions	-5920
▁videos	-5921
▁burning	-5922
▁correct	-5923
▁forcing	-5924
▁hopeful	-5925
▁jakarta	-5926
▁sharply	-5927
▁airports	-5928
▁watchdog	-5929
▁engineers	-5930
▁primaries	-5931
▁sensitive	-5932
▁colleagues	-5933
▁difference	-5934
▁enrichment	-5935
▁monitoring	-5936
▁punishment	-5937
▁revolutionary	-5938
gs	-5939
daq	-5940
ean	-5941
pan	-5942
vey	-5943
ovic	-5944
▁cra	-5945
▁gor	-5946
▁jam	-5947
▁kib	-5948
▁ages	-5949
▁imag	-5950
▁knee	-5951
▁vacc	-5952
▁gradu	-5953
▁hills	-5954
▁lohan	-5955
▁metal	-5956
▁comedy	-5957
▁deeply	-5958
▁eating	-5959
▁elimin	-5960
▁floods	-5961
▁morgan	-5962
▁pledge	-5963
▁prepar	-5964
▁stance	-5965
▁arsenal	-5966
▁bombers	-5967
▁dealing	-5968
▁letters	-5969
▁patrick	-5970
▁routine	-5971
▁secular	-5972
▁stalled	-5973
▁abducted	-5974
▁capacity	-5975
▁compound	-5976
▁stressed	-5977
▁thinking	-5978
▁unlikely	-5979
▁vacation	-5980
▁economist	-5981
▁effective	-5982
▁expensive	-5983
▁highlight	-5984
▁manhattan	-5985
▁regarding	-5986
▁scientist	-5987
▁televised	-5988
▁violation	-5989
▁disappointed	-5990
▁understanding	-5991
dy	-5992
aid	-5993
chi	-5994
jev	-5995
umi	-5996
▁dv	-5997
aret	-5998
icit	-5999
ilit	-6000
▁cig	-6001
▁pin	-6002
▁sli	-6003
▁slo	-6004
▁dick	-6005
▁foss	-6006
▁hunt	-6007
▁lung	-6008
▁mamm	-6009
▁mate	-6010
▁nick	-6011
▁peru	-6012
▁wear	-6013
olitan	-6014
▁bened	-6015
▁blago	-6016
▁camps	-6017
▁chile	-6018
▁grown	-6019
▁liter	-6020
▁loved	-6021
▁swept	-6022
▁chosen	-6023
▁cooper	-6024
▁packed	-6025
▁stands	-6026
▁subsid	-6027
▁worker	-6028
▁capable	-6029
▁emerged	-6030
▁roughly	-6031
▁accusing	-6032
▁briefing	-6033
▁caucuses	-6034
▁features	-6035
▁numerous	-6036
▁portugal	-6037
▁everybody	-6038
▁intention	-6039
▁nominated	-6040
▁apologized	-6041
▁individual	-6042
▁alternative	-6043
▁demonstration	-6044
▁manufacturing	-6045
zo	-6046
ero	-6047
iop	-6048
ios	-6049
san	-6050
uls	-6051
▁ye	-6052
olis	-6053
pass	-6054
▁gmt	-6055
▁moh	-6056
▁pkk	-6057
▁sha	-6058
▁unn	-6059
itely	-6060
owitz	-6061
point	-6062
▁bull	-6063
▁toug	-6064
ocking	-6065
▁novel	-6066
▁roman	-6067
▁schol	-6068
illance	-6069
▁arrive	-6070
▁bitter	-6071
▁faster	-6072
▁hotels	-6073
▁jewish	-6074
▁leaves	-6075
▁michel	-6076
▁scores	-6077
▁conclus	-6078
▁earning	-6079
▁factory	-6080
▁funeral	-6081
▁imports	-6082
▁intense	-6083
▁mississ	-6084
▁plastic	-6085
▁restore	-6086
▁ronaldo	-6087
▁worried	-6088
▁buddhist	-6089
▁columbia	-6090
▁directed	-6091
▁midnight	-6092
▁mortgage	-6093
▁obtained	-6094
▁passport	-6095
▁remember	-6096
▁tropical	-6097
▁brazilian	-6098
▁detonated	-6099
▁direction	-6100
▁initiative	-6101
▁scientific	-6102
▁engineering	-6103
▁southeastern	-6104
▁surveillance	-6105
▁circumstances	-6106
asc	-6107
oms	-6108
pet	-6109
▁ka	-6110
aine	-6111
airo	-6112
bing	-6113
ippi	-6114
▁alt	-6115
▁hid	-6116
▁ire	-6117
▁jol	-6118
▁woo	-6119
board	-6120
icial	-6121
illas	-6122
oking	-6123
onium	-6124
▁brig	-6125
▁harv	-6126
▁sole	-6127
▁uses	-6128
asters	-6129
illing	-6130
▁barri	-6131
▁bills	-6132
▁elder	-6133
▁entry	-6134
▁henry	-6135
▁mouth	-6136
▁archae	-6137
▁guests	-6138
▁hawaii	-6139
▁kibaki	-6140
▁talked	-6141
▁machine	-6142
▁maximum	-6143
▁militia	-6144
▁rescued	-6145
▁sitting	-6146
▁whaling	-6147
▁commerce	-6148
▁greatest	-6149
▁reconcil	-6150
▁supposed	-6151
▁decisions	-6152
▁dominated	-6153
▁successor	-6154
▁mississippi	-6155
▁southwestern	-6156
aph	-6157
arr	-6158
dro	-6159
ori	-6160
▁si	-6161
anke	-6162
ipel	-6163
▁ank	-6164
▁dur	-6165
▁nik	-6166
usive	-6167
▁aged	-6168
▁epic	-6169
▁hasn	-6170
▁hide	-6171
▁impe	-6172
▁stun	-6173
▁unif	-6174
jevich	-6175
▁aware	-6176
▁false	-6177
▁quiet	-6178
▁toxic	-6179
through	-6180
▁bullet	-6181
▁cambod	-6182
▁coffee	-6183
▁debris	-6184
▁inquir	-6185
▁mccann	-6186
▁promot	-6187
▁specif	-6188
▁backing	-6189
▁charity	-6190
▁cyclone	-6191
▁degrees	-6192
▁devices	-6193
▁founded	-6194
▁musical	-6195
▁rapidly	-6196
▁theater	-6197
▁virtual	-6198
▁bankrupt	-6199
▁identity	-6200
▁multiple	-6201
▁replaced	-6202
▁discussion	-6203
▁originally	-6204
▁blagojevich	-6205
▁breakthrough	-6206
▁investigations	-6207
▁superdelegates	-6208
alf	-6209
bow	-6210
▁ms	-6211
▁na	-6212
adel	-6213
▁fta	-6214
▁hiv	-6215
▁lew	-6216
▁pap	-6217
▁pav	-6218
antly	-6219
eared	-6220
ighth	-6221
iliar	-6222
imony	-6223
▁chad	-6224
▁elev	-6225
▁guer	-6226
▁sons	-6227
▁tend	-6228
▁chong	-6229
▁disag	-6230
▁drama	-6231
▁greet	-6232
▁multi	-6233
▁oblig	-6234
▁persu	-6235
▁polar	-6236
▁shops	-6237
▁swiss	-6238
attered	-6239
▁broadc	-6240
▁castro	-6241
▁chiefs	-6242
▁conver	-6243
▁feared	-6244
▁fields	-6245
▁greece	-6246
▁nasdaq	-6247
▁wouldn	-6248
▁citizen	-6249
▁endorse	-6250
▁exactly	-6251
▁mohamed	-6252
▁section	-6253
▁striker	-6254
▁warrant	-6255
▁battling	-6256
▁benedict	-6257
▁brothers	-6258
▁concrete	-6259
▁egyptian	-6260
▁encourage	-6261
▁technical	-6262
▁presidents	-6263
▁agriculture	-6264
▁participants	-6265
inn	-6266
isa	-6267
▁eb	-6268
anes	-6269
wise	-6270
▁lit	-6271
▁sri	-6272
▁yem	-6273
adesh	-6274
bacco	-6275
essed	-6276
known	-6277
maker	-6278
verty	-6279
▁beer	-6280
▁boom	-6281
▁crus	-6282
▁kick	-6283
▁lank	-6284
▁typh	-6285
▁yous	-6286
tering	-6287
▁adult	-6288
▁amend	-6289
▁apply	-6290
▁conce	-6291
▁loyal	-6292
▁phoen	-6293
▁shore	-6294
▁shots	-6295
▁vital	-6296
▁dinner	-6297
▁excess	-6298
▁makers	-6299
▁native	-6300
▁steven	-6301
▁cameras	-6302
▁concent	-6303
▁consequ	-6304
▁explain	-6305
▁mexican	-6306
▁poverty	-6307
▁referen	-6308
▁survive	-6309
▁tobacco	-6310
▁unknown	-6311
▁mainland	-6312
▁moderate	-6313
▁normally	-6314
▁mountains	-6315
▁recommend	-6316
▁collection	-6317
▁complained	-6318
▁depression	-6319
▁campaigning	-6320
▁underground	-6321
▁metropolitan	-6322
esc	-6323
ius	-6324
osi	-6325
▁dy	-6326
▁zo	-6327
irty	-6328
izes	-6329
▁awa	-6330
▁coc	-6331
▁seg	-6332
▁vit	-6333
▁wre	-6334
erves	-6335
▁anal	-6336
▁brad	-6337
▁glac	-6338
▁outs	-6339
▁porn	-6340
▁stan	-6341
▁sung	-6342
ancing	-6343
ortion	-6344
ration	-6345
▁antar	-6346
▁bangl	-6347
▁drink	-6348
▁error	-6349
▁links	-6350
▁orche	-6351
▁photo	-6352
▁yemen	-6353
▁airbus	-6354
▁argued	-6355
▁assert	-6356
▁emphas	-6357
▁height	-6358
▁integr	-6359
▁joseph	-6360
▁prohib	-6361
▁somali	-6362
▁symbol	-6363
▁window	-6364
▁borders	-6365
▁fortune	-6366
▁phoenix	-6367
▁sharing	-6368
▁unusual	-6369
▁category	-6370
▁schedule	-6371
▁stimulus	-6372
▁boyfriend	-6373
▁prompting	-6374
▁testimony	-6375
▁authorized	-6376
▁suggesting	-6377
▁communities	-6378
▁overwhelming	-6379
uma	-6380
uni	-6381
won	-6382
zed	-6383
▁kl	-6384
▁nd	-6385
▁rd	-6386
▁fit	-6387
▁gye	-6388
▁mit	-6389
▁rif	-6390
▁ske	-6391
enses	-6392
orted	-6393
▁bags	-6394
▁cham	-6395
▁file	-6396
▁golf	-6397
▁murd	-6398
▁palm	-6399
▁plut	-6400
▁pose	-6401
▁sche	-6402
ashing	-6403
encing	-6404
ichuan	-6405
▁alban	-6406
▁chest	-6407
▁czech	-6408
▁deals	-6409
▁gross	-6410
▁harsh	-6411
▁smugg	-6412
▁stern	-6413
▁sweep	-6414
achment	-6415
▁dubbed	-6416
▁easily	-6417
▁insist	-6418
▁runway	-6419
▁sheikh	-6420
▁staged	-6421
▁thirds	-6422
standing	-6423
ulations	-6424
▁austria	-6425
▁becomes	-6426
▁marines	-6427
▁rebuild	-6428
▁somalia	-6429
▁stephen	-6430
▁uniform	-6431
▁striking	-6432
▁unfortun	-6433
▁violated	-6434
▁attending	-6435
▁contained	-6436
▁increases	-6437
▁performed	-6438
▁plutonium	-6439
▁corporation	-6440
▁negotiators	-6441
▁reconciliation	-6442
po	-6443
agn	-6444
oli	-6445
oto	-6446
roc	-6447
achi	-6448
aint	-6449
ardo	-6450
eces	-6451
ella	-6452
▁bes	-6453
▁bor	-6454
▁dad	-6455
▁dan	-6456
▁joe	-6457
▁joh	-6458
▁lah	-6459
▁ray	-6460
▁tel	-6461
ecess	-6462
inted	-6463
▁busy	-6464
▁lapt	-6465
▁mete	-6466
▁wors	-6467
dering	-6468
▁bases	-6469
▁chris	-6470
▁doors	-6471
▁feels	-6472
▁plays	-6473
▁solid	-6474
▁turns	-6475
▁defect	-6476
▁fierce	-6477
▁gallon	-6478
▁mccorm	-6479
▁parent	-6480
▁storms	-6481
▁strict	-6482
▁temple	-6483
▁tennes	-6484
▁underw	-6485
▁benefit	-6486
▁fishing	-6487
▁hitting	-6488
▁outrage	-6489
▁separat	-6490
▁trigger	-6491
▁worries	-6492
▁distance	-6493
▁dramatic	-6494
▁familiar	-6495
▁instruct	-6496
▁payments	-6497
▁alongside	-6498
▁locations	-6499
▁otherwise	-6500
▁conducting	-6501
▁relatively	-6502
▁legislative	-6503
▁transferred	-6504
ua	-6505
bor	-6506
dum	-6507
efa	-6508
ema	-6509
met	-6510
rie	-6511
gers	-6512
iani	-6513
wait	-6514
▁gad	-6515
aters	-6516
echan	-6517
icked	-6518
▁aung	-6519
▁fern	-6520
▁kent	-6521
▁sang	-6522
▁sees	-6523
▁shif	-6524
▁spac	-6525
▁uefa	-6526
▁capit	-6527
▁cloud	-6528
▁legit	-6529
▁sweet	-6530
▁write	-6531
ography	-6532
▁courts	-6533
▁depend	-6534
▁factor	-6535
▁hosted	-6536
▁kuwait	-6537
▁observ	-6538
▁romney	-6539
▁tackle	-6540
▁briefly	-6541
▁comprom	-6542
▁divorce	-6543
▁inaugur	-6544
▁privacy	-6545
▁ranging	-6546
▁controls	-6547
▁defended	-6548
▁networks	-6549
▁ordinary	-6550
▁platform	-6551
▁priority	-6552
▁celebrity	-6553
▁generally	-6554
▁tennessee	-6555
▁absolutely	-6556
▁defendants	-6557
▁referendum	-6558
▁responding	-6559
▁electronics	-6560
▁institutions	-6561
di	-6562
had	-6563
ito	-6564
aire	-6565
enna	-6566
hips	-6567
mand	-6568
ourt	-6569
reek	-6570
▁ski	-6571
▁tam	-6572
▁yen	-6573
dinga	-6574
dogan	-6575
owing	-6576
umbai	-6577
uting	-6578
▁dust	-6579
▁khal	-6580
▁kiss	-6581
▁loan	-6582
▁ryan	-6583
▁wart	-6584
▁cargo	-6585
▁flags	-6586
▁frust	-6587
▁larry	-6588
▁nancy	-6589
▁pilgr	-6590
▁raids	-6591
▁teens	-6592
▁tiger	-6593
▁worry	-6594
ception	-6595
▁artist	-6596
▁carter	-6597
▁endors	-6598
▁infant	-6599
▁meteor	-6600
▁motion	-6601
▁mumbai	-6602
▁myster	-6603
▁odinga	-6604
▁oldest	-6605
▁satisf	-6606
▁shield	-6607
▁stable	-6608
▁thinks	-6609
▁unrest	-6610
▁antonio	-6611
▁barrels	-6612
▁consist	-6613
▁erdogan	-6614
▁gambari	-6615
▁kidnapp	-6616
▁pointed	-6617
▁prepare	-6618
▁returns	-6619
▁suspend	-6620
▁writers	-6621
▁advanced	-6622
▁baseball	-6623
▁combined	-6624
▁contrast	-6625
▁handling	-6626
▁improved	-6627
▁inspired	-6628
▁interrog	-6629
▁purchase	-6630
▁receiving	-6631
▁temporary	-6632
▁wolfowitz	-6633
▁occupation	-6634
▁appointment	-6635
▁compensation	-6636
▁administrative	-6637
hs	-6638
kets	-6639
▁ded	-6640
▁emp	-6641
▁hee	-6642
▁hij	-6643
▁jac	-6644
▁jae	-6645
▁nam	-6646
▁sir	-6647
liest	-6648
mates	-6649
usion	-6650
▁anth	-6651
▁cave	-6652
▁kate	-6653
▁pitt	-6654
ansion	-6655
makers	-6656
▁advoc	-6657
▁galax	-6658
▁libya	-6659
▁paulo	-6660
▁saved	-6661
▁thank	-6662
▁walls	-6663
angered	-6664
▁advice	-6665
▁athens	-6666
▁listed	-6667
▁mechan	-6668
▁poland	-6669
▁unders	-6670
▁wounds	-6671
idelines	-6672
▁balance	-6673
▁capture	-6674
▁crossed	-6675
▁fernand	-6676
▁mistake	-6677
▁monitor	-6678
▁operate	-6679
▁profits	-6680
▁spotted	-6681
▁switzer	-6682
▁turnout	-6683
▁typhoon	-6684
▁veteran	-6685
▁athletes	-6686
▁imprison	-6687
▁isolated	-6688
▁throwing	-6689
▁explosive	-6690
▁incidents	-6691
▁recognize	-6692
▁shootings	-6693
▁announcing	-6694
▁bangladesh	-6695
▁containing	-6696
▁endangered	-6697
▁advertising	-6698
▁switzerland	-6699
▁northeastern	-6700
dd	-6701
law	-6702
sey	-6703
mont	-6704
▁amn	-6705
anded	-6706
▁anch	-6707
▁bath	-6708
▁bowl	-6709
▁excl	-6710
▁legs	-6711
▁marc	-6712
▁soil	-6713
▁unex	-6714
▁aside	-6715
▁cable	-6716
▁crist	-6717
▁fleet	-6718
▁laure	-6719
▁mixed	-6720
▁nowak	-6721
▁orbit	-6722
▁slump	-6723
▁units	-6724
oration	-6725
▁advent	-6726
▁agents	-6727
▁andrew	-6728
▁destin	-6729
▁donald	-6730
▁ethiop	-6731
▁extend	-6732
▁imposs	-6733
▁legend	-6734
▁liquid	-6735
▁ousted	-6736
▁pelosi	-6737
▁amnesty	-6738
▁amounts	-6739
▁arrests	-6740
▁awarded	-6741
▁carrier	-6742
▁clothes	-6743
▁joining	-6744
▁praised	-6745
▁purpose	-6746
▁trained	-6747
▁appealed	-6748
▁delegate	-6749
▁gonzales	-6750
▁indicate	-6751
▁provides	-6752
▁benchmark	-6753
▁fundament	-6754
▁mccormack	-6755
▁producers	-6756
▁promoting	-6757
▁shortages	-6758
▁structure	-6759
▁villagers	-6760
▁relocation	-6761
▁settlement	-6762
▁disappeared	-6763
▁sovereignty	-6764
gi	-6765
ka	-6766
▁yi	-6767
amas	-6768
ario	-6769
atra	-6770
irai	-6771
roit	-6772
ucky	-6773
uter	-6774
▁dry	-6775
▁jin	-6776
▁sav	-6777
▁tsv	-6778
ulner	-6779
▁acce	-6780
▁clar	-6781
▁eric	-6782
▁huck	-6783
▁roof	-6784
▁shah	-6785
▁tent	-6786
▁wish	-6787
▁breed	-6788
▁burst	-6789
▁charl	-6790
▁embry	-6791
▁guerr	-6792
▁hamid	-6793
▁meter	-6794
▁moore	-6795
▁solve	-6796
▁wreck	-6797
▁actors	-6798
▁attrib	-6799
▁beauty	-6800
▁darwin	-6801
▁easier	-6802
▁gyeong	-6803
▁miners	-6804
▁missed	-6805
▁motors	-6806
▁pursue	-6807
▁rivers	-6808
▁stalin	-6809
▁therap	-6810
▁transl	-6811
▁values	-6812
▁airways	-6813
▁capitol	-6814
▁dealers	-6815
▁detroit	-6816
▁hunting	-6817
▁ireland	-6818
▁seventh	-6819
▁shelter	-6820
▁volcano	-6821
▁welfare	-6822
▁winners	-6823
▁mohammad	-6824
▁prospect	-6825
▁referred	-6826
▁senators	-6827
▁thousand	-6828
▁attorneys	-6829
▁complaint	-6830
▁improving	-6831
▁negotiate	-6832
▁pollution	-6833
▁submitted	-6834
▁surprised	-6835
▁extraordin	-6836
▁extremists	-6837
▁volunteers	-6838
▁appropriate	-6839
▁successfully	-6840
ads	-6841
bes	-6842
quo	-6843
rit	-6844
▁gy	-6845
brid	-6846
gans	-6847
mond	-6848
oons	-6849
oren	-6850
phia	-6851
uese	-6852
▁keb	-6853
▁les	-6854
▁lev	-6855
▁naz	-6856
▁soo	-6857
burgh	-6858
rahim	-6859
under	-6860
▁fulf	-6861
▁hugo	-6862
▁inch	-6863
▁leak	-6864
▁orle	-6865
▁spur	-6866
▁unac	-6867
▁latin	-6868
▁lobby	-6869
▁opens	-6870
▁phill	-6871
▁weigh	-6872
▁whale	-6873
angirai	-6874
▁copies	-6875
▁eighth	-6876
▁freeze	-6877
▁nether	-6878
▁orange	-6879
▁regret	-6880
▁runoff	-6881
▁stabil	-6882
▁starts	-6883
▁strain	-6884
▁visits	-6885
▁whales	-6886
adelphia	-6887
atically	-6888
▁caution	-6889
▁dressed	-6890
▁pleaded	-6891
▁samples	-6892
▁seattle	-6893
▁torture	-6894
▁variety	-6895
▁wartime	-6896
▁detected	-6897
▁employee	-6898
▁petition	-6899
▁quarterf	-6900
▁recalled	-6901
▁wireless	-6902
▁efficient	-6903
▁approached	-6904
▁complaints	-6905
▁economists	-6906
▁impossible	-6907
▁portuguese	-6908
▁richardson	-6909
▁securities	-6910
▁tsvangirai	-6911
▁accusations	-6912
▁documentary	-6913
▁experienced	-6914
▁negotiating	-6915
▁netherlands	-6916
▁photographs	-6917
▁philadelphia	-6918
bl	-6919
ez	-6920
akh	-6921
don	-6922
imp	-6923
uez	-6924
apes	-6925
bour	-6926
▁hud	-6927
▁lyn	-6928
▁mog	-6929
▁vig	-6930
ining	-6931
oping	-6932
space	-6933
▁bars	-6934
▁core	-6935
▁emir	-6936
▁fred	-6937
▁giul	-6938
▁gren	-6939
▁laid	-6940
▁mall	-6941
▁obst	-6942
▁peak	-6943
▁touc	-6944
▁chain	-6945
▁chaos	-6946
▁crews	-6947
▁explo	-6948
▁posts	-6949
▁semif	-6950
▁terri	-6951
▁toile	-6952
actions	-6953
entions	-6954
▁conven	-6955
▁divers	-6956
▁finger	-6957
▁hybrid	-6958
▁rushed	-6959
▁syrian	-6960
▁twenty	-6961
▁yangon	-6962
▁abandon	-6963
▁arrange	-6964
▁declare	-6965
▁disable	-6966
▁minimum	-6967
▁orleans	-6968
▁polling	-6969
▁renewed	-6970
▁revenue	-6971
▁sailors	-6972
▁viewers	-6973
▁assassin	-6974
▁billions	-6975
▁dictator	-6976
▁executed	-6977
▁homeless	-6978
▁informed	-6979
▁learning	-6980
▁missions	-6981
▁missouri	-6982
▁requires	-6983
▁sexually	-6984
▁swimming	-6985
▁abandoned	-6986
▁contracts	-6987
▁elsewhere	-6988
▁guarantee	-6989
▁winehouse	-6990
▁bankruptcy	-6991
▁classified	-6992
▁historical	-6993
▁interested	-6994
▁politician	-6995
▁popularity	-6996
ira	-6997
iya	-6998
lah	-6999
elly	-7000
ocol	-7001
onia	-7002
ysis	-7003
▁egg	-7004
▁fol	-7005
▁hin	-7006
▁map	-7007
▁que	-7008
▁tie	-7009
▁unh	-7010
▁yas	-7011
berto	-7012
ledon	-7013
rence	-7014
rimin	-7015
▁chol	-7016
▁entr	-7017
▁flat	-7018
▁rand	-7019
▁rudd	-7020
▁stol	-7021
▁todd	-7022
▁whit	-7023
▁wimb	-7024
▁zero	-7025
ecraft	-7026
rupted	-7027
▁acres	-7028
▁annan	-7029
▁cards	-7030
▁consc	-7031
▁davis	-7032
▁eleph	-7033
▁grass	-7034
▁lanka	-7035
▁motiv	-7036
▁posed	-7037
▁stuff	-7038
▁timet	-7039
holders	-7040
▁blasts	-7041
▁centre	-7042
▁merkel	-7043
▁rodrig	-7044
▁spoken	-7045
▁topped	-7046
▁volunt	-7047
▁warner	-7048
▁compete	-7049
▁feature	-7050
▁interim	-7051
▁legally	-7052
▁monthly	-7053
▁passing	-7054
▁quoting	-7055
▁tension	-7056
▁arriving	-7057
▁giuliani	-7058
▁interven	-7059
▁purposes	-7060
▁studying	-7061
▁suddenly	-7062
▁addressed	-7063
▁attacking	-7064
▁defending	-7065
▁sectarian	-7066
▁technolog	-7067
▁violating	-7068
▁wimbledon	-7069
▁assessment	-7070
▁greenhouse	-7071
▁interviews	-7072
▁spacecraft	-7073
▁nominations	-7074
▁potentially	-7075
▁inauguration	-7076
mor	-7077
uro	-7078
▁fi	-7079
▁pp	-7080
kins	-7081
otti	-7082
wers	-7083
▁dol	-7084
▁hou	-7085
▁ioc	-7086
▁jav	-7087
▁mud	-7088
▁sab	-7089
ching	-7090
orced	-7091
sfeld	-7092
▁barg	-7093
▁blan	-7094
▁burn	-7095
▁chip	-7096
▁dawn	-7097
▁dean	-7098
▁diet	-7099
▁dign	-7100
▁empt	-7101
▁hack	-7102
▁yoon	-7103
▁yuan	-7104
apolis	-7105
icting	-7106
▁discl	-7107
▁euros	-7108
▁heath	-7109
▁jerry	-7110
▁proof	-7111
▁rains	-7112
▁robot	-7113
▁rocks	-7114
▁shoes	-7115
▁theme	-7116
▁trend	-7117
▁trick	-7118
▁unpre	-7119
▁upset	-7120
▁waves	-7121
▁brutal	-7122
▁impose	-7123
▁listen	-7124
▁murray	-7125
▁reiter	-7126
▁stolen	-7127
▁surren	-7128
▁vulner	-7129
▁aftersh	-7130
▁cloning	-7131
▁granted	-7132
▁matters	-7133
▁resumed	-7134
▁sichuan	-7135
▁slammed	-7136
▁unident	-7137
▁verdict	-7138
▁vessels	-7139
▁astronom	-7140
▁attitude	-7141
▁consecut	-7142
▁disputed	-7143
▁exposure	-7144
▁function	-7145
▁momentum	-7146
▁campaigns	-7147
▁denuclear	-7148
▁departure	-7149
▁louisiana	-7150
▁spreading	-7151
▁strategic	-7152
▁agreements	-7153
▁experiment	-7154
▁represents	-7155
▁strengthen	-7156
▁violations	-7157
▁broadcaster	-7158
▁conversation	-7159
▁representing	-7160
▁unidentified	-7161
▁extraordinary	-7162
ti	-7163
aud	-7164
hdi	-7165
iel	-7166
abee	-7167
aman	-7168
aste	-7169
cons	-7170
omen	-7171
onda	-7172
▁dim	-7173
▁len	-7174
▁lun	-7175
▁nin	-7176
▁nut	-7177
▁tra	-7178
▁urg	-7179
apova	-7180
igned	-7181
itage	-7182
▁calc	-7183
▁caps	-7184
▁fert	-7185
▁gate	-7186
▁gray	-7187
▁iron	-7188
▁jews	-7189
▁meat	-7190
▁nice	-7191
▁opec	-7192
▁riot	-7193
▁sequ	-7194
arched	-7195
▁acted	-7196
▁clash	-7197
▁cleve	-7198
▁fever	-7199
▁frame	-7200
▁laugh	-7201
▁mehdi	-7202
▁postp	-7203
▁raquo	-7204
▁repro	-7205
▁risks	-7206
▁swift	-7207
▁usual	-7208
▁woods	-7209
▁apprec	-7210
▁arabic	-7211
▁behalf	-7212
▁client	-7213
▁handle	-7214
▁mental	-7215
▁powell	-7216
▁rumors	-7217
▁trucks	-7218
▁classic	-7219
▁constit	-7220
▁element	-7221
▁enterpr	-7222
▁outcome	-7223
▁pending	-7224
▁pulling	-7225
▁tickets	-7226
▁colonial	-7227
▁huckabee	-7228
▁indicted	-7229
▁injuring	-7230
▁occasion	-7231
▁rumsfeld	-7232
▁selected	-7233
▁teenager	-7234
▁criminals	-7235
▁deadliest	-7236
▁detainees	-7237
▁followers	-7238
▁marketing	-7239
▁residence	-7240
▁sentiment	-7241
▁sharapova	-7242
▁spiritual	-7243
▁strengthe	-7244
▁protecting	-7245
▁ultimately	-7246
▁consecutive	-7247
▁investigated	-7248
▁technologies	-7249
▁disappearance	-7250
▁significantly	-7251
sl	-7252
wr	-7253
yc	-7254
zi	-7255
cho	-7256
ico	-7257
osa	-7258
▁sg	-7259
fast	-7260
heim	-7261
icts	-7262
more	-7263
ribe	-7264
▁jur	-7265
▁lag	-7266
▁rot	-7267
▁tum	-7268
▁yel	-7269
ensus	-7270
oster	-7271
place	-7272
▁abol	-7273
▁blew	-7274
▁earn	-7275
▁embr	-7276
▁gian	-7277
▁hits	-7278
▁jane	-7279
▁jint	-7280
▁pand	-7281
▁pron	-7282
▁soph	-7283
▁unco	-7284
▁utah	-7285
keeper	-7286
▁cheap	-7287
▁grant	-7288
▁intel	-7289
▁preca	-7290
▁relax	-7291
▁roger	-7292
▁shape	-7293
▁wales	-7294
▁affili	-7295
▁kansas	-7296
▁models	-7297
▁notice	-7298
▁pilots	-7299
▁retire	-7300
▁slaves	-7301
▁suburb	-7302
▁switch	-7303
▁tracks	-7304
▁traged	-7305
▁barbara	-7306
▁classes	-7307
▁drawing	-7308
▁exposed	-7309
▁houston	-7310
▁inquiry	-7311
▁signals	-7312
▁collabor	-7313
▁detailed	-7314
▁deterior	-7315
▁earnings	-7316
▁withdrew	-7317
▁accidents	-7318
▁celebrate	-7319
▁denounced	-7320
▁happening	-7321
▁stationed	-7322
▁testified	-7323
▁virtually	-7324
▁employment	-7325
▁inspection	-7326
▁investigator	-7327
▁confrontation	-7328
fk	-7329
ela	-7330
ila	-7331
odo	-7332
▁wy	-7333
ache	-7334
ette	-7335
irac	-7336
moil	-7337
ores	-7338
rast	-7339
▁ads	-7340
▁ark	-7341
▁ast	-7342
▁cul	-7343
▁gig	-7344
▁kun	-7345
▁nov	-7346
▁ppp	-7347
▁rav	-7348
▁sao	-7349
antic	-7350
icken	-7351
▁eval	-7352
▁nurs	-7353
▁omar	-7354
▁shed	-7355
▁stir	-7356
▁ward	-7357
atched	-7358
iliate	-7359
▁blaze	-7360
▁bones	-7361
▁buses	-7362
▁chose	-7363
▁clock	-7364
▁crops	-7365
▁crown	-7366
▁decre	-7367
▁greek	-7368
▁oklah	-7369
▁pipel	-7370
▁ahmadi	-7371
▁arctic	-7372
▁belief	-7373
▁delays	-7374
▁denies	-7375
▁hudson	-7376
▁indeed	-7377
▁jintao	-7378
▁lahore	-7379
▁massac	-7380
▁pieces	-7381
▁prefer	-7382
▁proved	-7383
▁raided	-7384
▁safely	-7385
▁submit	-7386
▁wright	-7387
▁ceremon	-7388
▁counsel	-7389
▁factors	-7390
▁karachi	-7391
▁masters	-7392
▁objects	-7393
▁parking	-7394
▁plunged	-7395
▁reconst	-7396
▁robbery	-7397
▁tornado	-7398
▁transpl	-7399
▁turmoil	-7400
▁underst	-7401
▁clothing	-7402
▁israelis	-7403
▁landmark	-7404
▁resolved	-7405
▁stepping	-7406
▁construct	-7407
▁malaysian	-7408
▁nationals	-7409
▁projected	-7410
▁releasing	-7411
▁sentences	-7412
▁timetable	-7413
▁uncertain	-7414
▁undermine	-7415
▁characters	-7416
▁conclusion	-7417
▁designated	-7418
▁maintained	-7419
▁devastating	-7420
▁substantial	-7421
▁trafficking	-7422
▁specifically	-7423
▁conservatives	-7424
uz	-7425
bul	-7426
gue	-7427
iox	-7428
por	-7429
▁ni	-7430
ahar	-7431
ouch	-7432
rate	-7433
▁bae	-7434
▁dvd	-7435
▁ecu	-7436
▁fuj	-7437
▁lav	-7438
▁mbc	-7439
▁sci	-7440
▁une	-7441
▁upd	-7442
ooter	-7443
▁adds	-7444
▁barr	-7445
▁fant	-7446
▁nuri	-7447
▁rank	-7448
▁sett	-7449
▁tomb	-7450
intend	-7451
▁flown	-7452
▁imper	-7453
▁jihad	-7454
▁lewis	-7455
▁monet	-7456
▁mosul	-7457
▁phase	-7458
▁retal	-7459
▁timor	-7460
▁abuses	-7461
▁bodygu	-7462
▁carlos	-7463
▁desper	-7464
▁engage	-7465
▁kenyan	-7466
▁luxury	-7467
▁peters	-7468
▁physic	-7469
▁shaped	-7470
▁slated	-7471
▁steady	-7472
▁taylor	-7473
▁theory	-7474
▁titles	-7475
▁tunnel	-7476
▁vienna	-7477
▁viewed	-7478
▁warren	-7479
cedented	-7480
▁approve	-7481
▁condemn	-7482
▁ibrahim	-7483
▁inquest	-7484
▁marched	-7485
▁moments	-7486
▁pleased	-7487
▁tragedy	-7488
▁crossing	-7489
▁diseases	-7490
▁existing	-7491
▁midfield	-7492
▁oklahoma	-7493
▁prisoner	-7494
▁reducing	-7495
▁apologize	-7496
▁centuries	-7497
▁cleveland	-7498
▁execution	-7499
▁expansion	-7500
▁expecting	-7501
▁protected	-7502
▁sustained	-7503
▁indicating	-7504
▁industries	-7505
▁laboratory	-7506
▁personally	-7507
▁prevention	-7508
▁protesting	-7509
▁celebrities	-7510
▁effectively	-7511
▁presumptive	-7512
▁proceedings	-7513
▁recommended	-7514
▁respondents	-7515
▁unprecedented	-7516
hy	-7517
ui	-7518
▁pm	-7519
bell	-7520
iful	-7521
lock	-7522
tsin	-7523
▁hye	-7524
▁tar	-7525
▁zaw	-7526
▁brus	-7527
▁cats	-7528
▁dall	-7529
▁evil	-7530
▁publ	-7531
▁tact	-7532
▁tale	-7533
▁urge	-7534
consin	-7535
icated	-7536
lusive	-7537
pected	-7538
▁beaut	-7539
▁craig	-7540
▁disab	-7541
▁empty	-7542
▁maria	-7543
▁medal	-7544
▁naked	-7545
▁seung	-7546
▁songs	-7547
▁trips	-7548
▁amazon	-7549
▁chirac	-7550
▁disord	-7551
▁distur	-7552
▁interf	-7553
▁nobody	-7554
▁reluct	-7555
▁rounds	-7556
▁salmon	-7557
▁studio	-7558
▁sweden	-7559
▁telesc	-7560
▁unfair	-7561
▁vision	-7562
▁beneath	-7563
▁carries	-7564
▁cocaine	-7565
▁congrat	-7566
▁ecuador	-7567
▁knocked	-7568
▁marking	-7569
▁soaring	-7570
▁tougher	-7571
▁unnamed	-7572
▁yeltsin	-7573
▁deciding	-7574
▁dropping	-7575
▁endorsed	-7576
▁ballistic	-7577
▁extensive	-7578
▁featuring	-7579
▁rodriguez	-7580
▁socialist	-7581
▁surrender	-7582
▁teenagers	-7583
▁wisconsin	-7584
▁explosions	-7585
▁indication	-7586
▁suspicious	-7587
▁anticipated	-7588
▁impeachment	-7589
ca	-7590
je	-7591
jo	-7592
pi	-7593
sa	-7594
xi	-7595
amo	-7596
rah	-7597
tan	-7598
udh	-7599
▁ax	-7600
▁ft	-7601
acle	-7602
gger	-7603
hand	-7604
irut	-7605
loid	-7606
oric	-7607
rist	-7608
sell	-7609
uous	-7610
uten	-7611
▁dor	-7612
▁raj	-7613
▁sgt	-7614
▁unw	-7615
itors	-7616
izumi	-7617
ounce	-7618
▁cafe	-7619
▁cosm	-7620
▁deny	-7621
▁kath	-7622
▁kitt	-7623
▁plum	-7624
▁scar	-7625
▁celeb	-7626
▁cuban	-7627
▁genoc	-7628
▁keeps	-7629
▁parks	-7630
▁patri	-7631
▁pitch	-7632
▁risen	-7633
▁seeks	-7634
▁shell	-7635
▁thick	-7636
iveness	-7637
▁beirut	-7638
▁consol	-7639
▁embezz	-7640
▁extrad	-7641
▁hunger	-7642
▁implic	-7643
▁nicole	-7644
▁revive	-7645
▁scheme	-7646
▁shinzo	-7647
▁signal	-7648
▁stroke	-7649
▁writer	-7650
▁autonom	-7651
▁broader	-7652
▁chapter	-7653
▁clashed	-7654
▁genetic	-7655
▁koizumi	-7656
▁outlook	-7657
▁overtur	-7658
▁rowling	-7659
▁slipped	-7660
▁tabloid	-7661
▁touched	-7662
▁aviation	-7663
▁centered	-7664
▁contains	-7665
▁covering	-7666
▁discover	-7667
▁kentucky	-7668
▁mounting	-7669
▁resulted	-7670
▁stranded	-7671
▁wreckage	-7672
▁ambitions	-7673
▁consensus	-7674
▁displaced	-7675
▁economies	-7676
▁evolution	-7677
▁indicates	-7678
▁launching	-7679
▁predecess	-7680
▁prominent	-7681
▁promising	-7682
▁recording	-7683
▁aggressive	-7684
▁commanders	-7685
▁importance	-7686
▁membership	-7687
▁permission	-7688
▁unexpected	-7689
▁concessions	-7690
▁fundamental	-7691
▁universities	-7692
eav	-7693
oys	-7694
pay	-7695
rav	-7696
anic	-7697
cape	-7698
dick	-7699
held	-7700
iser	-7701
keys	-7702
roll	-7703
shot	-7704
▁dak	-7705
▁gil	-7706
▁pye	-7707
▁rah	-7708
iders	-7709
ingly	-7710
▁flex	-7711
▁gest	-7712
▁idol	-7713
▁jets	-7714
▁lies	-7715
▁lord	-7716
▁pard	-7717
▁puts	-7718
▁tiss	-7719
▁tool	-7720
▁wore	-7721
▁yard	-7722
arrass	-7723
attled	-7724
rehens	-7725
weight	-7726
▁aired	-7727
▁airpl	-7728
▁ambul	-7729
▁badly	-7730
▁branc	-7731
▁spani	-7732
▁steep	-7733
▁stops	-7734
▁zawah	-7735
ulating	-7736
▁downlo	-7737
▁endeav	-7738
▁funded	-7739
▁galaxy	-7740
▁hearts	-7741
▁rafael	-7742
▁repair	-7743
▁stayed	-7744
cription	-7745
▁acceler	-7746
▁advised	-7747
▁elderly	-7748
▁explore	-7749
▁flooded	-7750
▁happens	-7751
▁impover	-7752
▁jobless	-7753
▁longest	-7754
▁nigeria	-7755
▁passion	-7756
▁pressed	-7757
▁signing	-7758
▁teenage	-7759
▁totally	-7760
▁attached	-7761
▁frontier	-7762
▁heritage	-7763
▁longtime	-7764
▁michelle	-7765
▁overcome	-7766
▁searched	-7767
▁shoulder	-7768
▁slowdown	-7769
▁cooperate	-7770
▁embarrass	-7771
▁mandatory	-7772
▁penalties	-7773
▁principle	-7774
▁universal	-7775
▁discussing	-7776
▁frequently	-7777
▁geological	-7778
▁insurgency	-7779
▁philippine	-7780
▁principles	-7781
▁recognized	-7782
▁resistance	-7783
▁politically	-7784
▁consequences	-7785
▁impoverished	-7786
▁shareholders	-7787
▁manufacturers	-7788
dp	-7789
ji	-7790
ati	-7791
ima	-7792
iot	-7793
ums	-7794
▁dj	-7795
▁ja	-7796
▁om	-7797
cker	-7798
ials	-7799
indi	-7800
mail	-7801
math	-7802
ooth	-7803
stra	-7804
▁ing	-7805
▁kyu	-7806
▁mrs	-7807
▁pig	-7808
▁sed	-7809
▁sym	-7810
▁tae	-7811
▁tut	-7812
▁yoo	-7813
ables	-7814
emies	-7815
olved	-7816
rical	-7817
state	-7818
teria	-7819
vedev	-7820
▁curb	-7821
▁katr	-7822
▁mans	-7823
▁mide	-7824
▁rans	-7825
▁bears	-7826
▁daugh	-7827
▁diagn	-7828
▁flame	-7829
▁flash	-7830
▁forth	-7831
▁graph	-7832
▁jolie	-7833
▁lists	-7834
▁marit	-7835
▁naval	-7836
▁prest	-7837
▁puert	-7838
▁scrap	-7839
▁skull	-7840
▁spill	-7841
▁truce	-7842
▁accuse	-7843
▁charts	-7844
▁checks	-7845
▁commem	-7846
▁conced	-7847
▁elabor	-7848
▁forget	-7849
▁incred	-7850
▁judici	-7851
▁myself	-7852
▁rubble	-7853
▁stages	-7854
▁videot	-7855
▁battles	-7856
▁customs	-7857
▁deficit	-7858
▁disrupt	-7859
▁enemies	-7860
▁fighter	-7861
▁harvard	-7862
▁imagine	-7863
▁infrast	-7864
▁insists	-7865
▁mideast	-7866
▁prosper	-7867
▁railway	-7868
▁roddick	-7869
▁shocked	-7870
▁veterin	-7871
▁wrapped	-7872
▁chancell	-7873
▁describe	-7874
▁genocide	-7875
▁medvedev	-7876
▁pilgrims	-7877
▁pursuing	-7878
▁shutdown	-7879
▁supports	-7880
▁unaccept	-7881
▁aftermath	-7882
▁attracted	-7883
▁daughters	-7884
▁diplomacy	-7885
▁promotion	-7886
▁reference	-7887
▁resulting	-7888
▁christians	-7889
▁everywhere	-7890
▁goalkeeper	-7891
▁procedures	-7892
▁reiterated	-7893
▁accompanied	-7894
▁outstanding	-7895
▁personality	-7896
▁temporarily	-7897
▁peacekeeping	-7898
asa	-7899
hou	-7900
iti	-7901
net	-7902
phy	-7903
anim	-7904
uman	-7905
ylum	-7906
▁agg	-7907
▁ori	-7908
▁reh	-7909
igers	-7910
right	-7911
▁alab	-7912
▁chan	-7913
▁chat	-7914
▁diox	-7915
▁forg	-7916
▁horm	-7917
▁kand	-7918
▁pool	-7919
▁rush	-7920
▁topp	-7921
inding	-7922
▁canal	-7923
▁diver	-7924
▁mobil	-7925
▁raped	-7926
▁riots	-7927
▁shirt	-7928
▁shook	-7929
▁wider	-7930
inction	-7931
▁asylum	-7932
▁compon	-7933
▁dating	-7934
▁garden	-7935
▁limits	-7936
▁marath	-7937
▁riding	-7938
▁saving	-7939
▁taxpay	-7940
▁colored	-7941
▁dioxide	-7942
▁excited	-7943
▁futures	-7944
▁katrina	-7945
▁lifting	-7946
▁monarch	-7947
▁realize	-7948
▁singing	-7949
▁vermont	-7950
▁vitamin	-7951
▁abortion	-7952
▁analysis	-7953
▁anderson	-7954
▁disagree	-7955
▁disputes	-7956
▁focusing	-7957
▁incoming	-7958
▁judicial	-7959
▁kandahar	-7960
▁maritime	-7961
▁militias	-7962
▁minority	-7963
▁persuade	-7964
▁register	-7965
▁abduction	-7966
▁affiliate	-7967
▁automaker	-7968
▁emotional	-7969
▁judiciary	-7970
▁obviously	-7971
▁offenders	-7972
▁retailers	-7973
▁therefore	-7974
▁typically	-7975
▁addressing	-7976
▁attributed	-7977
▁celebrated	-7978
▁legitimate	-7979
▁remarkable	-7980
▁suspension	-7981
▁vulnerable	-7982
▁confirmation	-7983
eva	-7984
few	-7985
ien	-7986
▁pf	-7987
▁ww	-7988
▁zh	-7989
agic	-7990
away	-7991
droe	-7992
itis	-7993
lers	-7994
offs	-7995
oner	-7996
raid	-7997
▁alf	-7998
▁chi	-7999
▁enh	-8000
▁fda	-8001
▁gus	-8002
▁jay	-8003
▁roy	-8004
▁sul	-8005
chers	-8006
eland	-8007
▁alan	-8008
▁bare	-8009
▁clay	-8010
▁dorm	-8011
▁fake	-8012
▁frag	-8013
▁musc	-8014
▁reop	-8015
▁span	-8016
bourne	-8017
itious	-8018
▁ahmed	-8019
▁bloom	-8020
▁chase	-8021
▁exped	-8022
▁guang	-8023
▁henin	-8024
▁kyoto	-8025
▁minds	-8026
▁pharm	-8027
▁pitts	-8028
▁shark	-8029
▁skept	-8030
▁stamp	-8031
▁types	-8032
▁cheong	-8033
▁curfew	-8034
▁equity	-8035
▁giants	-8036
▁hailed	-8037
▁noting	-8038
▁output	-8039
▁scenes	-8040
▁serves	-8041
▁toyota	-8042
▁unique	-8043
▁alabama	-8044
▁applied	-8045
▁bottles	-8046
▁closest	-8047
▁crowded	-8048
▁exchang	-8049
▁habitat	-8050
▁myspace	-8051
▁sectors	-8052
▁contamin	-8053
▁emirates	-8054
▁featured	-8055
▁managers	-8056
▁mistakes	-8057
▁monetary	-8058
▁operated	-8059
▁properly	-8060
▁religion	-8061
▁sponsors	-8062
▁victoria	-8063
▁interpret	-8064
▁landslide	-8065
▁procedure	-8066
▁regularly	-8067
▁uncovered	-8068
▁chancellor	-8069
▁conviction	-8070
▁kidnappers	-8071
▁laundering	-8072
▁liberation	-8073
▁statistics	-8074
▁consumption	-8075
▁institution	-8076
▁interviewed	-8077
▁northwestern	-8078
▁championships	-8079
▁unfortunately	-8080
▁correspondents	-8081
▁infrastructure	-8082
esh	-8083
mal	-8084
umn	-8085
▁ip	-8086
aken	-8087
atri	-8088
aved	-8089
efin	-8090
elro	-8091
inos	-8092
mans	-8093
rets	-8094
uits	-8095
vili	-8096
▁dun	-8097
▁ell	-8098
▁oxy	-8099
▁uni	-8100
anamo	-8101
erald	-8102
inced	-8103
oured	-8104
▁buzz	-8105
▁cert	-8106
▁exha	-8107
▁flee	-8108
▁geun	-8109
▁glas	-8110
▁kaes	-8111
▁lean	-8112
▁leon	-8113
▁loud	-8114
▁roma	-8115
▁salv	-8116
▁thus	-8117
iments	-8118
umbled	-8119
▁antib	-8120
▁assum	-8121
▁clubs	-8122
▁enorm	-8123
▁falls	-8124
▁fault	-8125
▁fined	-8126
▁forec	-8127
▁guant	-8128
▁guild	-8129
▁horri	-8130
▁kelly	-8131
▁kyodo	-8132
▁kyung	-8133
▁lunch	-8134
▁ramos	-8135
▁relie	-8136
▁sacri	-8137
▁singh	-8138
▁sorry	-8139
▁stead	-8140
▁tower	-8141
▁veget	-8142
▁venue	-8143
▁vigil	-8144
▁volat	-8145
▁wound	-8146
umbling	-8147
▁afraid	-8148
▁banner	-8149
▁branch	-8150
▁compar	-8151
▁doping	-8152
▁geneva	-8153
▁graham	-8154
▁hiding	-8155
▁killer	-8156
▁lasted	-8157
▁prolif	-8158
▁provoc	-8159
▁skills	-8160
▁unanim	-8161
▁wilson	-8162
▁battery	-8163
▁concept	-8164
▁courage	-8165
▁everest	-8166
▁grounds	-8167
▁indefin	-8168
▁leftist	-8169
▁methods	-8170
▁prestig	-8171
▁prolong	-8172
▁studios	-8173
▁traders	-8174
▁tribute	-8175
▁vaccine	-8176
▁anywhere	-8177
▁convince	-8178
▁coverage	-8179
▁elements	-8180
▁frequent	-8181
▁interpol	-8182
▁shipping	-8183
▁surveyed	-8184
▁convinced	-8185
▁declaring	-8186
▁extension	-8187
▁movements	-8188
▁reclusive	-8189
▁struggled	-8190
▁wonderful	-8191
▁compromise	-8192
▁guantanamo	-8193
▁pittsburgh	-8194
▁legislature	-8195
▁respectively	-8196
▁transactions	-8197
▁unacceptable	-8198
▁opportunities	-8199
ci	-8200
oe	-8201
iev	-8202
pro	-8203
uda	-8204
uja	-8205
▁ry	-8206
born	-8207
ican	-8208
inho	-8209
oles	-8210
osex	-8211
vant	-8212
zene	-8213
▁amy	-8214
▁cel	-8215
▁fee	-8216
▁haz	-8217
▁kir	-8218
▁nap	-8219
▁tas	-8220
aimed	-8221
enter	-8222
etown	-8223
iller	-8224
liner	-8225
regon	-8226
rooms	-8227
ulous	-8228
▁bone	-8229
▁dece	-8230
▁eggs	-8231
▁grav	-8232
▁kash	-8233
▁neut	-8234
▁pill	-8235
▁plea	-8236
▁pole	-8237
▁poly	-8238
▁reid	-8239
▁rely	-8240
▁seas	-8241
▁thor	-8242
▁zard	-8243
airobi	-8244
elling	-8245
icking	-8246
stream	-8247
▁audio	-8248
▁brook	-8249
▁casey	-8250
▁congo	-8251
▁dolph	-8252
▁elite	-8253
▁feder	-8254
▁forms	-8255
▁guide	-8256
▁lined	-8257
▁moral	-8258
▁notes	-8259
▁simon	-8260
▁swine	-8261
▁theft	-8262
ressive	-8263
unction	-8264
▁boycot	-8265
▁clinic	-8266
▁comply	-8267
▁dallas	-8268
▁exceed	-8269
▁finals	-8270
▁harder	-8271
▁interv	-8272
▁locked	-8273
▁openly	-8274
▁oregon	-8275
▁oxygen	-8276
▁panama	-8277
▁plenty	-8278
▁poison	-8279
▁reward	-8280
▁thirty	-8281
▁uganda	-8282
▁voiced	-8283
▁absence	-8284
▁artists	-8285
▁belgium	-8286
▁blasted	-8287
▁intends	-8288
▁kaesong	-8289
▁lending	-8290
▁nairobi	-8291
▁noticed	-8292
▁portion	-8293
▁pursued	-8294
▁refusal	-8295
▁silence	-8296
▁visible	-8297
▁zardari	-8298
ibilities	-8299
▁campbell	-8300
▁constant	-8301
▁creation	-8302
▁emerging	-8303
▁engineer	-8304
▁entrance	-8305
▁operator	-8306
▁opponent	-8307
▁psychiat	-8308
▁veterans	-8309
▁admission	-8310
▁airstrike	-8311
▁composite	-8312
▁counterfe	-8313
▁infection	-8314
▁insurgent	-8315
▁intercept	-8316
▁paintings	-8317
▁populated	-8318
▁separated	-8319
▁strongest	-8320
▁threatens	-8321
▁background	-8322
▁executions	-8323
▁guerrillas	-8324
▁optimistic	-8325
▁possession	-8326
▁regardless	-8327
▁surprising	-8328
▁complicated	-8329
▁distributed	-8330
▁encouraging	-8331
▁residential	-8332
▁distribution	-8333
onn	-8334
ses	-8335
▁ga	-8336
▁kc	-8337
▁wo	-8338
abet	-8339
acks	-8340
adei	-8341
cont	-8342
iner	-8343
izer	-8344
lose	-8345
mese	-8346
onto	-8347
tada	-8348
yala	-8349
▁cdc	-8350
▁fah	-8351
▁hyd	-8352
▁ibm	-8353
▁nba	-8354
▁suk	-8355
▁usa	-8356
aniya	-8357
child	-8358
eless	-8359
etime	-8360
gment	-8361
jamin	-8362
sters	-8363
▁acid	-8364
▁aims	-8365
▁aven	-8366
▁caut	-8367
▁croc	-8368
▁epid	-8369
▁fame	-8370
▁ferg	-8371
▁gear	-8372
▁guys	-8373
▁holl	-8374
▁jenn	-8375
▁krem	-8376
▁lots	-8377
▁mere	-8378
▁mood	-8379
▁noon	-8380
▁pich	-8381
▁rays	-8382
▁seal	-8383
▁slim	-8384
▁symp	-8385
▁twel	-8386
▁twin	-8387
active	-8388
igroup	-8389
nesota	-8390
person	-8391
▁alger	-8392
▁andre	-8393
▁brian	-8394
▁carac	-8395
▁coinc	-8396
▁craft	-8397
▁cyber	-8398
▁dying	-8399
▁helps	-8400
▁marty	-8401
▁meets	-8402
▁pleas	-8403
▁radar	-8404
▁reput	-8405
▁teeth	-8406
▁toler	-8407
▁tours	-8408
▁unpop	-8409
▁wrest	-8410
▁yield	-8411
areness	-8412
▁actual	-8413
▁allied	-8414
▁anchor	-8415
▁archit	-8416
▁ballot	-8417
▁blacks	-8418
▁blocks	-8419
▁burden	-8420
▁button	-8421
▁buyers	-8422
▁denver	-8423
▁desire	-8424
▁encoun	-8425
▁gender	-8426
▁hitler	-8427
▁incumb	-8428
▁infect	-8429
▁jungle	-8430
▁kazakh	-8431
▁laptop	-8432
▁libyan	-8433
▁miller	-8434
▁philip	-8435
▁waited	-8436
▁appeals	-8437
▁bahamas	-8438
▁burmese	-8439
▁damages	-8440
▁enjoyed	-8441
▁greeted	-8442
▁hanging	-8443
▁kremlin	-8444
▁lieuten	-8445
▁prostit	-8446
▁serbian	-8447
▁shouldn	-8448
▁spectac	-8449
▁surveys	-8450
▁testify	-8451
▁achieved	-8452
▁activist	-8453
▁benjamin	-8454
▁bernanke	-8455
▁graduate	-8456
▁instance	-8457
▁marathon	-8458
▁massacre	-8459
▁promises	-8460
▁reflects	-8461
▁removing	-8462
▁requests	-8463
▁reserved	-8464
▁universe	-8465
▁zawahiri	-8466
▁awareness	-8467
▁beautiful	-8468
▁citigroup	-8469
▁competing	-8470
▁contacted	-8471
▁directors	-8472
▁minnesota	-8473
▁policeman	-8474
▁postponed	-8475
▁probation	-8476
▁telescope	-8477
▁contenders	-8478
▁definitely	-8479
▁landslides	-8480
▁separately	-8481
▁separatist	-8482
▁specialist	-8483
▁investments	-8484
▁represented	-8485
▁agricultural	-8486
▁proliferation	-8487
rez	-8488
run	-8489
▁hs	-8490
ampa	-8491
awaz	-8492
iffe	-8493
iffs	-8494
ishu	-8495
mate	-8496
orta	-8497
prom	-8498
sels	-8499
wind	-8500
▁avo	-8501
▁bio	-8502
▁hut	-8503
▁lod	-8504
▁meg	-8505
▁mum	-8506
▁pod	-8507
▁tru	-8508
▁vin	-8509
anche	-8510
eller	-8511
isive	-8512
lined	-8513
prime	-8514
stone	-8515
▁audi	-8516
▁drow	-8517
▁elig	-8518
▁epis	-8519
▁fees	-8520
▁flaw	-8521
▁mats	-8522
▁mice	-8523
▁milk	-8524
▁nich	-8525
▁phen	-8526
▁rhet	-8527
▁scan	-8528
ecture	-8529
essing	-8530
▁bever	-8531
▁dates	-8532
▁foods	-8533
▁guest	-8534
▁intim	-8535
▁outdo	-8536
▁rocky	-8537
▁tears	-8538
▁terry	-8539
▁ankara	-8540
▁approx	-8541
▁castle	-8542
▁contem	-8543
▁crocod	-8544
▁danish	-8545
▁exclud	-8546
▁kidney	-8547
▁partly	-8548
▁rooney	-8549
▁rulers	-8550
▁schwar	-8551
▁tanker	-8552
▁thrown	-8553
▁tigers	-8554
▁volume	-8555
▁chamber	-8556
▁fossett	-8557
▁honored	-8558
▁instant	-8559
▁passage	-8560
▁rallied	-8561
▁ratings	-8562
▁revised	-8563
▁scoring	-8564
▁stretch	-8565
▁thanked	-8566
▁wealthy	-8567
rehensive	-8568
▁argument	-8569
▁arranged	-8570
▁barriers	-8571
▁cambodia	-8572
▁consolid	-8573
▁generals	-8574
▁machines	-8575
▁opposite	-8576
▁pressing	-8577
▁realized	-8578
▁scandals	-8579
▁shortage	-8580
▁subprime	-8581
▁terminal	-8582
▁warrants	-8583
▁yourself	-8584
▁amendment	-8585
▁continent	-8586
▁excessive	-8587
▁generated	-8588
▁incumbent	-8589
▁prevented	-8590
▁primarily	-8591
▁publicist	-8592
▁resolving	-8593
▁reviewing	-8594
▁unpopular	-8595
▁accounting	-8596
▁checkpoint	-8597
▁contribute	-8598
▁critically	-8599
▁guidelines	-8600
▁immigrants	-8601
▁midfielder	-8602
▁peacefully	-8603
▁pronounced	-8604
▁recovering	-8605
▁undergoing	-8606
▁appearances	-8607
▁combination	-8608
▁competitive	-8609
▁mountainous	-8610
▁operational	-8611
▁publication	-8612
▁replacement	-8613
▁preparations	-8614
▁prostitution	-8615
▁photographers	-8616
▁reconstruction	-8617
tv	-8618
ahn	-8619
bil	-8620
can	-8621
fit	-8622
ils	-8623
una	-8624
asts	-8625
beat	-8626
bons	-8627
fish	-8628
hart	-8629
icut	-8630
ifer	-8631
illy	-8632
itar	-8633
odes	-8634
onna	-8635
rome	-8636
teen	-8637
▁aig	-8638
▁hos	-8639
▁inh	-8640
▁nah	-8641
▁rug	-8642
▁wol	-8643
angel	-8644
irmed	-8645
peace	-8646
print	-8647
▁auth	-8648
▁bans	-8649
▁cape	-8650
▁cher	-8651
▁clim	-8652
▁curt	-8653
▁ivan	-8654
▁ling	-8655
▁luis	-8656
▁owns	-8657
▁synd	-8658
▁taxi	-8659
▁ware	-8660
▁wool	-8661
adishu	-8662
closed	-8663
father	-8664
manuel	-8665
ompson	-8666
▁aster	-8667
▁blind	-8668
▁bruni	-8669
▁finds	-8670
▁hindu	-8671
▁hosts	-8672
▁jewel	-8673
▁nawaz	-8674
▁pages	-8675
▁print	-8676
▁remem	-8677
▁rings	-8678
▁roles	-8679
▁samar	-8680
▁serge	-8681
▁sworn	-8682
▁tanks	-8683
▁tries	-8684
station	-8685
▁adjust	-8686
▁angela	-8687
▁borrow	-8688
▁dakota	-8689
▁diyala	-8690
▁exiled	-8691
▁insult	-8692
▁locals	-8693
▁madoff	-8694
▁oppose	-8695
▁piracy	-8696
▁ransom	-8697
▁rarely	-8698
▁reveal	-8699
▁scramb	-8700
▁sealed	-8701
▁silver	-8702
▁stones	-8703
▁toilet	-8704
▁traded	-8705
ographic	-8706
zenegger	-8707
▁abusing	-8708
▁checked	-8709
▁doubled	-8710
▁fleeing	-8711
▁gazprom	-8712
▁hostile	-8713
▁hosting	-8714
▁ignored	-8715
▁mercury	-8716
▁motorcy	-8717
▁powered	-8718
▁prophet	-8719
▁reverse	-8720
▁smashed	-8721
▁toronto	-8722
▁animated	-8723
▁asteroid	-8724
▁exciting	-8725
▁freezing	-8726
▁heathrow	-8727
▁nominees	-8728
▁rhetoric	-8729
▁severely	-8730
▁suburban	-8731
▁superior	-8732
▁teaching	-8733
▁thompson	-8734
▁appearing	-8735
▁confessed	-8736
▁connected	-8737
▁discrimin	-8738
▁expanding	-8739
▁factories	-8740
▁installed	-8741
▁mogadishu	-8742
▁orchestra	-8743
▁selection	-8744
▁somewhere	-8745
▁underwent	-8746
▁challenged	-8747
▁greenpeace	-8748
▁performing	-8749
▁professors	-8750
▁satellites	-8751
▁astronomers	-8752
▁comfortable	-8753
▁connecticut	-8754
▁dismantling	-8755
▁maintaining	-8756
▁statistical	-8757
▁temperature	-8758
▁manipulation	-8759
▁registration	-8760
▁comprehensive	-8761
▁schwarzenegger	-8762
eg	-8763
adi	-8764
hus	-8765
kir	-8766
tic	-8767
yah	-8768
▁lg	-8769
▁mi	-8770
adic	-8771
argo	-8772
bean	-8773
ione	-8774
rics	-8775
uson	-8776
▁bra	-8777
▁bry	-8778
▁kum	-8779
▁mol	-8780
▁rit	-8781
▁sod	-8782
▁tip	-8783
▁zap	-8784
allah	-8785
aping	-8786
aware	-8787
cript	-8788
qtada	-8789
ricts	-8790
vinen	-8791
▁blaz	-8792
▁buff	-8793
▁chur	-8794
▁cole	-8795
▁dies	-8796
▁duck	-8797
▁fare	-8798
▁maur	-8799
▁medi	-8800
▁mong	-8801
▁nazi	-8802
▁odds	-8803
▁orth	-8804
▁pear	-8805
▁pure	-8806
▁seok	-8807
▁shep	-8808
▁trav	-8809
▁unre	-8810
▁user	-8811
estone	-8812
hedral	-8813
heimer	-8814
ichiro	-8815
▁allen	-8816
▁argue	-8817
▁bonds	-8818
▁boxes	-8819
▁bruce	-8820
▁gases	-8821
▁holes	-8822
▁magic	-8823
▁marry	-8824
▁mcdon	-8825
▁overs	-8826
▁param	-8827
▁quant	-8828
▁rawal	-8829
▁reass	-8830
▁recyc	-8831
▁remin	-8832
▁spray	-8833
▁stall	-8834
▁sympt	-8835
iciency	-8836
▁aiming	-8837
▁barred	-8838
▁basket	-8839
▁bolton	-8840
▁bottle	-8841
▁burial	-8842
▁hidden	-8843
▁hijack	-8844
▁incent	-8845
▁instru	-8846
▁islets	-8847
▁murphy	-8848
▁preced	-8849
▁revers	-8850
▁strang	-8851
▁subway	-8852
▁twelve	-8853
▁urgent	-8854
▁useful	-8855
▁alberto	-8856
▁anybody	-8857
▁arguing	-8858
▁assured	-8859
▁ballots	-8860
▁climbed	-8861
▁crocker	-8862
▁denmark	-8863
▁equival	-8864
▁fastest	-8865
▁gesture	-8866
▁intimid	-8867
▁lengthy	-8868
▁paulson	-8869
▁picking	-8870
▁prayers	-8871
▁predict	-8872
▁purport	-8873
▁rehabil	-8874
▁secured	-8875
▁sevilla	-8876
▁shouted	-8877
▁wrongdo	-8878
▁adoption	-8879
▁atlantis	-8880
▁commemor	-8881
▁customer	-8882
▁disorder	-8883
▁employed	-8884
▁enormous	-8885
▁entirely	-8886
▁expanded	-8887
▁expelled	-8888
▁ferguson	-8889
▁johndroe	-8890
▁managing	-8891
▁pointing	-8892
▁romantic	-8893
▁sciences	-8894
▁sudanese	-8895
▁survival	-8896
▁sweeping	-8897
▁theaters	-8898
▁adventure	-8899
▁antarctic	-8900
▁carefully	-8901
▁cathedral	-8902
▁considers	-8903
▁introduce	-8904
▁maintains	-8905
▁principal	-8906
▁taiwanese	-8907
▁withdrawn	-8908
▁automakers	-8909
▁ceremonies	-8910
▁dispatched	-8911
▁evacuation	-8912
▁qualifying	-8913
▁strategist	-8914
▁billionaire	-8915
▁spectacular	-8916
▁willingness	-8917
▁applications	-8918
▁photographer	-8919
▁participating	-8920
ja	-8921
asy	-8922
iko	-8923
kei	-8924
▁oz	-8925
▁wu	-8926
frey	-8927
inks	-8928
isan	-8929
mble	-8930
onte	-8931
pers	-8932
▁afp	-8933
▁gut	-8934
▁mao	-8935
▁nel	-8936
▁nix	-8937
▁nur	-8938
▁sid	-8939
▁ted	-8940
▁uss	-8941
armed	-8942
atoes	-8943
grade	-8944
munic	-8945
pindi	-8946
ramid	-8947
▁bold	-8948
▁cord	-8949
▁desk	-8950
▁dodi	-8951
▁gwan	-8952
▁hell	-8953
▁jama	-8954
▁lisa	-8955
▁pist	-8956
▁rash	-8957
▁raul	-8958
▁scul	-8959
▁shim	-8960
▁sued	-8961
▁ther	-8962
▁trem	-8963
arotti	-8964
awatra	-8965
giving	-8966
mother	-8967
tanbul	-8968
▁adapt	-8969
▁carib	-8970
▁depos	-8971
▁eager	-8972
▁fixed	-8973
▁hired	-8974
▁horta	-8975
▁incor	-8976
▁ivory	-8977
▁lucky	-8978
▁moroc	-8979
▁ninth	-8980
▁oprah	-8981
▁ranch	-8982
▁revel	-8983
▁spraw	-8984
▁tired	-8985
▁uribe	-8986
▁villa	-8987
▁weren	-8988
▁yards	-8989
osexual	-8990
▁carpet	-8991
▁covers	-8992
▁duties	-8993
▁enthus	-8994
▁fabric	-8995
▁franco	-8996
▁honest	-8997
▁incurs	-8998
▁iphone	-8999
▁kicked	-9000
▁knight	-9001
▁mining	-9002
▁mortar	-9003
▁mutual	-9004
▁overha	-9005
▁parker	-9006
▁please	-9007
▁propag	-9008
▁random	-9009
▁retrie	-9010
▁spaces	-9011
▁suffer	-9012
▁tissue	-9013
ilateral	-9014
▁captors	-9015
▁caracas	-9016
▁closure	-9017
▁counted	-9018
▁engines	-9019
▁exhibit	-9020
▁extinct	-9021
▁filming	-9022
▁handful	-9023
▁indians	-9024
▁inmates	-9025
▁madonna	-9026
▁murders	-9027
▁neutral	-9028
▁posting	-9029
▁pyramid	-9030
▁revenge	-9031
▁subsequ	-9032
▁tripoli	-9033
▁typical	-9034
▁winfrey	-9035
▁bacteria	-9036
▁branches	-9037
▁broadway	-9038
▁brussels	-9039
▁disclose	-9040
▁formerly	-9041
▁generate	-9042
▁hometown	-9043
▁istanbul	-9044
▁jennifer	-9045
▁mourning	-9046
▁occupied	-9047
▁phenomen	-9048
▁refusing	-9049
▁regarded	-9050
▁volatile	-9051
▁ambitious	-9052
▁associate	-9053
▁breakfast	-9054
▁candidacy	-9055
▁collected	-9056
▁crocodile	-9057
▁donations	-9058
▁elaborate	-9059
▁epicenter	-9060
▁essential	-9061
▁explained	-9062
▁financing	-9063
▁landscape	-9064
▁pavarotti	-9065
▁pregnancy	-9066
▁proposals	-9067
▁sponsored	-9068
▁supporter	-9069
▁technique	-9070
▁elementary	-9071
▁extinction	-9072
▁households	-9073
▁rawalpindi	-9074
▁reputation	-9075
▁restricted	-9076
▁shinawatra	-9077
▁application	-9078
▁businessman	-9079
▁celebrating	-9080
▁contributed	-9081
▁criticizing	-9082
▁educational	-9083
▁influential	-9084
▁obligations	-9085
▁participation	-9086
la	-9087
no	-9088
amy	-9089
lan	-9090
weg	-9091
zer	-9092
zes	-9093
anol	-9094
care	-9095
icef	-9096
ilia	-9097
nold	-9098
umin	-9099
umph	-9100
▁ade	-9101
▁duc	-9102
▁joy	-9103
▁kit	-9104
▁liv	-9105
▁mdc	-9106
▁rud	-9107
▁suv	-9108
▁voc	-9109
▁yan	-9110
▁zar	-9111
agger	-9112
charg	-9113
inson	-9114
isons	-9115
kirts	-9116
opard	-9117
udhry	-9118
▁adam	-9119
▁amin	-9120
▁blog	-9121
▁brib	-9122
▁echo	-9123
▁fisc	-9124
▁gram	-9125
▁hate	-9126
▁hind	-9127
▁juan	-9128
▁lion	-9129
▁marg	-9130
▁rent	-9131
▁rove	-9132
▁shoe	-9133
▁sway	-9134
▁tang	-9135
▁tong	-9136
▁unsu	-9137
▁webs	-9138
ouring	-9139
rising	-9140
teries	-9141
ushkin	-9142
▁accur	-9143
▁clark	-9144
▁clues	-9145
▁depth	-9146
▁disgr	-9147
▁drunk	-9148
▁gangs	-9149
▁gonna	-9150
▁guess	-9151
▁haiti	-9152
▁merch	-9153
▁mines	-9154
▁nixon	-9155
▁plate	-9156
▁pusan	-9157
▁ranks	-9158
▁rifle	-9159
▁shame	-9160
▁smart	-9161
▁spots	-9162
▁squee	-9163
▁stick	-9164
▁tampa	-9165
ancourt	-9166
itorial	-9167
respons	-9168
uations	-9169
▁anthem	-9170
▁autops	-9171
▁destro	-9172
▁diabet	-9173
▁dumped	-9174
▁empire	-9175
▁explan	-9176
▁greens	-9177
▁guided	-9178
▁indict	-9179
▁infilt	-9180
▁intent	-9181
▁invent	-9182
▁manila	-9183
▁medics	-9184
▁nikkei	-9185
▁norway	-9186
▁paraly	-9187
▁pepper	-9188
▁premie	-9189
▁resemb	-9190
▁sacrif	-9191
▁smooth	-9192
▁suppli	-9193
▁surged	-9194
▁titled	-9195
▁transp	-9196
▁travol	-9197
▁tribun	-9198
▁unicef	-9199
▁wooden	-9200
▁automob	-9201
▁bedroom	-9202
▁dispers	-9203
▁dragged	-9204
▁forests	-9205
▁forming	-9206
▁helmand	-9207
▁knowing	-9208
▁mammoth	-9209
▁montana	-9210
▁offense	-9211
▁petrole	-9212
▁portray	-9213
▁publish	-9214
▁restart	-9215
▁surpass	-9216
▁triumph	-9217
▁attacker	-9218
▁chaudhry	-9219
▁discount	-9220
▁elevator	-9221
▁facebook	-9222
▁glaciers	-9223
▁hearings	-9224
▁johnston	-9225
▁monitors	-9226
▁outgoing	-9227
▁quarters	-9228
▁releases	-9229
▁restored	-9230
▁revision	-9231
▁shouting	-9232
▁somebody	-9233
▁symptoms	-9234
▁textbook	-9235
▁thorough	-9236
▁argentine	-9237
▁arguments	-9238
▁attackers	-9239
▁bloomberg	-9240
▁breathing	-9241
▁caribbean	-9242
▁cautioned	-9243
▁defectors	-9244
▁desperate	-9245
▁kilometer	-9246
▁musicians	-9247
▁outskirts	-9248
▁slaughter	-9249
▁smuggling	-9250
▁unsuccess	-9251
▁airstrikes	-9252
▁betancourt	-9253
▁engagement	-9254
▁equivalent	-9255
▁guarantees	-9256
▁pichushkin	-9257
▁preventing	-9258
▁stronghold	-9259
▁transplant	-9260
▁forecasters	-9261
▁predecessor	-9262
▁prestigious	-9263
▁territorial	-9264
▁demonstrated	-9265
▁intervention	-9266
▁thanksgiving	-9267
▁interrogation	-9268
ii	-9269
agu	-9270
erb	-9271
oca	-9272
vis	-9273
yad	-9274
ader	-9275
ails	-9276
cars	-9277
iary	-9278
isen	-9279
lein	-9280
lete	-9281
name	-9282
phan	-9283
zhou	-9284
▁alz	-9285
▁bos	-9286
▁cin	-9287
▁clo	-9288
▁dir	-9289
▁hay	-9290
▁hip	-9291
▁hog	-9292
▁jab	-9293
▁kuz	-9294
▁nab	-9295
▁nan	-9296
▁sib	-9297
▁ups	-9298
▁zah	-9299
akash	-9300
arity	-9301
chell	-9302
front	-9303
gging	-9304
lando	-9305
ouses	-9306
terns	-9307
wered	-9308
▁arts	-9309
▁bish	-9310
▁blat	-9311
▁brid	-9312
▁caff	-9313
▁ebay	-9314
▁fifa	-9315
▁gift	-9316
▁icon	-9317
▁nose	-9318
▁pier	-9319
▁qari	-9320
▁slip	-9321
▁tips	-9322
▁usfk	-9323
▁aging	-9324
▁aquar	-9325
▁burns	-9326
▁farms	-9327
▁files	-9328
▁grace	-9329
▁jeong	-9330
▁lynch	-9331
▁maine	-9332
▁pants	-9333
▁ports	-9334
▁pride	-9335
▁seren	-9336
▁sized	-9337
▁swall	-9338
▁tools	-9339
▁truly	-9340
▁wayne	-9341
regular	-9342
working	-9343
▁breach	-9344
▁breaks	-9345
▁cannes	-9346
▁crunch	-9347
▁drinks	-9348
▁halted	-9349
▁kimchi	-9350
▁muscle	-9351
▁norweg	-9352
▁passes	-9353
▁routes	-9354
▁sounds	-9355
▁stated	-9356
▁tennis	-9357
▁tragic	-9358
▁trails	-9359
children	-9360
▁automot	-9361
▁brigade	-9362
▁gunshot	-9363
▁mothers	-9364
▁orlando	-9365
▁outpost	-9366
▁persons	-9367
▁planets	-9368
▁recruit	-9369
▁shepher	-9370
▁shooter	-9371
▁stewart	-9372
▁venture	-9373
ructuring	-9374
▁advisers	-9375
▁aquarium	-9376
▁belonged	-9377
▁captives	-9378
▁counties	-9379
▁defeated	-9380
▁diabetes	-9381
▁evacuate	-9382
▁factions	-9383
▁imminent	-9384
▁involves	-9385
▁optimism	-9386
▁shutting	-9387
▁stopping	-9388
▁summoned	-9389
▁afterward	-9390
▁alzheimer	-9391
▁economics	-9392
▁endeavour	-9393
▁ethiopian	-9394
▁existence	-9395
▁extending	-9396
▁fortified	-9397
▁framework	-9398
▁policemen	-9399
▁protested	-9400
▁provision	-9401
▁publisher	-9402
▁reinforce	-9403
▁solutions	-9404
▁substance	-9405
▁tentative	-9406
▁affiliated	-9407
▁biological	-9408
▁describing	-9409
▁electrical	-9410
▁emphasized	-9411
▁overturned	-9412
▁researcher	-9413
▁acknowledge	-9414
▁contractors	-9415
▁endorsement	-9416
▁examination	-9417
▁inspections	-9418
▁legislators	-9419
▁retaliation	-9420
▁difficulties	-9421
▁traditionally	-9422
uo	-9423
uy	-9424
eta	-9425
ofi	-9426
oty	-9427
▁bm	-9428
▁cm	-9429
abao	-9430
anny	-9431
arre	-9432
case	-9433
heon	-9434
iors	-9435
mann	-9436
play	-9437
▁dok	-9438
▁imf	-9439
▁jos	-9440
▁kan	-9441
▁kas	-9442
▁nag	-9443
▁nod	-9444
▁tag	-9445
▁vic	-9446
▁wip	-9447
aired	-9448
cedes	-9449
itled	-9450
orous	-9451
▁bart	-9452
▁chim	-9453
▁craw	-9454
▁dana	-9455
▁estr	-9456
▁grim	-9457
▁hike	-9458
▁indo	-9459
▁joon	-9460
▁mitt	-9461
▁okin	-9462
▁pact	-9463
▁peer	-9464
▁root	-9465
▁shia	-9466
▁soul	-9467
▁stab	-9468
▁ster	-9469
▁tayy	-9470
▁warn	-9471
▁wrap	-9472
ishing	-9473
rition	-9474
▁asset	-9475
▁atroc	-9476
▁dealt	-9477
▁dynam	-9478
▁enact	-9479
▁fujim	-9480
▁inner	-9481
▁irbil	-9482
▁kinds	-9483
▁minim	-9484
▁opera	-9485
▁poore	-9486
▁scrut	-9487
▁surpl	-9488
▁swing	-9489
▁uncom	-9490
▁undis	-9491
esterol	-9492
▁affair	-9493
▁crater	-9494
▁discip	-9495
▁fairly	-9496
▁jiabao	-9497
▁manner	-9498
▁mirror	-9499
▁overth	-9500
▁parade	-9501
▁rating	-9502
▁refuse	-9503
▁remind	-9504
▁slowly	-9505
▁soared	-9506
▁amazing	-9507
▁artific	-9508
▁authors	-9509
▁beatles	-9510
▁bernard	-9511
▁beverly	-9512
▁clients	-9513
▁dancing	-9514
▁gibbons	-9515
▁infring	-9516
▁rolling	-9517
▁samarra	-9518
▁substit	-9519
▁undersc	-9520
▁utility	-9521
▁actively	-9522
▁airplane	-9523
▁damaging	-9524
▁dispatch	-9525
▁holidays	-9526
▁humanity	-9527
▁imperial	-9528
▁investor	-9529
▁lifetime	-9530
▁lighting	-9531
▁margaret	-9532
▁mercedes	-9533
▁mitchell	-9534
▁pipeline	-9535
▁predomin	-9536
▁sessions	-9537
▁sleeping	-9538
▁supervis	-9539
▁takeover	-9540
▁threaten	-9541
▁tribunal	-9542
▁youngest	-9543
▁colleague	-9544
▁conscious	-9545
▁dedicated	-9546
▁describes	-9547
▁exchanges	-9548
▁favorable	-9549
▁fishermen	-9550
▁irrespons	-9551
▁kurdistan	-9552
▁mentioned	-9553
▁privately	-9554
▁prolonged	-9555
▁purported	-9556
▁shattered	-9557
▁sophistic	-9558
▁sprawling	-9559
▁challenger	-9560
▁devastated	-9561
▁precaution	-9562
▁psychology	-9563
▁regulators	-9564
▁cholesterol	-9565
▁citizenship	-9566
▁coordinated	-9567
▁pornography	-9568
▁recognition	-9569
▁technically	-9570
▁assassinated	-9571
▁approximately	-9572
▁restructuring	-9573
cr	-9574
bid	-9575
chs	-9576
din	-9577
hew	-9578
iac	-9579
lev	-9580
▁hi	-9581
▁uf	-9582
adow	-9583
araz	-9584
athy	-9585
ello	-9586
heit	-9587
rors	-9588
stan	-9589
thel	-9590
▁abn	-9591
▁dot	-9592
▁fet	-9593
▁hui	-9594
▁hyp	-9595
▁nfl	-9596
▁rou	-9597
ierra	-9598
ushed	-9599
world	-9600
▁abor	-9601
▁bash	-9602
▁flic	-9603
▁hans	-9604
▁kcna	-9605
▁kofi	-9606
▁lobb	-9607
▁lock	-9608
▁melt	-9609
▁nerv	-9610
▁qass	-9611
▁rend	-9612
▁scri	-9613
▁unch	-9614
▁vest	-9615
▁wage	-9616
▁wang	-9617
iotics	-9618
lessly	-9619
ortium	-9620
▁ammun	-9621
▁arena	-9622
▁banco	-9623
▁bulls	-9624
▁croat	-9625
▁cryst	-9626
▁dated	-9627
▁donor	-9628
▁famed	-9629
▁ferry	-9630
▁folks	-9631
▁incon	-9632
▁midst	-9633
▁paral	-9634
▁races	-9635
▁remov	-9636
▁rider	-9637
▁roots	-9638
▁stuck	-9639
▁voter	-9640
▁wazir	-9641
▁wheat	-9642
▁wings	-9643
▁ambush	-9644
▁divide	-9645
▁doubts	-9646
▁edward	-9647
▁gotten	-9648
▁hubble	-9649
▁hunter	-9650
▁legacy	-9651
▁monkey	-9652
▁nelson	-9653
▁organs	-9654
▁oscars	-9655
▁perino	-9656
▁praise	-9657
▁puerto	-9658
▁racial	-9659
▁sensit	-9660
▁slowed	-9661
▁stream	-9662
▁struct	-9663
▁visual	-9664
▁waving	-9665
▁youths	-9666
▁autopsy	-9667
▁battled	-9668
▁britney	-9669
▁chicken	-9670
▁clooney	-9671
▁conglom	-9672
▁conting	-9673
▁dignity	-9674
▁embrace	-9675
▁evangel	-9676
▁gaining	-9677
▁gunfire	-9678
▁okinawa	-9679
▁painful	-9680
▁pursuit	-9681
▁rampage	-9682
▁saakash	-9683
▁setback	-9684
▁shipman	-9685
▁swedish	-9686
▁undergo	-9687
▁bathroom	-9688
▁cautious	-9689
▁deadlock	-9690
▁designer	-9691
▁distress	-9692
▁eligible	-9693
▁equipped	-9694
▁imported	-9695
▁overhaul	-9696
▁patterns	-9697
▁russians	-9698
▁scholars	-9699
▁shelters	-9700
▁sporting	-9701
▁stunning	-9702
▁survivor	-9703
▁thoughts	-9704
▁declining	-9705
▁depending	-9706
▁disrupted	-9707
▁finishing	-9708
▁incursion	-9709
▁irregular	-9710
▁petroleum	-9711
▁practices	-9712
▁purchased	-9713
▁screening	-9714
▁witnessed	-9715
▁ammunition	-9716
▁automotive	-9717
▁capability	-9718
▁chairwoman	-9719
▁consortium	-9720
▁dissidents	-9721
▁encouraged	-9722
▁enterprise	-9723
▁invitation	-9724
▁retirement	-9725
▁antibiotics	-9726
▁commitments	-9727
▁grandfather	-9728
▁grandmother	-9729
▁intensified	-9730
▁interesting	-9731
▁partnership	-9732
▁saakashvili	-9733
▁territories	-9734
▁peacekeepers	-9735
▁performances	-9736
▁telecommunic	-9737
▁determination	-9738
▁neighborhoods	-9739
▁relationships	-9740
▁counterfeiting	-9741
▁implementation	-9742
hev	-9743
how	-9744
icy	-9745
iza	-9746
mao	-9747
mes	-9748
olo	-9749
rov	-9750
rup	-9751
say	-9752
the	-9753
urn	-9754
▁jr	-9755
▁mw	-9756
▁yu	-9757
alay	-9758
asty	-9759
hasa	-9760
heng	-9761
iane	-9762
iley	-9763
opez	-9764
oult	-9765
quba	-9766
roph	-9767
rows	-9768
spec	-9769
unes	-9770
▁ana	-9771
▁bee	-9772
▁bok	-9773
▁bun	-9774
▁cri	-9775
▁mes	-9776
▁oak	-9777
▁poc	-9778
▁rab	-9779
▁raw	-9780
▁raz	-9781
▁tea	-9782
▁yog	-9783
bered	-9784
earns	-9785
eling	-9786
fires	-9787
icing	-9788
ighed	-9789
jiang	-9790
lings	-9791
▁andy	-9792
▁apec	-9793
▁aziz	-9794
▁bali	-9795
▁crem	-9796
▁fitz	-9797
▁gill	-9798
▁gran	-9799
▁hadn	-9800
▁hwan	-9801
▁intr	-9802
▁jank	-9803
▁keen	-9804
▁lect	-9805
▁luck	-9806
▁nebr	-9807
▁pale	-9808
▁panc	-9809
▁rita	-9810
▁sank	-9811
antile	-9812
illery	-9813
istics	-9814
mental	-9815
▁alarm	-9816
▁brave	-9817
▁brick	-9818
▁claus	-9819
▁deuts	-9820
▁dougl	-9821
▁genes	-9822
▁homic	-9823
▁horse	-9824
▁irish	-9825
▁jiang	-9826
▁lakes	-9827
▁lance	-9828
▁laser	-9829
▁linda	-9830
▁lopez	-9831
▁marsh	-9832
▁meals	-9833
▁pione	-9834
▁reaff	-9835
▁searc	-9836
▁shake	-9837
▁suits	-9838
▁susan	-9839
▁valid	-9840
ignment	-9841
ouncing	-9842
renheit	-9843
▁aggrav	-9844
▁baquba	-9845
▁blockb	-9846
▁caucus	-9847
▁chairs	-9848
▁chosun	-9849
▁clinch	-9850
▁commod	-9851
▁condol	-9852
▁donors	-9853
▁easter	-9854
▁foster	-9855
▁fueled	-9856
▁gusmao	-9857
▁heated	-9858
▁kidnap	-9859
▁manage	-9860
▁manuel	-9861
▁merger	-9862
▁modest	-9863
▁outlaw	-9864
▁perpet	-9865
▁polish	-9866
▁racing	-9867
▁reserv	-9868
▁respir	-9869
▁shirts	-9870
▁sierra	-9871
▁statue	-9872
▁throne	-9873
▁venues	-9874
▁angered	-9875
▁bargain	-9876
▁barrier	-9877
▁blanket	-9878
▁brothel	-9879
▁cheaper	-9880
▁choices	-9881
▁formula	-9882
▁handing	-9883
▁handled	-9884
▁hardest	-9885
▁hawking	-9886
▁jointly	-9887
▁mandate	-9888
▁municip	-9889
▁mystery	-9890
▁obvious	-9891
▁paparaz	-9892
▁payment	-9893
▁plummet	-9894
▁reacted	-9895
▁removal	-9896
▁retreat	-9897
▁runners	-9898
▁strange	-9899
▁transit	-9900
▁annually	-9901
▁checking	-9902
▁clinical	-9903
▁creative	-9904
▁defender	-9905
▁gyeonggi	-9906
▁judgment	-9907
▁justices	-9908
▁nebraska	-9909
▁orbiting	-9910
▁preserve	-9911
▁protocol	-9912
▁reserves	-9913
▁reviewed	-9914
▁tracking	-9915
▁troubles	-9916
▁anonymous	-9917
▁artillery	-9918
▁captivity	-9919
▁collision	-9920
▁copyright	-9921
▁exclusive	-9922
▁greenland	-9923
▁happiness	-9924
▁inspector	-9925
▁languages	-9926
▁mastermin	-9927
▁melbourne	-9928
▁norwegian	-9929
▁operators	-9930
▁ownership	-9931
▁stabilize	-9932
▁voluntary	-9933
▁volunteer	-9934
▁wildfires	-9935
▁artificial	-9936
▁fahrenheit	-9937
▁fatalities	-9938
▁friendship	-9939
▁lieutenant	-9940
▁mercantile	-9941
▁phenomenon	-9942
▁propaganda	-9943
▁reasonable	-9944
▁salmonella	-9945
▁waziristan	-9946
▁destination	-9947
▁transparent	-9948
▁celebrations	-9949
▁contribution	-9950
▁governmental	-9951
▁implications	-9952
▁spokesperson	-9953
▁sophisticated	-9954
▁archaeologists	-9955
▁rehabilitation	-9956
cro	-9957
erg	-9958
for	-9959
gow	-9960
jan	-9961
mir	-9962
ros	-9963
tes	-9964
utt	-9965
▁bb	-9966
▁cd	-9967
arge	-9968
club	-9969
enos	-9970
oung	-9971
sson	-9972
ules	-9973
yans	-9974
▁bru	-9975
▁cyc	-9976
▁dug	-9977
▁jir	-9978
▁ras	-9979
abani	-9980
annes	-9981
anson	-9982
arded	-9983
ctica	-9984
eanor	-9985
iated	-9986
ishes	-9987
licts	-9988
piece	-9989
quate	-9990
▁anne	-9991
▁arth	-9992
▁bosn	-9993
▁bout	-9994
▁bris	-9995
▁bron	-9996
▁ftse	-9997
▁ghan	-9998
▁hart	-9999
▁kerv	-10000
▁lamp	-10001
▁lenn	-10002
▁limb	-10003
▁mini	-10004
▁oath	-10005
▁pink	-10006
▁reck	-10007
▁rick	-10008
▁ross	-10009
▁slum	-10010
▁snap	-10011
▁stor	-10012
▁tire	-10013
▁tops	-10014
▁toss	-10015
ainted	-10016
lights	-10017
terror	-10018
ultane	-10019
utical	-10020
▁arson	-10021
▁chess	-10022
▁cripp	-10023
▁decor	-10024
▁dense	-10025
▁dokdo	-10026
▁elbar	-10027
▁exter	-10028
▁frost	-10029
▁genet	-10030
▁griff	-10031
▁guate	-10032
▁humor	-10033
▁ideal	-10034
▁kwang	-10035
▁loose	-10036
▁minus	-10037
▁panda	-10038
▁rosen	-10039
▁slush	-10040
▁starb	-10041
▁trump	-10042
▁widow	-10043
▁yanke	-10044
▁aerial	-10045
▁ancest	-10046
▁arnold	-10047
▁behead	-10048
▁catast	-10049
▁circle	-10050
▁convey	-10051
▁dement	-10052
▁ethics	-10053
▁fiscal	-10054
▁franch	-10055
▁fright	-10056
▁fundra	-10057
▁guitar	-10058
▁hariri	-10059
▁harvey	-10060
▁hassan	-10061
▁humili	-10062
▁loaded	-10063
▁motive	-10064
▁naming	-10065
▁pardon	-10066
▁parked	-10067
▁ripped	-10068
▁sharks	-10069
▁tayyip	-10070
▁thwart	-10071
▁tradem	-10072
▁tribes	-10073
ductions	-10074
▁affects	-10075
▁afghans	-10076
▁beaches	-10077
▁belgian	-10078
▁cancell	-10079
▁careful	-10080
▁cartoon	-10081
▁chanted	-10082
▁consent	-10083
▁contrad	-10084
▁credits	-10085
▁dolphin	-10086
▁douglas	-10087
▁examine	-10088
▁exhaust	-10089
▁glasgow	-10090
▁goldman	-10091
▁holland	-10092
▁jacques	-10093
▁janeiro	-10094
▁kerviel	-10095
▁layoffs	-10096
▁liberty	-10097
▁lowered	-10098
▁persist	-10099
▁proport	-10100
▁russell	-10101
▁secrets	-10102
▁settled	-10103
▁shelves	-10104
▁sponsor	-10105
▁stanley	-10106
▁stearns	-10107
▁stormed	-10108
▁studied	-10109
▁tactics	-10110
▁answered	-10111
▁assigned	-10112
▁austrian	-10113
▁climbing	-10114
▁comeback	-10115
▁concerts	-10116
▁consumed	-10117
▁creature	-10118
▁fernando	-10119
▁fujimori	-10120
▁johannes	-10121
▁measured	-10122
▁murdered	-10123
▁patience	-10124
▁railroad	-10125
▁securing	-10126
▁shepherd	-10127
▁symbolic	-10128
▁talabani	-10129
▁travolta	-10130
▁weakness	-10131
▁cristiano	-10132
▁elbaradei	-10133
▁fernandez	-10134
▁intensive	-10135
▁pressures	-10136
▁propelled	-10137
▁replacing	-10138
▁secretive	-10139
▁semifinal	-10140
▁shipments	-10141
▁simultane	-10142
▁victories	-10143
▁warehouse	-10144
▁accordance	-10145
▁antarctica	-10146
▁applicants	-10147
▁committees	-10148
▁destroying	-10149
▁expedition	-10150
▁indictment	-10151
▁medication	-10152
▁networking	-10153
▁sentencing	-10154
▁wrongdoing	-10155
▁challenging	-10156
▁complaining	-10157
▁experiments	-10158
▁ministerial	-10159
▁populations	-10160
▁preparation	-10161
▁unanimously	-10162
▁embezzlement	-10163
▁consideration	-10164
▁counterterror	-10165
▁predominantly	-10166
▁quarterfinals	-10167
▁strengthening	-10168
▁overwhelmingly	-10169
oi	-10170
bie	-10171
dem	-10172
kat	-10173
oni	-10174
opp	-10175
uum	-10176
afat	-10177
alez	-10178
appy	-10179
asse	-10180
aval	-10181
bach	-10182
bala	-10183
enza	-10184
furt	-10185
hbow	-10186
ista	-10187
kers	-10188
odox	-10189
ospi	-10190
otte	-10191
rant	-10192
shad	-10193
ttes	-10194
umes	-10195
▁alg	-10196
▁bog	-10197
▁cad	-10198
▁dat	-10199
▁fuk	-10200
▁gif	-10201
▁gym	-10202
▁kia	-10203
▁lug	-10204
▁odd	-10205
▁umb	-10206
▁xvi	-10207
eches	-10208
ensed	-10209
heads	-10210
mouth	-10211
netso	-10212
ommod	-10213
ongch	-10214
shine	-10215
storm	-10216
▁asks	-10217
▁bees	-10218
▁bust	-10219
▁cook	-10220
▁cous	-10221
▁dent	-10222
▁hors	-10223
▁inac	-10224
▁lane	-10225
▁lima	-10226
▁pean	-10227
▁sars	-10228
▁scor	-10229
▁sket	-10230
▁succ	-10231
▁swap	-10232
▁trin	-10233
▁whis	-10234
▁yush	-10235
itable	-10236
ithner	-10237
ocaust	-10238
▁aires	-10239
▁ankle	-10240
▁bread	-10241
▁bride	-10242
▁brill	-10243
▁busan	-10244
▁cairo	-10245
▁chips	-10246
▁dance	-10247
▁enric	-10248
▁facts	-10249
▁fifty	-10250
▁fines	-10251
▁grade	-10252
▁honey	-10253
▁indec	-10254
▁jirga	-10255
▁knife	-10256
▁kospi	-10257
▁libby	-10258
▁marie	-10259
▁pengu	-10260
▁quell	-10261
▁rhode	-10262
▁spell	-10263
▁taste	-10264
▁trash	-10265
▁vocal	-10266
arettes	-10267
parency	-10268
▁abused	-10269
▁acquis	-10270
▁arafat	-10271
▁bribes	-10272
▁buenos	-10273
▁butter	-10274
▁cattle	-10275
▁deeper	-10276
▁deport	-10277
▁extent	-10278
▁filing	-10279
▁garage	-10280
▁globes	-10281
▁harbor	-10282
▁hinted	-10283
▁ignore	-10284
▁monica	-10285
▁seeded	-10286
▁sheets	-10287
▁silent	-10288
▁vacuum	-10289
▁verify	-10290
▁victor	-10291
▁binding	-10292
▁charism	-10293
▁charter	-10294
▁creates	-10295
▁diverse	-10296
▁drowned	-10297
▁ethanol	-10298
▁extract	-10299
▁facilit	-10300
▁fearing	-10301
▁feeding	-10302
▁fulfill	-10303
▁grabbed	-10304
▁gravity	-10305
▁harmful	-10306
▁incheon	-10307
▁issuing	-10308
▁nervous	-10309
▁pageant	-10310
▁pension	-10311
▁premium	-10312
▁prisons	-10313
▁romance	-10314
▁spitzer	-10315
▁weighed	-10316
▁accommod	-10317
▁arkansas	-10318
▁assisted	-10319
▁cartoons	-10320
▁choosing	-10321
▁conclude	-10322
▁contents	-10323
▁diamonds	-10324
▁downturn	-10325
▁elephant	-10326
▁entitled	-10327
▁epidemic	-10328
▁feelings	-10329
▁flexible	-10330
▁geithner	-10331
▁grenades	-10332
▁imposing	-10333
▁jankovic	-10334
▁kuznetso	-10335
▁mcdonald	-10336
▁meantime	-10337
▁memories	-10338
▁nigerian	-10339
▁opposing	-10340
▁scenario	-10341
▁shoppers	-10342
▁speeches	-10343
▁sunshine	-10344
▁terrible	-10345
▁treasure	-10346
▁treating	-10347
▁ultimate	-10348
▁uprising	-10349
▁vershbow	-10350
▁weakened	-10351
▁basically	-10352
▁batteries	-10353
▁biologist	-10354
▁brilliant	-10355
▁creatures	-10356
▁districts	-10357
▁examining	-10358
▁formation	-10359
▁holocaust	-10360
▁intervene	-10361
▁isolation	-10362
▁medicines	-10363
▁motivated	-10364
▁nightclub	-10365
▁ourselves	-10366
▁starbucks	-10367
▁accomplish	-10368
▁aggression	-10369
▁cigarettes	-10370
▁consistent	-10371
▁developers	-10372
▁difficulty	-10373
▁exhibition	-10374
▁impressive	-10375
▁imprisoned	-10376
▁incentives	-10377
▁kazakhstan	-10378
▁motorcycle	-10379
▁petersburg	-10380
▁processing	-10381
▁resumption	-10382
▁suspicions	-10383
▁aftershocks	-10384
▁condolences	-10385
▁earthquakes	-10386
▁implemented	-10387
▁negotiation	-10388
▁prostitutes	-10389
▁respiratory	-10390
▁sensitivity	-10391
▁undisclosed	-10392
▁withdrawing	-10393
▁manufacturer	-10394
▁quarterfinal	-10395
▁transparency	-10396
▁recommendations	-10397
mi	-10398
oh	-10399
anu	-10400
emi	-10401
fol	-10402
ifi	-10403
mat	-10404
oft	-10405
oir	-10406
put	-10407
▁kg	-10408
▁kt	-10409
▁nh	-10410
agen	-10411
cade	-10412
eman	-10413
inqu	-10414
lord	-10415
olla	-10416
raib	-10417
rams	-10418
rill	-10419
toff	-10420
ught	-10421
uine	-10422
▁ace	-10423
▁anx	-10424
▁biz	-10425
▁caf	-10426
▁das	-10427
▁enl	-10428
▁jok	-10429
▁kam	-10430
▁kay	-10431
▁leh	-10432
▁lia	-10433
▁rog	-10434
▁spa	-10435
▁wet	-10436
incol	-10437
loved	-10438
ourse	-10439
rella	-10440
▁acre	-10441
▁cant	-10442
▁chae	-10443
▁choi	-10444
▁cinc	-10445
▁drum	-10446
▁ingr	-10447
▁java	-10448
▁knut	-10449
▁kwon	-10450
▁leap	-10451
▁mant	-10452
▁mild	-10453
▁monu	-10454
▁nest	-10455
▁pets	-10456
▁reli	-10457
▁sadd	-10458
▁stom	-10459
▁swat	-10460
▁tatt	-10461
▁tren	-10462
▁yeah	-10463
artney	-10464
innati	-10465
ionage	-10466
itated	-10467
▁anbar	-10468
▁barry	-10469
▁blues	-10470
▁fitzg	-10471
▁gerry	-10472
▁inapp	-10473
▁inhab	-10474
▁kilog	-10475
▁kitty	-10476
▁levin	-10477
▁likes	-10478
▁lungs	-10479
▁mails	-10480
▁notor	-10481
▁offsh	-10482
▁overd	-10483
▁panic	-10484
▁pearl	-10485
▁poses	-10486
▁quart	-10487
▁reign	-10488
▁safer	-10489
▁slain	-10490
▁slide	-10491
▁spice	-10492
▁wages	-10493
▁zones	-10494
claimed	-10495
▁absent	-10496
▁ashore	-10497
▁austin	-10498
▁bombed	-10499
▁broker	-10500
▁browne	-10501
▁cancel	-10502
▁casino	-10503
▁column	-10504
▁copper	-10505
▁dreams	-10506
▁easing	-10507
▁envoys	-10508
▁format	-10509
▁ghraib	-10510
▁holder	-10511
▁intend	-10512
▁junior	-10513
▁lincol	-10514
▁pastor	-10515
▁prayer	-10516
▁prizes	-10517
▁queens	-10518
▁repeat	-10519
▁rolled	-10520
▁scared	-10521
▁taught	-10522
▁trials	-10523
▁undert	-10524
▁versus	-10525
▁weaken	-10526
▁yousuf	-10527
▁anthony	-10528
▁circuit	-10529
▁curious	-10530
▁episode	-10531
▁flowers	-10532
▁lenders	-10533
▁outdoor	-10534
▁outlets	-10535
▁savings	-10536
▁shaking	-10537
▁stunned	-10538
▁surplus	-10539
▁sustain	-10540
▁thunder	-10541
▁tremend	-10542
▁viruses	-10543
▁website	-10544
▁battered	-10545
▁channels	-10546
▁decrease	-10547
▁engaging	-10548
▁enriched	-10549
▁eruption	-10550
▁escorted	-10551
▁floating	-10552
▁founding	-10553
▁gonzalez	-10554
▁orthodox	-10555
▁plotting	-10556
▁portland	-10557
▁produces	-10558
▁spaniard	-10559
▁starring	-10560
▁underway	-10561
▁accepting	-10562
▁acquitted	-10563
▁ambulance	-10564
▁conflicts	-10565
▁confusion	-10566
▁courtroom	-10567
▁diagnosed	-10568
▁directing	-10569
▁disclosed	-10570
▁dismantle	-10571
▁editorial	-10572
▁eliminate	-10573
▁embryonic	-10574
▁employers	-10575
▁encounter	-10576
▁espionage	-10577
▁frankfurt	-10578
▁intellect	-10579
▁intensity	-10580
▁legendary	-10581
▁listening	-10582
▁mccartney	-10583
▁municipal	-10584
▁paparazzi	-10585
▁premature	-10586
▁qualified	-10587
▁radiation	-10588
▁reluctant	-10589
▁sacrifice	-10590
▁scattered	-10591
▁surviving	-10592
▁unusually	-10593
▁worsening	-10594
▁apartments	-10595
▁atrocities	-10596
▁basketball	-10597
▁cincinnati	-10598
▁concerning	-10599
▁contracted	-10600
▁disruption	-10601
▁homosexual	-10602
▁impression	-10603
▁negotiated	-10604
▁prosperity	-10605
▁rebuilding	-10606
▁reductions	-10607
▁semifinals	-10608
▁sufficient	-10609
▁suggestion	-10610
▁communicate	-10611
▁extradition	-10612
▁highlighted	-10613
▁developments	-10614
▁dramatically	-10615
▁imprisonment	-10616
▁indefinitely	-10617
▁johannesburg	-10618
▁characterized	-10619
▁inappropriate	-10620
▁irresponsible	-10621
▁irregularities	-10622
bu	-10623
ih	-10624
aho	-10625
aul	-10626
bec	-10627
bit	-10628
enh	-10629
iba	-10630
izz	-10631
omy	-10632
ora	-10633
uds	-10634
acom	-10635
asha	-10636
bage	-10637
dale	-10638
dles	-10639
ikes	-10640
long	-10641
rane	-10642
uate	-10643
udes	-10644
▁asc	-10645
▁bmw	-10646
▁cac	-10647
▁cec	-10648
▁ine	-10649
▁kph	-10650
▁lau	-10651
▁lig	-10652
▁soy	-10653
acute	-10654
adona	-10655
ascus	-10656
berts	-10657
eding	-10658
harto	-10659
imore	-10660
iques	-10661
mandu	-10662
round	-10663
unken	-10664
▁anna	-10665
▁aver	-10666
▁balt	-10667
▁bloc	-10668
▁bros	-10669
▁bund	-10670
▁dell	-10671
▁dili	-10672
▁flav	-10673
▁furn	-10674
▁gary	-10675
▁hend	-10676
▁horn	-10677
▁inex	-10678
▁ment	-10679
▁mikh	-10680
▁mwai	-10681
▁olds	-10682
▁perm	-10683
▁sacr	-10684
▁seiz	-10685
▁snip	-10686
▁spin	-10687
▁thri	-10688
istice	-10689
neider	-10690
strong	-10691
urance	-10692
▁boliv	-10693
▁boris	-10694
▁chant	-10695
▁delic	-10696
▁digit	-10697
▁downs	-10698
▁gifts	-10699
▁grabs	-10700
▁honda	-10701
▁lunar	-10702
▁osaka	-10703
▁outsp	-10704
▁rogge	-10705
▁rouge	-10706
▁santi	-10707
▁shall	-10708
▁sheep	-10709
▁silva	-10710
▁spate	-10711
▁tally	-10712
▁tumor	-10713
▁ultra	-10714
▁venus	-10715
▁wells	-10716
▁whist	-10717
▁zhang	-10718
▁arthur	-10719
▁booked	-10720
▁breath	-10721
▁brings	-10722
▁compos	-10723
▁crying	-10724
▁dispos	-10725
▁farmer	-10726
▁forbid	-10727
▁harper	-10728
▁hatred	-10729
▁havana	-10730
▁hawass	-10731
▁horses	-10732
▁ismail	-10733
▁leaked	-10734
▁mattel	-10735
▁merely	-10736
▁misdem	-10737
▁multim	-10738
▁permit	-10739
▁poised	-10740
▁priest	-10741
▁rugged	-10742
▁sculpt	-10743
▁speaks	-10744
▁sprint	-10745
▁strait	-10746
▁tenure	-10747
▁throat	-10748
▁trophy	-10749
▁walker	-10750
▁alerted	-10751
▁aspects	-10752
▁belongs	-10753
▁beloved	-10754
▁bizarre	-10755
▁bolster	-10756
▁bonuses	-10757
▁boosted	-10758
▁bridges	-10759
▁bullets	-10760
▁compass	-10761
▁debates	-10762
▁distant	-10763
▁enthusi	-10764
▁equally	-10765
▁ethical	-10766
▁expense	-10767
▁fallout	-10768
▁falluja	-10769
▁farming	-10770
▁filling	-10771
▁forever	-10772
▁genuine	-10773
▁glacier	-10774
▁guarded	-10775
▁holders	-10776
▁hunters	-10777
▁iceland	-10778
▁jeffrey	-10779
▁laurean	-10780
▁lincoln	-10781
▁midwest	-10782
▁migrant	-10783
▁mikhail	-10784
▁monkeys	-10785
▁pattern	-10786
▁precise	-10787
▁relaxed	-10788
▁sincere	-10789
▁smiling	-10790
▁somehow	-10791
▁sounded	-10792
▁springs	-10793
▁unconsc	-10794
▁woolmer	-10795
abilities	-10796
intendent	-10797
▁academic	-10798
▁awaiting	-10799
▁basement	-10800
▁brothels	-10801
▁certific	-10802
▁cheering	-10803
▁christie	-10804
▁collided	-10805
▁damascus	-10806
▁destruct	-10807
▁disabled	-10808
▁earliest	-10809
▁farewell	-10810
▁fortress	-10811
▁highways	-10812
▁incorpor	-10813
▁infantry	-10814
▁interfax	-10815
▁iranians	-10816
▁laureate	-10817
▁maradona	-10818
▁opinions	-10819
▁ordering	-10820
▁phillies	-10821
▁phillips	-10822
▁portable	-10823
▁profound	-10824
▁relevant	-10825
▁reunited	-10826
▁sections	-10827
▁shifting	-10828
▁shocking	-10829
▁undermin	-10830
▁watchers	-10831
▁wildfire	-10832
▁armistice	-10833
▁cambodian	-10834
▁chemicals	-10835
▁converted	-10836
▁displayed	-10837
▁elephants	-10838
▁embassies	-10839
▁embattled	-10840
▁forecasts	-10841
▁governors	-10842
▁headlines	-10843
▁inaugural	-10844
▁milestone	-10845
▁schneider	-10846
▁videotape	-10847
▁weakening	-10848
▁aftershock	-10849
▁allegation	-10850
▁bodyguards	-10851
▁incredibly	-10852
▁mechanical	-10853
▁nationally	-10854
▁pakistanis	-10855
▁prefecture	-10856
▁subsidiary	-10857
▁controlling	-10858
▁countryside	-10859
▁essentially	-10860
▁explanation	-10861
▁improvement	-10862
▁progressive	-10863
▁projections	-10864
▁confidential	-10865
▁considerable	-10866
▁counterparts	-10867
▁establishing	-10868
▁independents	-10869
▁participated	-10870
▁prescription	-10871
▁presentation	-10872
▁unsuccessful	-10873
▁independently	-10874
▁meteorological	-10875
▁superintendent	-10876
▁internationally	-10877
tr	-10878
bro	-10879
gro	-10880
kov	-10881
ook	-10882
oum	-10883
reb	-10884
soo	-10885
uki	-10886
ulf	-10887
▁bn	-10888
▁hd	-10889
▁iw	-10890
▁lp	-10891
▁nk	-10892
aver	-10893
bish	-10894
eled	-10895
gets	-10896
inch	-10897
nett	-10898
opes	-10899
osis	-10900
rard	-10901
royo	-10902
thal	-10903
▁bbk	-10904
▁bub	-10905
▁eta	-10906
▁gps	-10907
▁lam	-10908
▁sie	-10909
▁sne	-10910
court	-10911
croft	-10912
ested	-10913
iband	-10914
irect	-10915
iture	-10916
rates	-10917
▁belt	-10918
▁bulg	-10919
▁carn	-10920
▁cens	-10921
▁cock	-10922
▁deem	-10923
▁dual	-10924
▁gust	-10925
▁hail	-10926
▁imus	-10927
▁ipod	-10928
▁lets	-10929
▁mend	-10930
▁nasr	-10931
▁neil	-10932
▁nude	-10933
▁pond	-10934
▁seaf	-10935
▁skid	-10936
▁stev	-10937
▁tail	-10938
▁tone	-10939
▁undp	-10940
amento	-10941
arette	-10942
arming	-10943
asions	-10944
cheong	-10945
cliffe	-10946
ellick	-10947
holder	-10948
itched	-10949
runner	-10950
ulsion	-10951
▁admit	-10952
▁aston	-10953
▁audit	-10954
▁barak	-10955
▁buyer	-10956
▁caret	-10957
▁coord	-10958
▁dimin	-10959
▁dirty	-10960
▁dwind	-10961
▁eased	-10962
▁fidel	-10963
▁henri	-10964
▁idaho	-10965
▁innov	-10966
▁insoo	-10967
▁jamie	-10968
▁karen	-10969
▁khmer	-10970
▁laura	-10971
▁minne	-10972
▁mouse	-10973
▁mummy	-10974
▁neuro	-10975
▁pills	-10976
▁prosp	-10977
▁recep	-10978
▁ridic	-10979
▁sends	-10980
▁smell	-10981
▁squid	-10982
▁sting	-10983
▁sugar	-10984
▁tamil	-10985
▁tapes	-10986
▁tense	-10987
▁twins	-10988
▁undec	-10989
▁wives	-10990
▁alfred	-10991
▁anyway	-10992
▁arroyo	-10993
▁assume	-10994
▁authen	-10995
▁chocol	-10996
▁cloned	-10997
▁fossil	-10998
▁hadley	-10999
▁harass	-11000
▁honors	-11001
▁inflam	-11002
▁ingred	-11003
▁minist	-11004
▁newest	-11005
▁nonpro	-11006
▁pandas	-11007
▁qassam	-11008
▁qualif	-11009
▁raises	-11010
▁rocked	-11011
▁sharia	-11012
▁sooner	-11013
▁stockp	-11014
▁viacom	-11015
▁walter	-11016
▁acquire	-11017
▁answers	-11018
▁armored	-11019
▁avoided	-11020
▁bearing	-11021
▁cameron	-11022
▁cooking	-11023
▁cricket	-11024
▁crystal	-11025
▁deposed	-11026
▁drunken	-11027
▁enhance	-11028
▁estonia	-11029
▁fatally	-11030
▁hormone	-11031
▁jeopard	-11032
▁karbala	-11033
▁kenyans	-11034
▁muqtada	-11035
▁priests	-11036
▁richest	-11037
▁sailing	-11038
▁screens	-11039
▁seasons	-11040
▁slogans	-11041
▁staging	-11042
▁stomach	-11043
▁thermal	-11044
▁toddler	-11045
▁toppled	-11046
▁travels	-11047
▁yankees	-11048
▁advisory	-11049
▁ambushed	-11050
▁autonomy	-11051
▁breeding	-11052
▁churches	-11053
▁clearing	-11054
▁compiled	-11055
▁contacts	-11056
▁contrary	-11057
▁credited	-11058
▁crushing	-11059
▁decisive	-11060
▁declines	-11061
▁divorced	-11062
▁eventual	-11063
▁faithful	-11064
▁harrison	-11065
▁migrants	-11066
▁offshore	-11067
▁santiago	-11068
▁sometime	-11069
▁stripped	-11070
▁tomatoes	-11071
▁tortured	-11072
▁zoellick	-11073
▁affecting	-11074
▁baltimore	-11075
▁belonging	-11076
▁bulgarian	-11077
▁cigarette	-11078
▁detective	-11079
▁dictators	-11080
▁extremism	-11081
▁innocence	-11082
▁insisting	-11083
▁lightning	-11084
▁literally	-11085
▁marriages	-11086
▁objective	-11087
▁permitted	-11088
▁radcliffe	-11089
▁restraint	-11090
▁satisfied	-11091
▁subsidies	-11092
▁taxpayers	-11093
▁unchanged	-11094
▁condemning	-11095
▁consulting	-11096
▁contingent	-11097
▁explaining	-11098
▁healthcare	-11099
▁heightened	-11100
▁highlights	-11101
▁nominating	-11102
▁organizing	-11103
▁sacramento	-11104
▁celebration	-11105
▁contentious	-11106
▁demonstrate	-11107
▁identifying	-11108
▁minneapolis	-11109
▁nationalist	-11110
▁specialists	-11111
▁voluntarily	-11112
▁concentrated	-11113
▁coordination	-11114
▁deliberately	-11115
▁intellectual	-11116
▁administrator	-11117
▁conversations	-11118
▁reunification	-11119
▁identification	-11120
▁representation	-11121
fa	-11122
fp	-11123
afe	-11124
boy	-11125
die	-11126
eon	-11127
iju	-11128
ika	-11129
lyn	-11130
oro	-11131
ouf	-11132
rep	-11133
xon	-11134
▁bp	-11135
cell	-11136
flow	-11137
ipei	-11138
irst	-11139
loyd	-11140
mala	-11141
omon	-11142
onga	-11143
oped	-11144
rary	-11145
star	-11146
walk	-11147
witt	-11148
yard	-11149
▁bai	-11150
▁bip	-11151
▁ced	-11152
▁dup	-11153
▁fog	-11154
▁hae	-11155
▁kor	-11156
▁kye	-11157
▁liu	-11158
▁nis	-11159
▁pcs	-11160
▁qat	-11161
▁ree	-11162
▁sla	-11163
▁sup	-11164
▁tat	-11165
▁tok	-11166
▁wan	-11167
▁www	-11168
acles	-11169
asser	-11170
athan	-11171
eline	-11172
eston	-11173
hetic	-11174
ilton	-11175
olics	-11176
oulos	-11177
oying	-11178
raham	-11179
ratic	-11180
uther	-11181
▁abst	-11182
▁clip	-11183
▁duke	-11184
▁ears	-11185
▁encl	-11186
▁hawk	-11187
▁lawn	-11188
▁lpga	-11189
▁lump	-11190
▁mccl	-11191
▁menu	-11192
▁nash	-11193
▁pave	-11194
▁penn	-11195
▁pipe	-11196
▁pont	-11197
▁quad	-11198
▁quot	-11199
▁rats	-11200
▁refr	-11201
▁rico	-11202
▁rift	-11203
▁sits	-11204
▁stap	-11205
▁sult	-11206
▁sund	-11207
▁tian	-11208
▁ugly	-11209
▁vanc	-11210
▁yale	-11211
bridge	-11212
estyle	-11213
▁absor	-11214
▁alien	-11215
▁backs	-11216
▁bible	-11217
▁billy	-11218
▁blunt	-11219
▁bobby	-11220
▁chuck	-11221
▁couch	-11222
▁datab	-11223
▁depri	-11224
▁erect	-11225
▁fence	-11226
▁forty	-11227
▁holed	-11228
▁irrit	-11229
▁jason	-11230
▁knock	-11231
▁lhasa	-11232
▁marin	-11233
▁masri	-11234
▁prodi	-11235
▁raila	-11236
▁rehab	-11237
▁sachs	-11238
▁scrat	-11239
▁snake	-11240
▁theat	-11241
▁topic	-11242
▁unite	-11243
▁vault	-11244
▁waved	-11245
▁wield	-11246
▁youss	-11247
instein	-11248
intendo	-11249
naments	-11250
roponte	-11251
▁abrupt	-11252
▁ailing	-11253
▁avenue	-11254
▁barely	-11255
▁brands	-11256
▁cheers	-11257
▁colony	-11258
▁elders	-11259
▁emerge	-11260
▁gloria	-11261
▁hazard	-11262
▁immune	-11263
▁inland	-11264
▁labour	-11265
▁ledger	-11266
▁lennon	-11267
▁midday	-11268
▁multin	-11269
▁neglig	-11270
▁nurses	-11271
▁obtain	-11272
▁parole	-11273
▁plains	-11274
▁portra	-11275
▁priced	-11276
▁rashid	-11277
▁richie	-11278
▁riders	-11279
▁sharon	-11280
▁streak	-11281
▁superb	-11282
▁taipei	-11283
▁timing	-11284
▁venice	-11285
▁washed	-11286
▁wholes	-11287
function	-11288
▁abolish	-11289
▁accuses	-11290
▁besides	-11291
▁bidding	-11292
▁blaming	-11293
▁blatter	-11294
▁ceiling	-11295
▁collins	-11296
▁colonel	-11297
▁coroner	-11298
▁defined	-11299
▁delight	-11300
▁denying	-11301
▁graphic	-11302
▁hamburg	-11303
▁handgun	-11304
▁illicit	-11305
▁jewelry	-11306
▁kitchen	-11307
▁labeled	-11308
▁laptops	-11309
▁magistr	-11310
▁millenn	-11311
▁monster	-11312
▁muscles	-11313
▁protein	-11314
▁quartet	-11315
▁ravaged	-11316
▁roberts	-11317
▁romania	-11318
▁slavery	-11319
▁suharto	-11320
aceutical	-11321
▁advances	-11322
▁alleging	-11323
▁casualty	-11324
▁conceded	-11325
▁counting	-11326
▁destabil	-11327
▁educated	-11328
▁examined	-11329
▁explorer	-11330
▁gambling	-11331
▁gorillas	-11332
▁guardian	-11333
▁hardware	-11334
▁hopefuls	-11335
▁informal	-11336
▁levinson	-11337
▁lowering	-11338
▁nintendo	-11339
▁polaroid	-11340
▁promoted	-11341
▁relieved	-11342
▁restrict	-11343
▁showdown	-11344
▁steadily	-11345
▁strained	-11346
▁uniforms	-11347
▁weighing	-11348
▁addiction	-11349
▁addresses	-11350
▁annapolis	-11351
▁automatic	-11352
▁bodyguard	-11353
▁caretaker	-11354
▁chocolate	-11355
▁component	-11356
▁container	-11357
▁designers	-11358
▁favorites	-11359
▁federline	-11360
▁franchise	-11361
▁gradually	-11362
▁greenspan	-11363
▁guatemala	-11364
▁junichiro	-11365
▁oversight	-11366
▁prospects	-11367
▁rejection	-11368
▁stalinist	-11369
▁undecided	-11370
▁attractive	-11371
▁commanding	-11372
▁definition	-11373
▁fitzgerald	-11374
▁identities	-11375
▁ministries	-11376
▁negroponte	-11377
▁overweight	-11378
▁patrolling	-11379
▁priorities	-11380
▁properties	-11381
▁regulation	-11382
▁substitute	-11383
▁successive	-11384
▁tremendous	-11385
▁australians	-11386
▁campaigners	-11387
▁experiences	-11388
▁exploration	-11389
▁generations	-11390
▁provocative	-11391
▁supervision	-11392
▁uncertainty	-11393
▁unconscious	-11394
▁understands	-11395
▁accompanying	-11396
▁arrangements	-11397
▁condemnation	-11398
▁contaminated	-11399
▁economically	-11400
▁introduction	-11401
▁strengthened	-11402
▁transmission	-11403
▁installations	-11404
▁multinational	-11405
▁psychological	-11406
▁discrimination	-11407
▁pharmaceutical	-11408
dr	-11409
eo	-11410
eu	-11411
agg	-11412
auc	-11413
aut	-11414
aya	-11415
bee	-11416
lel	-11417
lem	-11418
lie	-11419
rek	-11420
rin	-11421
▁kw	-11422
▁rw	-11423
▁um	-11424
▁yo	-11425
aria	-11426
avia	-11427
erts	-11428
ffen	-11429
hift	-11430
hill	-11431
holm	-11432
oken	-11433
ollo	-11434
ouds	-11435
qawi	-11436
week	-11437
will	-11438
▁fay	-11439
▁gam	-11440
▁goh	-11441
▁hak	-11442
▁ian	-11443
▁kin	-11444
▁muk	-11445
▁pas	-11446
▁por	-11447
▁rib	-11448
▁sox	-11449
▁sta	-11450
▁wii	-11451
aires	-11452
amine	-11453
arcia	-11454
arest	-11455
atisf	-11456
aults	-11457
bound	-11458
elrod	-11459
keley	-11460
lying	-11461
naiss	-11462
power	-11463
▁bump	-11464
▁cove	-11465
▁dave	-11466
▁exem	-11467
▁fasc	-11468
▁fold	-11469
▁godd	-11470
▁graz	-11471
▁hank	-11472
▁hein	-11473
▁hire	-11474
▁jaze	-11475
▁lith	-11476
▁logo	-11477
▁lugg	-11478
▁musa	-11479
▁obsc	-11480
▁pigs	-11481
▁plun	-11482
▁till	-11483
▁tosh	-11484
▁tyco	-11485
▁unst	-11486
▁zanu	-11487
arized	-11488
charge	-11489
chenko	-11490
ctions	-11491
erable	-11492
infeld	-11493
itudes	-11494
oultry	-11495
ranean	-11496
ucking	-11497
vering	-11498
▁adams	-11499
▁artif	-11500
▁atlet	-11501
▁baker	-11502
▁biden	-11503
▁blown	-11504
▁bould	-11505
▁brink	-11506
▁brush	-11507
▁clips	-11508
▁corre	-11509
▁debts	-11510
▁excav	-11511
▁excer	-11512
▁fails	-11513
▁foley	-11514
▁fract	-11515
▁fried	-11516
▁fruit	-11517
▁hicks	-11518
▁keith	-11519
▁leone	-11520
▁lucas	-11521
▁males	-11522
▁melan	-11523
▁misle	-11524
▁noise	-11525
▁piano	-11526
▁rated	-11527
▁risky	-11528
▁saint	-11529
▁scuff	-11530
▁semin	-11531
▁smile	-11532
▁spare	-11533
▁stole	-11534
▁tires	-11535
▁tooth	-11536
▁torre	-11537
▁trace	-11538
▁tribe	-11539
▁uncle	-11540
charged	-11541
ionally	-11542
▁agrees	-11543
▁apollo	-11544
▁battal	-11545
▁brains	-11546
▁breast	-11547
▁cables	-11548
▁claren	-11549
▁clouds	-11550
▁colors	-11551
▁cousin	-11552
▁decree	-11553
▁denial	-11554
▁errors	-11555
▁fixing	-11556
▁garcia	-11557
▁grammy	-11558
▁graves	-11559
▁habits	-11560
▁hispan	-11561
▁itunes	-11562
▁lineup	-11563
▁makeup	-11564
▁novels	-11565
▁oxford	-11566
▁pediat	-11567
▁philos	-11568
▁poured	-11569
▁rifles	-11570
▁rubber	-11571
▁sacked	-11572
▁serena	-11573
▁shadow	-11574
▁surrog	-11575
▁trader	-11576
▁unspec	-11577
▁upheld	-11578
▁wheels	-11579
rendered	-11580
▁axelrod	-11581
▁backers	-11582
▁balloon	-11583
▁chasing	-11584
▁chilean	-11585
▁croatia	-11586
▁devoted	-11587
▁drought	-11588
▁emanuel	-11589
▁embryos	-11590
▁fiction	-11591
▁fitness	-11592
▁fragile	-11593
▁gallery	-11594
▁greatly	-11595
▁griffin	-11596
▁harmony	-11597
▁helpful	-11598
▁himalay	-11599
▁jazeera	-11600
▁kashmir	-11601
▁lindsay	-11602
▁luggage	-11603
▁opposes	-11604
▁organic	-11605
▁painted	-11606
▁pledges	-11607
▁poultry	-11608
▁qualify	-11609
▁quarant	-11610
▁readers	-11611
▁rioters	-11612
▁rioting	-11613
▁seafood	-11614
▁slowing	-11615
▁slumped	-11616
▁smokers	-11617
▁tainted	-11618
▁terrain	-11619
▁tumbled	-11620
▁unaware	-11621
▁youssif	-11622
▁zarqawi	-11623
naissance	-11624
▁accurate	-11625
▁articles	-11626
▁balanced	-11627
▁berkeley	-11628
▁boosting	-11629
▁carriers	-11630
▁comedian	-11631
▁commands	-11632
▁commonwe	-11633
▁darkness	-11634
▁ethiopia	-11635
▁examiner	-11636
▁finances	-11637
▁ignoring	-11638
▁lobbying	-11639
▁miliband	-11640
▁packages	-11641
▁premiere	-11642
▁presumed	-11643
▁reactors	-11644
▁reckless	-11645
▁respects	-11646
▁sanction	-11647
▁scottish	-11648
▁scrutiny	-11649
▁sparking	-11650
▁strapped	-11651
▁suicides	-11652
▁sympathy	-11653
▁trailing	-11654
▁volcanic	-11655
istrations	-11656
▁accounted	-11657
▁advertise	-11658
▁apologies	-11659
▁armstrong	-11660
▁assertion	-11661
▁broadband	-11662
▁catholics	-11663
▁commuters	-11664
▁contempor	-11665
▁cosmonaut	-11666
▁exchanged	-11667
▁exporters	-11668
▁fantastic	-11669
▁fertility	-11670
▁filmmaker	-11671
▁immigrant	-11672
▁kathmandu	-11673
▁makeshift	-11674
▁outbreaks	-11675
▁overthrow	-11676
▁paralyzed	-11677
▁passports	-11678
▁practical	-11679
▁publicity	-11680
▁reception	-11681
▁recycling	-11682
▁shoulders	-11683
▁textbooks	-11684
▁underwear	-11685
▁affordable	-11686
▁associates	-11687
▁autonomous	-11688
▁collecting	-11689
▁committing	-11690
▁escalating	-11691
▁evaluation	-11692
▁interstate	-11693
▁millennium	-11694
▁procession	-11695
▁remembered	-11696
▁substances	-11697
▁triggering	-11698
▁vietnamese	-11699
▁acquisition	-11700
▁congressman	-11701
▁frontrunner	-11702
▁misdemeanor	-11703
▁observation	-11704
▁observatory	-11705
▁playstation	-11706
▁programming	-11707
▁separatists	-11708
▁surrendered	-11709
▁unspecified	-11710
▁accidentally	-11711
▁commissioned	-11712
▁manufactured	-11713
▁photographed	-11714
▁requirements	-11715
▁investigative	-11716
▁disappointment	-11717
jj	-11718
vy	-11719
abs	-11720
afa	-11721
arn	-11722
ecd	-11723
eme	-11724
ete	-11725
iah	-11726
irm	-11727
jas	-11728
map	-11729
och	-11730
oka	-11731
osh	-11732
tun	-11733
ulu	-11734
vic	-11735
wed	-11736
yar	-11737
▁ng	-11738
anna	-11739
anns	-11740
arer	-11741
arms	-11742
cies	-11743
dong	-11744
fuel	-11745
hire	-11746
iega	-11747
ivan	-11748
kind	-11749
lied	-11750
note	-11751
omed	-11752
ongs	-11753
qual	-11754
real	-11755
sons	-11756
ture	-11757
utor	-11758
vent	-11759
wing	-11760
▁aar	-11761
▁ail	-11762
▁idf	-11763
▁jal	-11764
▁koo	-11765
▁lak	-11766
▁lap	-11767
▁org	-11768
▁oss	-11769
▁rhy	-11770
▁shy	-11771
▁sou	-11772
▁tap	-11773
▁tik	-11774
▁von	-11775
▁wai	-11776
▁xia	-11777
▁zeb	-11778
acher	-11779
andro	-11780
berra	-11781
ifies	-11782
onian	-11783
ossip	-11784
rogen	-11785
worth	-11786
▁bald	-11787
▁bicy	-11788
▁bore	-11789
▁chop	-11790
▁clad	-11791
▁deck	-11792
▁ferr	-11793
▁gent	-11794
▁glob	-11795
▁greg	-11796
▁grip	-11797
▁haul	-11798
▁hect	-11799
▁hsbc	-11800
▁irre	-11801
▁jean	-11802
▁kiev	-11803
▁lesb	-11804
▁lure	-11805
▁mast	-11806
▁narc	-11807
▁neal	-11808
▁oust	-11809
▁pile	-11810
▁proc	-11811
▁refe	-11812
▁sook	-11813
▁unin	-11814
atross	-11815
bright	-11816
castle	-11817
graded	-11818
iginal	-11819
inchum	-11820
onduct	-11821
orsese	-11822
osaurs	-11823
phones	-11824
points	-11825
prints	-11826
ptions	-11827
rative	-11828
vation	-11829
▁alter	-11830
▁bands	-11831
▁blake	-11832
▁cafes	-11833
▁cheer	-11834
▁cruel	-11835
▁demol	-11836
▁devil	-11837
▁diane	-11838
▁discs	-11839
▁disgu	-11840
▁edged	-11841
▁exxon	-11842
▁fiery	-11843
▁flour	-11844
▁hards	-11845
▁jimmy	-11846
▁juven	-11847
▁kicks	-11848
▁klein	-11849
▁lover	-11850
▁mates	-11851
▁muham	-11852
▁perce	-11853
▁portr	-11854
▁scope	-11855
▁serbs	-11856
▁siege	-11857
▁stunt	-11858
▁swear	-11859
▁teleg	-11860
▁turks	-11861
▁ashley	-11862
▁barric	-11863
▁blames	-11864
▁butler	-11865
▁bypass	-11866
▁calend	-11867
▁chased	-11868
▁clarke	-11869
▁confed	-11870
▁dealer	-11871
▁domain	-11872
▁drives	-11873
▁echoed	-11874
▁enable	-11875
▁engulf	-11876
▁facial	-11877
▁filmed	-11878
▁gossip	-11879
▁hammer	-11880
▁hardly	-11881
▁incomp	-11882
▁inject	-11883
▁inning	-11884
▁inspir	-11885
▁intact	-11886
▁jurors	-11887
▁laying	-11888
▁lender	-11889
▁lethal	-11890
▁mailed	-11891
▁parach	-11892
▁plunge	-11893
▁pocket	-11894
▁polled	-11895
▁proven	-11896
▁rahman	-11897
▁retain	-11898
▁snakes	-11899
▁stalem	-11900
▁strife	-11901
▁talent	-11902
▁tipped	-11903
▁toured	-11904
▁towers	-11905
▁turner	-11906
▁tycoon	-11907
▁valent	-11908
▁valued	-11909
uterbach	-11910
▁abraham	-11911
▁advisor	-11912
▁algeria	-11913
▁applaud	-11914
▁awaited	-11915
▁biofuel	-11916
▁briefed	-11917
▁captive	-11918
▁categor	-11919
▁cecilia	-11920
▁confisc	-11921
▁cracked	-11922
▁creator	-11923
▁dangers	-11924
▁demilit	-11925
▁dumping	-11926
▁expires	-11927
▁gallons	-11928
▁germans	-11929
▁gerrard	-11930
▁linking	-11931
▁mccanns	-11932
▁mediter	-11933
▁noriega	-11934
▁partial	-11935
▁persian	-11936
▁poorest	-11937
▁pounded	-11938
▁propose	-11939
▁prototy	-11940
▁rangers	-11941
▁recount	-11942
▁refrain	-11943
▁reminis	-11944
▁replied	-11945
▁reviews	-11946
▁rounded	-11947
▁shiites	-11948
▁shipped	-11949
▁singles	-11950
▁sinking	-11951
▁sisters	-11952
▁studded	-11953
▁surging	-11954
▁tighter	-11955
▁torrent	-11956
▁wheelch	-11957
▁wyoming	-11958
astically	-11959
▁angelina	-11960
▁applause	-11961
▁atletico	-11962
▁blankets	-11963
▁blocking	-11964
▁canberra	-11965
▁chanting	-11966
▁clarence	-11967
▁commuter	-11968
▁database	-11969
▁daylight	-11970
▁dementia	-11971
▁departed	-11972
▁disposal	-11973
▁dominant	-11974
▁flinchum	-11975
▁inconven	-11976
▁misunder	-11977
▁observed	-11978
▁painting	-11979
▁presents	-11980
▁rankings	-11981
▁revenues	-11982
▁scorsese	-11983
▁shipment	-11984
▁speeding	-11985
▁staffers	-11986
▁stealing	-11987
▁stemming	-11988
▁whenever	-11989
▁albanians	-11990
▁albatross	-11991
▁appealing	-11992
▁childhood	-11993
▁classroom	-11994
▁contender	-11995
▁criticize	-11996
▁dinosaurs	-11997
▁dominican	-11998
▁exercises	-11999
▁informant	-12000
▁investing	-12001
▁measuring	-12002
▁naturally	-12003
▁newcastle	-12004
▁nonprofit	-12005
▁partially	-12006
▁physician	-12007
▁preserved	-12008
▁providers	-12009
▁quarterly	-12010
▁screaming	-12011
▁sidelines	-12012
▁stretched	-12013
▁workforce	-12014
▁abandoning	-12015
▁aboriginal	-12016
▁accidental	-12017
▁attendance	-12018
▁campaigned	-12019
▁categories	-12020
▁collapsing	-12021
▁completing	-12022
▁discharged	-12023
▁efficiency	-12024
▁expressing	-12025
▁frustrated	-12026
▁infections	-12027
▁persistent	-12028
▁prohibited	-12029
▁purchasing	-12030
▁regulatory	-12031
▁solidarity	-12032
▁structures	-12033
▁techniques	-12034
▁understood	-12035
▁zimbabwean	-12036
▁attractions	-12037
▁chungcheong	-12038
▁departments	-12039
▁discoveries	-12040
▁enterprises	-12041
▁indications	-12042
▁intelligent	-12043
▁necessarily	-12044
▁transaction	-12045
▁unfortunate	-12046
▁commonwealth	-12047
▁conglomerate	-12048
▁psychologist	-12049
▁significance	-12050
▁verification	-12051
▁establishment	-12052
▁mediterranean	-12053
cs	-12054
mz	-12055
tz	-12056
aby	-12057
ali	-12058
aza	-12059
gie	-12060
ido	-12061
iov	-12062
lee	-12063
lex	-12064
mus	-12065
oos	-12066
rio	-12067
▁gw	-12068
▁jp	-12069
▁ny	-12070
eine	-12071
erie	-12072
eter	-12073
idal	-12074
iora	-12075
mund	-12076
omet	-12077
ompl	-12078
pace	-12079
quet	-12080
town	-12081
uket	-12082
vals	-12083
▁ces	-12084
▁cob	-12085
▁eag	-12086
▁gem	-12087
▁kad	-12088
▁ltd	-12089
▁mcl	-12090
▁mul	-12091
▁nts	-12092
▁piz	-12093
▁pon	-12094
▁rak	-12095
▁ros	-12096
▁sue	-12097
▁suz	-12098
▁ufo	-12099
▁yun	-12100
acent	-12101
agged	-12102
andra	-12103
dling	-12104
ether	-12105
ggers	-12106
henko	-12107
incts	-12108
inery	-12109
itous	-12110
olene	-12111
olese	-12112
tingu	-12113
uable	-12114
ukuni	-12115
uties	-12116
▁atop	-12117
▁bent	-12118
▁buck	-12119
▁cage	-12120
▁cope	-12121
▁davy	-12122
▁dirt	-12123
▁dish	-12124
▁djok	-12125
▁enab	-12126
▁fing	-12127
▁folk	-12128
▁glad	-12129
▁hood	-12130
▁hump	-12131
▁inev	-12132
▁jang	-12133
▁joel	-12134
▁leaf	-12135
▁math	-12136
▁plug	-12137
▁rear	-12138
▁rudy	-12139
▁samb	-12140
▁saud	-12141
▁scam	-12142
▁shen	-12143
▁shwe	-12144
▁tran	-12145
▁trek	-12146
▁unse	-12147
▁usgs	-12148
▁vick	-12149
▁wend	-12150
author	-12151
bachev	-12152
contin	-12153
estine	-12154
incing	-12155
inness	-12156
irable	-12157
onnell	-12158
ospace	-12159
pering	-12160
planes	-12161
preter	-12162
▁accum	-12163
▁acute	-12164
▁alloc	-12165
▁ayman	-12166
▁backl	-12167
▁basin	-12168
▁boast	-12169
▁bulld	-12170
▁bunch	-12171
▁coins	-12172
▁draws	-12173
▁emper	-12174
▁gibbs	-12175
▁hutch	-12176
▁julia	-12177
▁kumar	-12178
▁leung	-12179
▁liked	-12180
▁limbs	-12181
▁maneu	-12182
▁redep	-12183
▁reset	-12184
▁rogue	-12185
▁roofs	-12186
▁scare	-12187
▁steam	-12188
▁unlaw	-12189
▁unoff	-12190
▁vista	-12191
▁waged	-12192
▁wiped	-12193
▁zheng	-12194
sterdam	-12195
▁antiqu	-12196
▁argues	-12197
▁basque	-12198
▁bipart	-12199
▁bogota	-12200
▁bronze	-12201
▁chapel	-12202
▁courth	-12203
▁eacute	-12204
▁eleven	-12205
▁enters	-12206
▁flower	-12207
▁forens	-12208
▁forgot	-12209
▁haniya	-12210
▁harmed	-12211
▁hugely	-12212
▁ingrid	-12213
▁lander	-12214
▁libert	-12215
▁lyrics	-12216
▁marred	-12217
▁maurit	-12218
▁medium	-12219
▁mullah	-12220
▁munich	-12221
▁phuket	-12222
▁pistol	-12223
▁plates	-12224
▁robust	-12225
▁salary	-12226
▁torres	-12227
▁truman	-12228
▁unbeat	-12229
▁uncond	-12230
▁weaker	-12231
▁winger	-12232
▁arabian	-12233
▁bicycle	-12234
▁blitzer	-12235
▁booming	-12236
▁branson	-12237
▁bribery	-12238
▁britons	-12239
▁cholera	-12240
▁clinics	-12241
▁colombo	-12242
▁cycling	-12243
▁delinqu	-12244
▁embargo	-12245
▁extingu	-12246
▁favored	-12247
▁hurting	-12248
▁jamaica	-12249
▁jumping	-12250
▁keating	-12251
▁keynote	-12252
▁leaking	-12253
▁lessons	-12254
▁library	-12255
▁lottery	-12256
▁madison	-12257
▁mammals	-12258
▁massage	-12259
▁methane	-12260
▁mounted	-12261
▁nursing	-12262
▁physics	-12263
▁privile	-12264
▁rampant	-12265
▁rattled	-12266
▁recalls	-12267
▁shields	-12268
▁snapped	-12269
▁solving	-12270
▁starred	-12271
▁steroid	-12272
▁storage	-12273
▁sumatra	-12274
▁symbols	-12275
▁technic	-12276
▁vincent	-12277
▁airliner	-12278
▁archives	-12279
▁arrivals	-12280
▁balloons	-12281
▁bloggers	-12282
▁caffeine	-12283
▁calendar	-12284
▁cameroon	-12285
▁catching	-12286
▁constitu	-12287
▁deported	-12288
▁deputies	-12289
▁disperse	-12290
▁distinct	-12291
▁diverted	-12292
▁djokovic	-12293
▁emotions	-12294
▁enduring	-12295
▁everyday	-12296
▁famously	-12297
▁freedoms	-12298
▁goodwill	-12299
▁hijacked	-12300
▁homicide	-12301
▁licensed	-12302
▁licenses	-12303
▁monaster	-12304
▁narrowly	-12305
▁notified	-12306
▁operates	-12307
▁orchestr	-12308
▁oriented	-12309
▁outlined	-12310
▁pancreat	-12311
▁perspect	-12312
▁peterson	-12313
▁promptly	-12314
▁regained	-12315
▁retained	-12316
▁retiring	-12317
▁retrieve	-12318
▁seasonal	-12319
▁secretly	-12320
▁segolene	-12321
▁signaled	-12322
▁supermar	-12323
▁surfaced	-12324
▁thriller	-12325
▁township	-12326
▁umbrella	-12327
▁unauthor	-12328
▁widening	-12329
▁yasukuni	-12330
▁achieving	-12331
▁advocates	-12332
▁aerospace	-12333
▁amsterdam	-12334
▁animation	-12335
▁authentic	-12336
▁congolese	-12337
▁contested	-12338
▁dependent	-12339
▁diversity	-12340
▁exploited	-12341
▁extremist	-12342
▁fireworks	-12343
▁furniture	-12344
▁gorbachev	-12345
▁justified	-12346
▁mcconnell	-12347
▁recruited	-12348
▁requiring	-12349
▁responses	-12350
▁routinely	-12351
▁supplying	-12352
▁trademark	-12353
▁warplanes	-12354
▁acceptance	-12355
▁blackwater	-12356
▁components	-12357
▁confirming	-12358
▁deliberate	-12359
▁eliminated	-12360
▁expression	-12361
▁filmmakers	-12362
▁instructed	-12363
▁intervened	-12364
▁lauterbach	-12365
▁mainstream	-12366
▁mysterious	-12367
▁profitable	-12368
▁recommends	-12369
▁scrambling	-12370
▁situations	-12371
▁blockbuster	-12372
▁contracting	-12373
▁disablement	-12374
▁evangelical	-12375
▁interpreter	-12376
▁medications	-12377
▁restoration	-12378
▁shareholder	-12379
▁suggestions	-12380
▁tournaments	-12381
▁transported	-12382
▁capabilities	-12383
▁contributing	-12384
▁improvements	-12385
▁multilateral	-12386
▁authorization	-12387
▁demilitarized	-12388
fi	-12389
kh	-12390
sm	-12391
abi	-12392
aha	-12393
anz	-12394
box	-12395
hea	-12396
hof	-12397
ibu	-12398
jud	-12399
log	-12400
nny	-12401
orf	-12402
rif	-12403
rot	-12404
sef	-12405
tar	-12406
yer	-12407
zel	-12408
anni	-12409
ardi	-12410
comm	-12411
crib	-12412
echn	-12413
esco	-12414
gang	-12415
imon	-12416
jeon	-12417
keli	-12418
lett	-12419
mers	-12420
nity	-12421
orne	-12422
othy	-12423
phis	-12424
uala	-12425
urry	-12426
what	-12427
▁aus	-12428
▁boo	-12429
▁cyn	-12430
▁gau	-12431
▁hoi	-12432
▁kom	-12433
▁mps	-12434
▁oun	-12435
▁pam	-12436
▁rey	-12437
▁rim	-12438
▁rup	-12439
▁sic	-12440
▁taj	-12441
▁tir	-12442
▁uci	-12443
▁yam	-12444
asses	-12445
ateur	-12446
cheon	-12447
encia	-12448
glary	-12449
icism	-12450
ieves	-12451
licit	-12452
organ	-12453
parov	-12454
xiety	-12455
▁adri	-12456
▁bulk	-12457
▁cels	-12458
▁coat	-12459
▁coer	-12460
▁cort	-12461
▁cram	-12462
▁cruz	-12463
▁dvds	-12464
▁frog	-12465
▁glam	-12466
▁grat	-12467
▁helm	-12468
▁hoon	-12469
▁kamp	-12470
▁karl	-12471
▁karr	-12472
▁keys	-12473
▁liga	-12474
▁loya	-12475
▁lynn	-12476
▁lyon	-12477
▁maln	-12478
▁mode	-12479
▁nist	-12480
▁plag	-12481
▁qala	-12482
▁rack	-12483
▁repr	-12484
▁ruth	-12485
▁slay	-12486
▁slic	-12487
▁slot	-12488
▁soap	-12489
▁solo	-12490
▁tast	-12491
▁tina	-12492
▁tore	-12493
▁unav	-12494
▁vary	-12495
▁wond	-12496
abilia	-12497
abouts	-12498
ateful	-12499
elrooy	-12500
erving	-12501
mented	-12502
owners	-12503
reated	-12504
▁armen	-12505
▁array	-12506
▁asean	-12507
▁bared	-12508
▁barks	-12509
▁batch	-12510
▁byeon	-12511
▁carla	-12512
▁cliff	-12513
▁cream	-12514
▁cycle	-12515
▁fatig	-12516
▁guilt	-12517
▁helen	-12518
▁hello	-12519
▁immun	-12520
▁ineff	-12521
▁jerem	-12522
▁krist	-12523
▁kuala	-12524
▁packs	-12525
▁plain	-12526
▁prone	-12527
▁rojas	-12528
▁sabot	-12529
▁seism	-12530
▁seize	-12531
▁shaft	-12532
▁spies	-12533
▁spree	-12534
▁stiff	-12535
▁tokto	-12536
▁twist	-12537
ensions	-12538
ivities	-12539
ortions	-12540
▁adjour	-12541
▁advers	-12542
▁aiding	-12543
▁bryant	-12544
▁chains	-12545
▁cultiv	-12546
▁deemed	-12547
▁dennis	-12548
▁dignit	-12549
▁floren	-12550
▁forbes	-12551
▁freely	-12552
▁gibson	-12553
▁intrig	-12554
▁invite	-12555
▁khalid	-12556
▁kidman	-12557
▁lovers	-12558
▁maoist	-12559
▁misman	-12560
▁nights	-12561
▁orphan	-12562
▁pedest	-12563
▁powder	-12564
▁prints	-12565
▁quotes	-12566
▁recess	-12567
▁roller	-12568
▁sacred	-12569
▁sailor	-12570
▁shrink	-12571
▁spying	-12572
▁superm	-12573
▁tikrit	-12574
▁traced	-12575
▁unesco	-12576
▁update	-12577
▁voices	-12578
▁watson	-12579
▁zapeta	-12580
osterone	-12581
▁accompl	-12582
▁anthrop	-12583
▁anxiety	-12584
▁anxious	-12585
▁baggage	-12586
▁bahrain	-12587
▁banning	-12588
▁battleg	-12589
▁benefic	-12590
▁biology	-12591
▁breathe	-12592
▁bureauc	-12593
▁capello	-12594
▁celsius	-12595
▁centime	-12596
▁chadian	-12597
▁charlie	-12598
▁charred	-12599
▁chronic	-12600
▁cleaner	-12601
▁cooling	-12602
▁daejeon	-12603
▁deposit	-12604
▁digging	-12605
▁evasion	-12606
▁fantasy	-12607
▁garbage	-12608
▁gradual	-12609
▁immense	-12610
▁implant	-12611
▁leather	-12612
▁lecture	-12613
▁lesbian	-12614
▁letting	-12615
▁liaison	-12616
▁looming	-12617
▁memphis	-12618
▁newborn	-12619
▁packing	-12620
▁patriot	-12621
▁pioneer	-12622
▁presley	-12623
▁preston	-12624
▁pullout	-12625
▁rebound	-12626
▁rigging	-12627
▁robotic	-12628
▁scholar	-12629
▁severed	-12630
▁swiftly	-12631
▁therapy	-12632
▁unhappy	-12633
▁walters	-12634
▁blessing	-12635
▁burglary	-12636
▁commonly	-12637
▁compatri	-12638
▁confined	-12639
▁crawford	-12640
▁dadullah	-12641
▁dealings	-12642
▁deutsche	-12643
▁download	-12644
▁equality	-12645
▁external	-12646
▁grateful	-12647
▁hampered	-12648
▁holdings	-12649
▁ideology	-12650
▁kasparov	-12651
▁landfall	-12652
▁outraged	-12653
▁oversees	-12654
▁pandemic	-12655
▁parallel	-12656
▁penguins	-12657
▁portrait	-12658
▁probable	-12659
▁recruits	-12660
▁redeploy	-12661
▁reliable	-12662
▁resisted	-12663
▁searches	-12664
▁sequence	-12665
▁sergeant	-12666
▁servants	-12667
▁somewhat	-12668
▁speakers	-12669
▁stricken	-12670
▁syndrome	-12671
▁taxpayer	-12672
▁thatcher	-12673
▁unbeaten	-12674
▁vaccines	-12675
▁valuable	-12676
▁verified	-12677
▁violates	-12678
▁worsened	-12679
▁boycotted	-12680
▁brutality	-12681
▁cardinals	-12682
▁coastline	-12683
▁defendant	-12684
▁descended	-12685
▁disgraced	-12686
▁exploring	-12687
▁exporting	-12688
▁illnesses	-12689
▁jefferson	-12690
▁lucrative	-12691
▁monitored	-12692
▁obtaining	-12693
▁paramount	-12694
▁philosoph	-12695
▁platforms	-12696
▁preferred	-12697
▁purchases	-12698
▁regulator	-12699
▁reprocess	-12700
▁seemingly	-12701
▁sightings	-12702
▁signature	-12703
▁stalemate	-12704
▁suppliers	-12705
▁acceptable	-12706
▁aggravated	-12707
▁ambulances	-12708
▁broadcasts	-12709
▁collective	-12710
▁deliveries	-12711
▁disclosure	-12712
▁disturbing	-12713
▁nistelrooy	-12714
▁objections	-12715
▁pancreatic	-12716
▁perception	-12717
▁queensland	-12718
▁reaffirmed	-12719
▁recruiting	-12720
▁ronaldinho	-12721
▁spectators	-12722
▁transcript	-12723
▁treatments	-12724
▁veterinary	-12725
▁approaching	-12726
▁checkpoints	-12727
▁destructive	-12728
▁frustration	-12729
▁humiliating	-12730
▁memorabilia	-12731
▁perspective	-12732
▁precautions	-12733
▁recruitment	-12734
▁substantive	-12735
▁supervisory	-12736
▁considerably	-12737
▁consistently	-12738
▁distributing	-12739
▁evolutionary	-12740
▁experiencing	-12741
▁interference	-12742
▁productivity	-12743
▁surprisingly	-12744
▁testosterone	-12745
▁unauthorized	-12746
▁veterinarian	-12747
▁acknowledging	-12748
▁collaboration	-12749
▁grandchildren	-12750
▁archaeological	-12751
▁recommendation	-12752
fr	-12753
kt	-12754
yn	-12755
aws	-12756
bin	-12757
ctv	-12758
ede	-12759
ere	-12760
fia	-12761
gio	-12762
iaz	-12763
nan	-12764
rix	-12765
uca	-12766
urf	-12767
via	-12768
yeh	-12769
yon	-12770
▁cu	-12771
▁fu	-12772
▁nu	-12773
▁xp	-12774
anne	-12775
bane	-12776
beki	-12777
grad	-12778
horn	-12779
icap	-12780
illo	-12781
imat	-12782
isco	-12783
isms	-12784
itzl	-12785
mens	-12786
nate	-12787
othe	-12788
oyed	-12789
stam	-12790
ujah	-12791
▁alv	-12792
▁bou	-12793
▁cla	-12794
▁cpl	-12795
▁daw	-12796
▁dyn	-12797
▁eli	-12798
▁gab	-12799
▁jen	-12800
▁jup	-12801
▁laf	-12802
▁lan	-12803
▁mig	-12804
▁mtv	-12805
▁nim	-12806
▁tub	-12807
▁vil	-12808
▁wta	-12809
▁wto	-12810
▁yok	-12811
anski	-12812
atero	-12813
berry	-12814
cover	-12815
eries	-12816
heric	-12817
itter	-12818
luded	-12819
osaur	-12820
ouver	-12821
roper	-12822
scale	-12823
ucked	-12824
ystem	-12825
▁asif	-12826
▁bamb	-12827
▁bapt	-12828
▁beth	-12829
▁bras	-12830
▁ceme	-12831
▁clap	-12832
▁clut	-12833
▁diff	-12834
▁dmit	-12835
▁eyed	-12836
▁gene	-12837
▁heir	-12838
▁hint	-12839
▁kook	-12840
▁kwan	-12841
▁levy	-12842
▁lows	-12843
▁mash	-12844
▁megh	-12845
▁mell	-12846
▁moss	-12847
▁nahr	-12848
▁nets	-12849
▁nike	-12850
▁nong	-12851
▁nood	-12852
▁oecd	-12853
▁owen	-12854
▁patt	-12855
▁quds	-12856
▁reef	-12857
▁rejo	-12858
▁riza	-12859
▁salt	-12860
▁sind	-12861
▁sink	-12862
▁slid	-12863
▁soda	-12864
▁stip	-12865
▁sull	-12866
▁tube	-12867
▁tuck	-12868
▁wand	-12869
▁wash	-12870
▁wise	-12871
▁yach	-12872
▁zamb	-12873
andong	-12874
andson	-12875
anging	-12876
artoum	-12877
boards	-12878
enting	-12879
ijuana	-12880
ington	-12881
lander	-12882
regate	-12883
stated	-12884
uggish	-12885
ulates	-12886
▁abdel	-12887
▁amuse	-12888
▁brent	-12889
▁cheng	-12890
▁clown	-12891
▁comet	-12892
▁crush	-12893
▁fabio	-12894
▁filip	-12895
▁funny	-12896
▁grain	-12897
▁grapp	-12898
▁highs	-12899
▁hyung	-12900
▁josef	-12901
▁julie	-12902
▁juris	-12903
▁kings	-12904
▁kurds	-12905
▁laund	-12906
▁lions	-12907
▁masks	-12908
▁mbeki	-12909
▁metro	-12910
▁monte	-12911
▁opted	-12912
▁outer	-12913
▁pedro	-12914
▁perry	-12915
▁plame	-12916
▁plead	-12917
▁ratio	-12918
▁reads	-12919
▁recei	-12920
▁renov	-12921
▁rhyth	-12922
▁roses	-12923
▁ruins	-12924
▁seeds	-12925
▁sheet	-12926
▁sided	-12927
▁skysc	-12928
▁sochi	-12929
▁soren	-12930
▁spiel	-12931
▁stere	-12932
▁tenor	-12933
▁utter	-12934
▁visas	-12935
▁warns	-12936
▁weird	-12937
▁wrist	-12938
▁xiang	-12939
rencies	-12940
tenance	-12941
vinenko	-12942
▁bloods	-12943
▁bother	-12944
▁bounce	-12945
▁costly	-12946
▁cowell	-12947
▁descri	-12948
▁diving	-12949
▁dormit	-12950
▁enroll	-12951
▁excell	-12952
▁exclus	-12953
▁favors	-12954
▁firmly	-12955
▁forecl	-12956
▁heroes	-12957
▁hewitt	-12958
▁indoor	-12959
▁locate	-12960
▁lumpur	-12961
▁malawi	-12962
▁mayors	-12963
▁norris	-12964
▁orient	-12965
▁overhe	-12966
▁peanut	-12967
▁posing	-12968
▁quebec	-12969
▁raging	-12970
▁recons	-12971
▁relied	-12972
▁renown	-12973
▁rigged	-12974
▁roland	-12975
▁rooted	-12976
▁safegu	-12977
▁scaled	-12978
▁script	-12979
▁serial	-12980
▁spider	-12981
▁sunnis	-12982
▁trauma	-12983
▁tsonga	-12984
▁viable	-12985
attering	-12986
ongchang	-12987
restrial	-12988
▁anytime	-12989
▁auvinen	-12990
▁capsule	-12991
▁checkup	-12992
▁crowned	-12993
▁crushed	-12994
▁curator	-12995
▁darling	-12996
▁debated	-12997
▁defence	-12998
▁defiant	-12999
▁dentist	-13000
▁descent	-13001
▁deserve	-13002
▁disband	-13003
▁emperor	-13004
▁envelop	-13005
▁ferraro	-13006
▁frankly	-13007
▁grenade	-13008
▁halfway	-13009
▁inflamm	-13010
▁inspire	-13011
▁justine	-13012
▁killers	-13013
▁lawless	-13014
▁morocco	-13015
▁printed	-13016
▁quietly	-13017
▁revered	-13018
▁revived	-13019
▁roadmap	-13020
▁seizure	-13021
▁solomon	-13022
▁spurred	-13023
▁statues	-13024
▁stevens	-13025
▁surgeon	-13026
▁tallest	-13027
▁toilets	-13028
▁unified	-13029
▁wanting	-13030
▁whoever	-13031
itutional	-13032
▁acquired	-13033
▁adequate	-13034
▁adjacent	-13035
▁albanian	-13036
▁archipel	-13037
▁backlash	-13038
▁beheaded	-13039
▁brisbane	-13040
▁composed	-13041
▁confirms	-13042
▁defining	-13043
▁engulfed	-13044
▁enjoying	-13045
▁ensuring	-13046
▁excerpts	-13047
▁failures	-13048
▁forensic	-13049
▁francois	-13050
▁grandson	-13051
▁hamilton	-13052
▁humpback	-13053
▁improper	-13054
▁juvenile	-13055
▁khartoum	-13056
▁labeling	-13057
▁launches	-13058
▁mentally	-13059
▁mourners	-13060
▁nepalese	-13061
▁offenses	-13062
▁plunging	-13063
▁proceeds	-13064
▁railways	-13065
▁receives	-13066
▁saddened	-13067
▁schuster	-13068
▁sickened	-13069
▁sluggish	-13070
▁stallone	-13071
▁subjects	-13072
▁switched	-13073
▁theories	-13074
▁trafford	-13075
▁amusement	-13076
▁artifacts	-13077
▁assaulted	-13078
▁audiences	-13079
▁companion	-13080
▁delighted	-13081
▁depressed	-13082
▁disabling	-13083
▁disasters	-13084
▁dissatisf	-13085
▁divisions	-13086
▁europeans	-13087
▁guangdong	-13088
▁guangzhou	-13089
▁himalayan	-13090
▁initiated	-13091
▁integrity	-13092
▁kilograms	-13093
▁liquidity	-13094
▁logistics	-13095
▁marijuana	-13096
▁messenger	-13097
▁middleton	-13098
▁occurring	-13099
▁operative	-13100
▁pipelines	-13101
▁prototype	-13102
▁shrinking	-13103
▁sorenstam	-13104
▁succeeded	-13105
▁successes	-13106
▁ukrainian	-13107
▁vancouver	-13108
▁violently	-13109
▁welcoming	-13110
▁wholesale	-13111
▁workplace	-13112
▁accessible	-13113
▁attracting	-13114
▁bipartisan	-13115
▁courthouse	-13116
▁currencies	-13117
▁definitive	-13118
▁delivering	-13119
▁distribute	-13120
▁escalation	-13121
▁guaranteed	-13122
▁historians	-13123
▁incredible	-13124
▁literature	-13125
▁litvinenko	-13126
▁minorities	-13127
▁outrageous	-13128
▁overcoming	-13129
▁physically	-13130
▁pyeongyang	-13131
▁speculated	-13132
▁translator	-13133
▁unofficial	-13134
▁wheelchair	-13135
▁yushchenko	-13136
▁antiquities	-13137
▁convictions	-13138
▁coordinator	-13139
▁destabilize	-13140
▁evacuations	-13141
▁forthcoming	-13142
▁genetically	-13143
▁instruments	-13144
▁integration	-13145
▁kidnappings	-13146
▁maintenance	-13147
▁overwhelmed	-13148
▁pyeongchang	-13149
▁whereabouts	-13150
▁battleground	-13151
▁constructive	-13152
▁conventional	-13153
▁corporations	-13154
▁dictatorship	-13155
▁exploitation	-13156
▁implementing	-13157
▁occasionally	-13158
▁subsequently	-13159
▁complications	-13160
▁consultations	-13161
▁deteriorating	-13162
▁disagreements	-13163
▁professionals	-13164
▁simultaneously	-13165
hr	-13166
oa	-13167
uh	-13168
aga	-13169
ahy	-13170
bag	-13171
ben	-13172
col	-13173
eal	-13174
fty	-13175
ilo	-13176
lec	-13177
len	-13178
nie	-13179
nom	-13180
pat	-13181
top	-13182
urt	-13183
▁aa	-13184
▁mp	-13185
abel	-13186
anga	-13187
ansa	-13188
bank	-13189
comb	-13190
eded	-13191
eria	-13192
gart	-13193
girl	-13194
gone	-13195
haal	-13196
hang	-13197
igor	-13198
ingu	-13199
leas	-13200
muss	-13201
onen	-13202
opic	-13203
uart	-13204
ulla	-13205
velt	-13206
ylan	-13207
▁ald	-13208
▁aur	-13209
▁cer	-13210
▁dax	-13211
▁dil	-13212
▁duj	-13213
▁eut	-13214
▁fom	-13215
▁gry	-13216
▁lip	-13217
▁liz	-13218
▁lon	-13219
▁nhk	-13220
▁nso	-13221
▁pga	-13222
▁tow	-13223
▁tus	-13224
▁tvs	-13225
▁wie	-13226
▁wit	-13227
▁wiz	-13228
▁xan	-13229
▁zhu	-13230
amped	-13231
ausen	-13232
bling	-13233
denko	-13234
enary	-13235
erbai	-13236
essim	-13237
gages	-13238
herty	-13239
impse	-13240
imura	-13241
inity	-13242
ipper	-13243
neath	-13244
ovich	-13245
oween	-13246
ppers	-13247
quito	-13248
still	-13249
▁accl	-13250
▁bids	-13251
▁cmdr	-13252
▁dodd	-13253
▁eleg	-13254
▁fart	-13255
▁feud	-13256
▁frig	-13257
▁grac	-13258
▁heal	-13259
▁irna	-13260
▁kaka	-13261
▁kirk	-13262
▁lend	-13263
▁leve	-13264
▁maid	-13265
▁mous	-13266
▁myth	-13267
▁nile	-13268
▁offs	-13269
▁onsl	-13270
▁oval	-13271
▁penh	-13272
▁pupp	-13273
▁ripp	-13274
▁rust	-13275
▁sala	-13276
▁semi	-13277
▁seng	-13278
▁shak	-13279
▁sham	-13280
▁shun	-13281
▁skip	-13282
▁upro	-13283
▁vend	-13284
▁vinc	-13285
▁worn	-13286
alling	-13287
arians	-13288
averal	-13289
forced	-13290
forest	-13291
italia	-13292
katiri	-13293
mussen	-13294
osures	-13295
ourage	-13296
retary	-13297
▁aaron	-13298
▁alike	-13299
▁arabs	-13300
▁blank	-13301
▁catal	-13302
▁cheon	-13303
▁colin	-13304
▁compr	-13305
▁crest	-13306
▁diarr	-13307
▁dicap	-13308
▁dodge	-13309
▁drops	-13310
▁dylan	-13311
▁emerg	-13312
▁enron	-13313
▁facto	-13314
▁flick	-13315
▁homem	-13316
▁inher	-13317
▁karim	-13318
▁kyong	-13319
▁leahy	-13320
▁lever	-13321
▁livni	-13322
▁navig	-13323
▁noble	-13324
▁nutri	-13325
▁phnom	-13326
▁qatar	-13327
▁raced	-13328
▁revol	-13329
▁rooft	-13330
▁rover	-13331
▁serie	-13332
▁sheik	-13333
▁siber	-13334
▁soyuz	-13335
▁stump	-13336
▁sword	-13337
▁taped	-13338
▁tents	-13339
▁unrel	-13340
akening	-13341
ductive	-13342
ilitary	-13343
olitano	-13344
rations	-13345
urances	-13346
▁abnorm	-13347
▁aliens	-13348
▁allawi	-13349
▁assure	-13350
▁backup	-13351
▁boards	-13352
▁bosses	-13353
▁bulgar	-13354
▁candle	-13355
▁capita	-13356
▁chilly	-13357
▁chimps	-13358
▁cinema	-13359
▁conner	-13360
▁corrid	-13361
▁counse	-13362
▁crises	-13363
▁dmitry	-13364
▁endang	-13365
▁euthan	-13366
▁exists	-13367
▁expire	-13368
▁fertil	-13369
▁forged	-13370
▁fukuda	-13371
▁genome	-13372
▁gerald	-13373
▁harris	-13374
▁hiring	-13375
▁humane	-13376
▁hungry	-13377
▁jeremy	-13378
▁justin	-13379
▁labels	-13380
▁labore	-13381
▁loving	-13382
▁malibu	-13383
▁mammal	-13384
▁medals	-13385
▁minded	-13386
▁offset	-13387
▁ordeal	-13388
▁pessim	-13389
▁picket	-13390
▁podium	-13391
▁poorly	-13392
▁portal	-13393
▁postal	-13394
▁purely	-13395
▁reopen	-13396
▁resurg	-13397
▁roadbl	-13398
▁saudis	-13399
▁speeds	-13400
▁spends	-13401
▁stiles	-13402
▁submar	-13403
▁sultan	-13404
▁suzuki	-13405
▁trends	-13406
▁triple	-13407
▁uncont	-13408
▁ventil	-13409
▁wishes	-13410
▁xanana	-13411
breaking	-13412
▁abusive	-13413
▁amateur	-13414
▁anymore	-13415
▁azerbai	-13416
▁ballmer	-13417
▁banners	-13418
▁boarded	-13419
▁bosnian	-13420
▁busiest	-13421
▁centrif	-13422
▁cheered	-13423
▁clapton	-13424
▁cluster	-13425
▁commons	-13426
▁corpses	-13427
▁designs	-13428
▁donated	-13429
▁downing	-13430
▁endured	-13431
▁exagger	-13432
▁farther	-13433
▁finland	-13434
▁floated	-13435
▁frances	-13436
▁fueling	-13437
▁glimpse	-13438
▁halting	-13439
▁heating	-13440
▁infants	-13441
▁interfe	-13442
▁jupiter	-13443
▁lighter	-13444
▁mandela	-13445
▁merrill	-13446
▁mineral	-13447
▁miracle	-13448
▁mortars	-13449
▁observe	-13450
▁padilla	-13451
▁pouring	-13452
▁praying	-13453
▁pumping	-13454
▁referee	-13455
▁refiner	-13456
▁repatri	-13457
▁sensors	-13458
▁shifted	-13459
▁siniora	-13460
▁staunch	-13461
▁suburbs	-13462
▁temples	-13463
▁tighten	-13464
▁tracked	-13465
▁unconst	-13466
▁upscale	-13467
▁urgency	-13468
▁warfare	-13469
▁abruptly	-13470
▁advisors	-13471
▁alkatiri	-13472
▁archbish	-13473
▁barracks	-13474
▁belgrade	-13475
▁breached	-13476
▁brooklyn	-13477
▁cardinal	-13478
▁climbers	-13479
▁coincide	-13480
▁credible	-13481
▁defiance	-13482
▁dicaprio	-13483
▁dinosaur	-13484
▁displays	-13485
▁donation	-13486
▁drilling	-13487
▁drinkers	-13488
▁grounded	-13489
▁handover	-13490
▁horrific	-13491
▁hydrogen	-13492
▁industri	-13493
▁laughing	-13494
▁magnetic	-13495
▁meltdown	-13496
▁mosquito	-13497
▁provoked	-13498
▁reacting	-13499
▁resource	-13500
▁resuming	-13501
▁salaries	-13502
▁siblings	-13503
▁slipping	-13504
▁supplied	-13505
▁tibetans	-13506
▁zapatero	-13507
vernmental	-13508
▁admitting	-13509
▁affection	-13510
▁ancestors	-13511
▁arresting	-13512
▁breakdown	-13513
▁canaveral	-13514
▁cancelled	-13515
▁chartered	-13516
▁commented	-13517
▁computing	-13518
▁consulate	-13519
▁crossings	-13520
▁davydenko	-13521
▁defeating	-13522
▁detaining	-13523
▁dissident	-13524
▁dissolved	-13525
▁fisheries	-13526
▁guerrilla	-13527
▁halloween	-13528
▁henderson	-13529
▁inquiries	-13530
▁jordanian	-13531
▁lifestyle	-13532
▁magazines	-13533
▁mortgages	-13534
▁notorious	-13535
▁nutrition	-13536
▁objection	-13537
▁obstacles	-13538
▁particles	-13539
▁patriotic	-13540
▁plummeted	-13541
▁precincts	-13542
▁rasmussen	-13543
▁remainder	-13544
▁resistant	-13545
▁respected	-13546
▁restoring	-13547
▁scrambled	-13548
▁shortfall	-13549
▁specially	-13550
▁specifics	-13551
▁speculate	-13552
▁spielberg	-13553
▁stressing	-13554
▁tightened	-13555
▁accelerate	-13556
▁accusation	-13557
▁amendments	-13558
▁appreciate	-13559
▁approaches	-13560
▁architects	-13561
▁attraction	-13562
▁automobile	-13563
▁blacksburg	-13564
▁boycotting	-13565
▁classrooms	-13566
▁consultant	-13567
▁convincing	-13568
▁courageous	-13569
▁frightened	-13570
▁napolitano	-13571
▁obligation	-13572
▁performers	-13573
▁portsmouth	-13574
▁productive	-13575
▁references	-13576
▁respective	-13577
▁ridiculous	-13578
▁separation	-13579
▁skepticism	-13580
▁standstill	-13581
▁subsequent	-13582
▁torrential	-13583
▁underneath	-13584
▁achievement	-13585
▁archipelago	-13586
▁automobiles	-13587
▁commodities	-13588
▁conflicting	-13589
▁contestants	-13590
▁cooperative	-13591
▁drastically	-13592
▁exclusively	-13593
▁fingerprint	-13594
▁functioning	-13595
▁fundraising	-13596
▁importantly	-13597
▁infiltrated	-13598
▁ingredients	-13599
▁installment	-13600
▁interactive	-13601
▁interpreted	-13602
▁quarterback	-13603
▁suppression	-13604
▁translation	-13605
▁achievements	-13606
▁contemporary	-13607
▁destinations	-13608
▁intimidation	-13609
▁confederation	-13610
▁consciousness	-13611
▁disappointing	-13612
▁reinforcements	-13613
eb	-13614
lu	-13615
ux	-13616
vo	-13617
bay	-13618
bye	-13619
fts	-13620
ggy	-13621
ieu	-13622
jab	-13623
lif	-13624
lls	-13625
ono	-13626
ovs	-13627
ras	-13628
von	-13629
yen	-13630
zio	-13631
▁dh	-13632
▁mm	-13633
▁wm	-13634
abed	-13635
adan	-13636
ante	-13637
asia	-13638
awar	-13639
biqu	-13640
coni	-13641
conn	-13642
dled	-13643
drop	-13644
ecca	-13645
ffer	-13646
huff	-13647
ichi	-13648
idav	-13649
inea	-13650
inge	-13651
mons	-13652
neum	-13653
oshi	-13654
raph	-13655
rett	-13656
riel	-13657
shmi	-13658
step	-13659
udge	-13660
ufth	-13661
umbo	-13662
word	-13663
▁beg	-13664
▁bib	-13665
▁cox	-13666
▁edu	-13667
▁emi	-13668
▁gue	-13669
▁kal	-13670
▁naj	-13671
▁omx	-13672
▁plc	-13673
▁rut	-13674
▁spi	-13675
▁til	-13676
▁tin	-13677
▁tyr	-13678
▁ung	-13679
▁vom	-13680
▁wfp	-13681
▁zay	-13682
▁zur	-13683
acies	-13684
actic	-13685
aguay	-13686
arked	-13687
asive	-13688
azaki	-13689
emaah	-13690
emics	-13691
encer	-13692
khead	-13693
leton	-13694
mbley	-13695
oding	-13696
osity	-13697
oyama	-13698
table	-13699
think	-13700
uffed	-13701
ulent	-13702
▁airs	-13703
▁alle	-13704
▁amel	-13705
▁bain	-13706
▁balk	-13707
▁beno	-13708
▁butt	-13709
▁dann	-13710
▁deer	-13711
▁diaz	-13712
▁emmy	-13713
▁fren	-13714
▁hamm	-13715
▁hats	-13716
▁impl	-13717
▁jess	-13718
▁joke	-13719
▁lied	-13720
▁lula	-13721
▁misc	-13722
▁orig	-13723
▁pais	-13724
▁pesh	-13725
▁prey	-13726
▁rapp	-13727
▁stam	-13728
▁swam	-13729
▁tier	-13730
▁trim	-13731
▁unle	-13732
anchez	-13733
ansson	-13734
athers	-13735
ichton	-13736
luster	-13737
marked	-13738
rophic	-13739
waters	-13740
▁anwar	-13741
▁appet	-13742
▁arche	-13743
▁arrow	-13744
▁barcl	-13745
▁barro	-13746
▁belly	-13747
▁braun	-13748
▁comic	-13749
▁costa	-13750
▁cough	-13751
▁derby	-13752
▁drain	-13753
▁drift	-13754
▁dwell	-13755
▁evans	-13756
▁fargo	-13757
▁fiber	-13758
▁fuels	-13759
▁horiz	-13760
▁hover	-13761
▁inhal	-13762
▁input	-13763
▁irwin	-13764
▁lufth	-13765
▁moder	-13766
▁nurse	-13767
▁olive	-13768
▁osman	-13769
▁paths	-13770
▁penny	-13771
▁pneum	-13772
▁rides	-13773
▁rolls	-13774
▁sorts	-13775
▁spike	-13776
▁spurs	-13777
▁tadic	-13778
▁teach	-13779
▁teddy	-13780
▁tenth	-13781
▁thorn	-13782
▁thumb	-13783
▁ubiqu	-13784
▁usher	-13785
▁vinci	-13786
▁wraps	-13787
atorium	-13788
entials	-13789
itement	-13790
keepers	-13791
mingham	-13792
theless	-13793
▁adoles	-13794
▁albums	-13795
▁anders	-13796
▁askari	-13797
▁barney	-13798
▁bayern	-13799
▁bishop	-13800
▁blackl	-13801
▁bricks	-13802
▁bubble	-13803
▁canyon	-13804
▁cartel	-13805
▁carved	-13806
▁celest	-13807
▁decent	-13808
▁diesel	-13809
▁doming	-13810
▁floors	-13811
▁foiled	-13812
▁fritzl	-13813
▁guinea	-13814
▁holmes	-13815
▁influx	-13816
▁inmate	-13817
▁insure	-13818
▁interc	-13819
▁jemaah	-13820
▁johnny	-13821
▁kazemi	-13822
▁keeper	-13823
▁latter	-13824
▁lavish	-13825
▁likeli	-13826
▁luther	-13827
▁memoir	-13828
▁nephew	-13829
▁nerves	-13830
▁outlet	-13831
▁punjab	-13832
▁regain	-13833
▁ritual	-13834
▁robots	-13835
▁sample	-13836
▁shrimp	-13837
▁slower	-13838
▁spared	-13839
▁tables	-13840
▁tongue	-13841
▁unveil	-13842
▁vetoed	-13843
▁vowing	-13844
▁waiver	-13845
▁yemeni	-13846
▁zebari	-13847
ecretary	-13848
izations	-13849
▁affidav	-13850
▁assumed	-13851
▁baldwin	-13852
▁beliefs	-13853
▁bennett	-13854
▁blanche	-13855
▁bombard	-13856
▁boulder	-13857
▁bystand	-13858
▁cleanup	-13859
▁clemens	-13860
▁coaches	-13861
▁costing	-13862
▁disqual	-13863
▁dynasty	-13864
▁evolved	-13865
▁existed	-13866
▁faction	-13867
▁goodbye	-13868
▁harvest	-13869
▁hawkins	-13870
▁hossein	-13871
▁inhabit	-13872
▁kissing	-13873
▁lakshmi	-13874
▁lasting	-13875
▁lenient	-13876
▁lindsey	-13877
▁martial	-13878
▁matchup	-13879
▁nearest	-13880
▁noodles	-13881
▁pilgrim	-13882
▁pitched	-13883
▁placing	-13884
▁plagued	-13885
▁planted	-13886
▁precond	-13887
▁rangoon	-13888
▁regards	-13889
▁reshuff	-13890
▁restive	-13891
▁retract	-13892
▁ringing	-13893
▁rushing	-13894
▁sanchez	-13895
▁segment	-13896
▁spirits	-13897
▁spouses	-13898
▁stabbed	-13899
▁touring	-13900
▁trailer	-13901
▁twisted	-13902
▁viewing	-13903
▁violate	-13904
▁visitor	-13905
▁warlord	-13906
▁wembley	-13907
▁winston	-13908
itiveness	-13909
▁algerian	-13910
▁applying	-13911
▁artistic	-13912
▁birkhead	-13913
▁blackout	-13914
▁bleeding	-13915
▁bulgaria	-13916
▁cemetery	-13917
▁charisma	-13918
▁cheating	-13919
▁cleaning	-13920
▁competed	-13921
▁crichton	-13922
▁criteria	-13923
▁delicate	-13924
▁deserves	-13925
▁diarrhea	-13926
▁disappro	-13927
▁excluded	-13928
▁explicit	-13929
▁finalize	-13930
▁globally	-13931
▁hatoyama	-13932
▁homemade	-13933
▁honoring	-13934
▁horrible	-13935
▁immunity	-13936
▁ivanovic	-13937
▁joongang	-13938
▁lawrence	-13939
▁leonardo	-13940
▁limiting	-13941
▁mediator	-13942
▁monarchy	-13943
▁musician	-13944
▁outright	-13945
▁overdose	-13946
▁overlook	-13947
▁overshad	-13948
▁paraguay	-13949
▁populous	-13950
▁portions	-13951
▁precious	-13952
▁premises	-13953
▁printing	-13954
▁provider	-13955
▁regiment	-13956
▁relation	-13957
▁relocate	-13958
▁renowned	-13959
▁robinson	-13960
▁sabotage	-13961
▁sampling	-13962
▁showcase	-13963
▁surgeons	-13964
▁tackling	-13965
▁unnecess	-13966
▁valencia	-13967
▁versions	-13968
▁wielding	-13969
▁xinjiang	-13970
▁alcoholic	-13971
▁awakening	-13972
▁battalion	-13973
▁bloodshed	-13974
▁bollywood	-13975
▁carmakers	-13976
▁compounds	-13977
▁consulted	-13978
▁defensive	-13979
▁endurance	-13980
▁escalated	-13981
▁estranged	-13982
▁excellent	-13983
▁forbidden	-13984
▁frenchman	-13985
▁hopefully	-13986
▁impressed	-13987
▁influenza	-13988
▁interfere	-13989
▁johansson	-13990
▁lufthansa	-13991
▁mediation	-13992
▁motorcade	-13993
▁nasrallah	-13994
▁offerings	-13995
▁organizer	-13996
▁outspoken	-13997
▁perceived	-13998
▁resigning	-13999
▁revealing	-14000
▁sensation	-14001
▁spaniards	-14002
▁spotlight	-14003
▁unrelated	-14004
▁adolescent	-14005
▁archbishop	-14006
▁birmingham	-14007
▁capitalist	-14008
▁commentary	-14009
▁comparison	-14010
▁compatriot	-14011
▁confronted	-14012
▁denouncing	-14013
▁encourages	-14014
▁excitement	-14015
▁homeowners	-14016
▁institutes	-14017
▁lackluster	-14018
▁likelihood	-14019
▁meaningful	-14020
▁operatives	-14021
▁passionate	-14022
▁protective	-14023
▁provisions	-14024
▁publicized	-14025
▁quarantine	-14026
▁reconsider	-14027
▁socialists	-14028
▁thoroughly	-14029
▁ubiquitous	-14030
▁undercover	-14031
▁accountable	-14032
▁appreciated	-14033
▁battlefield	-14034
▁certificate	-14035
▁circulating	-14036
▁commemorate	-14037
▁conclusions	-14038
▁confiscated	-14039
▁connections	-14040
▁credentials	-14041
▁credibility	-14042
▁delegations	-14043
▁deportation	-14044
▁dignitaries	-14045
▁distributor	-14046
▁expectation	-14047
▁festivities	-14048
▁radioactive	-14049
▁sustainable	-14050
▁alternatives	-14051
▁consultation	-14052
▁embarrassing	-14053
▁installation	-14054
▁nevertheless	-14055
▁reprocessing	-14056
▁unexpectedly	-14057
▁concentration	-14058
▁contributions	-14059
▁globalization	-14060
▁technological	-14061
▁industrialized	-14062
▁transformation	-14063
▁undersecretary	-14064
▁competitiveness	-14065
ls	-14066
ws	-14067
aba	-14068
azz	-14069
bat	-14070
but	-14071
cha	-14072
cut	-14073
gel	-14074
gom	-14075
hey	-14076
idi	-14077
imi	-14078
isi	-14079
oly	-14080
oop	-14081
ser	-14082
vak	-14083
vet	-14084
▁aj	-14085
▁bj	-14086
▁kr	-14087
addy	-14088
anth	-14089
atan	-14090
blor	-14091
bury	-14092
cery	-14093
daem	-14094
etti	-14095
folk	-14096
guet	-14097
hima	-14098
icon	-14099
inez	-14100
isle	-14101
kill	-14102
nish	-14103
odel	-14104
oeba	-14105
onso	-14106
oret	-14107
ouad	-14108
ours	-14109
ovoi	-14110
uees	-14111
uges	-14112
vian	-14113
▁acr	-14114
▁cay	-14115
▁cds	-14116
▁cot	-14117
▁doo	-14118
▁dre	-14119
▁dys	-14120
▁ern	-14121
▁eva	-14122
▁faa	-14123
▁fug	-14124
▁hed	-14125
▁hes	-14126
▁hob	-14127
▁iii	-14128
▁jel	-14129
▁kap	-14130
▁kbs	-14131
▁kra	-14132
▁lik	-14133
▁lur	-14134
▁mik	-14135
▁mub	-14136
▁nak	-14137
▁phr	-14138
▁ply	-14139
▁pup	-14140
▁sag	-14141
▁seb	-14142
▁sob	-14143
▁thy	-14144
▁ump	-14145
▁vib	-14146
▁yuk	-14147
▁zoe	-14148
▁zub	-14149
adors	-14150
andan	-14151
angle	-14152
anmen	-14153
esity	-14154
ilder	-14155
itate	-14156
nants	-14157
oused	-14158
overs	-14159
reeze	-14160
rians	-14161
roads	-14162
rophe	-14163
shots	-14164
tered	-14165
uling	-14166
yssey	-14167
▁adap	-14168
▁axis	-14169
▁bast	-14170
▁bolt	-14171
▁bong	-14172
▁bour	-14173
▁cake	-14174
▁cogn	-14175
▁coin	-14176
▁cran	-14177
▁cure	-14178
▁danc	-14179
▁deaf	-14180
▁deby	-14181
▁depl	-14182
▁drac	-14183
▁edin	-14184
▁eyew	-14185
▁fool	-14186
▁fret	-14187
▁glor	-14188
▁gond	-14189
▁grey	-14190
▁gymn	-14191
▁hajj	-14192
▁jagu	-14193
▁jams	-14194
▁laud	-14195
▁mald	-14196
▁nost	-14197
▁outf	-14198
▁pork	-14199
▁puzz	-14200
▁ratt	-14201
▁rept	-14202
▁scow	-14203
▁shal	-14204
▁sore	-14205
▁spaw	-14206
▁tarm	-14207
▁util	-14208
▁wary	-14209
▁woke	-14210
▁yoga	-14211
akable	-14212
assing	-14213
atable	-14214
atible	-14215
cribed	-14216
emaker	-14217
estock	-14218
gomery	-14219
iances	-14220
inated	-14221
ishers	-14222
istrib	-14223
linary	-14224
morgan	-14225
resses	-14226
usters	-14227
zeguet	-14228
▁allan	-14229
▁altog	-14230
▁amber	-14231
▁basil	-14232
▁blogs	-14233
▁chunk	-14234
▁clamp	-14235
▁claud	-14236
▁clerk	-14237
▁crazy	-14238
▁drill	-14239
▁femin	-14240
▁ferre	-14241
▁flatt	-14242
▁freud	-14243
▁gamba	-14244
▁gauge	-14245
▁giggs	-14246
▁glenn	-14247
▁globo	-14248
▁goers	-14249
▁grows	-14250
▁janet	-14251
▁julio	-14252
▁katie	-14253
▁keane	-14254
▁lacks	-14255
▁lahim	-14256
▁layer	-14257
▁lifel	-14258
▁lloyd	-14259
▁maxim	-14260
▁nanot	-14261
▁ought	-14262
▁parad	-14263
▁peers	-14264
▁penet	-14265
▁plaza	-14266
▁pools	-14267
▁recip	-14268
▁releg	-14269
▁rises	-14270
▁roose	-14271
▁saves	-14272
▁sixty	-14273
▁skies	-14274
▁snack	-14275
▁stays	-14276
▁tebow	-14277
▁tempt	-14278
▁thigh	-14279
▁tract	-14280
ication	-14281
ifiable	-14282
lington	-14283
morning	-14284
written	-14285
▁airing	-14286
▁amoeba	-14287
▁anglic	-14288
▁benoit	-14289
▁betray	-14290
▁biting	-14291
▁blazes	-14292
▁boasts	-14293
▁bulldo	-14294
▁buyout	-14295
▁closet	-14296
▁colleg	-14297
▁coloss	-14298
▁cubans	-14299
▁cybers	-14300
▁defied	-14301
▁dengue	-14302
▁dipped	-14303
▁downed	-14304
▁downer	-14305
▁fortun	-14306
▁gallup	-14307
▁gentle	-14308
▁gloomy	-14309
▁hanaro	-14310
▁heaven	-14311
▁horror	-14312
▁hurled	-14313
▁impass	-14314
▁jurisd	-14315
▁khalaf	-14316
▁lesson	-14317
▁lodged	-14318
▁mathem	-14319
▁mickey	-14320
▁midway	-14321
▁mirren	-14322
▁newman	-14323
▁nichol	-14324
▁overly	-14325
▁pickup	-14326
▁plaint	-14327
▁potato	-14328
▁prague	-14329
▁rented	-14330
▁replic	-14331
▁revise	-14332
▁shells	-14333
▁sketch	-14334
▁skinny	-14335
▁staple	-14336
▁styles	-14337
▁takers	-14338
▁timely	-14339
▁traces	-14340
▁uneart	-14341
▁unsafe	-14342
▁vacant	-14343
▁verbal	-14344
▁wolong	-14345
▁writes	-14346
▁zaytun	-14347
▁zurich	-14348
aternity	-14349
▁abdulla	-14350
▁altered	-14351
▁amongst	-14352
▁applies	-14353
▁bankers	-14354
▁barrage	-14355
▁bishops	-14356
▁bracing	-14357
▁branded	-14358
▁bucking	-14359
▁buffett	-14360
▁cardiac	-14361
▁circles	-14362
▁concede	-14363
▁congest	-14364
▁convert	-14365
▁debuted	-14366
▁densely	-14367
▁dresses	-14368
▁emptive	-14369
▁estrada	-14370
▁everton	-14371
▁evident	-14372
▁fathers	-14373
▁fingers	-14374
▁freezer	-14375
▁gardens	-14376
▁gripped	-14377
▁healing	-14378
▁hungary	-14379
▁ignited	-14380
▁impasse	-14381
▁jungles	-14382
▁justify	-14383
▁kookmin	-14384
▁lampard	-14385
▁laundry	-14386
▁leaning	-14387
▁legitim	-14388
▁liberia	-14389
▁looting	-14390
▁lugovoi	-14391
▁matched	-14392
▁melting	-14393
▁meshaal	-14394
▁notable	-14395
▁obesity	-14396
▁odyssey	-14397
▁origins	-14398
▁paleont	-14399
▁periods	-14400
▁possess	-14401
▁primera	-14402
▁reaches	-14403
▁resting	-14404
▁revital	-14405
▁sadness	-14406
▁seaside	-14407
▁slashed	-14408
▁specter	-14409
▁spencer	-14410
▁spilled	-14411
▁strains	-14412
▁summers	-14413
▁surname	-14414
▁tattoos	-14415
▁temblor	-14416
▁thieves	-14417
▁tightly	-14418
▁timothy	-14419
▁titanic	-14420
▁valerie	-14421
▁walkout	-14422
▁watches	-14423
▁alarming	-14424
▁analyzed	-14425
▁beverage	-14426
▁bulletin	-14427
▁capsized	-14428
▁chertoff	-14429
▁clinched	-14430
▁columbus	-14431
▁crashing	-14432
▁deserted	-14433
▁deserved	-14434
▁dominate	-14435
▁eastwood	-14436
▁emmanuel	-14437
▁evacuees	-14438
▁fatality	-14439
▁firearms	-14440
▁florence	-14441
▁fraction	-14442
▁garrison	-14443
▁guinness	-14444
▁hardship	-14445
▁hispanic	-14446
▁indecent	-14447
▁indirect	-14448
▁jpmorgan	-14449
▁lawsuits	-14450
▁longoria	-14451
▁luncheon	-14452
▁moroccan	-14453
▁mourinho	-14454
▁muhammad	-14455
▁organize	-14456
▁outlawed	-14457
▁peruvian	-14458
▁pleading	-14459
▁pleasure	-14460
▁presided	-14461
[...]
