<pad>	0
<s>	0
</s>	0
<unk>	0
▁.	-0
▁이	-1
했다	-2
▁대	-3
▁있	-4
에서	-5
▁,	-6
▁사	-7
▁그	-8
▁지	-9
▁일	-10
▁것	-11
으로	-12
▁수	-13
▁전	-14
▁미	-15
▁가	-16
▁아	-17
▁있다	-18
▁한	-19
▁시	-20
▁주	-21
▁고	-22
▁위	-23
▁보	-24
▁경	-25
▁정	-26
▁말	-27
▁중	-28
▁인	-29
▁기	-30
▁자	-31
하고	-32
▁명	-33
하는	-34
▁부	-35
라고	-36
▁밝	-37
다고	-38
▁발	-39
▁공	-40
▁의	-41
▁년	-42
▁관	-43
▁오	-44
▁국	-45
▁밝혔	-46
▁다	-47
들이	-48
▁유	-49
들은	-50
▁여	-51
▁밝혔다	-52
▁현	-53
▁말했다	-54
▁미국	-55
▁것이	-56
▁조	-57
▁않	-58
▁비	-59
▁상	-60
▁나	-61
▁만	-62
니다	-63
▁하	-64
▁마	-65
▁제	-66
▁소	-67
▁있는	-68
▁연	-69
▁개	-70
통령	-71
▁영	-72
▁세	-73
▁모	-74
▁동	-75
▁대통령	-76
▁선	-77
▁내	-78
으며	-79
▁우	-80
▁지난	-81
었다	-82
▁월	-83
에게	-84
▁해	-85
▁무	-86
▁그는	-87
▁최	-88
▁당	-89
▁후	-90
▁스	-91
▁방	-92
▁바	-93
▁알	-94
▁예	-95
▁파	-96
▁북	-97
▁위해	-98
▁t	-99
▁받	-100
▁대한	-101
▁결	-102
▁도	-103
▁c	-104
▁회	-105
▁없	-106
▁남	-107
▁에	-108
▁이라	-109
▁현지	-110
▁총	-111
▁정부	-112
▁이번	-113
▁통	-114
▁성	-115
▁구	-116
습니다	-117
▁a	-118
▁차	-119
▁전했다	-120
지만	-121
▁반	-122
했다고	-123
▁어	-124
▁신	-125
시간	-126
▁불	-127
이다	-128
▁노	-129
적인	-130
▁대해	-131
▁포	-132
▁장	-133
하기	-134
▁거	-135
in	-136
▁현지시간	-137
▁원	-138
▁생	-139
▁달	-140
▁계	-141
▁강	-142
▁s	-143
▁프	-144
▁실	-145
▁며	-146
▁또	-147
▁이라크	-148
들을	-149
까지	-150
리는	-151
▁매	-152
▁로	-153
▁약	-154
▁폭	-155
▁경찰	-156
▁분	-157
▁사람	-158
됐다	-159
▁올	-160
들의	-161
▁서	-162
▁것으로	-163
▁감	-164
▁때	-165
▁재	-166
▁더	-167
▁명이	-168
▁안	-169
▁교	-170
▁라	-171
▁북한	-172
▁문	-173
▁요	-174
▁피	-175
▁것이라고	-176
▁진	-177
▁중국	-178
하지	-179
▁그러	-180
▁있다고	-181
▁외	-182
▁자신	-183
한다	-184
▁것을	-185
▁한국	-186
▁입	-187
▁열	-188
▁그러나	-189
▁추	-190
았다	-191
였다	-192
on	-193
re	-194
▁사망	-195
▁출	-196
▁주장	-197
적으로	-198
▁호	-199
▁많	-200
▁발생	-201
▁확	-202
▁등	-203
부터	-204
▁군	-205
▁테	-206
에는	-207
▁민	-208
인은	-209
▁행	-210
▁카	-211
▁살	-212
▁다른	-213
▁f	-214
▁명의	-215
하게	-216
▁p	-217
▁영국	-218
▁두	-219
시아	-220
▁같	-221
er	-222
▁지역	-223
▁m	-224
▁관계	-225
▁증	-226
▁투	-227
▁예정	-228
▁작	-229
▁과	-230
▁리	-231
▁배	-232
바마	-233
▁타	-234
▁목	-235
▁베	-236
▁발표	-237
▁설	-238
▁단	-239
▁대변	-240
▁오바마	-241
사는	-242
▁법	-243
리아	-244
장은	-245
▁집	-246
▁한편	-247
기를	-248
▁되	-249
▁승	-250
▁새	-251
▁이라고	-252
an	-253
▁문제	-254
▁건	-255
▁독	-256
들에게	-257
▁화	-258
ti	-259
▁n	-260
졌다	-261
ar	-262
▁보도	-263
▁뉴	-264
▁일본	-265
▁b	-266
▁이후	-267
▁처	-268
▁할	-269
▁관련	-270
▁못	-271
▁후보	-272
▁검	-273
▁금	-274
▁심	-275
▁평	-276
▁세계	-277
▁코	-278
다는	-279
▁버	-280
▁참	-281
▁k	-282
▁치	-283
▁판	-284
▁적	-285
에서는	-286
에따	-287
자는	-288
면서	-289
▁통해	-290
▁w	-291
▁많은	-292
▁위한	-293
▁앞	-294
▁부시	-295
▁들	-296
▁협	-297
▁크	-298
▁클	-299
▁데	-300
▁억	-301
▁언	-302
▁저	-303
▁레	-304
▁번	-305
▁체	-306
하며	-307
▁핵	-308
리고	-309
▁대통령은	-310
en	-311
스탄	-312
▁달러	-313
▁국가	-314
▁병	-315
or	-316
▁물	-317
했으며	-318
자가	-319
관은	-320
사를	-321
▁운	-322
he	-323
▁변	-324
▁가장	-325
▁합	-326
▁필	-327
라는	-328
▁테러	-329
▁학	-330
▁벌	-331
리가	-332
▁동안	-333
▁같은	-334
▁그의	-335
스트	-336
▁경제	-337
▁영화	-338
▁사건	-339
▁산	-340
▁것이다	-341
▁초	-342
▁시작	-343
▁이상	-344
▁대변인은	-345
▁양	-346
문에	-347
스는	-348
▁브	-349
▁공격	-350
▁아프	-351
원의	-352
▁d	-353
▁항	-354
된다	-355
le	-356
리를	-357
▁아이	-358
▁직	-359
▁은	-360
▁i	-361
▁현재	-362
자들은	-363
들과	-364
▁역	-365
▁보고	-366
▁계획	-367
▁o	-368
▁민주	-369
▁임	-370
▁연구	-371
al	-372
▁될	-373
이트	-374
▁사용	-375
▁존	-376
▁국제	-377
▁선거	-378
▁야	-379
혐의	-380
▁미군	-381
▁인터	-382
이라고	-383
▁것은	-384
▁시간	-385
▁한다	-386
▁주장했다	-387
지는	-388
▁메	-389
도록	-390
▁조사	-391
▁e	-392
▁함	-393
▁또한	-394
요일	-395
▁지지	-396
▁는	-397
하다	-398
▁돌	-399
▁최근	-400
상을	-401
▁일부	-402
▁뒤	-403
스라	-404
▁했다	-405
되는	-406
▁경기	-407
으나	-408
▁발견	-409
▁토	-410
었다고	-411
▁덧	-412
▁덧붙	-413
▁u	-414
▁혐의	-415
▁계속	-416
▁페	-417
▁시위	-418
▁특	-419
▁the	-420
▁포함	-421
▁러	-422
력을	-423
▁경우	-424
했습니다	-425
▁보도했다	-426
▁취	-427
▁사실	-428
▁여성	-429
▁덧붙였다	-430
▁및	-431
▁생각	-432
▁태	-433
▁회담	-434
▁요구	-435
▁이란	-436
스라엘	-437
▁환	-438
▁이스라엘	-439
원은	-440
▁설명	-441
했던	-442
▁않았다	-443
▁표	-444
▁결정	-445
▁h	-446
라이	-447
레이	-448
▁방문	-449
▁에서	-450
자들이	-451
▁자신의	-452
▁석	-453
▁탈	-454
레스	-455
▁지도	-456
▁박	-457
로운	-458
▁모든	-459
▁줄	-460
장을	-461
▁비난	-462
▁프로	-463
▁복	-464
리스	-465
▁몇	-466
▁당국	-467
▁라고	-468
▁종	-469
키스탄	-470
es	-471
▁게	-472
▁함께	-473
▁파키스탄	-474
니아	-475
▁당시	-476
르면	-477
▁가능	-478
▁결과	-479
▁점	-480
주의	-481
인이	-482
▁백	-483
▁활	-484
▁프랑	-485
▁g	-486
되고	-487
nn	-488
사가	-489
▁to	-490
▁음	-491
▁팔	-492
해야	-493
▁하는	-494
▁그리고	-495
▁논	-496
▁j	-497
입니다	-498
▁허	-499
▁곳	-500
보다	-501
▁때문에	-502
▁원문	-503
▁걸	-504
▁맞	-505
▁높	-506
시키	-507
원이	-508
▁대선	-509
▁수도	-510
▁인도	-511
▁온	-512
▁모두	-513
▁근	-514
▁드	-515
▁러시아	-516
▁필요	-517
랜드	-518
회의	-519
at	-520
▁간	-521
▁채	-522
▁정치	-523
에따르면	-524
▁애	-525
▁클린	-526
is	-527
▁새로운	-528
▁지원	-529
▁예정이다	-530
▁유엔	-531
▁천	-532
▁친	-533
▁처음	-534
지를	-535
▁프랑스	-536
▁설명했다	-537
자인	-538
▁클린턴	-539
▁충	-540
▁있습니다	-541
지고	-542
▁있으며	-543
▁정부는	-544
▁경찰은	-545
▁l	-546
▁열린	-547
▁in	-548
▁사이	-549
▁숨	-550
▁갖	-551
에도	-552
▁민주당	-553
▁떨	-554
▁본	-555
▁블	-556
▁용	-557
▁알려	-558
▁피해	-559
▁사고	-560
왔다	-561
서는	-562
▁아직	-563
▁찾	-564
▁철	-565
▁기록	-566
▁케	-567
▁터	-568
▁들어	-569
ro	-570
▁기자	-571
장이	-572
▁규	-573
▁좋	-574
▁우리	-575
부는	-576
▁큰	-577
▁떨어	-578
▁유럽	-579
▁있었다	-580
▁우주	-581
▁디	-582
▁/	-583
▁를	-584
기가	-585
▁없다	-586
▁뉴욕	-587
▁cnn	-588
원회	-589
안을	-590
▁담	-591
▁상황	-592
▁않았	-593
▁휴	-594
▁않는	-595
ic	-596
▁질	-597
▁플	-598
▁폭탄	-599
▁그녀	-600
▁대표	-601
▁하고	-602
치를	-603
▁대통령이	-604
▁쿠	-605
it	-606
비아	-607
되어	-608
▁지난해	-609
▁합의	-610
▁않을	-611
tion	-612
▁아니	-613
▁올해	-614
▁식	-615
이스	-616
▁김	-617
▁힐	-618
▁권	-619
▁날	-620
▁성명	-621
▁상원의	-622
▁손	-623
▁최고	-624
▁미국의	-625
▁나타	-626
▁압	-627
▁청	-628
▁국민	-629
▁준	-630
▁co	-631
▁이에	-632
▁따	-633
기에	-634
▁무장	-635
▁와	-636
▁네	-637
▁가족	-638
화를	-639
▁of	-640
▁있을	-641
됐다고	-642
그램	-643
▁이날	-644
▁침	-645
▁광	-646
▁있었	-647
▁루	-648
▁비행	-649
부분	-650
ing	-651
▁총리는	-652
▁완	-653
▁체포	-654
▁첫	-655
▁진행	-656
▁접	-657
전을	-658
▁대학	-659
▁패	-660
하여	-661
거나	-662
이고	-663
▁정보	-664
▁속	-665
수는	-666
▁번째	-667
▁위치	-668
▁확인	-669
▁반대	-670
▁끝	-671
▁난	-672
▁부상	-673
▁이슬	-674
이며	-675
자를	-676
▁발생한	-677
▁있다는	-678
동을	-679
▁명을	-680
▁발표했다	-681
과의	-682
▁범	-683
명의	-684
성이	-685
▁받고	-686
▁순	-687
▁이미	-688
as	-689
▁아프간	-690
▁총리	-691
▁공개	-692
▁대부분	-693
ed	-694
▁다음	-695
▁소식	-696
▁잘	-697
▁폐	-698
▁트	-699
▁이는	-700
▁얻	-701
▁희	-702
스의	-703
▁다시	-704
▁만들	-705
▁각	-706
이나	-707
▁주민	-708
▁빠	-709
▁증가	-710
자의	-711
▁이용	-712
▁사람들이	-713
운데	-714
▁워	-715
▁그가	-716
에따라	-717
▁가운데	-718
▁정부가	-719
렸다	-720
▁왕	-721
하면	-722
▁누	-723
▁방송	-724
정부	-725
단체	-726
▁중단	-727
▁항공	-728
▁넘	-729
▁축	-730
▁예상	-731
▁전문	-732
▁의해	-733
원을	-734
▁주요	-735
정을	-736
▁밝혀	-737
사의	-738
타인	-739
▁프로그램	-740
성을	-741
레반	-742
▁우리는	-743
하면서	-744
▁골	-745
지역	-746
▁콜	-747
▁투표	-748
▁탈레반	-749
▁막	-750
스가	-751
▁감독	-752
▁공화	-753
▁내용	-754
▁실시	-755
간의	-756
이는	-757
▁오늘	-758
▁얼	-759
▁이슬람	-760
▁된다	-761
▁된	-762
▁외교	-763
와의	-764
▁인해	-765
▁절	-766
▁차량	-767
▁암	-768
▁여러	-769
▁납	-770
▁병원	-771
▁상태	-772
▁해결	-773
들에	-774
기사	-775
인을	-776
▁홍	-777
▁않은	-778
▁책	-779
로부터	-780
▁을	-781
무장	-782
▁머	-783
는데	-784
▁받아	-785
▁조지	-786
장에서	-787
하려	-788
▁지적	-789
▁됐다	-790
▁밀	-791
▁전쟁	-792
났다	-793
▁인터뷰	-794
▁중요	-795
▁언급	-796
▁언론	-797
▁농	-798
▁독일	-799
▁의회	-800
▁jo	-801
▁향	-802
금을	-803
▁평화	-804
▁팔레스	-805
▁급	-806
드는	-807
▁혐의로	-808
▁tv	-809
▁형	-810
ore	-811
했지만	-812
il	-813
▁돌아	-814
▁이어	-815
디오	-816
▁지금	-817
▁국방	-818
▁폭발	-819
달러	-820
▁대통령의	-821
▁캐	-822
스를	-823
▁re	-824
▁변호	-825
▁정상	-826
위원회	-827
▁도시	-828
▁잡	-829
동차	-830
▁퍼	-831
림픽	-832
▁티	-833
처럼	-834
되지	-835
ins	-836
▁단체	-837
▁원문기사	-838
▁요청	-839
대로	-840
▁학생	-841
무부	-842
▁팔레스타인	-843
기로	-844
▁촉	-845
▁살해	-846
업체	-847
▁승리	-848
▁위치한	-849
▁매우	-850
▁헤	-851
▁있어	-852
ent	-853
▁데이	-854
▁개월	-855
▁우려	-856
▁인터넷	-857
보기	-858
▁악	-859
자로	-860
▁연방	-861
▁호주	-862
▁제공	-863
관이	-864
▁브라	-865
▁석방	-866
▁이유	-867
▁받았다	-868
▁죽	-869
▁공화당	-870
가는	-871
▁매케	-872
▁상승	-873
▁이를	-874
▁없는	-875
▁금융	-876
ou	-877
▁관리	-878
▁이들	-879
▁탄	-880
▁강조	-881
도로	-882
ra	-883
▁편	-884
▁소속	-885
▁추가	-886
사태	-887
▁당선	-888
▁판매	-889
▁?	-890
▁방법	-891
▁참석	-892
▁한다고	-893
▁개발	-894
▁남부	-895
▁마이	-896
▁떠	-897
임을	-898
▁km	-899
▁사실을	-900
수가	-901
▁성공	-902
리카	-903
▁사진	-904
겠다고	-905
▁서울	-906
▁볼	-907
▁모습	-908
▁않고	-909
▁키	-910
▁힘	-911
했고	-912
한다고	-913
기는	-914
되었다	-915
격을	-916
▁맥	-917
스터	-918
▁자동차	-919
▁여행	-920
▁위협	-921
명이	-922
▁개의	-923
▁보여	-924
▁협상	-925
▁베이	-926
▁생산	-927
▁터키	-928
리포	-929
▁관계자는	-930
▁긴	-931
▁군사	-932
▁기술	-933
테러	-934
▁하락	-935
▁어떤	-936
▁joins	-937
냈다	-938
▁쓰	-939
▁구조	-940
▁용의	-941
▁지적했다	-942
▁측	-943
▁그들은	-944
▁올림픽	-945
전에	-946
▁인질	-947
▁하나	-948
자들을	-949
이지	-950
장에	-951
▁위험	-952
▁주지	-953
▁인근	-954
▁명은	-955
▁전문가	-956
▁원문기사보기	-957
▁보안	-958
▁보호	-959
▁사무	-960
▁인정	-961
르는	-962
이었다	-963
되었	-964
업을	-965
▁일어	-966
▁회사	-967
에서의	-968
▁당국은	-969
▁과학	-970
▁ap	-971
▁정책	-972
▁크리스	-973
▁하지	-974
▁이라며	-975
력이	-976
▁반군	-977
▁최소	-978
▁영향	-979
리에	-980
▁보인	-981
▁백악	-982
▁잠	-983
▁없다고	-984
ation	-985
▁검찰	-986
ec	-987
▁폴	-988
▁납치	-989
권을	-990
▁커	-991
치는	-992
▁외국	-993
▁받은	-994
id	-995
센터	-996
▁경고	-997
▁어린	-998
▁준비	-999
인의	-1000
▁하지만	-1001
있는	-1002
의를	-1003
tic	-1004
▁관광	-1005
부를	-1006
▁건물	-1007
▁으로	-1008
▁북한이	-1009
▁자유	-1010
▁공식	-1011
▁선수	-1012
▁의원	-1013
▁이와	-1014
▁노동	-1015
▁몰	-1016
▁컴	-1017
얀마	-1018
▁이름	-1019
▁제작	-1020
th	-1021
ig	-1022
대를	-1023
했으나	-1024
▁미얀마	-1025
지에	-1026
회담	-1027
▁안전	-1028
하기로	-1029
음을	-1030
▁지구	-1031
▁오후	-1032
했었다	-1033
▁북한의	-1034
명을	-1035
식을	-1036
▁있던	-1037
샤라	-1038
▁것에	-1039
▁공항	-1040
▁마지	-1041
▁받았	-1042
▁an	-1043
▁웹	-1044
▁니	-1045
다드	-1046
▁나는	-1047
▁자살	-1048
싱턴	-1049
▁도착	-1050
▁은행	-1051
▁극	-1052
▁고위	-1053
▁바그	-1054
▁엘	-1055
▁차례	-1056
▁런	-1057
선을	-1058
인트	-1059
▁아시아	-1060
▁보고서	-1061
▁팀	-1062
▁여론	-1063
▁kore	-1064
▁건강	-1065
▁힐러	-1066
▁사회	-1067
▁길	-1068
▁스타	-1069
▁경찰이	-1070
▁인터뷰에서	-1071
▁착	-1072
▁년간	-1073
▁노력	-1074
▁격	-1075
퓨터	-1076
도를	-1077
신은	-1078
▁런던	-1079
▁스페	-1080
▁워싱턴	-1081
st	-1082
▁푸	-1083
▁알카	-1084
▁시민	-1085
▁이러	-1086
▁학교	-1087
▁미국이	-1088
회견	-1089
▁앞으로	-1090
▁컴퓨터	-1091
은행	-1092
▁com	-1093
▁이러한	-1094
▁바그다드	-1095
시켰	-1096
▁치료	-1097
ac	-1098
▁사태	-1099
▁싶	-1100
▁갖고	-1101
▁미국은	-1102
▁정부의	-1103
▁창	-1104
리의	-1105
문을	-1106
▁앞서	-1107
▁밖	-1108
▁동물	-1109
▁마지막	-1110
▁있도록	-1111
▁북부	-1112
▁오는	-1113
▁조직	-1114
▁거래	-1115
나라	-1116
▁촉구	-1117
▁for	-1118
었던	-1119
▁그녀는	-1120
ur	-1121
▁면	-1122
하는데	-1123
▁가진	-1124
▁인쇄	-1125
▁떨어진	-1126
▁강조했다	-1127
지가	-1128
위를	-1129
지지	-1130
▁목표	-1131
씨는	-1132
▁도움	-1133
▁연합	-1134
et	-1135
▁윌	-1136
▁이탈	-1137
세를	-1138
자와	-1139
▁st	-1140
▁빌	-1141
▁놓	-1142
ad	-1143
▁알카에	-1144
수를	-1145
▁발언	-1146
▁연설	-1147
▁기자회견	-1148
▁수상	-1149
▁공동	-1150
하다고	-1151
▁돈	-1152
▁잃	-1153
▁독해	-1154
▁비난했다	-1155
▁r	-1156
▁거부	-1157
▁거의	-1158
▁야당	-1159
▁유명	-1160
▁백악관	-1161
▁장관은	-1162
▁빈	-1163
있다	-1164
▁규모	-1165
▁기업	-1166
▁자신이	-1167
▁혼	-1168
▁결혼	-1169
▁버락	-1170
▁느	-1171
장의	-1172
조사	-1173
▁민간	-1174
▁오전	-1175
▁활동	-1176
▁처음으로	-1177
bc	-1178
사일	-1179
▁논의	-1180
▁슈	-1181
▁출신	-1182
▁가격	-1183
▁국경	-1184
▁불법	-1185
▁차지	-1186
에서도	-1187
▁헬	-1188
▁까지	-1189
▁최대	-1190
리포니아	-1191
ol	-1192
▁삼	-1193
▁캘	-1194
설명	-1195
회를	-1196
▁소비	-1197
같은	-1198
▁경쟁	-1199
▁수감	-1200
▁재판	-1201
했다는	-1202
▁남아	-1203
▁불구	-1204
▁타임	-1205
▁판결	-1206
▁눈	-1207
▁지난달	-1208
▁독해설명	-1209
▁사람들은	-1210
▁금지	-1211
하도록	-1212
동안	-1213
▁수백	-1214
▁이전	-1215
▁충돌	-1216
▁투자	-1217
됐으며	-1218
▁이들은	-1219
▁밤	-1220
기도	-1221
▁부인	-1222
▁환경	-1223
▁헌	-1224
전히	-1225
▁이탈리아	-1226
▁그것	-1227
샤라프	-1228
▁오바마는	-1229
▁보내	-1230
▁좋은	-1231
자들의	-1232
으로부터	-1233
니스탄	-1234
▁무샤라프	-1235
▁샤	-1236
▁다이	-1237
▁라이	-1238
▁사우	-1239
▁심각	-1240
▁베이징	-1241
▁즉	-1242
마스	-1243
심을	-1244
▁관한	-1245
▁희생	-1246
인들이	-1247
▁있지만	-1248
▁북한은	-1249
▁알카에다	-1250
▁un	-1251
▁참가	-1252
▁출연	-1253
▁통과	-1254
▁캘리포니아	-1255
쳤다	-1256
▁많이	-1257
▁밝히	-1258
▁아무	-1259
▁호텔	-1260
사이트	-1261
▁만에	-1262
▁부족	-1263
합니다	-1264
들도	-1265
▁이곳	-1266
▁이런	-1267
▁폭력	-1268
▁이상의	-1269
사인	-1270
센트	-1271
▁운영	-1272
▁않는다	-1273
▁공급	-1274
▁주둔	-1275
un	-1276
군이	-1277
▁콘	-1278
▁참여	-1279
▁유지	-1280
▁친구	-1281
했을	-1282
▁움	-1283
대가	-1284
▁미사일	-1285
▁늘	-1286
제를	-1287
▁약속	-1288
▁역사	-1289
▁전망	-1290
▁하루	-1291
▁보인다	-1292
군은	-1293
▁지방	-1294
el	-1295
▁귀	-1296
▁그를	-1297
▁못했다	-1298
규모	-1299
▁감소	-1300
▁범죄	-1301
▁문제를	-1302
▁없이	-1303
▁코리아	-1304
am	-1305
스타	-1306
▁사망했다	-1307
▁몸	-1308
대한	-1309
세계	-1310
▁동영	-1311
가니스탄	-1312
▁우승	-1313
▁어린이	-1314
▁엄	-1315
▁대상	-1316
▁중요한	-1317
치가	-1318
▁수사	-1319
▁아프가니스탄	-1320
▁바이	-1321
안에	-1322
국의	-1323
니는	-1324
▁최초	-1325
▁구성	-1326
▁이루	-1327
▁지진	-1328
artic	-1329
감을	-1330
article	-1331
나는	-1332
▁낮	-1333
▁너	-1334
▁정도	-1335
졌다고	-1336
▁미국과	-1337
ss	-1338
라도	-1339
베이	-1340
원들이	-1341
▁박사는	-1342
▁회담을	-1343
드의	-1344
▁갈	-1345
▁움직	-1346
▁징	-1347
▁이야	-1348
▁포인트	-1349
▁보다	-1350
▁가자	-1351
▁변화	-1352
▁불구하고	-1353
▁알려졌다	-1354
▁웹사이트	-1355
▁앤	-1356
▁대의	-1357
자들에게	-1358
▁응	-1359
어진	-1360
▁독립	-1361
▁공격을	-1362
▁봉	-1363
▁기대	-1364
▁일으	-1365
▁놀	-1366
▁스페인	-1367
▁말했습니다	-1368
가를	-1369
르코	-1370
▁맡	-1371
▁반면	-1372
▁아버	-1373
▁장관	-1374
▁특별	-1375
사회	-1376
▁인용	-1377
▁것입니다	-1378
트는	-1379
▁남성	-1380
▁역할	-1381
▁전투	-1382
원들은	-1383
▁딸	-1384
원에	-1385
▁부토	-1386
▁유권	-1387
▁폐쇄	-1388
▁힐러리	-1389
▁퇴	-1390
하자	-1391
▁대사	-1392
▁짐	-1393
▁성명을	-1394
하던	-1395
▁가지	-1396
▁직접	-1397
후보	-1398
▁서비	-1399
리에서	-1400
▁사망한	-1401
▁안보	-1402
▁전에	-1403
▁쇼	-1404
▁기소	-1405
▁회의	-1406
▁것이라는	-1407
▁말을	-1408
▁확실	-1409
ay	-1410
▁웨	-1411
▁칼	-1412
가가	-1413
주는	-1414
▁내려	-1415
▁맨	-1416
리다	-1417
사전	-1418
▁마을	-1419
▁목격	-1420
나라당	-1421
기구	-1422
부가	-1423
▁발사	-1424
▁세의	-1425
▁업	-1426
▁이것	-1427
▁사망했다고	-1428
▁글	-1429
ia	-1430
▁별	-1431
▁펼	-1432
기의	-1433
대의	-1434
▁ch	-1435
▁나라	-1436
▁신문	-1437
▁추정	-1438
▁통신	-1439
▁조치를	-1440
▁한나라당	-1441
계를	-1442
즈는	-1443
▁강화	-1444
▁높은	-1445
▁알고	-1446
▁데이비	-1447
▁모습을	-1448
▁대통령과	-1449
▁발생했다	-1450
스템	-1451
▁어려	-1452
▁전세계	-1453
서를	-1454
▁기상	-1455
▁담당	-1456
▁콜롬	-1457
▁지난주	-1458
▁레바	-1459
▁의하면	-1460
▁가능성이	-1461
▁엔	-1462
▁기간	-1463
▁강력	-1464
▁경선	-1465
▁년에	-1466
▁의견	-1467
▁인권	-1468
인들은	-1469
▁뿐	-1470
▁la	-1471
▁운동	-1472
▁혐의를	-1473
▁성명에서	-1474
▁황	-1475
국은	-1476
물을	-1477
▁이제	-1478
▁중심	-1479
▁지나	-1480
▁행사	-1481
▁확보	-1482
▁지역에서	-1483
▁뜻	-1484
▁캠	-1485
였던	-1486
▁개인	-1487
▁더욱	-1488
▁전체	-1489
▁플로	-1490
원에서	-1491
▁레바논	-1492
이가	-1493
▁되는	-1494
▁석유	-1495
▁인한	-1496
▁일반	-1497
▁주택	-1498
om	-1499
적이	-1500
ter	-1501
▁것이며	-1502
라인	-1503
해서	-1504
▁소유	-1505
▁중국의	-1506
하겠다고	-1507
▁팬	-1508
▁개최	-1509
▁과정	-1510
▁수천	-1511
회에서	-1512
▁중앙	-1513
▁계획을	-1514
▁총리가	-1515
▁믿	-1516
▁문제가	-1517
▁아침	-1518
▁화재	-1519
▁지역에	-1520
시킬	-1521
▁의료	-1522
▁않았다고	-1523
▁도로	-1524
▁이뤄	-1525
▁필요한	-1526
ts	-1527
대는	-1528
베트	-1529
측은	-1530
▁때문	-1531
▁마련	-1532
▁핵무	-1533
▁매케인	-1534
▁입장을	-1535
대에	-1536
▁어제	-1537
▁위원	-1538
us	-1539
▁겪	-1540
훈련	-1541
▁일간	-1542
▁아니다	-1543
자들	-1544
▁us	-1545
▁분석	-1546
▁일을	-1547
▁히	-1548
슨은	-1549
시코	-1550
▁건설	-1551
▁사르코	-1552
갔다	-1553
두고	-1554
▁윌리	-1555
▁v	-1556
머니	-1557
스와	-1558
▁남북	-1559
▁내년	-1560
▁너무	-1561
▁먹	-1562
▁eu	-1563
ce	-1564
드가	-1565
라마	-1566
시켰다	-1567
애나	-1568
▁남편	-1569
▁레이	-1570
▁시도	-1571
▁영향을	-1572
트를	-1573
▁실종	-1574
▁관련된	-1575
▁만달러	-1576
▁폭탄테러	-1577
리자	-1578
소를	-1579
▁여객	-1580
▁있고	-1581
멕시코	-1582
부의	-1583
▁결국	-1584
▁타이	-1585
▁해외	-1586
전에서	-1587
▁티베트	-1588
▁거주	-1589
▁남자	-1590
▁생활	-1591
▁여자	-1592
▁증거	-1593
▁한국의	-1594
▁기자회견에서	-1595
▁교육	-1596
▁노무	-1597
▁선택	-1598
▁없었다	-1599
▁콜롬비아	-1600
▁울	-1601
▁잔	-1602
▁ne	-1603
▁연기	-1604
▁con	-1605
▁풀	-1606
▁효	-1607
▁선고	-1608
▁선언	-1609
▁받을	-1610
▁수행	-1611
▁제조	-1612
▁타고	-1613
었으며	-1614
▁브라운	-1615
▁있었다고	-1616
드리	-1617
품을	-1618
▁노무현	-1619
▁korea	-1620
▁육	-1621
너지	-1622
▁올라	-1623
▁재개	-1624
한다는	-1625
▁and	-1626
스카	-1627
전이	-1628
▁시설	-1629
사와	-1630
▁문제에	-1631
는지	-1632
이자	-1633
지구	-1634
▁또는	-1635
▁아마	-1636
▁일이	-1637
라이나	-1638
▁우리가	-1639
▁탑	-1640
▁산업	-1641
▁어떻	-1642
▁주변	-1643
▁소식통	-1644
▁둘	-1645
▁망	-1646
스크	-1647
▁얼마	-1648
▁이동	-1649
▁비용	-1650
▁시장	-1651
▁프리	-1652
어가	-1653
▁역시	-1654
▁주식	-1655
네시아	-1656
▁년까지	-1657
▁했다고	-1658
▁끌	-1659
▁나오	-1660
▁사상	-1661
▁사건에	-1662
ri	-1663
텍사	-1664
▁드러	-1665
▁사람이	-1666
▁어떻게	-1667
▁익	-1668
무를	-1669
▁게임	-1670
▁수준	-1671
▁행동	-1672
▁열리는	-1673
▁조사를	-1674
▁즐	-1675
스에	-1676
▁그렇	-1677
▁음악	-1678
▁제안	-1679
▁해안	-1680
▁이유로	-1681
▁지도자	-1682
▁뇌	-1683
신을	-1684
제로	-1685
하이	-1686
▁비상	-1687
▁관광객	-1688
▁동영상	-1689
▁찾아	-1690
▁총선	-1691
ve	-1692
▁곧	-1693
국이	-1694
ver	-1695
▁탐	-1696
버트	-1697
▁de	-1698
▁이끌	-1699
▁책임	-1700
▁시스템	-1701
▁아프리카	-1702
▁찬	-1703
랐다	-1704
▁감염	-1705
▁의미	-1706
▁제기	-1707
▁화요일	-1708
▁인도네시아	-1709
▁자금	-1710
▁철수	-1711
▁피해를	-1712
▁플로리다	-1713
ow	-1714
▁샌	-1715
▁라는	-1716
▁라이스	-1717
▁정보를	-1718
▁붙	-1719
▁on	-1720
▁바로	-1721
▁출전	-1722
▁훈련	-1723
▁멕시코	-1724
만에	-1725
▁펜	-1726
스코	-1727
이를	-1728
▁내가	-1729
▁전달	-1730
▁회복	-1731
▁휴대	-1732
▁비디오	-1733
는다	-1734
스로	-1735
▁있게	-1736
▁말하는	-1737
▁예정이라고	-1738
▁전문가들은	-1739
점을	-1740
▁구호	-1741
▁스티	-1742
▁왔다	-1743
▁제출	-1744
▁중동	-1745
쪽으로	-1746
▁윌리엄	-1747
▁자신들의	-1748
가지	-1749
베스	-1750
정에	-1751
▁베네	-1752
▁대선후보	-1753
술을	-1754
▁배우	-1755
약을	-1756
학교	-1757
▁인구	-1758
▁대신	-1759
▁답	-1760
▁기념	-1761
▁년대	-1762
▁따라	-1763
▁수십	-1764
▁부상을	-1765
▁정치적	-1766
무장관은	-1767
당의	-1768
프는	-1769
▁제재	-1770
▁텍사	-1771
▁데이비드	-1772
세력	-1773
▁국영	-1774
▁불가	-1775
▁실패	-1776
▁행위	-1777
겠다는	-1778
▁대규모	-1779
▁보였다	-1780
ap	-1781
oc	-1782
ut	-1783
▁사업	-1784
▁달러를	-1785
료를	-1786
▁헌법	-1787
도가	-1788
촬영	-1789
▁주말	-1790
소에서	-1791
ir	-1792
리트	-1793
치고	-1794
▁사라	-1795
▁추락	-1796
였다고	-1797
▁시작했다	-1798
▁흑	-1799
▁as	-1800
▁부분	-1801
▁저장	-1802
▁파괴	-1803
▁그들의	-1804
▁위원회	-1805
당한	-1806
부에	-1807
▁약어	-1808
▁월에	-1809
▁전화	-1810
▁특히	-1811
▁상원의원	-1812
드로	-1813
▁교통	-1814
▁부모	-1815
▁부정	-1816
▁제시	-1817
하려는	-1818
▁대피	-1819
▁보건	-1820
▁시아	-1821
▁사우디	-1822
▁앞두고	-1823
▁약어표	-1824
드를	-1825
수지	-1826
어를	-1827
▁비롯	-1828
▁에너지	-1829
▁이같은	-1830
▁대부분의	-1831
▁사망하고	-1832
만을	-1833
스러	-1834
스턴	-1835
▁명과	-1836
▁무기	-1837
▁수용	-1838
▁정확	-1839
▁지속	-1840
▁심각한	-1841
▁아니라	-1842
었습니다	-1843
▁벨	-1844
▁감시	-1845
▁관할	-1846
▁국내	-1847
▁주도	-1848
▁싸	-1849
▁다우	-1850
▁수단	-1851
▁억달러	-1852
▁포함한	-1853
군의	-1854
나다	-1855
▁고려	-1856
▁사과	-1857
▁아닌	-1858
▁작업	-1859
▁촬영	-1860
▁희망	-1861
▁있었던	-1862
ge	-1863
▁돼	-1864
▁앨	-1865
프트	-1866
행을	-1867
▁가까	-1868
▁교수는	-1869
▁미국인	-1870
▁던	-1871
수로	-1872
피언	-1873
▁그런	-1874
▁비판	-1875
▁조치	-1876
▁포기	-1877
으로써	-1878
▁그들이	-1879
▁만들어	-1880
▁의원은	-1881
▁이상이	-1882
바이	-1883
▁살고	-1884
▁에이	-1885
▁전국	-1886
▁중인	-1887
▁사망자	-1888
▁붕	-1889
사에	-1890
연합	-1891
트로	-1892
▁전해	-1893
▁협력	-1894
ta	-1895
으면	-1896
폭탄	-1897
▁지명	-1898
▁라디오	-1899
▁가자지구	-1900
섰다	-1901
성에	-1902
형을	-1903
▁억원	-1904
▁입은	-1905
▁장면	-1906
▁가지고	-1907
▁것이라	-1908
▁지원을	-1909
▁한국인	-1910
신이	-1911
▁메시	-1912
▁작은	-1913
▁직원	-1914
▁축구	-1915
▁탑승	-1916
▁홍콩	-1917
▁로버트	-1918
▁부통령	-1919
만이	-1920
안이	-1921
▁수입	-1922
▁토론	-1923
▁여전히	-1924
ment	-1925
▁달러의	-1926
▁역할을	-1927
▁퍼센트	-1928
▁벗	-1929
▁송	-1930
실을	-1931
위원	-1932
▁교도	-1933
▁만나	-1934
▁않다	-1935
▁의사	-1936
▁월요일	-1937
르고	-1938
움을	-1939
회에	-1940
▁안에	-1941
▁태국	-1942
▁당국이	-1943
▁마이클	-1944
고를	-1945
인지	-1946
정한	-1947
▁과거	-1948
▁붕괴	-1949
▁열차	-1950
▁전시	-1951
▁최종	-1952
▁푸틴	-1953
um	-1954
▁젊	-1955
바브	-1956
▁운전	-1957
바브웨	-1958
▁일본의	-1959
▁지역의	-1960
▁pro	-1961
▁경기를	-1962
▁온라인	-1963
▁이루어	-1964
▁생각한다	-1965
▁먼	-1966
▁챔	-1967
겠다	-1968
리그	-1969
시켜	-1970
and	-1971
▁le	-1972
▁시험	-1973
시키는	-1974
ot	-1975
▁좌	-1976
단은	-1977
들로	-1978
리노	-1979
성은	-1980
▁기다	-1981
▁스미	-1982
▁승객	-1983
이라는	-1984
▁나타났다	-1985
▁되어	-1986
▁월드	-1987
▁증시	-1988
▁브라질	-1989
▁경기에서	-1990
ate	-1991
▁결의	-1992
▁난민	-1993
무장관	-1994
▁말한다	-1995
▁짐바브웨	-1996
op	-1997
▁씨	-1998
▁휘	-1999
▁저지	-2000
장으로	-2001
▁관계자가	-2002
▁촉구했다	-2003
보는	-2004
소에	-2005
▁be	-2006
▁없을	-2007
ch	-2008
▁빨	-2009
▁풍	-2010
대표	-2011
시설	-2012
어들	-2013
▁국립	-2014
▁만원	-2015
▁밝힌	-2016
▁국무부	-2017
▁겨	-2018
ers	-2019
▁살아	-2020
▁생존	-2021
▁서로	-2022
▁아르	-2023
▁확산	-2024
리스트	-2025
스에서	-2026
▁녹	-2027
▁섬	-2028
버그	-2029
▁다양	-2030
▁만약	-2031
▁암살	-2032
▁오른	-2033
▁정권	-2034
▁후보가	-2035
im	-2036
▁y	-2037
▁슬	-2038
란드	-2039
▁비해	-2040
▁설치	-2041
▁성장	-2042
▁수색	-2043
▁정신	-2044
▁자회담	-2045
▁뛰	-2046
운드	-2047
ion	-2048
▁결승	-2049
▁그린	-2050
▁동료	-2051
▁동맹	-2052
▁반응	-2053
▁승인	-2054
▁식량	-2055
▁제한	-2056
▁하기	-2057
▁발표한	-2058
▁챔피언	-2059
방송	-2060
운티	-2061
▁구속	-2062
▁상원	-2063
▁수는	-2064
▁회원	-2065
▁민간인	-2066
▁캐나다	-2067
▁한다는	-2068
▁곤	-2069
▁낙	-2070
▁무엇	-2071
▁전통	-2072
▁제품	-2073
▁충분	-2074
▁케냐	-2075
▁경고했다	-2076
▁요구했다	-2077
수의	-2078
해를	-2079
▁심장	-2080
▁정당	-2081
▁항의	-2082
▁시위를	-2083
지의	-2084
▁th	-2085
▁사랑	-2086
▁사임	-2087
▁업체	-2088
▁외국인	-2089
▁밝혀졌다	-2090
▁칸	-2091
단을	-2092
ill	-2093
▁선정	-2094
▁소송	-2095
▁수가	-2096
▁수출	-2097
▁시즌	-2098
▁지불	-2099
▁진압	-2100
▁클린턴은	-2101
▁흔	-2102
운동	-2103
중인	-2104
▁가져	-2105
▁같이	-2106
▁발전	-2107
▁보수	-2108
▁신용	-2109
▁실험	-2110
▁치러	-2111
▁이름을	-2112
▁프라이	-2113
일을	-2114
장인	-2115
▁공연	-2116
▁소방	-2117
▁페르	-2118
▁평가	-2119
▁활동을	-2120
▁미국에서	-2121
▁싱	-2122
시킨	-2123
이프	-2124
▁is	-2125
▁니콜	-2126
▁대법	-2127
▁병사	-2128
▁위반	-2129
▁취임	-2130
▁관계를	-2131
▁사무총	-2132
▁여론조사	-2133
려는	-2134
어나	-2135
igh	-2136
▁경험	-2137
▁명령	-2138
▁분명	-2139
▁여름	-2140
▁종교	-2141
▁지하	-2142
하거나	-2143
▁결과를	-2144
▁내용을	-2145
▁상황을	-2146
▁시아파	-2147
▁중국은	-2148
▁핵무기	-2149
▁견	-2150
▁넣	-2151
어는	-2152
지로	-2153
▁것과	-2154
▁그래	-2155
▁다르	-2156
▁알리	-2157
▁에드	-2158
▁추진	-2159
인인	-2160
일한	-2161
책을	-2162
▁사령	-2163
시키고	-2164
▁년부터	-2165
▁대변인이	-2166
▁이라크에서	-2167
▁홀	-2168
안은	-2169
▁ac	-2170
▁각각	-2171
▁선출	-2172
▁수석	-2173
▁임명	-2174
▁젊은	-2175
▁접근	-2176
▁평균	-2177
하지만	-2178
▁감독은	-2179
▁프로그램을	-2180
ak	-2181
▁왔	-2182
▁무역	-2183
▁있기	-2184
▁전반	-2185
▁경찰에	-2186
bs	-2187
▁벤	-2188
르트	-2189
리와	-2190
▁문화	-2191
▁비밀	-2192
▁성폭	-2193
▁스피	-2194
▁않아	-2195
▁취소	-2196
관을	-2197
리케	-2198
ist	-2199
▁교황	-2200
▁동의	-2201
▁센터	-2202
▁총격	-2203
지니아	-2204
▁pre	-2205
▁사건을	-2206
▁상원의원은	-2207
▁쉽	-2208
됐던	-2209
▁구제	-2210
▁소녀	-2211
▁장기	-2212
▁행정부	-2213
▁대통령을	-2214
거래	-2215
상이	-2216
스럽	-2217
정이	-2218
지도	-2219
▁나온	-2220
▁마무	-2221
▁밖에	-2222
▁벌어	-2223
▁아메	-2224
▁악화	-2225
▁통제	-2226
▁관심을	-2227
▁사건이	-2228
▁지지를	-2229
이로	-2230
장과	-2231
▁게이	-2232
▁동부	-2233
▁사는	-2234
▁파병	-2235
▁국회의	-2236
▁그녀의	-2237
de	-2238
사건	-2239
오는	-2240
▁걸쳐	-2241
▁나토	-2242
▁단계	-2243
▁받는	-2244
▁연료	-2245
▁작품	-2246
장관은	-2247
▁시리아	-2248
▁이수지	-2249
▁후보는	-2250
▁과정에서	-2251
▁왜	-2252
가로	-2253
엘라	-2254
▁돈을	-2255
▁마감	-2256
▁후세	-2257
▁검색	-2258
▁대중	-2259
▁미래	-2260
▁상대	-2261
▁설립	-2262
▁아내	-2263
관계	-2264
리핀	-2265
▁그룹	-2266
▁뉴스	-2267
▁시카	-2268
▁지켜	-2269
▁집중	-2270
지에서	-2271
▁사이에	-2272
되기	-2273
었고	-2274
적을	-2275
▁대비	-2276
▁바란	-2277
▁보유	-2278
▁중에	-2279
▁파견	-2280
▁비행기	-2281
▁잉	-2282
▁개혁	-2283
▁북핵	-2284
▁유죄	-2285
▁주재	-2286
▁허용	-2287
무부는	-2288
▁경찰서	-2289
▁대상으로	-2290
니스	-2291
로는	-2292
리우	-2293
소의	-2294
▁개선	-2295
▁경영	-2296
▁논쟁	-2297
▁뜻을	-2298
▁사퇴	-2299
▁온몸	-2300
▁이집	-2301
▁일에	-2302
▁수요일	-2303
▁일까지	-2304
▁대해서는	-2305
▁되고	-2306
▁로켓	-2307
▁혼란	-2308
▁어머니	-2309
▁관계자들은	-2310
앞서	-2311
▁동성	-2312
대통령	-2313
▁바이러	-2314
▁북한에	-2315
▁정부에	-2316
▁옮	-2317
명박	-2318
▁구매	-2319
▁대응	-2320
▁배치	-2321
▁살인	-2322
▁야후	-2323
▁일자	-2324
▁해리	-2325
▁환영	-2326
시키기	-2327
캐스터	-2328
▁베네수	-2329
▁시카고	-2330
▁알려진	-2331
▁총리의	-2332
▁텍사스	-2333
▁사람들을	-2334
▁이에앞서	-2335
se	-2336
▁홈	-2337
진이	-2338
▁공습	-2339
▁블로	-2340
▁조건	-2341
자들과	-2342
▁new	-2343
▁상대로	-2344
▁이명박	-2345
▁온몸으로	-2346
▁흥	-2347
나지	-2348
진을	-2349
회는	-2350
▁남한	-2351
▁등의	-2352
▁이해	-2353
▁인간	-2354
▁점을	-2355
▁해야	-2356
▁승리를	-2357
▁변호사는	-2358
▁기상캐스터	-2359
▁깨	-2360
▁찰	-2361
끄는	-2362
비를	-2363
어도	-2364
학생	-2365
▁넘어	-2366
▁로마	-2367
▁서부	-2368
▁이래	-2369
▁이로	-2370
▁좋아	-2371
▁발견된	-2372
▁벌이고	-2373
▁갑	-2374
단이	-2375
도의	-2376
메라	-2377
▁마리	-2378
▁유로	-2379
▁자녀	-2380
▁전역	-2381
▁표현	-2382
▁민주주의	-2383
▁아직까지	-2384
관리	-2385
▁두고	-2386
▁사형	-2387
▁선포	-2388
▁임시	-2389
▁사실이	-2390
▁기록했다	-2391
if	-2392
▁십	-2393
기와	-2394
물이	-2395
워드	-2396
트의	-2397
▁양국	-2398
▁크게	-2399
▁사람은	-2400
▁사이트	-2401
리지	-2402
회가	-2403
▁at	-2404
▁강한	-2405
▁아랍	-2406
▁위를	-2407
▁적이	-2408
▁때까지	-2409
▁합니다	-2410
▁밝혔습니다	-2411
▁상원의원이	-2412
uc	-2413
▁깊	-2414
산을	-2415
▁고용	-2416
▁고통	-2417
▁복귀	-2418
▁신화	-2419
졌으며	-2420
▁마이크	-2421
▁벌였다	-2422
번째	-2423
우주	-2424
asa	-2425
▁누구	-2426
▁자체	-2427
▁결정을	-2428
▁받아들	-2429
▁일부터	-2430
▁폭력사태	-2431
bi	-2432
지인	-2433
▁모델	-2434
▁분쟁	-2435
▁인수	-2436
▁재정	-2437
▁쿠바	-2438
▁펜실	-2439
통신은	-2440
▁대사관	-2441
▁명으로	-2442
▁목요일	-2443
▁시간이	-2444
▁아니라고	-2445
▁오바마가	-2446
oo	-2447
▁윈	-2448
려고	-2449
▁같다	-2450
▁등을	-2451
▁마크	-2452
▁바다	-2453
▁스트	-2454
▁최악	-2455
▁한반	-2456
▁효과	-2457
▁검찰은	-2458
▁그것은	-2459
▁다양한	-2460
▁도움이	-2461
▁무장단체	-2462
▁위해서는	-2463
가고	-2464
르게	-2465
선거	-2466
프로	-2467
▁관해	-2468
▁구체	-2469
▁따른	-2470
▁파업	-2471
▁하마스	-2472
되었다고	-2473
▁사르코지	-2474
사로	-2475
진은	-2476
▁광고	-2477
▁기관	-2478
▁연결	-2479
▁이틀	-2480
▁전자	-2481
▁베네수엘라	-2482
▁솔	-2483
많은	-2484
식이	-2485
▁검토	-2486
▁받게	-2487
▁보좌	-2488
▁아바	-2489
▁주한	-2490
▁지시	-2491
▁집권	-2492
▁해당	-2493
▁강력한	-2494
▁못하고	-2495
▁치료를	-2496
▁회장은	-2497
ll	-2498
▁능	-2499
상의	-2500
화가	-2501
▁부근	-2502
트에서	-2503
▁상황이	-2504
▁수많은	-2505
▁필리핀	-2506
▁보고서는	-2507
▁린	-2508
밖에	-2509
▁고속	-2510
▁매년	-2511
▁분야	-2512
▁제임	-2513
▁집행	-2514
▁포르	-2515
▁도움을	-2516
▁미군이	-2517
▁일요일	-2518
▁nasa	-2519
▁버지니아	-2520
ae	-2521
▁컨	-2522
르드	-2523
리즈	-2524
▁높아	-2525
▁소년	-2526
▁어느	-2527
▁전략	-2528
▁처리	-2529
▁가능한	-2530
▁달러에	-2531
▁있다며	-2532
▁자신을	-2533
▁공격으로	-2534
군과	-2535
자에	-2536
▁sh	-2537
▁대만	-2538
▁만명	-2539
▁못한	-2540
▁사항	-2541
▁선박	-2542
▁주간	-2543
였으며	-2544
점에서	-2545
하기도	-2546
▁방법을	-2547
▁이라크에	-2548
이어	-2549
▁긴급	-2550
▁받지	-2551
▁압둘	-2552
▁에어	-2553
▁지휘	-2554
▁진출	-2555
▁확신	-2556
▁계획이다	-2557
▁무장세력	-2558
▁프라이머	-2559
▁둔	-2560
르타	-2561
이드	-2562
▁강제	-2563
▁고객	-2564
▁징역	-2565
▁시간을	-2566
▁정부와	-2567
▁타임즈	-2568
▁ro	-2569
▁근처	-2570
▁선두	-2571
▁수익	-2572
▁아파	-2573
▁작년	-2574
▁영국의	-2575
▁플레이	-2576
이션	-2577
이의	-2578
▁관심	-2579
▁나머	-2580
▁예측	-2581
▁있지	-2582
▁주의	-2583
▁힘들	-2584
스러운	-2585
▁이라크의	-2586
▁주지사는	-2587
▁사람들에게	-2588
다면	-2589
차를	-2590
▁나와	-2591
▁순간	-2592
▁스위	-2593
▁시행	-2594
▁입원	-2595
▁향해	-2596
었지만	-2597
자에게	-2598
▁곳에서	-2599
▁내렸다	-2600
▁오하이	-2601
▁이끄는	-2602
▁발견했다	-2603
▁언급했다	-2604
▁빅	-2605
▁잭	-2606
▁공산	-2607
▁미국을	-2608
▁론	-2609
리로	-2610
율을	-2611
회사	-2612
▁노조	-2613
▁막기	-2614
▁비슷	-2615
▁빠져	-2616
▁오래	-2617
▁정말	-2618
▁제거	-2619
▁국방부	-2620
▁일리노	-2621
▁협상을	-2622
▁다이애나	-2623
▁받았다고	-2624
▁맺	-2625
▁쉬	-2626
키는	-2627
▁근거	-2628
▁만큼	-2629
▁소재	-2630
▁승무	-2631
▁어떠	-2632
▁잘못	-2633
되면서	-2634
▁밝히지	-2635
▁후보를	-2636
▁오하이오	-2637
▁졸	-2638
▁펠	-2639
가인	-2640
배를	-2641
이라	-2642
줬다	-2643
▁he	-2644
▁고등	-2645
▁도쿄	-2646
▁위로	-2647
▁착륙	-2648
▁다음달	-2649
였습니다	-2650
▁사람들의	-2651
▁요청했다	-2652
▁냉	-2653
없이	-2654
자이	-2655
▁논란	-2656
▁마약	-2657
▁만든	-2658
▁목숨	-2659
▁비교	-2660
▁인디	-2661
▁달하는	-2662
▁성폭행	-2663
▁이것은	-2664
▁이란이	-2665
▁정도로	-2666
▁정상회담	-2667
▁주장하고	-2668
▁탁	-2669
도에	-2670
법을	-2671
직을	-2672
▁sp	-2673
▁스포	-2674
▁위성	-2675
가들은	-2676
하였다	-2677
▁되었다	-2678
▁숨지고	-2679
▁이들의	-2680
▁이란의	-2681
em	-2682
▁찍	-2683
비치	-2684
상에	-2685
생활	-2686
투표	-2687
ity	-2688
▁둘러	-2689
▁세르	-2690
▁수치	-2691
▁자연	-2692
▁후에	-2693
▁병력을	-2694
▁북한을	-2695
▁비난을	-2696
▁작업을	-2697
▁최고의	-2698
▁허리케	-2699
겼다	-2700
데이	-2701
상태	-2702
시는	-2703
식에	-2704
제가	-2705
▁소말	-2706
▁신고	-2707
▁여기	-2708
▁집단	-2709
▁하마	-2710
글랜드	-2711
해왔다	-2712
▁어떠한	-2713
▁우리의	-2714
▁소말리아	-2715
▁예상된다	-2716
▁득	-2717
▁묘	-2718
▁id	-2719
▁대회	-2720
▁라며	-2721
▁제외	-2722
▁케이	-2723
▁하며	-2724
▁했던	-2725
▁여성이	-2726
▁움직임	-2727
▁지역을	-2728
▁일리노이	-2729
ks	-2730
▁삶	-2731
결을	-2732
소가	-2733
즈니	-2734
피아	-2735
▁공공	-2736
▁끝에	-2737
▁물론	-2738
▁세금	-2739
▁인물	-2740
▁출발	-2741
된다고	-2742
으로서	-2743
▁말레이	-2744
▁사진을	-2745
▁여부를	-2746
▁적어도	-2747
롤라이나	-2748
▁낸	-2749
기간	-2750
사한	-2751
▁계약	-2752
▁되지	-2753
▁모른	-2754
▁보낸	-2755
▁분리	-2756
▁슈퍼	-2757
▁입고	-2758
▁대표는	-2759
▁미군은	-2760
ef	-2761
ld	-2762
내는	-2763
라스	-2764
측이	-2765
▁am	-2766
▁알렉	-2767
▁폭풍	-2768
▁항상	-2769
전으로	-2770
▁프로젝	-2771
▁습	-2772
러는	-2773
화에	-2774
▁su	-2775
▁경비	-2776
▁기후	-2777
▁수니	-2778
▁접촉	-2779
▁증언	-2780
▁진술	-2781
▁미국에	-2782
▁사이클	-2783
▁완전히	-2784
▁유명한	-2785
폭탄테러	-2786
▁결정했다	-2787
▁발생했다고	-2788
▁듯	-2789
▁묻	-2790
구를	-2791
롭게	-2792
리기	-2793
인과	-2794
하메	-2795
▁wh	-2796
▁곳에	-2797
▁넘는	-2798
▁베컴	-2799
▁시상	-2800
▁아카	-2801
▁의혹	-2802
▁이달	-2803
▁목숨을	-2804
▁병원에	-2805
▁블로그	-2806
▁올랐다	-2807
▁쿠르드	-2808
▁한국은	-2809
▁술	-2810
같이	-2811
개발	-2812
당은	-2813
도는	-2814
로를	-2815
▁se	-2816
▁불안	-2817
▁씨는	-2818
▁압박	-2819
▁예비	-2820
▁자치	-2821
▁조종	-2822
▁fbi	-2823
▁발생해	-2824
▁사건은	-2825
▁유일한	-2826
▁이야기	-2827
▁질문에	-2828
▁주민들이	-2829
▁늦	-2830
량을	-2831
보를	-2832
▁검사	-2833
▁목소	-2834
▁시청	-2835
▁신뢰	-2836
▁아주	-2837
▁의심	-2838
▁적절	-2839
▁출마	-2840
하지는	-2841
▁정부를	-2842
▁최초의	-2843
▁지도자인	-2844
na	-2845
▁좀	-2846
경을	-2847
스토	-2848
이기	-2849
▁거절	-2850
▁경매	-2851
▁노스	-2852
▁대기	-2853
▁명에	-2854
▁무너	-2855
▁바람	-2856
▁아베	-2857
▁청소	-2858
대에서	-2859
▁관련해	-2860
▁방안을	-2861
▁사고가	-2862
▁이집트	-2863
▁휴대폰	-2864
▁korean	-2865
▁끊	-2866
성의	-2867
연구	-2868
art	-2869
▁가스	-2870
▁근무	-2871
▁리버	-2872
▁수술	-2873
▁인사	-2874
▁즉각	-2875
▁해군	-2876
됩니다	-2877
▁가졌다	-2878
▁서비스	-2879
▁삭	-2880
기지	-2881
나이	-2882
상은	-2883
티나	-2884
▁물러	-2885
▁여왕	-2886
▁위에	-2887
▁카르	-2888
이지만	-2889
▁대해서	-2890
▁보여주	-2891
▁사고로	-2892
▁아무런	-2893
▁언론은	-2894
▁여명이	-2895
▁정책을	-2896
▁과학자들은	-2897
들어	-2898
위에	-2899
▁간의	-2900
▁규정	-2901
▁기준	-2902
▁총재	-2903
▁평양	-2904
▁규모의	-2905
▁나왔다	-2906
▁제임스	-2907
지역에서	-2908
▁않았지만	-2909
되었습니다	-2910
ul	-2911
▁걱	-2912
▁톰	-2913
르의	-2914
소는	-2915
안보	-2916
어난	-2917
크는	-2918
▁op	-2919
▁가질	-2920
▁것인	-2921
▁기억	-2922
▁적용	-2923
▁존재	-2924
한다면	-2925
▁게이츠	-2926
▁중국이	-2927
▁카운티	-2928
▁합의했다	-2929
▁확인했다	-2930
▁흡	-2931
량의	-2932
아니	-2933
장관	-2934
▁동결	-2935
▁동원	-2936
▁머물	-2937
▁청와	-2938
하다는	-2939
▁목표로	-2940
▁방문한	-2941
▁월부터	-2942
os	-2943
qu	-2944
해진	-2945
▁개정	-2946
▁등록	-2947
▁성화	-2948
▁애플	-2949
▁유대	-2950
▁유전	-2951
▁장난	-2952
▁저는	-2953
▁트럭	-2954
▁한미	-2955
▁행정	-2956
했는데	-2957
▁의견을	-2958
▁차베스	-2959
▁최악의	-2960
▁반대하는	-2961
▁오바마의	-2962
▁말레이시아	-2963
▁듣	-2964
▁땅	-2965
▁옷	-2966
국인	-2967
군을	-2968
량이	-2969
렀다	-2970
비행	-2971
웠다	-2972
▁go	-2973
▁군인	-2974
▁숨진	-2975
▁실업	-2976
▁영어	-2977
▁이민	-2978
▁해병	-2979
▁힐튼	-2980
일랜드	-2981
▁우려를	-2982
캐롤라이나	-2983
▁품	-2984
그룹	-2985
되며	-2986
마다	-2987
트가	-2988
▁느끼	-2989
▁말리	-2990
▁백만	-2991
▁병력	-2992
▁블레	-2993
▁연속	-2994
▁자주	-2995
▁코소	-2996
▁투입	-2997
▁현대	-2998
▁그리스	-2999
▁보이는	-3000
▁사무실	-3001
▁연설을	-3002
▁갤	-3003
▁덴	-3004
▁멸	-3005
브라	-3006
어야	-3007
한을	-3008
ary	-3009
▁en	-3010
▁고양	-3011
▁년이	-3012
▁당신	-3013
▁들고	-3014
▁박물	-3015
▁법률	-3016
▁부동	-3017
▁상징	-3018
▁생물	-3019
▁야생	-3020
▁이송	-3021
▁죽음	-3022
하라고	-3023
▁내무부	-3024
▁마드리	-3025
▁만명의	-3026
▁법안을	-3027
▁판결을	-3028
▁필요가	-3029
위원회는	-3030
▁크리스토	-3031
▁테러리스트	-3032
ly	-3033
▁굴	-3034
뉴스	-3035
단의	-3036
도시	-3037
로스	-3038
문이	-3039
방을	-3040
서부	-3041
치의	-3042
▁경호	-3043
▁고래	-3044
▁기본	-3045
▁나가	-3046
▁놓고	-3047
▁블랙	-3048
▁새로	-3049
▁아들	-3050
▁오픈	-3051
▁자세	-3052
▁저항	-3053
▁최신	-3054
▁대의원	-3055
▁스포츠	-3056
▁계속해서	-3057
▁델	-3058
▁빙	-3059
국을	-3060
리프	-3061
베즈	-3062
협회	-3063
▁근로	-3064
▁매일	-3065
▁몇몇	-3066
▁위기	-3067
▁임무	-3068
▁저녁	-3069
▁차기	-3070
▁찰스	-3071
▁피터	-3072
리우드	-3073
▁나머지	-3074
▁잉글랜드	-3075
▁돕	-3076
▁벽	-3077
가의	-3078
데미	-3079
동부	-3080
역을	-3081
ith	-3082
▁ms	-3083
▁도중	-3084
▁동시	-3085
▁부패	-3086
▁신청	-3087
▁약물	-3088
▁없어	-3089
▁올메	-3090
▁전혀	-3091
▁주최	-3092
았다고	-3093
▁그에게	-3094
▁미군의	-3095
▁수니파	-3096
▁숨졌다	-3097
▁이라는	-3098
▁하원의	-3099
위가	-3100
tal	-3101
▁것도	-3102
▁마일	-3103
▁세력	-3104
▁주는	-3105
▁홍보	-3106
▁bbc	-3107
▁있음을	-3108
▁카메라	-3109
▁세르비아	-3110
▁밴	-3111
기관	-3112
▁ag	-3113
▁국회	-3114
▁년의	-3115
▁다니	-3116
▁물질	-3117
▁민병	-3118
▁싶어	-3119
▁얼굴	-3120
▁작성	-3121
▁지연	-3122
▁통합	-3123
▁확대	-3124
▁흑인	-3125
아니라	-3126
▁입었다	-3127
▁전까지	-3128
▁판사는	-3129
▁후보에	-3130
▁밝혀지지	-3131
▁주민들은	-3132
▁잇	-3133
로서	-3134
사고	-3135
율이	-3136
친구	-3137
평양	-3138
▁ex	-3139
▁노래	-3140
▁대처	-3141
▁무가	-3142
▁분노	-3143
▁수반	-3144
▁억류	-3145
▁언제	-3146
▁여당	-3147
▁완화	-3148
났다고	-3149
▁마무리	-3150
▁스스로	-3151
▁의원이	-3152
▁선거에서	-3153
ag	-3154
▁괴	-3155
결과	-3156
트리	-3157
트에	-3158
▁구입	-3159
▁대형	-3160
▁무사	-3161
▁불러	-3162
▁스테	-3163
▁싱가	-3164
▁오랫	-3165
▁인상	-3166
▁하이	-3167
▁부시는	-3168
▁시장은	-3169
▁매케인은	-3170
▁비상사태	-3171
▁연설에서	-3172
▁오랫동안	-3173
▁쥐	-3174
률이	-3175
▁보장	-3176
▁빠른	-3177
▁작전	-3178
▁파손	-3179
라비아	-3180
▁스피어	-3181
▁이들을	-3182
▁지수는	-3183
▁확실히	-3184
만아니라	-3185
▁숨졌다고	-3186
보가	-3187
우고	-3188
위는	-3189
▁ce	-3190
▁pl	-3191
▁겪고	-3192
▁나이	-3193
▁등이	-3194
▁불과	-3195
▁우크	-3196
▁주인	-3197
▁직후	-3198
▁클럽	-3199
▁태양	-3200
▁핵심	-3201
▁cat	-3202
▁그렇게	-3203
▁자금을	-3204
▁발견됐다	-3205
ational	-3206
▁칠	-3207
복을	-3208
실험	-3209
았던	-3210
웨이	-3211
지와	-3212
프라	-3213
항공	-3214
▁개봉	-3215
▁모여	-3216
▁상당	-3217
▁연장	-3218
▁지배	-3219
렸다고	-3220
▁만명이	-3221
▁소식을	-3222
▁없다는	-3223
▁웨스트	-3224
▁이들이	-3225
하겠다는	-3226
▁병원에서	-3227
▁회담에서	-3228
르기	-3229
민주	-3230
바는	-3231
우리	-3232
sid	-3233
▁감축	-3234
▁교수	-3235
▁낮은	-3236
▁리처	-3237
▁맞아	-3238
▁멸종	-3239
▁분기	-3240
▁사살	-3241
▁산불	-3242
▁수정	-3243
▁실제	-3244
▁알게	-3245
▁알아	-3246
▁열릴	-3247
▁예방	-3248
▁오랜	-3249
▁원조	-3250
▁조작	-3251
겠지만	-3252
▁대화를	-3253
▁수백만	-3254
▁얼마나	-3255
▁위기에	-3256
▁책임을	-3257
▁가능성을	-3258
▁민주당의	-3259
▁병원으로	-3260
▁크리스토퍼	-3261
da	-3262
▁앉	-3263
▁죄	-3264
가스	-3265
대원	-3266
보호	-3267
푸르	-3268
arc	-3269
ine	-3270
▁끌어	-3271
▁두려	-3272
▁아기	-3273
▁왕세	-3274
▁조금	-3275
▁집계	-3276
▁처벌	-3277
▁축하	-3278
▁표명	-3279
▁허가	-3280
▁말하고	-3281
▁바란다	-3282
▁원자로	-3283
▁행동을	-3284
▁아카데미	-3285
▁허리케인	-3286
포를	-3287
▁결론	-3288
▁내각	-3289
▁노출	-3290
▁북극	-3291
▁떨어져	-3292
▁변호사	-3293
▁보이고	-3294
▁주장을	-3295
▁중이다	-3296
▁관리들은	-3297
▁멀	-3298
▁색	-3299
▁혹	-3300
aea	-3301
▁개를	-3302
▁공군	-3303
▁그중	-3304
▁떠나	-3305
▁목적	-3306
▁방향	-3307
▁의한	-3308
▁자료	-3309
▁절반	-3310
▁주년	-3311
▁주로	-3312
▁총기	-3313
▁카라	-3314
식으로	-3315
▁경찰과	-3316
▁발생할	-3317
▁사람들	-3318
▁월까지	-3319
▁이란은	-3320
▁iaea	-3321
▁with	-3322
▁부상했다고	-3323
tp	-3324
▁궁	-3325
▁래	-3326
리며	-3327
▁강타	-3328
▁개입	-3329
▁골을	-3330
▁기반	-3331
▁네덜	-3332
▁배럴	-3333
▁법정	-3334
▁서명	-3335
▁이혼	-3336
▁주고	-3337
▁주일	-3338
▁질병	-3339
▁차관	-3340
주에서	-3341
하메드	-3342
orth	-3343
▁cia	-3344
▁기회를	-3345
▁남성이	-3346
▁노력을	-3347
▁무가베	-3348
▁보냈다	-3349
▁사우스	-3350
▁시작된	-3351
▁월드컵	-3352
▁일어난	-3353
▁고속도로	-3354
▁소식통은	-3355
▁전망이다	-3356
iv	-3357
▁숙	-3358
▁헨	-3359
내고	-3360
단한	-3361
체를	-3362
▁나무	-3363
▁망명	-3364
▁브리	-3365
▁영한	-3366
▁하다	-3367
▁한영	-3368
▁sou	-3369
▁동성애	-3370
▁문제는	-3371
▁위험한	-3372
▁집에서	-3373
▁부인했다	-3374
▁영한사전	-3375
▁펜실베이	-3376
▁한영사전	-3377
▁척	-3378
디에	-3379
산업	-3380
슨이	-3381
조직	-3382
▁고든	-3383
▁말한	-3384
▁먼저	-3385
▁바르	-3386
▁외환	-3387
▁크로	-3388
원으로	-3389
▁번째로	-3390
▁스티브	-3391
▁후보로	-3392
▁블로그에	-3393
▁올메르트	-3394
▁위원장은	-3395
▁사망했으며	-3396
▁우크라이나	-3397
▁펜실베이니아	-3398
▁휩	-3399
란시	-3400
▁fr	-3401
▁ht	-3402
▁kg	-3403
▁가정	-3404
▁걱정	-3405
▁놀라	-3406
▁대북	-3407
▁번의	-3408
▁보이	-3409
▁속에	-3410
▁엄마	-3411
▁인기	-3412
▁입장	-3413
▁조정	-3414
▁해제	-3415
▁후반	-3416
▁결과가	-3417
▁경제적	-3418
▁리처드	-3419
▁블레어	-3420
▁비슷한	-3421
▁스미스	-3422
▁출신의	-3423
▁code	-3424
▁메시지를	-3425
▁total	-3426
▁대통령에게	-3427
▁롤	-3428
▁염	-3429
▁층	-3430
▁획	-3431
디아	-3432
만한	-3433
분이	-3434
증을	-3435
체가	-3436
▁//	-3437
▁네팔	-3438
▁보기	-3439
▁보험	-3440
▁사례	-3441
▁안정	-3442
▁연루	-3443
▁원유	-3444
▁전력	-3445
▁지급	-3446
▁찬성	-3447
▁파리	-3448
▁파악	-3449
▁피랍	-3450
▁하게	-3451
▁asp	-3452
▁wor	-3453
▁기록을	-3454
▁대표팀	-3455
▁석방을	-3456
▁일본은	-3457
▁최소한	-3458
▁테러로	-3459
▁http	-3460
▁사용하는	-3461
▁있었으며	-3462
▁낳	-3463
▁윤	-3464
▁킬	-3465
▁킹	-3466
다른	-3467
디어	-3468
선에	-3469
소로	-3470
치로	-3471
타임	-3472
▁단지	-3473
▁대체	-3474
▁못할	-3475
▁센트	-3476
▁장애	-3477
▁태풍	-3478
인들의	-3479
ight	-3480
▁거대한	-3481
▁경기에	-3482
▁구성된	-3483
▁기자는	-3484
▁변화를	-3485
▁영화를	-3486
▁이밖에	-3487
▁이용해	-3488
▁일부는	-3489
▁노대통령	-3490
▁이야기를	-3491
▁긍	-3492
▁봤	-3493
라의	-3494
스키	-3495
지게	-3496
티아	-3497
cnn	-3498
▁일정	-3499
▁진입	-3500
▁총을	-3501
▁케네	-3502
관계를	-3503
됐지만	-3504
프리카	-3505
▁것처럼	-3506
▁기자가	-3507
▁들어가	-3508
▁스티븐	-3509
▁실시된	-3510
▁알려져	-3511
▁여명의	-3512
▁있는데	-3513
▁대통령에	-3514
▁차지했다	-3515
▁빼	-3516
▁혈	-3517
드와	-3518
들린	-3519
보고	-3520
승을	-3521
▁개국	-3522
▁기타	-3523
▁김정	-3524
▁내부	-3525
▁대답	-3526
▁바라	-3527
▁세기	-3528
▁손을	-3529
▁시드	-3530
▁아부	-3531
▁얻은	-3532
▁표시	-3533
▁가까운	-3534
▁문제로	-3535
▁시위대	-3536
▁아직도	-3537
▁임무를	-3538
▁테러를	-3539
▁회원국	-3540
▁후보의	-3541
▁자신들이	-3542
계의	-3543
르크	-3544
하우	-3545
▁pp	-3546
▁구글	-3547
▁분위	-3548
▁쇼핑	-3549
▁해변	-3550
사에서	-3551
쳤다고	-3552
▁법원은	-3553
▁불만을	-3554
▁공화당의	-3555
▁north	-3556
경제	-3557
라늄	-3558
우는	-3559
점에	-3560
정보	-3561
통신	-3562
항을	-3563
▁기독	-3564
▁당한	-3565
▁라스	-3566
▁며칠	-3567
▁무시	-3568
▁벌인	-3569
▁비자	-3570
▁빨리	-3571
▁시신	-3572
▁원자	-3573
▁이행	-3574
▁인종	-3575
▁점령	-3576
▁파타	-3577
▁프레	-3578
당국은	-3579
인으로	-3580
자들에	-3581
▁가격이	-3582
▁관리는	-3583
▁나섰다	-3584
▁실제로	-3585
▁위해서	-3586
▁정확한	-3587
▁후세인	-3588
함으로써	-3589
▁farc	-3590
▁없습니다	-3591
▁사무총장은	-3592
▁자살폭탄테러	-3593
▁곡	-3594
▁혁	-3595
개의	-3596
경찰	-3597
랭킹	-3598
스테	-3599
연맹	-3600
하길	-3601
ice	-3602
ign	-3603
▁고문	-3604
▁국왕	-3605
▁글로	-3606
▁늘어	-3607
▁대가	-3608
▁물리	-3609
▁쉽게	-3610
▁시티	-3611
▁애완	-3612
▁이웃	-3613
▁임신	-3614
▁증명	-3615
▁클라	-3616
▁확정	-3617
더라도	-3618
돌리자	-3619
환으로	-3620
▁상황에	-3621
▁아르헨	-3622
▁엘리자	-3623
▁청소년	-3624
▁추가로	-3625
▁한반도	-3626
들로부터	-3627
▁끼	-3628
▁몬	-3629
▁섹	-3630
면을	-3631
오와	-3632
청은	-3633
est	-3634
▁ar	-3635
▁가는	-3636
▁대화	-3637
▁시에	-3638
▁음식	-3639
▁지키	-3640
▁최저	-3641
▁추방	-3642
▁한번	-3643
▁형태	-3644
드에서	-3645
▁발언을	-3646
▁사용할	-3647
▁살해한	-3648
▁소프트	-3649
▁실시한	-3650
▁않다고	-3651
▁압력을	-3652
▁테러범	-3653
▁하워드	-3654
▁south	-3655
▁!	-3656
▁르	-3657
▁멜	-3658
▁셰	-3659
가에	-3660
다가	-3661
분을	-3662
재판	-3663
▁그와	-3664
▁긍정	-3665
▁기울	-3666
▁내린	-3667
▁다가	-3668
▁부활	-3669
▁실망	-3670
▁응답	-3671
▁자국	-3672
▁작가	-3673
▁직면	-3674
이었던	-3675
▁전쟁을	-3676
▁주에서	-3677
▁줄어들	-3678
▁토요일	-3679
▁한국과	-3680
▁회담은	-3681
▁나타냈다	-3682
▁보고서를	-3683
▁상황에서	-3684
▁멋	-3685
▁첼	-3686
니가	-3687
바로	-3688
배우	-3689
일린	-3690
ace	-3691
▁메이	-3692
▁반발	-3693
▁방해	-3694
▁신속	-3695
▁즉시	-3696
▁활용	-3697
지역에	-3698
▁ira	-3699
▁수술을	-3700
▁여행을	-3701
▁용의자	-3702
▁이전에	-3703
▁현장에	-3704
▁꾸	-3705
▁콩	-3706
기고	-3707
되면	-3708
리오	-3709
부와	-3710
비가	-3711
주를	-3712
짜리	-3713
출을	-3714
ard	-3715
ial	-3716
▁af	-3717
▁교체	-3718
▁내에	-3719
▁노벨	-3720
▁연락	-3721
▁유세	-3722
▁장악	-3723
▁제이	-3724
▁토니	-3725
▁화산	-3726
체스터	-3727
▁강하게	-3728
▁그녀가	-3729
▁남북한	-3730
▁요구한	-3731
▁준비가	-3732
▁테러가	-3733
▁투표를	-3734
▁행위를	-3735
▁콘돌리자	-3736
▁할리우드	-3737
고한	-3738
라가	-3739
슬러	-3740
제에	-3741
▁거짓	-3742
▁방어	-3743
▁사기	-3744
▁수퍼	-3745
▁순찰	-3746
▁스코	-3747
▁애틀	-3748
▁오마	-3749
▁우선	-3750
▁전기	-3751
▁크루	-3752
▁하원	-3753
하려고	-3754
▁검사를	-3755
▁계획이	-3756
▁드라마	-3757
▁요구를	-3758
▁참석한	-3759
▁코소보	-3760
▁서비스를	-3761
▁시작됐다	-3762
▁우주비행	-3763
ee	-3764
ip	-3765
▁꺾	-3766
격이	-3767
르토	-3768
이던	-3769
정책	-3770
티는	-3771
▁sc	-3772
▁가수	-3773
▁만족	-3774
▁복용	-3775
▁부대	-3776
▁예술	-3777
▁와인	-3778
▁완전	-3779
▁요르	-3780
▁주가	-3781
▁페더	-3782
▁협조	-3783
지면서	-3784
▁fta	-3785
▁기술을	-3786
▁대사는	-3787
▁대학의	-3788
▁모스크	-3789
▁불가능	-3790
▁사건의	-3791
▁소비자	-3792
▁여행객	-3793
▁이번이	-3794
▁차량을	-3795
▁페일린	-3796
▁않는다고	-3797
▁요구하는	-3798
▁유럽연합	-3799
▁신화통신은	-3800
▁쌍	-3801
▁액	-3802
국가	-3803
마크	-3804
수도	-3805
주교	-3806
준다	-3807
트남	-3808
호를	-3809
ian	-3810
▁cl	-3811
▁곳을	-3812
▁끝난	-3813
▁몰아	-3814
▁미시	-3815
▁법안	-3816
▁사드	-3817
▁자택	-3818
▁증권	-3819
스럽게	-3820
▁기독교	-3821
▁말리키	-3822
▁외무부	-3823
▁의장은	-3824
▁총격을	-3825
▁포르투	-3826
란시스코	-3827
▁구체적인	-3828
▁소프트웨	-3829
▁약속했다	-3830
▁열린우리	-3831
▁조사하고	-3832
▁웃	-3833
당이	-3834
무역	-3835
비는	-3836
셀로	-3837
축구	-3838
▁im	-3839
▁감행	-3840
▁갖추	-3841
▁기구	-3842
▁날씨	-3843
▁되면	-3844
▁법적	-3845
▁부문	-3846
▁캠프	-3847
▁흔들	-3848
관들은	-3849
리포터	-3850
상으로	-3851
하라는	-3852
▁김정일	-3853
▁리버풀	-3854
▁매들린	-3855
▁보이지	-3856
▁싱가포	-3857
▁의사를	-3858
▁이것이	-3859
▁회담에	-3860
▁수천명의	-3861
▁페르베즈	-3862
▁포함되어	-3863
▁이스라엘의	-3864
ba	-3865
▁앙	-3866
▁캄	-3867
글라	-3868
만의	-3869
워크	-3870
▁가택	-3871
▁보석	-3872
▁운행	-3873
▁유니	-3874
▁조각	-3875
▁철회	-3876
질랜드	-3877
▁국가의	-3878
▁비롯한	-3879
▁소송을	-3880
▁시리즈	-3881
▁시상식	-3882
▁아바스	-3883
▁아이를	-3884
▁위협을	-3885
▁체포된	-3886
▁핵실험	-3887
▁iraq	-3888
▁못했다고	-3889
▁사이클론	-3890
▁아이들을	-3891
▁아이들이	-3892
▁없었다고	-3893
▁필요하다	-3894
▁웹사이트에	-3895
▁빛	-3896
▁옆	-3897
계획	-3898
기문	-3899
미르	-3900
어로	-3901
처를	-3902
▁긴장	-3903
▁나달	-3904
▁내놓	-3905
▁위안	-3906
▁장례	-3907
▁해적	-3908
기에서	-3909
래스카	-3910
사들이	-3911
적이고	-3912
지수는	-3913
▁cbs	-3914
▁론스타	-3915
▁발표할	-3916
▁베트남	-3917
▁부동산	-3918
▁우라늄	-3919
▁했으며	-3920
▁회담이	-3921
▁뉴질랜드	-3922
▁대부분은	-3923
▁맨체스터	-3924
▁받아들이	-3925
▁인터뷰를	-3926
▁지지하는	-3927
▁공식적으로	-3928
▁크리스마스	-3929
▁앓	-3930
간다	-3931
계에	-3932
드에	-3933
디는	-3934
아몬	-3935
전의	-3936
환을	-3937
all	-3938
▁스파	-3939
▁아래	-3940
▁올랐	-3941
▁이재	-3942
▁이하	-3943
▁캠페	-3944
▁탈출	-3945
▁탐사	-3946
▁헤럴	-3947
때문에	-3948
▁ceo	-3949
▁독립을	-3950
▁됐다고	-3951
▁선거를	-3952
▁속에서	-3953
▁이르는	-3954
▁있는지	-3955
▁있으나	-3956
▁조지아	-3957
▁중에는	-3958
▁당선인은	-3959
▁영국에서	-3960
▁중이라고	-3961
▁현장에서	-3962
▁아르헨티나	-3963
ry	-3964
▁얘	-3965
▁훌	-3966
네이	-3967
동물	-3968
됐고	-3969
령을	-3970
리언	-3971
점이	-3972
츠는	-3973
측의	-3974
함을	-3975
▁강경	-3976
▁관여	-3977
▁상업	-3978
▁소지	-3979
▁적극	-3980
▁집을	-3981
▁초기	-3982
▁침해	-3983
▁패션	-3984
▁헬기	-3985
▁힘든	-3986
▁sec	-3987
▁경찰관	-3988
▁곳으로	-3989
▁만드는	-3990
▁않도록	-3991
▁않으면	-3992
▁얻었다	-3993
▁테이프	-3994
▁포르투갈	-3995
▁학생들이	-3996
▁혜	-3997
간에	-3998
금이	-3999
단에	-4000
랑카	-4001
발유	-4002
▁mo	-4003
▁마르	-4004
▁마치	-4005
▁변경	-4006
▁브루	-4007
▁사법	-4008
▁삼성	-4009
▁오르	-4010
▁외곽	-4011
▁이른	-4012
▁전면	-4013
▁질문	-4014
▁찾기	-4015
▁협의	-4016
▁형성	-4017
▁호소	-4018
▁화성	-4019
▁계획에	-4020
▁국제유	-4021
▁반기문	-4022
▁역사상	-4023
▁일어나	-4024
▁장관이	-4025
▁휘발유	-4026
▁지진으로	-4027
▁엘리자베스	-4028
▁붉	-4029
과는	-4030
제는	-4031
주일	-4032
한이	-4033
▁가입	-4034
▁나쁜	-4035
▁로봇	-4036
▁마음	-4037
▁마카	-4038
▁믿고	-4039
▁산타	-4040
▁소개	-4041
▁소요	-4042
▁오사	-4043
▁유혈	-4044
▁인하	-4045
▁일은	-4046
▁주석	-4047
▁피트	-4048
▁학살	-4049
▁향후	-4050
▁화학	-4051
사회의	-4052
왔다고	-4053
▁min	-4054
▁ppp	-4055
▁리비아	-4056
▁사람의	-4057
▁스위스	-4058
▁에이즈	-4059
▁이상을	-4060
▁주인공	-4061
▁인정했다	-4062
me	-4063
pl	-4064
▁꿈	-4065
▁흘	-4066
선이	-4067
수한	-4068
어스	-4069
주로	-4070
쪽에	-4071
측에	-4072
터를	-4073
트릭	-4074
했기	-4075
▁답변	-4076
▁수영	-4077
▁어렵	-4078
▁육군	-4079
▁음반	-4080
▁입양	-4081
▁집에	-4082
▁탁신	-4083
▁화장	-4084
었으나	-4085
플레이	-4086
▁권리를	-4087
▁사람을	-4088
▁최근의	-4089
▁때문이다	-4090
▁총선에서	-4091
▁덮	-4092
▁훨	-4093
나와	-4094
대학	-4095
류의	-4096
리드	-4097
리조	-4098
미디	-4099
슨의	-4100
시티	-4101
자기	-4102
팀은	-4103
호가	-4104
▁걸어	-4105
▁대량	-4106
▁배심	-4107
▁불참	-4108
▁음모	-4109
▁착용	-4110
▁콘서	-4111
▁훨씬	-4112
격으로	-4113
으로는	-4114
▁공격이	-4115
▁단체는	-4116
▁박물관	-4117
▁반정부	-4118
▁벌어진	-4119
▁압둘라	-4120
▁야당인	-4121
▁영화는	-4122
▁오스트	-4123
▁크라이	-4124
▁예정이며	-4125
▁정치적인	-4126
▁타임즈는	-4127
▁해리포터	-4128
▁옥	-4129
골을	-4130
원과	-4131
치지	-4132
하마	-4133
ort	-4134
▁ad	-4135
▁가득	-4136
▁국무	-4137
▁랭킹	-4138
▁방침	-4139
▁보냈	-4140
▁샌프	-4141
▁서식	-4142
▁성인	-4143
▁스웨	-4144
▁실행	-4145
▁앨범	-4146
▁예산	-4147
▁이렇	-4148
▁잠재	-4149
▁좋지	-4150
▁착수	-4151
▁dna	-4152
▁들었다	-4153
▁북한과	-4154
▁일본이	-4155
▁충분한	-4156
▁포함해	-4157
▁협상이	-4158
▁모하메드	-4159
▁요구하고	-4160
▁이라크전	-4161
▁하락했다	-4162
▁샌프란시스코	-4163
▁칭	-4164
거리	-4165
대전	-4166
리칸	-4167
만큼	-4168
시장	-4169
십자	-4170
티모	-4171
ure	-4172
▁ab	-4173
▁네트	-4174
▁무력	-4175
▁성향	-4176
▁수집	-4177
▁심한	-4178
▁영토	-4179
▁중재	-4180
▁천연	-4181
▁해고	-4182
국으로	-4183
▁관리가	-4184
▁발언은	-4185
▁방문할	-4186
▁불리는	-4187
▁사태가	-4188
▁의회의	-4189
▁특별한	-4190
▁대변인인	-4191
▁대부분이	-4192
▁만들었다	-4193
▁방법으로	-4194
▁주장하는	-4195
▁해결하기	-4196
▁국무장관은	-4197
dc	-4198
▁빚	-4199
고래	-4200
시각	-4201
원인	-4202
ess	-4203
▁가르	-4204
▁기능	-4205
▁대다	-4206
▁맞서	-4207
▁맨유	-4208
▁무릎	-4209
▁밀란	-4210
▁붉은	-4211
▁스리	-4212
▁시절	-4213
▁심리	-4214
▁이익	-4215
▁전개	-4216
▁지목	-4217
▁지출	-4218
▁치안	-4219
▁침체	-4220
▁특파	-4221
▁패배	-4222
▁해산	-4223
▁헤즈	-4224
나이티	-4225
틀랜드	-4226
해졌다	-4227
▁who	-4228
▁가능성	-4229
▁경제학	-4230
▁요르단	-4231
▁우승을	-4232
▁익명의	-4233
▁주한미	-4234
함에따라	-4235
▁거주하는	-4236
▁네덜란드	-4237
▁입었다고	-4238
▁presid	-4239
▁든	-4240
▁밑	-4241
▁택	-4242
▁텔	-4243
금융	-4244
르가	-4245
표를	-4246
ans	-4247
▁거뒀	-4248
▁그곳	-4249
▁나를	-4250
▁달리	-4251
▁로이	-4252
▁문을	-4253
▁온난	-4254
▁유리	-4255
▁이메	-4256
▁접속	-4257
▁회견	-4258
▁획득	-4259
▁경찰의	-4260
▁그들을	-4261
▁된다고	-4262
▁반응을	-4263
▁벗어나	-4264
▁원하는	-4265
▁이끌어	-4266
▁경선에서	-4267
▁생각하고	-4268
▁알려지지	-4269
▁의원들은	-4270
▁딜	-4271
동이	-4272
렬한	-4273
므로	-4274
▁공중	-4275
▁누군	-4276
▁담배	-4277
▁도달	-4278
▁로스	-4279
▁리콜	-4280
▁법원	-4281
▁보조	-4282
▁복제	-4283
▁소탕	-4284
▁영변	-4285
▁이르	-4286
▁일로	-4287
▁찾는	-4288
▁측근	-4289
▁치명	-4290
▁편집	-4291
▁폐기	-4292
▁하와	-4293
▁합동	-4294
▁남자가	-4295
▁년에는	-4296
▁밖으로	-4297
▁의회가	-4298
▁적절한	-4299
▁태평양	-4300
▁항공사	-4301
▁헤즈볼	-4302
▁희생자	-4303
▁다이아몬	-4304
▁어려움을	-4305
▁파키스탄의	-4306
▁뒷	-4307
▁뽑	-4308
▁뿌	-4309
▁엑	-4310
▁켄	-4311
▁흉	-4312
▁흐	-4313
데타	-4314
바다	-4315
실에	-4316
양의	-4317
었을	-4318
져야	-4319
치에	-4320
▁or	-4321
▁경계	-4322
▁도전	-4323
▁마틴	-4324
▁말해	-4325
▁식품	-4326
▁싶다	-4327
▁약간	-4328
▁잠시	-4329
▁주목	-4330
▁취할	-4331
▁허락	-4332
에게는	-4333
▁결정은	-4334
▁금요일	-4335
▁나타나	-4336
▁대변인	-4337
▁루이스	-4338
▁모습이	-4339
▁바라고	-4340
▁생각을	-4341
▁외교부	-4342
▁이번주	-4343
▁일간의	-4344
▁자리를	-4345
▁제안을	-4346
▁조사에	-4347
▁중국에	-4348
▁케네디	-4349
▁코미디	-4350
▁will	-4351
▁러시아의	-4352
▁아일랜드	-4353
▁알래스카	-4354
▁이곳에서	-4355
▁발견했다고	-4356
tv	-4357
담을	-4358
미터	-4359
브는	-4360
세츠	-4361
스톤	-4362
영화	-4363
켰다	-4364
훼손	-4365
▁권고	-4366
▁농축	-4367
▁버마	-4368
▁베를	-4369
▁재산	-4370
▁출시	-4371
▁카페	-4372
▁폭우	-4373
스트로	-4374
▁mar	-4375
▁nbc	-4376
▁관계가	-4377
▁사건과	-4378
▁에드워	-4379
▁여성은	-4380
▁전화를	-4381
▁중국과	-4382
▁청와대	-4383
▁항공기	-4384
무장관이	-4385
▁comm	-4386
▁말합니다	-4387
▁사건으로	-4388
▁아이오와	-4389
▁않았으며	-4390
▁유나이티	-4391
▁체포됐다	-4392
▁현지시각	-4393
▁필요하다고	-4394
▁걷	-4395
▁봄	-4396
건을	-4397
격한	-4398
군에	-4399
나미	-4400
루살	-4401
류를	-4402
업이	-4403
ies	-4404
▁fa	-4405
▁담긴	-4406
▁도와	-4407
▁보관	-4408
▁성과	-4409
▁시기	-4410
▁옮겨	-4411
▁적은	-4412
▁내용이	-4413
▁모두가	-4414
▁발표된	-4415
▁선거캠	-4416
▁수사를	-4417
▁신문은	-4418
▁알렉산	-4419
▁우려가	-4420
▁의회는	-4421
▁장면을	-4422
▁쿠데타	-4423
프로그램	-4424
▁공개했다	-4425
▁동영상을	-4426
▁드러났다	-4427
▁떨어졌다	-4428
▁챔피언스	-4429
▁워싱턴에서	-4430
▁이스라엘과	-4431
▁균	-4432
▁뮤	-4433
▁톤	-4434
국에	-4435
됐을	-4436
라덴	-4437
선의	-4438
인에	-4439
장한	-4440
차가	-4441
▁bo	-4442
▁cm	-4443
▁tr	-4444
▁끝나	-4445
▁디스	-4446
▁만한	-4447
▁바꾸	-4448
▁보면	-4449
▁보통	-4450
▁서방	-4451
▁수요	-4452
▁얼음	-4453
▁에도	-4454
▁자랑	-4455
▁장을	-4456
▁중독	-4457
▁찾고	-4458
▁추측	-4459
▁콜로	-4460
▁트리	-4461
▁해수	-4462
▁휴전	-4463
사들은	-4464
▁nat	-4465
▁갑자기	-4466
▁게임을	-4467
▁관심이	-4468
▁다우존	-4469
▁샤리프	-4470
▁어려운	-4471
▁일주일	-4472
▁핵시설	-4473
▁회사의	-4474
▁회의를	-4475
라이라마	-4476
▁도착했다	-4477
▁보여주는	-4478
▁언급하지	-4479
▁예상했다	-4480
▁중국에서	-4481
▁현재까지	-4482
바라	-4483
병을	-4484
시의	-4485
자금	-4486
제도	-4487
▁겨울	-4488
▁교회	-4489
▁뛰어	-4490
▁마흐	-4491
▁만날	-4492
▁메르	-4493
▁명예	-4494
▁모르	-4495
▁부총	-4496
▁사찰	-4497
▁소행	-4498
▁소환	-4499
▁스키	-4500
▁오브	-4501
▁원제	-4502
▁자리	-4503
▁자이	-4504
▁커피	-4505
▁포경	-4506
▁훌륭	-4507
루살렘	-4508
실에서	-4509
▁강력히	-4510
▁당했다	-4511
▁시작한	-4512
▁이렇게	-4513
▁작전을	-4514
▁총리와	-4515
▁최초로	-4516
▁통신은	-4517
▁했지만	-4518
▁회사인	-4519
이지리아	-4520
▁마이크로	-4521
▁처음이다	-4522
▁달라이라마	-4523
▁대선후보인	-4524
ab	-4525
ey	-4526
▁횡	-4527
계가	-4528
공화	-4529
나가	-4530
졌던	-4531
차로	-4532
타나	-4533
하라	-4534
ood	-4535
▁걸릴	-4536
▁권력	-4537
▁나누	-4538
▁대리	-4539
▁동반	-4540
▁라파	-4541
▁맞이	-4542
▁불을	-4543
▁시인	-4544
▁에는	-4545
▁연관	-4546
▁이주	-4547
▁진정	-4548
▁체니	-4549
▁추산	-4550
▁파티	-4551
▁판단	-4552
▁합법	-4553
▁흡연	-4554
상에서	-4555
하고자	-4556
했는지	-4557
▁대법원	-4558
▁명령을	-4559
▁아버지	-4560
▁여성의	-4561
▁올렸다	-4562
▁지금은	-4563
▁치러진	-4564
▁하나의	-4565
▁chin	-4566
▁다르푸르	-4567
▁모스크바	-4568
▁사망자가	-4569
▁일환으로	-4570
▁inter	-4571
▁나이지리아	-4572
▁록	-4573
국적	-4574
로드	-4575
리게	-4576
수에	-4577
시에	-4578
용을	-4579
율은	-4580
지어	-4581
판을	-4582
anc	-4583
▁개막	-4584
▁건의	-4585
▁남은	-4586
▁모인	-4587
▁설득	-4588
▁세워	-4589
▁업무	-4590
▁오염	-4591
▁음주	-4592
▁정기	-4593
▁초대	-4594
▁통치	-4595
▁폭락	-4596
▁가까이	-4597
▁거래를	-4598
▁것보다	-4599
▁경제가	-4600
▁문제의	-4601
▁밖에서	-4602
▁보좌관	-4603
▁연구를	-4604
▁유사한	-4605
▁장난감	-4606
▁타격을	-4607
▁노력하고	-4608
▁보고했다	-4609
▁스리랑카	-4610
▁아메리칸	-4611
▁일자리를	-4612
▁추정되는	-4613
▁셀	-4614
내에	-4615
도르	-4616
되자	-4617
만은	-4618
사추	-4619
세가	-4620
시피	-4621
아이	-4622
즈가	-4623
트너	-4624
ong	-4625
▁강요	-4626
▁걸친	-4627
▁공무	-4628
▁교착	-4629
▁귀국	-4630
▁나의	-4631
▁단순	-4632
▁대출	-4633
▁명백	-4634
▁발굴	-4635
▁복잡	-4636
▁부과	-4637
▁산악	-4638
▁신경	-4639
▁신체	-4640
▁이사	-4641
▁작동	-4642
▁장식	-4643
▁점점	-4644
▁조합	-4645
▁통화	-4646
▁표를	-4647
▁피고	-4648
▁호세	-4649
글라데	-4650
▁pol	-4651
▁res	-4652
▁공격에	-4653
▁그것이	-4654
▁당신이	-4655
▁모른다	-4656
▁못하는	-4657
▁밝히고	-4658
▁시위에	-4659
▁아이의	-4660
▁않지만	-4661
▁이유는	-4662
▁지진이	-4663
▁화재가	-4664
▁목적으로	-4665
▁방글라데	-4666
▁방문했다	-4667
▁부상했다	-4668
▁선거운동	-4669
▁시장에서	-4670
▁이와같은	-4671
▁오스트리아	-4672
▁national	-4673
▁샘	-4674
▁쏟	-4675
내기	-4676
닷컴	-4677
라디	-4678
불어	-4679
시가	-4680
통상	-4681
프리	-4682
ack	-4683
end	-4684
iss	-4685
▁pe	-4686
▁관객	-4687
▁그에	-4688
▁기존	-4689
▁길을	-4690
▁깊은	-4691
▁대책	-4692
▁매각	-4693
▁방영	-4694
▁선보	-4695
▁소설	-4696
▁스튜	-4697
▁앉아	-4698
▁야기	-4699
▁자본	-4700
▁전당	-4701
▁조선	-4702
▁지정	-4703
▁출석	-4704
▁치열	-4705
▁통일	-4706
▁특정	-4707
▁파예	-4708
▁하면	-4709
회사인	-4710
vern	-4711
▁경제에	-4712
▁년간의	-4713
▁더불어	-4714
▁반군이	-4715
▁시신을	-4716
▁시위가	-4717
▁아무도	-4718
▁위기를	-4719
▁진행된	-4720
▁계속되고	-4721
▁성공했다	-4722
▁기자회견을	-4723
ue	-4724
▁넓	-4725
▁짧	-4726
▁틀	-4727
발을	-4728
상과	-4729
세로	-4730
세포	-4731
스틴	-4732
일리	-4733
▁ec	-4734
▁그림	-4735
▁나서	-4736
▁나스	-4737
▁나아	-4738
▁내릴	-4739
▁도입	-4740
▁레드	-4741
▁사냥	-4742
▁상품	-4743
▁새끼	-4744
▁서브	-4745
▁수송	-4746
▁아스	-4747
▁엄청	-4748
▁엘리	-4749
▁의존	-4750
▁자기	-4751
▁천만	-4752
▁취재	-4753
▁칠레	-4754
▁폭행	-4755
▁피난	-4756
▁하늘	-4757
▁합류	-4758
▁해양	-4759
▁후임	-4760
▁훼손	-4761
국장은	-4762
보다는	-4763
아시아	-4764
음에도	-4765
▁jap	-4766
▁관련이	-4767
▁됩니다	-4768
▁무기를	-4769
▁사태를	-4770
▁생활을	-4771
▁언론이	-4772
▁의회에	-4773
▁있다면	-4774
▁주지사	-4775
사추세츠	-4776
▁것이라며	-4777
▁고등학교	-4778
▁국무장관	-4779
▁싱가포르	-4780
▁연구진은	-4781
▁조사에서	-4782
▁바그다드에서	-4783
▁president	-4784
▁묵	-4785
▁털	-4786
대회	-4787
드시	-4788
바키	-4789
선은	-4790
주에	-4791
튜브	-4792
평화	-4793
후드	-4794
▁sa	-4795
▁가량	-4796
▁건축	-4797
▁검거	-4798
▁관람	-4799
▁그루	-4800
▁부여	-4801
▁분의	-4802
▁비록	-4803
▁사담	-4804
▁식당	-4805
▁여겨	-4806
▁이중	-4807
▁인식	-4808
▁잔해	-4809
▁전날	-4810
▁전직	-4811
▁추적	-4812
▁파산	-4813
▁폐지	-4814
부에서	-4815
으면서	-4816
있었다	-4817
▁off	-4818
▁것이고	-4819
▁계획은	-4820
▁남아공	-4821
▁논의할	-4822
▁덴마크	-4823
▁레이스	-4824
▁사실상	-4825
▁스웨덴	-4826
▁시설을	-4827
▁없으며	-4828
▁여객기	-4829
▁위험이	-4830
▁이유를	-4831
▁폭발로	-4832
▁증가하고	-4833
▁japan	-4834
▁남아프리카	-4835
▁이스라엘이	-4836
▁노스캐롤라이나	-4837
▁섭	-4838
▁숫	-4839
▁쌓	-4840
라미	-4841
린다	-4842
수인	-4843
없는	-4844
정은	-4845
틀러	-4846
학자	-4847
ama	-4848
ust	-4849
▁al	-4850
▁나갈	-4851
▁년을	-4852
▁농민	-4853
▁달성	-4854
▁돌려	-4855
▁리히	-4856
▁말라	-4857
▁멋진	-4858
▁버스	-4859
▁봉쇄	-4860
▁은신	-4861
▁의학	-4862
▁체결	-4863
▁트레	-4864
▁풀려	-4865
▁행복	-4866
▁혜택	-4867
▁힘을	-4868
▁dis	-4869
▁것인지	-4870
▁결정에	-4871
▁그래서	-4872
▁민주화	-4873
▁부상자	-4874
▁분명히	-4875
▁빠르게	-4876
▁신원을	-4877
▁폭탄이	-4878
졌습니다	-4879
▁기다리고	-4880
▁인디애나	-4881
▁자리에서	-4882
▁주지사가	-4883
▁클린턴이	-4884
▁지도자들은	-4885
▁govern	-4886
to	-4887
▁x	-4888
▁멈	-4889
▁캔	-4890
네스	-4891
라로	-4892
실이	-4893
하였	-4894
efa	-4895
ell	-4896
led	-4897
ren	-4898
▁가옥	-4899
▁개가	-4900
▁고조	-4901
▁대항	-4902
▁독재	-4903
▁명확	-4904
▁모색	-4905
▁목록	-4906
▁무료	-4907
▁문서	-4908
▁받기	-4909
▁생명	-4910
▁성적	-4911
▁실질	-4912
▁줄기	-4913
▁철도	-4914
▁출판	-4915
▁콩고	-4916
▁페루	-4917
작업을	-4918
eric	-4919
▁ioc	-4920
▁가격을	-4921
▁국경을	-4922
▁그동안	-4923
▁따라서	-4924
▁말까지	-4925
▁반드시	-4926
▁시드니	-4927
▁운동을	-4928
▁이재민	-4929
▁피해가	-4930
▁해결을	-4931
▁uefa	-4932
▁국제사회	-4933
▁부근에서	-4934
▁세계대전	-4935
▁시위대는	-4936
▁여자친구	-4937
▁예루살렘	-4938
▁운영하는	-4939
▁제안했다	-4940
▁챔피언스리그	-4941
og	-4942
구가	-4943
산화	-4944
수와	-4945
어버	-4946
어의	-4947
지기	-4948
진다	-4949
ant	-4950
▁고발	-4951
▁군부	-4952
▁극단	-4953
▁노예	-4954
▁득표	-4955
▁만일	-4956
▁배출	-4957
▁비서	-4958
▁빠진	-4959
▁열대	-4960
▁완벽	-4961
▁운송	-4962
▁인공	-4963
▁자원	-4964
▁절대	-4965
▁하던	-4966
는지는	-4967
들과의	-4968
리조나	-4969
▁계약을	-4970
▁권력을	-4971
▁내용의	-4972
▁니콜라	-4973
▁달러로	-4974
▁돌아가	-4975
▁방문을	-4976
▁승무원	-4977
▁시장에	-4978
▁있었고	-4979
▁정확히	-4980
▁조치가	-4981
▁준비를	-4982
▁증거를	-4983
▁질문을	-4984
▁한국이	-4985
▁네트워크	-4986
▁보인다고	-4987
▁시스템을	-4988
▁외교통상	-4989
ations	-4990
▁과학자들이	-4991
▁이스라엘은	-4992
ib	-4993
▁z	-4994
▁옐	-4995
▁읽	-4996
공항	-4997
나마	-4998
봉송	-4999
아야	-5000
안전	-5001
우스	-5002
이크	-5003
일러	-5004
터는	-5005
트라	-5006
혔다	-5007
ire	-5008
oun	-5009
ton	-5010
▁ra	-5011
▁감바	-5012
▁고대	-5013
▁고향	-5014
▁골프	-5015
▁광산	-5016
▁구출	-5017
▁근본	-5018
▁기지	-5019
▁누가	-5020
▁달려	-5021
▁되찾	-5022
▁등장	-5023
▁디지	-5024
▁민감	-5025
▁승려	-5026
▁아웅	-5027
▁연주	-5028
▁유력	-5029
▁자극	-5030
▁자산	-5031
▁자선	-5032
▁재검	-5033
▁조기	-5034
▁철저	-5035
▁측은	-5036
▁클리	-5037
▁고통을	-5038
▁대가로	-5039
▁라운드	-5040
▁선거에	-5041
▁적십자	-5042
▁제재를	-5043
▁주식시	-5044
▁줄리아	-5045
▁한국에	-5046
▁회사는	-5047
▁훈련을	-5048
▁국민들은	-5049
▁국방부는	-5050
▁시위대가	-5051
▁위원회는	-5052
▁이라크를	-5053
▁관계자들이	-5054
▁마지막으로	-5055
▁쇠	-5056
기업	-5057
냐는	-5058
네자	-5059
대중	-5060
령은	-5061
연금	-5062
위로	-5063
정거	-5064
함이	-5065
lec	-5066
▁it	-5067
▁pc	-5068
▁강도	-5069
▁결선	-5070
▁국정	-5071
▁레알	-5072
▁마찬	-5073
▁매장	-5074
▁분열	-5075
▁불능	-5076
▁선물	-5077
▁소매	-5078
▁소수	-5079
▁아동	-5080
▁아름	-5081
▁앤드	-5082
▁올린	-5083
▁운항	-5084
▁유가	-5085
▁응급	-5086
▁이양	-5087
▁주문	-5088
▁청문	-5089
▁추구	-5090
▁출동	-5091
▁커플	-5092
▁코커	-5093
레이크	-5094
베이거	-5095
업체인	-5096
▁frb	-5097
▁공연을	-5098
▁네바다	-5099
▁능력을	-5100
▁마치고	-5101
▁사령관	-5102
▁에어버	-5103
▁유럽의	-5104
▁이로써	-5105
▁이후로	-5106
▁nato	-5107
▁마찬가지	-5108
▁생각하는	-5109
▁의회에서	-5110
▁제공하는	-5111
▁지역으로	-5112
▁외무장관은	-5113
▁폭탄테러가	-5114
ub	-5115
▁낭	-5116
▁뼈	-5117
르도	-5118
석을	-5119
에선	-5120
유지	-5121
주고	-5122
티스	-5123
ash	-5124
der	-5125
▁교환	-5126
▁급속	-5127
▁만난	-5128
▁무죄	-5129
▁민족	-5130
▁보잉	-5131
▁브래	-5132
▁상점	-5133
▁수의	-5134
▁위조	-5135
▁입증	-5136
▁장착	-5137
▁재미	-5138
▁재배	-5139
▁재활	-5140
▁킬로	-5141
▁텔레	-5142
달라고	-5143
움에서	-5144
▁감독이	-5145
▁고양이	-5146
▁납치된	-5147
▁다국적	-5148
▁마리가	-5149
▁마리의	-5150
▁변화가	-5151
▁사장은	-5152
▁상태에	-5153
▁소식이	-5154
▁아마디	-5155
▁안전한	-5156
▁여러분	-5157
▁전쟁에	-5158
▁프리미	-5159
▁혐의가	-5160
아라비아	-5161
▁대선에서	-5162
▁러시아는	-5163
▁성화봉송	-5164
▁일본에서	-5165
▁핵무기를	-5166
▁발생했으며	-5167
▁보고서에서	-5168
▁일반적으로	-5169
▁americ	-5170
▁사우디아라비아	-5171
▁값	-5172
▁똑	-5173
▁왼	-5174
교도	-5175
니의	-5176
질을	-5177
첨단	-5178
탄을	-5179
파로	-5180
해질	-5181
화된	-5182
▁gm	-5183
▁고립	-5184
▁공유	-5185
▁관찰	-5186
▁리조	-5187
▁방지	-5188
▁베르	-5189
▁보는	-5190
▁삶을	-5191
▁선발	-5192
▁신임	-5193
▁쓰러	-5194
▁외무	-5195
▁잃은	-5196
▁차를	-5197
하기를	-5198
▁가치가	-5199
▁결과는	-5200
▁논의를	-5201
▁당신은	-5202
▁디즈니	-5203
▁라이트	-5204
▁소녀의	-5205
▁승리한	-5206
▁시장의	-5207
▁실종된	-5208
▁약속을	-5209
▁에후드	-5210
▁일하는	-5211
▁현재의	-5212
이었다고	-5213
▁공항에서	-5214
▁기대하고	-5215
▁선언했다	-5216
▁역사적인	-5217
▁우려하고	-5218
▁계획이라고	-5219
▁일리노이주	-5220
▁프로그램에	-5221
di	-5222
ff	-5223
ga	-5224
▁듀	-5225
▁맹	-5226
▁욕	-5227
러스	-5228
물에	-5229
시를	-5230
언을	-5231
전문	-5232
ang	-5233
ast	-5234
▁감사	-5235
▁개방	-5236
▁골드	-5237
▁군중	-5238
▁극복	-5239
▁맞춰	-5240
▁명도	-5241
▁바뀌	-5242
▁발간	-5243
▁보복	-5244
▁빈곤	-5245
▁사원	-5246
▁생긴	-5247
▁손상	-5248
▁수를	-5249
▁스프	-5250
▁유치	-5251
▁인생	-5252
▁입국	-5253
▁중순	-5254
▁측정	-5255
▁통한	-5256
▁펠로	-5257
▁필립	-5258
▁협박	-5259
▁환자	-5260
가에서	-5261
레스트	-5262
▁fro	-5263
▁경제를	-5264
▁국제적	-5265
▁나오는	-5266
▁나이트	-5267
▁내용은	-5268
▁다니엘	-5269
▁동티모	-5270
▁마카오	-5271
▁명에게	-5272
▁받아야	-5273
▁사용한	-5274
▁승인을	-5275
▁쓰나미	-5276
▁안전을	-5277
▁있어서	-5278
▁저장된	-5279
▁충분히	-5280
▁타이틀	-5281
▁토마스	-5282
▁서울에서	-5283
▁세계은행	-5284
▁있었지만	-5285
▁체포했다	-5286
▁라스베이거	-5287
▁베이징에서	-5288
▁전했습니다	-5289
ps	-5290
▁펀	-5291
니오	-5292
대와	-5293
로의	-5294
씨가	-5295
주민	-5296
중한	-5297
지며	-5298
프의	-5299
햄프	-5300
화로	-5301
ars	-5302
▁me	-5303
▁갖게	-5304
▁거두	-5305
▁곤잘	-5306
▁관영	-5307
▁기사	-5308
▁논평	-5309
▁로드	-5310
▁로비	-5311
▁리그	-5312
▁매춘	-5313
▁무선	-5314
▁발병	-5315
▁배제	-5316
▁보낼	-5317
▁복구	-5318
▁봉사	-5319
▁북미	-5320
▁상공	-5321
▁시각	-5322
▁연행	-5323
▁은퇴	-5324
▁장소	-5325
▁중지	-5326
▁한때	-5327
▁합병	-5328
됐으나	-5329
생활을	-5330
ance	-5331
▁개월간	-5332
▁관계자	-5333
▁김대중	-5334
▁대학교	-5335
▁법원이	-5336
▁수익을	-5337
▁아니면	-5338
▁아마도	-5339
▁여부는	-5340
▁영화의	-5341
▁유권자	-5342
▁자세한	-5343
▁첫번째	-5344
▁파트너	-5345
▁다쳤다고	-5346
▁미국과의	-5347
▁바르셀로	-5348
▁발생하지	-5349
▁수상했다	-5350
▁승리했다	-5351
▁이라크와	-5352
▁했습니다	-5353
▁국방장관은	-5354
▁폭탄테러로	-5355
ie	-5356
관에	-5357
기술	-5358
노동	-5359
명은	-5360
슬림	-5361
와는	-5362
전은	-5363
클라	-5364
▁bl	-5365
▁no	-5366
▁거쳐	-5367
▁단속	-5368
▁대를	-5369
▁막을	-5370
▁매니	-5371
▁묘사	-5372
▁불길	-5373
▁불편	-5374
▁삭제	-5375
▁세인	-5376
▁스캔	-5377
▁스탠	-5378
▁쏟아	-5379
▁적합	-5380
▁점차	-5381
▁조류	-5382
▁주차	-5383
▁죽은	-5384
▁채택	-5385
▁출산	-5386
▁카불	-5387
▁후원	-5388
나지르	-5389
햄프셔	-5390
▁par	-5391
▁검사는	-5392
▁법원에	-5393
▁베를린	-5394
▁시장이	-5395
▁안에서	-5396
▁오사마	-5397
▁의사가	-5398
▁제대로	-5399
▁주장에	-5400
▁총리를	-5401
▁케이블	-5402
▁태어난	-5403
▁만들어진	-5404
▁베나지르	-5405
▁보유하고	-5406
▁외환은행	-5407
▁진행되고	-5408
▁맛	-5409
▁힌	-5410
리나	-5411
서에	-5412
▁ha	-5413
▁가난	-5414
▁공정	-5415
▁과도	-5416
▁내정	-5417
▁단어	-5418
▁세트	-5419
▁시사	-5420
▁앓고	-5421
▁연예	-5422
▁유발	-5423
▁인류	-5424
▁임기	-5425
▁재난	-5426
▁저질	-5427
▁조성	-5428
▁초래	-5429
▁코스	-5430
라이언	-5431
였지만	-5432
올림픽	-5433
인들을	-5434
▁abc	-5435
▁가격은	-5436
▁대단한	-5437
▁대학생	-5438
▁블라디	-5439
▁비용이	-5440
▁상당한	-5441
▁오늘날	-5442
▁오래된	-5443
▁올해의	-5444
▁유엔은	-5445
▁익명을	-5446
▁일정을	-5447
▁자료를	-5448
▁책임이	-5449
▁폭탄을	-5450
▁혐의에	-5451
▁회사가	-5452
▁휴대전	-5453
▁cons	-5454
▁가능성은	-5455
▁다우존스	-5456
▁대회에서	-5457
▁발생하는	-5458
▁백악관은	-5459
▁사령관은	-5460
▁증가했다	-5461
▁학생들은	-5462
▁회의에서	-5463
▁스코틀랜드	-5464
▁궤	-5465
▁묶	-5466
▁센	-5467
▁쫓	-5468
▁켈	-5469
권에	-5470
권이	-5471
렸던	-5472
받고	-5473
범위	-5474
봤다	-5475
에만	-5476
위의	-5477
이즈	-5478
프레	-5479
▁가슴	-5480
▁간주	-5481
▁개표	-5482
▁거리	-5483
▁고고	-5484
▁고소	-5485
▁구금	-5486
▁규제	-5487
▁그리	-5488
▁급등	-5489
▁따뜻	-5490
▁마시	-5491
▁상호	-5492
▁시달	-5493
▁알바	-5494
▁어디	-5495
▁얻기	-5496
▁월의	-5497
▁존스	-5498
▁존중	-5499
▁찾을	-5500
▁최우	-5501
▁펼쳐	-5502
▁화물	-5503
됐었다	-5504
라고예	-5505
선에서	-5506
▁tal	-5507
▁tim	-5508
▁거뒀다	-5509
▁논란이	-5510
▁레스토	-5511
▁말하며	-5512
▁못하게	-5513
▁스타디	-5514
▁애틀랜	-5515
▁여성을	-5516
▁이산화	-5517
▁자신은	-5518
▁자유를	-5519
▁지역은	-5520
▁천주교	-5521
▁표했다	-5522
▁보여줬다	-5523
▁상승했다	-5524
▁중요하다	-5525
▁국민들에게	-5526
▁헐	-5527
나우	-5528
내지	-5529
부양	-5530
성과	-5531
중앙	-5532
한지	-5533
▁가로	-5534
▁공장	-5535
▁기밀	-5536
▁기회	-5537
▁나올	-5538
▁미니	-5539
▁바닥	-5540
▁방안	-5541
▁비타	-5542
▁알코	-5543
▁압수	-5544
▁앞에	-5545
▁청구	-5546
▁투어	-5547
력기구	-5548
land	-5549
▁국가를	-5550
▁국제원	-5551
▁그러한	-5552
▁두번째	-5553
▁모기지	-5554
▁바스라	-5555
▁발언에	-5556
▁북동부	-5557
▁여학생	-5558
▁일으킨	-5559
▁잃었다	-5560
▁재판을	-5561
▁저지른	-5562
▁중국을	-5563
▁집으로	-5564
▁총선을	-5565
▁평화를	-5566
▁피해자	-5567
위원회가	-5568
▁cont	-5569
▁over	-5570
▁구제금융	-5571
▁뉴욕에서	-5572
▁보안관은	-5573
▁와인하우	-5574
▁카르자이	-5575
▁콜로라도	-5576
▁기자들에게	-5577
▁발견됐다고	-5578
▁뿐만아니라	-5579
▁열린우리당	-5580
ft	-5581
▁갇	-5582
▁롬	-5583
▁쓴	-5584
경기	-5585
드라	-5586
력에	-5587
릴라	-5588
모리	-5589
수사	-5590
아나	-5591
즈의	-5592
포드	-5593
ake	-5594
ase	-5595
enc	-5596
und	-5597
▁검문	-5598
▁검은	-5599
▁과격	-5600
▁군은	-5601
▁기부	-5602
▁기쁘	-5603
▁년과	-5604
▁대결	-5605
▁대륙	-5606
▁돌파	-5607
▁되기	-5608
▁머리	-5609
▁못해	-5610
▁배가	-5611
▁보상	-5612
▁부부	-5613
▁비틀	-5614
▁빙하	-5615
▁스크	-5616
▁스턴	-5617
▁아흐	-5618
▁얻어	-5619
▁얻을	-5620
▁예를	-5621
▁의무	-5622
▁의장	-5623
▁재건	-5624
▁전인	-5625
▁절차	-5626
▁지상	-5627
▁지질	-5628
▁체중	-5629
▁출입	-5630
▁충격	-5631
▁프린	-5632
▁항구	-5633
났으며	-5634
되었던	-5635
빈라덴	-5636
▁결과에	-5637
▁국가가	-5638
▁법안이	-5639
▁베컴은	-5640
▁선두를	-5641
▁세금을	-5642
▁심지어	-5643
▁아웅산	-5644
▁영화제	-5645
▁예정된	-5646
▁월스트	-5647
▁중대한	-5648
▁테스트	-5649
▁프레스	-5650
플레이션	-5651
▁elec	-5652
▁거부했다	-5653
▁검색어가	-5654
▁국민들의	-5655
▁국회의원	-5656
▁레스토랑	-5657
▁말했다고	-5658
▁받았으며	-5659
▁블라고예	-5660
▁시민들이	-5661
▁차관보는	-5662
▁호텔에서	-5663
▁방글라데시	-5664
▁주민들에게	-5665
▁보도에따르면	-5666
▁오사마빈라덴	-5667
▁덕	-5668
▁숀	-5669
▁짓	-5670
▁흰	-5671
담당	-5672
레나	-5673
렌스	-5674
르지	-5675
상황	-5676
스런	-5677
왔던	-5678
으려	-5679
졌고	-5680
피해	-5681
화의	-5682
out	-5683
ric	-5684
▁가해	-5685
▁내내	-5686
▁다루	-5687
▁달간	-5688
▁도망	-5689
▁메릴	-5690
▁몸을	-5691
▁방콕	-5692
▁블루	-5693
▁비공	-5694
▁사막	-5695
▁산림	-5696
▁샤라	-5697
▁순방	-5698
▁알라	-5699
▁탄핵	-5700
▁혹은	-5701
▁휩싸	-5702
됐다는	-5703
되었고	-5704
세력이	-5705
카르타	-5706
▁bus	-5707
▁공격은	-5708
▁노동자	-5709
▁답했다	-5710
▁독일의	-5711
▁두려워	-5712
▁벌금을	-5713
▁비용을	-5714
▁소장은	-5715
▁시작할	-5716
▁없지만	-5717
▁외교적	-5718
▁위험에	-5719
▁이란에	-5720
▁일으키	-5721
▁젊은이	-5722
▁총장은	-5723
▁호나우	-5724
ister	-5725
▁보호하기	-5726
▁인터넷을	-5727
▁즉각적인	-5728
▁예정입니다	-5729
▁government	-5730
iz	-5731
▁꼭	-5732
▁멤	-5733
너는	-5734
서양	-5735
서의	-5736
수록	-5737
월드	-5738
일은	-5739
조차	-5740
준비	-5741
탱크	-5742
팀이	-5743
age	-5744
▁qu	-5745
▁강풍	-5746
▁개헌	-5747
▁걸려	-5748
▁구축	-5749
▁다윈	-5750
▁리차	-5751
▁만여	-5752
▁맞추	-5753
▁맡은	-5754
▁물이	-5755
▁미술	-5756
▁비극	-5757
▁성직	-5758
▁시내	-5759
▁쓰촨	-5760
▁온실	-5761
▁유출	-5762
▁진영	-5763
▁축제	-5764
▁침입	-5765
▁통계	-5766
▁판사	-5767
▁폭격	-5768
가들이	-5769
단에서	-5770
하겠다	-5771
▁ass	-5772
▁같다고	-5773
▁구조대	-5774
▁나스닥	-5775
▁두바이	-5776
▁디자인	-5777
▁리히터	-5778
▁보내는	-5779
▁사용될	-5780
▁샌디에	-5781
▁샤라포	-5782
▁시기에	-5783
▁완전한	-5784
▁왕세자	-5785
▁원인을	-5786
▁이곳에	-5787
▁일부를	-5788
▁증거가	-5789
▁패트릭	-5790
▁합의를	-5791
위원회의	-5792
▁from	-5793
▁가능성에	-5794
▁결의안을	-5795
▁경기부양	-5796
▁공식적인	-5797
▁국민들이	-5798
▁런던에서	-5799
▁미시시피	-5800
▁바이러스	-5801
▁수백명의	-5802
▁애리조나	-5803
▁용의자가	-5804
▁주장하며	-5805
▁카스트로	-5806
▁블라디미르	-5807
▁사르코지는	-5808
▁소프트웨어	-5809
▁웹사이트를	-5810
▁체포했다고	-5811
▁핵프로그램	-5812
▁전세계적으로	-5813
kk	-5814
더는	-5815
라며	-5816
률을	-5817
메이	-5818
선수	-5819
위해	-5820
체의	-5821
터리	-5822
히려	-5823
red	-5824
▁공모	-5825
▁그들	-5826
▁노르	-5827
▁높이	-5828
▁뒤에	-5829
▁명인	-5830
▁물고	-5831
▁복무	-5832
▁부담	-5833
▁붙잡	-5834
▁상관	-5835
▁소득	-5836
▁압도	-5837
▁영웅	-5838
▁올려	-5839
▁원칙	-5840
▁이론	-5841
▁인명	-5842
▁자르	-5843
▁잡고	-5844
▁촉발	-5845
▁추모	-5846
▁캄보	-5847
▁케빈	-5848
▁클레	-5849
▁탈북	-5850
금으로	-5851
lear	-5852
ress	-5853
▁관계에	-5854
▁둘러싸	-5855
▁마쳤다	-5856
▁만들고	-5857
▁머리를	-5858
▁머물고	-5859
▁배럴당	-5860
▁배심원	-5861
▁보도를	-5862
▁일부가	-5863
▁전부터	-5864
▁확실한	-5865
▁회담의	-5866
▁훌륭한	-5867
되었으며	-5868
학자들은	-5869
▁cent	-5870
▁당선인의	-5871
▁미사일을	-5872
▁받아들일	-5873
▁변호사가	-5874
▁비판했다	-5875
▁실패했다	-5876
▁오바마와	-5877
▁캄보디아	-5878
▁공개적으로	-5879
▁비상사태를	-5880
▁지도자들이	-5881
sa	-5882
up	-5883
▁객	-5884
▁꺼	-5885
▁쌀	-5886
▁옹	-5887
▁텐	-5888
거운	-5889
달을	-5890
라델	-5891
라를	-5892
말을	-5893
비의	-5894
애미	-5895
통제	-5896
하에	-5897
환경	-5898
▁em	-5899
▁ob	-5900
▁거듭	-5901
▁게재	-5902
▁골든	-5903
▁날아	-5904
▁낸시	-5905
▁높다	-5906
▁눈이	-5907
▁들여	-5908
▁마라	-5909
▁물을	-5910
▁배경	-5911
▁벌여	-5912
▁법을	-5913
▁봉송	-5914
▁분에	-5915
▁빈민	-5916
▁새벽	-5917
▁시속	-5918
▁오토	-5919
▁외부	-5920
▁일찍	-5921
▁작용	-5922
▁정해	-5923
▁주연	-5924
▁중부	-5925
▁채널	-5926
▁천재	-5927
▁촉진	-5928
▁해임	-5929
▁헨리	-5930
▁호랑	-5931
공화국	-5932
글뉴스	-5933
단체가	-5934
단체는	-5935
되어야	-5936
받았다	-5937
보장이	-5938
정부는	-5939
조치를	-5940
▁결론을	-5941
▁그것을	-5942
▁디지털	-5943
▁라이벌	-5944
▁방송은	-5945
▁부부는	-5946
▁비타민	-5947
▁산사태	-5948
▁상하이	-5949
▁알코올	-5950
▁엄청난	-5951
▁연구에	-5952
▁인근에	-5953
▁중앙일	-5954
▁집회를	-5955
▁차량이	-5956
▁태도를	-5957
▁해결할	-5958
▁fore	-5959
▁도시에서	-5960
▁마감했다	-5961
▁마이애미	-5962
▁실시되는	-5963
▁우리나라	-5964
▁제기했다	-5965
▁윌리엄스는	-5966
▁캘리포니아주	-5967
ud	-5968
▁딕	-5969
▁잊	-5970
▁훔	-5971
다운	-5972
련의	-5973
망을	-5974
변화	-5975
비로	-5976
서가	-5977
위기	-5978
타는	-5979
호는	-5980
활동	-5981
ens	-5982
▁tw	-5983
▁가구	-5984
▁감금	-5985
▁감지	-5986
▁겨냥	-5987
▁결코	-5988
▁곳은	-5989
▁그레	-5990
▁근육	-5991
▁뉴저	-5992
▁대로	-5993
▁등에	-5994
▁로한	-5995
▁롤링	-5996
▁많다	-5997
▁몰려	-5998
▁비핵	-5999
▁상을	-6000
▁수하	-6001
▁심사	-6002
▁쌍둥	-6003
▁열어	-6004
▁옷을	-6005
▁위의	-6006
▁입법	-6007
▁입을	-6008
▁정착	-6009
▁졸업	-6010
▁차드	-6011
▁체코	-6012
▁초반	-6013
▁특수	-6014
▁폭파	-6015
▁프랭	-6016
▁피닉	-6017
▁후진	-6018
네자드	-6019
카운티	-6020
활동을	-6021
▁경기가	-6022
▁과정을	-6023
▁그렇지	-6024
▁방법이	-6025
▁상태로	-6026
▁언론에	-6027
▁연루된	-6028
▁일본에	-6029
▁증가한	-6030
▁차량에	-6031
▁치열한	-6032
▁토네이	-6033
▁폴란드	-6034
▁필라델	-6035
▁했다는	-6036
▁현장을	-6037
▁화이트	-6038
▁긍정적인	-6039
▁무엇보다	-6040
▁비난하고	-6041
▁생각했다	-6042
▁수석대표	-6043
▁자신에게	-6044
▁참석했다	-6045
▁평가했다	-6046
▁프리미어	-6047
▁한국에서	-6048
▁국제사회의	-6049
▁미국인들이	-6050
▁minister	-6051
gh	-6052
▁갱	-6053
▁겸	-6054
▁좁	-6055
겨진	-6056
다시	-6057
민족	-6058
밀한	-6059
셔츠	-6060
일이	-6061
즈를	-6062
지자	-6063
ath	-6064
ect	-6065
▁fl	-6066
▁te	-6067
▁갖춘	-6068
▁거대	-6069
▁과반	-6070
▁급증	-6071
▁눈에	-6072
▁다리	-6073
▁다섯	-6074
▁다운	-6075
▁뒤를	-6076
▁미칠	-6077
▁부르	-6078
▁부채	-6079
▁북쪽	-6080
▁빅토	-6081
▁사전	-6082
▁수년	-6083
▁안토	-6084
▁예전	-6085
▁원숭	-6086
▁의약	-6087
▁일제	-6088
▁전용	-6089
▁존슨	-6090
▁종합	-6091
▁최루	-6092
▁침몰	-6093
▁카를	-6094
▁풀어	-6095
▁플루	-6096
▁항소	-6097
▁현실	-6098
▁홍수	-6099
▁흥미	-6100
▁흥분	-6101
갔다고	-6102
았으며	-6103
있다고	-6104
자이자	-6105
했다며	-6106
▁all	-6107
▁nuc	-6108
▁가족과	-6109
▁가즈니	-6110
▁거리에	-6111
▁규모가	-6112
▁그랜드	-6113
▁나에게	-6114
▁당국의	-6115
▁동맹국	-6116
▁받으며	-6117
▁보스턴	-6118
▁사태에	-6119
▁상태가	-6120
▁아들이	-6121
▁아파트	-6122
▁여당인	-6123
▁연구는	-6124
▁의혹을	-6125
▁인질로	-6126
▁전역에	-6127
▁조치는	-6128
▁지하철	-6129
▁초점을	-6130
▁트레이	-6131
▁파운드	-6132
▁폭발이	-6133
회의에서	-6134
▁결선투표	-6135
▁관리들이	-6136
▁아메리카	-6137
▁자치정부	-6138
▁프랑스의	-6139
뿐만아니라	-6140
▁world	-6141
▁마이크로소	-6142
▁합의했다고	-6143
▁블라고예비치	-6144
▁nuclear	-6145
▁아프가니스탄에서	-6146
▁밥	-6147
률은	-6148
명한	-6149
목을	-6150
비와	-6151
셔널	-6152
업에	-6153
조합	-6154
중에	-6155
차별	-6156
타오	-6157
화는	-6158
ain	-6159
ass	-6160
ays	-6161
ond	-6162
ost	-6163
▁ib	-6164
▁up	-6165
▁공포	-6166
▁그라	-6167
▁기각	-6168
▁날짜	-6169
▁남극	-6170
▁늦게	-6171
▁대립	-6172
▁돌입	-6173
▁부양	-6174
▁분류	-6175
▁수만	-6176
▁안타	-6177
▁영양	-6178
▁오딩	-6179
▁올리	-6180
▁왕실	-6181
▁전염	-6182
▁중간	-6183
▁차단	-6184
▁찾은	-6185
▁초청	-6186
▁포로	-6187
▁피츠	-6188
무역협	-6189
ence	-6190
▁def	-6191
▁pkk	-6192
▁tra	-6193
▁win	-6194
▁공개된	-6195
▁공항에	-6196
▁그대로	-6197
▁달러가	-6198
▁로이터	-6199
▁마무드	-6200
▁목표를	-6201
▁사회적	-6202
▁세계의	-6203
▁승리할	-6204
▁아이폰	-6205
▁오히려	-6206
▁위대한	-6207
▁음식을	-6208
▁이사회	-6209
▁잘못된	-6210
▁증시는	-6211
▁참여한	-6212
▁페르난	-6213
▁펼쳤다	-6214
▁화재로	-6215
▁가족들이	-6216
▁미국으로	-6217
▁브라이언	-6218
▁여객기가	-6219
▁이산화탄	-6220
▁이에따라	-6221
▁컴퓨터를	-6222
▁지지자들은	-6223
감이	-6224
관의	-6225
기록	-6226
끄러	-6227
몬트	-6228
움이	-6229
케이	-6230
프가	-6231
필드	-6232
ild	-6233
oci	-6234
ors	-6235
urn	-6236
▁공간	-6237
▁광부	-6238
▁금리	-6239
▁다큐	-6240
▁대치	-6241
▁만남	-6242
▁물에	-6243
▁반복	-6244
▁반영	-6245
▁베어	-6246
▁소집	-6247
▁신도	-6248
▁에릭	-6249
▁일과	-6250
▁전설	-6251
▁정의	-6252
▁정찰	-6253
▁탄압	-6254
▁투쟁	-6255
라마바	-6256
왔으며	-6257
용으로	-6258
작전을	-6259
적이며	-6260
직에서	-6261
eral	-6262
port	-6263
▁gro	-6264
▁out	-6265
▁경험이	-6266
▁공산당	-6267
▁기록한	-6268
▁다음날	-6269
▁라이언	-6270
▁리차드	-6271
▁벨기에	-6272
▁사고를	-6273
▁사실은	-6274
▁세력이	-6275
▁아기를	-6276
▁위협이	-6277
▁유튜브	-6278
▁이같이	-6279
▁인구가	-6280
▁장면이	-6281
▁정도의	-6282
▁정책에	-6283
▁포함돼	-6284
▁하면서	-6285
▁혜택을	-6286
▁활주로	-6287
▁휴가를	-6288
시켰다고	-6289
▁뉴햄프셔	-6290
▁방식으로	-6291
▁부상으로	-6292
▁사람들과	-6293
▁세계적인	-6294
▁여성들이	-6295
▁움직임을	-6296
▁진술했다	-6297
▁투표에서	-6298
▁알카에다와	-6299
▁이루어졌다	-6300
▁인플레이션	-6301
▁필라델피아	-6302
▁낼	-6303
▁닥	-6304
▁쓸	-6305
공격	-6306
니어	-6307
범죄	-6308
소와	-6309
아는	-6310
오픈	-6311
키퍼	-6312
테네	-6313
한번	-6314
해온	-6315
▁가게	-6316
▁가을	-6317
▁관중	-6318
▁구멍	-6319
▁기도	-6320
▁남동	-6321
▁로저	-6322
▁마사	-6323
▁뮤지	-6324
▁미성	-6325
▁보지	-6326
▁부딪	-6327
▁상반	-6328
▁상상	-6329
▁소형	-6330
▁스톤	-6331
▁에베	-6332
▁와이	-6333
▁우울	-6334
▁이자	-6335
▁임금	-6336
▁전환	-6337
▁포럼	-6338
▁폭설	-6339
▁해도	-6340
▁혁명	-6341
렸으며	-6342
안에서	-6343
▁ban	-6344
▁his	-6345
▁가족이	-6346
▁가했다	-6347
▁감염된	-6348
▁골키퍼	-6349
▁그루지	-6350
▁나라의	-6351
▁남동부	-6352
▁년에서	-6353
▁다큐멘	-6354
▁단어장	-6355
▁당국에	-6356
▁또다시	-6357
▁무슬림	-6358
▁미군을	-6359
▁방문객	-6360
▁방송을	-6361
▁브랜드	-6362
▁수상한	-6363
▁아이가	-6364
▁여성과	-6365
▁영화에	-6366
▁예정인	-6367
▁장관의	-6368
▁제공할	-6369
▁조사가	-6370
▁주장한	-6371
▁패배를	-6372
▁페이지	-6373
▁홍수로	-6374
▁plan	-6375
▁국가안보	-6376
▁국제원자	-6377
▁논의하기	-6378
▁다시한번	-6379
▁비행기를	-6380
▁아이들은	-6381
▁아이들의	-6382
▁알렉산더	-6383
▁영향력을	-6384
▁이미지를	-6385
▁진행되는	-6386
▁킬로미터	-6387
▁china	-6388
▁목격자들은	-6389
▁이슬라마바	-6390
▁전문가들이	-6391
▁증가했다고	-6392
▁조사에따르면	-6393
▁까	-6394
▁랜	-6395
각을	-6396
먼은	-6397
뱅크	-6398
보험	-6399
위츠	-6400
있던	-6401
차례	-6402
치게	-6403
커는	-6404
코맥	-6405
품이	-6406
ive	-6407
▁ba	-6408
▁dv	-6409
▁가치	-6410
▁각료	-6411
▁감옥	-6412
▁개시	-6413
▁게시	-6414
▁기온	-6415
▁난사	-6416
▁누리	-6417
▁달라	-6418
▁담겨	-6419
▁당부	-6420
▁라덴	-6421
▁맡고	-6422
▁배후	-6423
▁분간	-6424
▁사육	-6425
▁세포	-6426
▁순례	-6427
▁스카	-6428
▁아난	-6429
▁아라	-6430
▁않게	-6431
▁않기	-6432
▁에게	-6433
▁에스	-6434
▁예선	-6435
▁왼쪽	-6436
▁요원	-6437
▁위인	-6438
▁입수	-6439
▁자문	-6440
▁종종	-6441
▁주에	-6442
▁진화	-6443
▁질환	-6444
▁출생	-6445
▁코끼	-6446
▁쿠웨	-6447
▁포드	-6448
▁황금	-6449
라에서	-6450
립니다	-6451
▁hiv	-6452
▁vis	-6453
▁개혁을	-6454
▁검찰이	-6455
▁국장은	-6456
▁단체가	-6457
▁당신의	-6458
▁돌아다	-6459
▁마리아	-6460
▁무사히	-6461
▁미군과	-6462
▁미디어	-6463
▁벌이는	-6464
▁부시의	-6465
▁상태를	-6466
▁우리를	-6467
▁의원의	-6468
▁인간의	-6469
▁조종사	-6470
▁진정한	-6471
▁테러에	-6472
▁part	-6473
▁것이었다	-6474
▁내무부는	-6475
▁사람에게	-6476
▁아버지가	-6477
▁안전하게	-6478
▁있었으나	-6479
▁제조업체	-6480
▁백악관에서	-6481
▁알카에다의	-6482
▁에베레스트	-6483
▁외교통상부	-6484
▁한나라당은	-6485
▁사우스캐롤라이나	-6486
▁뭄	-6487
가와	-6488
감독	-6489
계는	-6490
금지	-6491
기자	-6492
느냐	-6493
더스	-6494
라면	-6495
라에	-6496
받을	-6497
일에	-6498
조를	-6499
주가	-6500
책임	-6501
해줄	-6502
화와	-6503
tit	-6504
▁가담	-6505
▁계좌	-6506
▁곳의	-6507
▁공을	-6508
▁나은	-6509
▁날개	-6510
▁다행	-6511
▁많아	-6512
▁불이	-6513
▁비평	-6514
▁살의	-6515
▁상어	-6516
▁선관	-6517
▁선원	-6518
▁섭취	-6519
▁섹스	-6520
▁소리	-6521
▁소위	-6522
▁손에	-6523
▁쓰레	-6524
▁연쇄	-6525
▁옹호	-6526
▁인민	-6527
▁일시	-6528
▁재임	-6529
▁적대	-6530
▁조원	-6531
▁캐릭	-6532
▁팀이	-6533
▁프라	-6534
▁플래	-6535
레스를	-6536
부르크	-6537
식에서	-6538
점으로	-6539
정부가	-6540
했음을	-6541
▁ind	-6542
▁mil	-6543
▁감독의	-6544
▁개발을	-6545
▁거리를	-6546
▁결과로	-6547
▁나오지	-6548
▁남성은	-6549
▁된다는	-6550
▁둘러싼	-6551
▁방법은	-6552
▁베스트	-6553
▁북서부	-6554
▁비교적	-6555
▁사업을	-6556
▁승리로	-6557
▁안정을	-6558
▁여사는	-6559
▁역사적	-6560
▁요청을	-6561
▁인기를	-6562
▁인질을	-6563
▁자신과	-6564
▁제작한	-6565
▁충돌이	-6566
▁케이트	-6567
▁키바키	-6568
▁통신이	-6569
▁페이스	-6570
▁하나로	-6571
▁하나인	-6572
겠습니다	-6573
▁show	-6574
▁가족들은	-6575
▁발생하고	-6576
▁비난하는	-6577
▁않겠다고	-6578
▁오바마를	-6579
▁우리에게	-6580
▁지도자가	-6581
▁쿠웨이트	-6582
▁항공우주	-6583
▁행정부가	-6584
▁후진타오	-6585
▁월스트리트	-6586
▁보고서에따르면	-6587
ax	-6588
sp	-6589
▁닉	-6590
▁링	-6591
동맹	-6592
방에	-6593
부로	-6594
비에	-6595
생물	-6596
석이	-6597
성장	-6598
스마	-6599
야는	-6600
제재	-6601
치며	-6602
터가	-6603
행한	-6604
혹한	-6605
ese	-6606
les	-6607
ous	-6608
ves	-6609
▁ur	-6610
▁가벼	-6611
▁갑작	-6612
▁개체	-6613
▁고유	-6614
▁구간	-6615
▁구역	-6616
▁글을	-6617
▁동생	-6618
▁말이	-6619
▁무게	-6620
▁보일	-6621
▁보존	-6622
▁선제	-6623
▁송환	-6624
▁수립	-6625
▁시나	-6626
▁식료	-6627
▁쓰고	-6628
▁에콰	-6629
▁예멘	-6630
▁적발	-6631
▁조용	-6632
▁지붕	-6633
▁천억	-6634
▁축소	-6635
▁호흡	-6636
▁화려	-6637
▁회장	-6638
관에서	-6639
라스틱	-6640
▁nba	-6641
▁곳이다	-6642
▁광범위	-6643
▁기회가	-6644
▁남서부	-6645
▁년만에	-6646
▁단체의	-6647
▁돌고래	-6648
▁마라톤	-6649
▁마음을	-6650
▁미성년	-6651
▁미시간	-6652
▁불가피	-6653
▁상당히	-6654
▁생물학	-6655
▁세인트	-6656
▁소규모	-6657
▁아이디	-6658
▁여론조	-6659
▁인용해	-6660
▁재검토	-6661
▁절차를	-6662
▁주도한	-6663
▁지원할	-6664
▁직원이	-6665
▁차례에	-6666
▁참석할	-6667
▁총재는	-6668
▁최근에	-6669
▁최대의	-6670
▁충격을	-6671
▁탑승객	-6672
▁협상에	-6673
▁혼란을	-6674
▁후보인	-6675
▁희망을	-6676
▁힐튼은	-6677
▁근처에서	-6678
▁대의원을	-6679
▁보여주고	-6680
▁북쪽으로	-6681
▁수준으로	-6682
▁연방준비	-6683
▁오바마에	-6684
▁월요일에	-6685
▁이용하는	-6686
▁치명적인	-6687
▁표명했다	-6688
▁헌법재판	-6689
▁경찰서장은	-6690
▁성공적으로	-6691
▁세계적으로	-6692
▁프라이머리	-6693
▁intern	-6694
pe	-6695
▁숲	-6696
▁옛	-6697
▁컬	-6698
▁퀸	-6699
▁팝	-6700
▁폰	-6701
널드	-6702
려진	-6703
로이	-6704
밀히	-6705
복선	-6706
의회	-6707
지원	-6708
질이	-6709
튼은	-6710
패를	-6711
are	-6712
iti	-6713
▁걸린	-6714
▁곳이	-6715
▁길이	-6716
▁낙관	-6717
▁되돌	-6718
▁듣고	-6719
▁리더	-6720
▁마친	-6721
▁모래	-6722
▁반박	-6723
▁방사	-6724
▁부산	-6725
▁세로	-6726
▁세부	-6727
▁신규	-6728
▁이륙	-6729
▁이식	-6730
▁일의	-6731
▁자제	-6732
▁전복	-6733
▁제목	-6734
▁제트	-6735
▁짧은	-6736
▁차별	-6737
▁참모	-6738
▁침공	-6739
▁태운	-6740
▁폭스	-6741
▁표준	-6742
▁행진	-6743
▁협정	-6744
▁횡령	-6745
▁후지	-6746
기라이	-6747
도에서	-6748
베니아	-6749
운동을	-6750
폴리스	-6751
▁dvd	-6752
▁iss	-6753
▁not	-6754
▁sol	-6755
▁가족을	-6756
▁갖추고	-6757
▁것임을	-6758
▁국민의	-6759
▁근거로	-6760
▁뉴욕의	-6761
▁달리고	-6762
▁도착한	-6763
▁뭄바이	-6764
▁민감한	-6765
▁반군의	-6766
▁발견한	-6767
▁발표를	-6768
▁부부가	-6769
▁사용해	-6770
▁상황은	-6771
▁생각이	-6772
▁시위는	-6773
▁실시할	-6774
▁영국은	-6775
▁원주민	-6776
▁이름이	-6777
▁일어날	-6778
▁정권을	-6779
▁주었다	-6780
▁차이가	-6781
▁파나마	-6782
▁했었다	-6783
▁호주의	-6784
▁가택연금	-6785
▁받아들여	-6786
▁운영하고	-6787
▁의미한다	-6788
▁차지하고	-6789
▁샌디에이고	-6790
▁지역에서는	-6791
▁국제원자력기구	-6792
▁싫	-6793
▁핀	-6794
결승	-6795
니까	-6796
니에	-6797
도우	-6798
리어	-6799
버리	-6800
비스	-6801
유럽	-6802
율로	-6803
접한	-6804
주지	-6805
직에	-6806
코는	-6807
펠드	-6808
확인	-6809
ome	-6810
ork	-6811
orn	-6812
ven	-6813
▁md	-6814
▁pa	-6815
▁가상	-6816
▁관측	-6817
▁눈을	-6818
▁뉴올	-6819
▁당초	-6820
▁리드	-6821
▁마비	-6822
▁말할	-6823
▁모건	-6824
▁모니	-6825
▁물건	-6826
▁미스	-6827
▁발휘	-6828
▁백인	-6829
▁보게	-6830
▁부사	-6831
▁부적	-6832
▁불쾌	-6833
▁비치	-6834
▁상영	-6835
▁수리	-6836
▁수비	-6837
▁스콜	-6838
▁신중	-6839
▁아는	-6840
▁얘기	-6841
▁에티	-6842
▁용납	-6843
▁저희	-6844
▁중남	-6845
▁책을	-6846
▁출두	-6847
▁케리	-6848
▁코카	-6849
▁특징	-6850
▁하미	-6851
▁호르	-6852
▁홈페	-6853
드리게	-6854
메이트	-6855
법원은	-6856
onom	-6857
▁are	-6858
▁건물이	-6859
▁결혼을	-6860
▁경찰청	-6861
▁계속될	-6862
▁교황은	-6863
▁규정을	-6864
▁도로를	-6865
▁레이건	-6866
▁메르켈	-6867
▁문제와	-6868
▁미치는	-6869
▁바라는	-6870
▁법무부	-6871
▁비서실	-6872
▁상태다	-6873
▁선수가	-6874
▁수감자	-6875
▁않았던	-6876
▁압박을	-6877
▁양국의	-6878
▁영국인	-6879
▁이브라	-6880
▁일어났	-6881
▁일이다	-6882
▁있어야	-6883
▁중단할	-6884
▁출연한	-6885
▁크레이	-6886
▁투표에	-6887
▁하루에	-6888
▁합의한	-6889
▁했으나	-6890
▁확인할	-6891
▁계속되는	-6892
▁뉴올리언	-6893
▁동티모르	-6894
▁발표하고	-6895
▁변호사인	-6896
▁소식통이	-6897
▁에드워즈	-6898
▁주둔하고	-6899
▁탈레반은	-6900
▁party	-6901
▁매사추세츠	-6902
▁미국인들은	-6903
▁안전보장이	-6904
▁체포됐다고	-6905
▁한나라당의	-6906
▁마이크로소프트	-6907
fl	-6908
▁꼬	-6909
▁뱀	-6910
▁윔	-6911
▁틸	-6912
급을	-6913
등을	-6914
물로	-6915
물의	-6916
바르	-6917
받은	-6918
설을	-6919
스티	-6920
시와	-6921
안의	-6922
일으	-6923
임이	-6924
점은	-6925
진과	-6926
ree	-6927
▁공약	-6928
▁구단	-6929
▁낮추	-6930
▁내보	-6931
▁내일	-6932
▁대대	-6933
▁따돌	-6934
▁래리	-6935
▁루아	-6936
▁본격	-6937
▁북동	-6938
▁빌딩	-6939
▁빨간	-6940
▁선임	-6941
▁수면	-6942
▁수여	-6943
▁시라	-6944
▁앤더	-6945
▁없게	-6946
▁없고	-6947
▁여명	-6948
▁연금	-6949
▁오스	-6950
▁원래	-6951
▁의도	-6952
▁정교	-6953
▁진실	-6954
▁출구	-6955
▁친척	-6956
▁쿠퍼	-6957
▁탄생	-6958
▁탱크	-6959
▁푸에	-6960
▁회계	-6961
▁효율	-6962
관들이	-6963
된다면	-6964
적이다	-6965
주의자	-6966
reat	-6967
▁가족은	-6968
▁경제의	-6969
▁관련한	-6970
▁교육을	-6971
▁군사적	-6972
▁난민촌	-6973
▁남자는	-6974
▁노력이	-6975
▁대상이	-6976
▁등으로	-6977
▁만들기	-6978
▁매니저	-6979
▁별다른	-6980
▁복잡한	-6981
▁분만에	-6982
▁사고는	-6983
▁생명을	-6984
▁속도로	-6985
▁아들을	-6986
▁애완견	-6987
▁앤드류	-6988
▁양측은	-6989
▁언급을	-6990
▁우주선	-6991
▁정권이	-6992
▁철수를	-6993
▁파업을	-6994
▁평화와	-6995
▁하락한	-6996
▁하와이	-6997
▁행사를	-6998
▁헬기가	-6999
했었다고	-7000
▁coun	-7001
▁개인적인	-7002
▁교도소에	-7003
▁국제공항	-7004
▁남부에서	-7005
▁매케인이	-7006
▁부통령은	-7007
▁불러일으	-7008
▁성관계를	-7009
▁영화배우	-7010
▁예를들어	-7011
▁주장한다	-7012
▁아프간에서	-7013
▁지지자들이	-7014
▁크라이슬러	-7015
ph	-7016
▁엠	-7017
교를	-7018
나의	-7019
니와	-7020
니티	-7021
락을	-7022
레인	-7023
름을	-7024
마는	-7025
식의	-7026
연한	-7027
였고	-7028
오고	-7029
ite	-7030
one	-7031
▁cr	-7032
▁금연	-7033
▁기여	-7034
▁끝날	-7035
▁나눴	-7036
▁녹음	-7037
▁달린	-7038
▁당황	-7039
▁딸이	-7040
▁떠난	-7041
▁벌금	-7042
▁부유	-7043
▁살이	-7044
▁샘플	-7045
▁성추	-7046
▁세가	-7047
▁솔직	-7048
▁수배	-7049
▁시대	-7050
▁신조	-7051
▁알지	-7052
▁어깨	-7053
▁얻고	-7054
▁영상	-7055
▁옐친	-7056
▁완료	-7057
▁의문	-7058
▁일상	-7059
▁정지	-7060
▁종결	-7061
▁처해	-7062
▁침략	-7063
▁편의	-7064
▁향상	-7065
▁허커	-7066
▁협회	-7067
▁화면	-7068
되거나	-7069
문에서	-7070
시에서	-7071
해야만	-7072
▁exp	-7073
▁고위관	-7074
▁공습을	-7075
▁그레이	-7076
▁나타난	-7077
▁루이지	-7078
▁마흐디	-7079
▁목표는	-7080
▁무고한	-7081
▁밝혀진	-7082
▁범인이	-7083
▁법안은	-7084
▁식료품	-7085
▁신고를	-7086
▁원인이	-7087
▁은행의	-7088
▁음악을	-7089
▁인도의	-7090
▁일본과	-7091
▁일본인	-7092
▁자리에	-7093
▁조사한	-7094
▁종류의	-7095
▁죽음을	-7096
▁차례의	-7097
▁촬영한	-7098
▁팬들은	-7099
▁펠로시	-7100
▁후보와	-7101
적이라고	-7102
▁lead	-7103
▁news	-7104
▁국가들은	-7105
▁국방장관	-7106
▁들어갔다	-7107
▁로드리게	-7108
▁마드리드	-7109
▁바란다고	-7110
▁방문하는	-7111
▁브라운은	-7112
▁상태에서	-7113
▁않는다는	-7114
▁예비선거	-7115
▁외무장관	-7116
▁의사들은	-7117
▁인근에서	-7118
▁자카르타	-7119
▁조건으로	-7120
▁지점에서	-7121
▁천연가스	-7122
▁클린턴의	-7123
▁플라스틱	-7124
▁하마스가	-7125
▁해안에서	-7126
▁화요일에	-7127
▁다이아몬드	-7128
▁스타디움에서	-7129
▁foreign	-7130
▁끔	-7131
▁널	-7132
▁댄	-7133
▁햄	-7134
교통	-7135
나무	-7136
단히	-7137
데스	-7138
로가	-7139
마자	-7140
블던	-7141
식은	-7142
체제	-7143
타르	-7144
토늄	-7145
팀을	-7146
폴리	-7147
프를	-7148
학과	-7149
eek	-7150
man	-7151
▁we	-7152
▁갖는	-7153
▁관료	-7154
▁국토	-7155
▁군이	-7156
▁기차	-7157
▁낙태	-7158
▁담은	-7159
▁로딕	-7160
▁매달	-7161
▁벗어	-7162
▁본부	-7163
▁본토	-7164
▁불에	-7165
▁빠질	-7166
▁상륙	-7167
▁선호	-7168
▁설문	-7169
▁세비	-7170
▁습격	-7171
▁아시	-7172
▁앞둔	-7173
▁양의	-7174
▁유도	-7175
▁좌절	-7176
▁철군	-7177
▁축출	-7178
▁쿠즈	-7179
▁탐험	-7180
▁투르	-7181
▁팀을	-7182
▁파이	-7183
▁퍼거	-7184
▁해서	-7185
▁환호	-7186
국에서	-7187
냈다고	-7188
당국이	-7189
스트는	-7190
시스템	-7191
tive	-7192
▁day	-7193
▁hou	-7194
▁mon	-7195
▁sup	-7196
▁tro	-7197
▁가치를	-7198
▁결정할	-7199
▁교도소	-7200
▁국가로	-7201
▁기쁘다	-7202
▁놀라운	-7203
▁다리를	-7204
▁단체인	-7205
▁대표가	-7206
▁데이빗	-7207
▁동일한	-7208
▁만났다	-7209
▁뮤지컬	-7210
▁보도가	-7211
▁보이며	-7212
▁브리핑	-7213
▁사상자	-7214
▁사실에	-7215
▁상당의	-7216
▁생방송	-7217
▁성명은	-7218
▁시신이	-7219
▁실수를	-7220
▁않기로	-7221
▁윔블던	-7222
▁유엔의	-7223
▁이용할	-7224
▁일으킬	-7225
▁작업에	-7226
▁증시가	-7227
▁지지선	-7228
▁처벌을	-7229
▁충돌로	-7230
▁카트리	-7231
▁푸틴은	-7232
▁프랭크	-7233
▁하나는	-7234
▁학교에	-7235
▁회장이	-7236
ution	-7237
▁국가들이	-7238
▁밝혔으며	-7239
▁밝혔지만	-7240
▁부정적인	-7241
▁비난하며	-7242
▁비행기가	-7243
▁사용하지	-7244
▁상태이다	-7245
▁아버지는	-7246
▁원자로를	-7247
▁유혈사태	-7248
▁인질들을	-7249
▁있었다는	-7250
▁지원하는	-7251
▁평화유지	-7252
▁대선후보로	-7253
▁분석가들은	-7254
▁유권자들이	-7255
▁프리미어리그	-7256
▁첩	-7257
▁템	-7258
격히	-7259
렸고	-7260
미니	-7261
발전	-7262
봉사	-7263
슨과	-7264
자료	-7265
전쟁	-7266
책이	-7267
톨릭	-7268
판이	-7269
향을	-7270
화한	-7271
ber	-7272
erv	-7273
ide	-7274
▁sk	-7275
▁sn	-7276
▁갔다	-7277
▁개장	-7278
▁건너	-7279
▁급락	-7280
▁느낄	-7281
▁돕기	-7282
▁동남	-7283
▁되길	-7284
▁딸을	-7285
▁러닝	-7286
▁맞는	-7287
▁메디	-7288
▁멤버	-7289
▁몰고	-7290
▁발포	-7291
▁부서	-7292
▁사설	-7293
▁손님	-7294
▁알제	-7295
▁암컷	-7296
▁약화	-7297
▁여섯	-7298
▁위스	-7299
▁유인	-7300
▁정거	-7301
▁주유	-7302
▁주주	-7303
▁직전	-7304
▁창출	-7305
▁청년	-7306
▁태어	-7307
▁테네	-7308
▁파라	-7309
▁파파	-7310
▁포착	-7311
▁현장	-7312
▁형제	-7313
▁휩쓸	-7314
▁힌두	-7315
당했다	-7316
리프는	-7317
오피아	-7318
은행은	-7319
타나모	-7320
ates	-7321
▁mbc	-7322
▁건강이	-7323
▁광고를	-7324
▁구호를	-7325
▁기업의	-7326
▁뉴저지	-7327
▁돌아오	-7328
▁라파엘	-7329
▁민병대	-7330
▁보이콧	-7331
▁사과를	-7332
▁성장을	-7333
▁소식은	-7334
▁여부에	-7335
▁영국군	-7336
▁이제는	-7337
▁장군은	-7338
▁주의를	-7339
▁참여할	-7340
▁파바로	-7341
▁평화적	-7342
▁평화협	-7343
▁피라미	-7344
왔습니다	-7345
인들에게	-7346
축구연맹	-7347
▁거주하고	-7348
▁공개됐다	-7349
▁군인들이	-7350
▁남자친구	-7351
▁드러냈다	-7352
▁못하도록	-7353
▁소유하고	-7354
▁심각하게	-7355
▁않는다면	-7356
▁에어버스	-7357
▁인도주의	-7358
▁일이라고	-7359
▁지시했다	-7360
▁직접적인	-7361
▁해당하는	-7362
▁milit	-7363
▁obama	-7364
▁루이지애나	-7365
▁에티오피아	-7366
▁자유무역협	-7367
▁폭력사태가	-7368
oy	-7369
▁겁	-7370
▁닫	-7371
▁럼	-7372
▁썼	-7373
▁컵	-7374
관인	-7375
교육	-7376
량은	-7377
로코	-7378
마디	-7379
물은	-7380
법은	-7381
브를	-7382
연방	-7383
연히	-7384
입어	-7385
즈와	-7386
하르	-7387
호의	-7388
▁au	-7389
▁ir	-7390
▁개편	-7391
▁계열	-7392
▁고급	-7393
▁괴한	-7394
▁내고	-7395
▁노트	-7396
▁데에	-7397
▁돼지	-7398
▁떠올	-7399
▁마돈	-7400
▁번역	-7401
▁북서	-7402
▁세속	-7403
▁소련	-7404
▁애니	-7405
▁열고	-7406
▁의뢰	-7407
▁잇따	-7408
▁재직	-7409
▁전사	-7410
▁제리	-7411
▁종료	-7412
▁주기	-7413
▁주전	-7414
▁줄어	-7415
▁줄일	-7416
▁진보	-7417
▁처한	-7418
▁캐롤	-7419
▁콜린	-7420
▁토크	-7421
▁하에	-7422
▁혼자	-7423
▁화합	-7424
▁활약	-7425
만으로	-7426
장관이	-7427
지역을	-7428
ical	-7429
▁att	-7430
▁fda	-7431
▁imf	-7432
▁격렬한	-7433
▁결의안	-7434
▁경쟁을	-7435
▁납치범	-7436
▁논쟁이	-7437
▁대다수	-7438
▁도시의	-7439
▁마리를	-7440
▁명에서	-7441
▁부분을	-7442
▁북부에	-7443
▁빠져나	-7444
▁사드르	-7445
▁상승한	-7446
▁성향의	-7447
▁세계적	-7448
▁소식에	-7449
▁수도인	-7450
▁시드의	-7451
▁양국은	-7452
▁언론의	-7453
▁오스카	-7454
▁원하고	-7455
▁이곳은	-7456
▁이란과	-7457
▁지지자	-7458
▁차이로	-7459
▁피닉스	-7460
▁힘입어	-7461
▁prot	-7462
▁곤잘레스	-7463
▁관타나모	-7464
▁매케인의	-7465
▁발표됐다	-7466
▁밝혔다고	-7467
▁방향으로	-7468
▁법원에서	-7469
▁불가리아	-7470
▁선포했다	-7471
▁않았으나	-7472
▁위치하고	-7473
▁자택에서	-7474
▁전망했다	-7475
▁지도자는	-7476
▁지원하고	-7477
▁직원들이	-7478
▁추정된다	-7479
▁프로젝트	-7480
▁state	-7481
▁visit	-7482
▁상원의원의	-7483
▁전국적으로	-7484
▁펜실베니아	-7485
▁econom	-7486
▁깃	-7487
▁롱	-7488
▁탔	-7489
경에	-7490
경은	-7491
고기	-7492
도상	-7493
돼야	-7494
란을	-7495
래스	-7496
론은	-7497
론이	-7498
리코	-7499
보건	-7500
성근	-7501
소속	-7502
슬리	-7503
승희	-7504
심이	-7505
아노	-7506
용이	-7507
이한	-7508
터스	-7509
품에	-7510
할지	-7511
duc	-7512
oul	-7513
ret	-7514
▁nk	-7515
▁ww	-7516
▁가속	-7517
▁개성	-7518
▁공룡	-7519
▁군대	-7520
▁군의	-7521
▁금액	-7522
▁끔찍	-7523
▁남겨	-7524
▁농업	-7525
▁당사	-7526
▁도요	-7527
▁떠오	-7528
▁멀리	-7529
▁미주	-7530
▁벽돌	-7531
▁보스	-7532
▁복역	-7533
▁식민	-7534
▁신분	-7535
▁실린	-7536
▁심문	-7537
▁야스	-7538
▁양육	-7539
▁억제	-7540
▁오리	-7541
▁자동	-7542
▁잡아	-7543
▁점검	-7544
▁좀더	-7545
▁차이	-7546
▁천문	-7547
▁카터	-7548
▁탄광	-7549
▁통상	-7550
▁피살	-7551
▁하여	-7552
당에서	-7553
있으며	-7554
페이스	-7555
▁war	-7556
▁가족의	-7557
▁경기침	-7558
▁나이가	-7559
▁논쟁을	-7560
▁들어간	-7561
▁라이브	-7562
▁모양의	-7563
▁물러나	-7564
▁미국측	-7565
▁받았던	-7566
▁사항을	-7567
▁살아남	-7568
▁생산을	-7569
▁손실을	-7570
▁시장을	-7571
▁아테네	-7572
▁않았고	-7573
▁완벽한	-7574
▁일에는	-7575
▁정신적	-7576
▁주가는	-7577
▁주년을	-7578
▁중남미	-7579
▁최선을	-7580
▁테니스	-7581
▁통일부	-7582
▁투자가	-7583
▁페더러	-7584
▁포함된	-7585
▁필요로	-7586
▁하미드	-7587
▁한국군	-7588
▁한국을	-7589
▁행사에	-7590
▁행위에	-7591
한글뉴스	-7592
▁공산주의	-7593
▁국무부는	-7594
▁극단주의	-7595
▁러시아가	-7596
▁마을에서	-7597
▁무장대원	-7598
▁민주당이	-7599
▁보입니다	-7600
▁에콰도르	-7601
▁요구하며	-7602
▁용의자로	-7603
▁유럽에서	-7604
▁유지하고	-7605
▁전반적인	-7606
▁전통적인	-7607
▁좋아하는	-7608
▁주한미군	-7609
▁지지하고	-7610
▁캠페인을	-7611
▁탈레반이	-7612
▁포함하여	-7613
▁행정부의	-7614
▁talks	-7615
▁결정했다고	-7616
▁때문이라고	-7617
▁상원의원과	-7618
▁예정이었다	-7619
▁이스라엘에	-7620
▁곰	-7621
▁띄	-7622
▁밟	-7623
▁엉	-7624
▁햇	-7625
그로	-7626
내며	-7627
라드	-7628
문제	-7629
바스	-7630
비상	-7631
사무	-7632
사항	-7633
실은	-7634
유를	-7635
이상	-7636
체에	-7637
향이	-7638
호르	-7639
own	-7640
▁nh	-7641
▁간부	-7642
▁간에	-7643
▁갇혀	-7644
▁검증	-7645
▁기금	-7646
▁나선	-7647
▁나설	-7648
▁넘겨	-7649
▁놓여	-7650
▁느낀	-7651
▁도청	-7652
▁되며	-7653
▁떠날	-7654
▁말에	-7655
▁매매	-7656
▁메일	-7657
▁미네	-7658
▁방위	-7659
▁벌써	-7660
▁불어	-7661
▁석을	-7662
▁선전	-7663
▁술을	-7664
▁술집	-7665
▁아담	-7666
▁아틀	-7667
▁알레	-7668
▁양자	-7669
▁어두	-7670
▁에넹	-7671
▁연간	-7672
▁울포	-7673
▁윤리	-7674
▁일축	-7675
▁자발	-7676
▁잡혀	-7677
▁징후	-7678
▁카드	-7679
▁카리	-7680
▁카메	-7681
▁크레	-7682
▁트로	-7683
▁함유	-7684
서에서	-7685
았지만	-7686
이즈미	-7687
자동차	-7688
자이너	-7689
젤레스	-7690
판결을	-7691
해지고	-7692
olog	-7693
▁dem	-7694
▁ins	-7695
▁man	-7696
▁rec	-7697
▁가벼운	-7698
▁감사의	-7699
▁건강에	-7700
▁건강한	-7701
▁게릴라	-7702
▁기소된	-7703
▁남부에	-7704
▁남편인	-7705
▁도시인	-7706
▁디스크	-7707
▁떠났다	-7708
▁루아얄	-7709
▁마스터	-7710
▁막대한	-7711
▁모르는	-7712
▁반대로	-7713
▁보도에	-7714
▁보호를	-7715
▁소속의	-7716
▁쓰촨성	-7717
▁않으며	-7718
▁오른쪽	-7719
▁우주왕	-7720
▁위험을	-7721
▁은행에	-7722
▁이뤄진	-7723
▁이용한	-7724
▁제공한	-7725
▁제출한	-7726
▁조사는	-7727
▁조사할	-7728
▁준결승	-7729
▁중이던	-7730
▁증가할	-7731
▁지역인	-7732
▁테러는	-7733
▁투자를	-7734
▁팬들이	-7735
▁합의에	-7736
▁활동에	-7737
▁회의에	-7738
▁효과가	-7739
아일랜드	-7740
았습니다	-7741
▁opec	-7742
▁공습으로	-7743
▁교통사고	-7744
▁당선인이	-7745
▁대학에서	-7746
▁민주당은	-7747
▁사망자는	-7748
▁사용하고	-7749
▁올림픽을	-7750
▁외무부는	-7751
▁이뤄졌다	-7752
▁인터넷에	-7753
▁자유롭게	-7754
▁조지아주	-7755
▁페더러는	-7756
자들로부터	-7757
▁seoul	-7758
▁있었습니다	-7759
▁정상회담을	-7760
▁american	-7761
fp	-7762
▁떼	-7763
▁뜨	-7764
▁쏘	-7765
▁앵	-7766
▁얀	-7767
기금	-7768
기기	-7769
다란	-7770
당을	-7771
라와	-7772
린은	-7773
바오	-7774
법에	-7775
사령	-7776
소한	-7777
실로	-7778
아가	-7779
제르	-7780
조건	-7781
진압	-7782
티가	-7783
피스	-7784
ife	-7785
min	-7786
▁ru	-7787
▁가고	-7788
▁가즈	-7789
▁갈라	-7790
▁고무	-7791
▁공원	-7792
▁교섭	-7793
▁기계	-7794
▁느꼈	-7795
▁다룬	-7796
▁도살	-7797
▁만년	-7798
▁면담	-7799
▁몸에	-7800
▁보급	-7801
▁사절	-7802
▁쉽지	-7803
▁실무	-7804
▁실직	-7805
▁아닙	-7806
▁양곤	-7807
▁업계	-7808
▁영업	-7809
▁오렌	-7810
▁우고	-7811
▁유감	-7812
▁점거	-7813
▁제압	-7814
▁조절	-7815
▁처방	-7816
▁커뮤	-7817
▁탈락	-7818
▁화해	-7819
▁휴가	-7820
▁흘러	-7821
권성근	-7822
때까지	-7823
면에서	-7824
시리즈	-7825
원들의	-7826
지수가	-7827
프라임	-7828
하마드	-7829
행위를	-7830
회의에	-7831
▁cdc	-7832
▁eng	-7833
▁fif	-7834
▁pri	-7835
▁경선을	-7836
▁경험을	-7837
▁고고학	-7838
▁그녀를	-7839
▁글로벌	-7840
▁나달은	-7841
▁남성의	-7842
▁노래를	-7843
▁높다고	-7844
▁다음주	-7845
▁다쳤다	-7846
▁대회를	-7847
▁데일리	-7848
▁또다른	-7849
▁법안에	-7850
▁베네딕	-7851
▁부토의	-7852
▁스크린	-7853
▁시간에	-7854
▁약간의	-7855
▁얼마전	-7856
▁에이커	-7857
▁영국과	-7858
▁오클라	-7859
▁왕자가	-7860
▁원인은	-7861
▁월에는	-7862
▁이익을	-7863
▁일련의	-7864
▁전하고	-7865
▁조승희	-7866
▁차관은	-7867
▁총상을	-7868
▁포르노	-7869
▁하거나	-7870
▁할머니	-7871
▁해병대	-7872
▁핵개발	-7873
▁회사를	-7874
▁히틀러	-7875
▁more	-7876
▁고려하고	-7877
▁고이즈미	-7878
▁국가에서	-7879
▁기소됐다	-7880
▁당했다고	-7881
▁아니라는	-7882
▁아니었다	-7883
▁아프간에	-7884
▁이와같이	-7885
▁중동평화	-7886
▁챔피언십	-7887
▁클린턴에	-7888
▁호소했다	-7889
▁확인됐다	-7890
▁무샤라프는	-7891
▁상원의원을	-7892
▁발표했습니다	-7893
▁여론조사에서	-7894
pa	-7895
▁핸	-7896
개를	-7897
경영	-7898
글로	-7899
날드	-7900
노스	-7901
니야	-7902
두는	-7903
령이	-7904
모스	-7905
사관	-7906
았을	-7907
어질	-7908
에미	-7909
우기	-7910
작전	-7911
종의	-7912
체는	-7913
카트	-7914
키로	-7915
터키	-7916
itt	-7917
▁by	-7918
▁my	-7919
▁ph	-7920
▁sy	-7921
▁가짜	-7922
▁곳곳	-7923
▁교전	-7924
▁금메	-7925
▁금속	-7926
▁놀이	-7927
▁동북	-7928
▁들이	-7929
▁마케	-7930
▁맞고	-7931
▁매출	-7932
▁맥도	-7933
▁멈추	-7934
▁모금	-7935
▁무슨	-7936
▁미첼	-7937
▁미터	-7938
▁반도	-7939
▁발발	-7940
▁붙여	-7941
▁블록	-7942
▁서서	-7943
▁서양	-7944
▁숨을	-7945
▁스토	-7946
▁엔터	-7947
▁연계	-7948
▁연례	-7949
▁열심	-7950
▁일치	-7951
▁있은	-7952
▁잡지	-7953
▁전형	-7954
▁주립	-7955
▁중의	-7956
▁즐길	-7957
▁지고	-7958
▁지는	-7959
▁진지	-7960
▁취한	-7961
▁크라	-7962
▁타밀	-7963
▁탄도	-7964
▁테이	-7965
▁통행	-7966
▁퇴원	-7967
▁팀의	-7968
▁파월	-7969
▁풍부	-7970
▁하버	-7971
▁학대	-7972
나에서	-7973
머니는	-7974
베르토	-7975
스트라	-7976
졌지만	-7977
지역의	-7978
쳤으며	-7979
혐의로	-7980
▁fin	-7981
▁fir	-7982
▁경매에	-7983
▁공격한	-7984
▁국가에	-7985
▁권리가	-7986
▁남편이	-7987
▁노트북	-7988
▁뉴욕주	-7989
▁늘어나	-7990
▁도미니	-7991
▁됐으며	-7992
▁목사는	-7993
▁방송에	-7994
▁불능화	-7995
▁뿐이다	-7996
▁살해된	-7997
▁수입을	-7998
▁심장마	-7999
▁앞서고	-8000
▁엄격한	-8001
▁연구소	-8002
▁연기를	-8003
▁연합군	-8004
▁열대성	-8005
▁열렸다	-8006
▁유대인	-8007
▁의견이	-8008
▁이끌고	-8009
▁이메일	-8010
▁일으켰	-8011
▁제외한	-8012
▁지구에	-8013
▁최첨단	-8014
▁폭우로	-8015
▁행동에	-8016
▁향하는	-8017
▁conf	-8018
▁wash	-8019
▁강전에서	-8020
▁결정적인	-8021
▁나타내는	-8022
▁뉴욕타임	-8023
▁동성애자	-8024
▁보여준다	-8025
▁아닙니다	-8026
▁아름다운	-8027
▁알바니아	-8028
▁연구소의	-8029
▁오클라호	-8030
▁용의자는	-8031
▁위원장이	-8032
▁위협하고	-8033
▁일어나는	-8034
▁준비하고	-8035
▁중이었다	-8036
▁참석하지	-8037
▁타임즈가	-8038
▁확산되고	-8039
ington	-8040
▁결승전에서	-8041
▁시작했다고	-8042
▁알카에다가	-8043
▁우주비행사	-8044
▁secret	-8045
▁넬	-8046
▁몽	-8047
▁턱	-8048
거를	-8049
국과	-8050
는가	-8051
드베	-8052
란타	-8053
력은	-8054
문은	-8055
병이	-8056
생산	-8057
세한	-8058
이와	-8059
졌을	-8060
치와	-8061
크가	-8062
통이	-8063
트와	-8064
판에	-8065
행위	-8066
확실	-8067
ach	-8068
ops	-8069
▁가중	-8070
▁거론	-8071
▁계산	-8072
▁그만	-8073
▁기숙	-8074
▁내지	-8075
▁냈다	-8076
▁단행	-8077
▁당해	-8078
▁데려	-8079
▁도심	-8080
▁때는	-8081
▁모양	-8082
▁모욕	-8083
▁무덤	-8084
▁무승	-8085
▁미리	-8086
▁믿을	-8087
▁밀려	-8088
▁박탈	-8089
▁발행	-8090
▁법무	-8091
▁부탁	-8092
▁부터	-8093
▁빼앗	-8094
▁세탁	-8095
▁씨가	-8096
▁압력	-8097
▁야구	-8098
▁양성	-8099
▁양키	-8100
▁여권	-8101
▁옆에	-8102
▁유기	-8103
▁유통	-8104
▁음성	-8105
▁이다	-8106
▁전년	-8107
▁정전	-8108
▁제약	-8109
▁조심	-8110
▁준수	-8111
▁직업	-8112
▁차베	-8113
▁채취	-8114
▁카지	-8115
▁택시	-8116
▁터널	-8117
▁퇴임	-8118
▁펼친	-8119
▁폭동	-8120
▁플라	-8121
▁하자	-8122
▁허드	-8123
▁형사	-8124
되기도	-8125
레스는	-8126
비치는	-8127
상태에	-8128
자금을	-8129
회의를	-8130
ency	-8131
▁gen	-8132
▁has	-8133
▁roh	-8134
▁강제로	-8135
▁건물에	-8136
▁경기는	-8137
▁계속된	-8138
▁고위급	-8139
▁국가인	-8140
▁남학생	-8141
▁너무나	-8142
▁대서양	-8143
▁대책을	-8144
▁데이터	-8145
▁들어갈	-8146
▁메드베	-8147
▁무엇을	-8148
▁방문은	-8149
▁법원의	-8150
▁불확실	-8151
▁브래드	-8152
▁사임을	-8153
▁사진이	-8154
▁상처를	-8155
▁서울시	-8156
▁서장은	-8157
▁성공을	-8158
▁안으로	-8159
▁알렉스	-8160
▁알렸다	-8161
▁야후의	-8162
▁여지가	-8163
▁역사를	-8164
▁위스콘	-8165
▁윈도우	-8166
▁유명인	-8167
▁이후에	-8168
▁인터폴	-8169
▁일본을	-8170
▁일하고	-8171
▁잃어버	-8172
▁자리잡	-8173
▁중에서	-8174
▁증언을	-8175
▁커다란	-8176
▁터키의	-8177
▁테네시	-8178
들에게는	-8179
▁time	-8180
▁가능성도	-8181
▁가족들과	-8182
▁담당자는	-8183
▁대법원은	-8184
▁동영상이	-8185
▁디자이너	-8186
▁미얀마의	-8187
▁법정에서	-8188
▁보고서에	-8189
▁빅토리아	-8190
▁아니지만	-8191
▁앞으로도	-8192
▁언급하며	-8193
▁여성들은	-8194
▁움직임은	-8195
▁이루어진	-8196
▁이름으로	-8197
▁이브라힘	-8198
▁제시했다	-8199
▁테러조직	-8200
▁텍사스주	-8201
▁플루토늄	-8202
▁대통령으로	-8203
▁민주주의를	-8204
▁오클라호마	-8205
▁통과시켰다	-8206
▁프라이머리에서	-8207
ck	-8208
ls	-8209
po	-8210
vs	-8211
▁딘	-8212
▁써	-8213
▁옳	-8214
▁웰	-8215
▁팽	-8216
▁펄	-8217
넬라	-8218
념을	-8219
단과	-8220
되길	-8221
로에	-8222
미는	-8223
받아	-8224
법원	-8225
사업	-8226
세프	-8227
아버	-8228
아의	-8229
았고	-8230
어요	-8231
연료	-8232
제네	-8233
지방	-8234
진의	-8235
체로	-8236
카는	-8237
클럽	-8238
▁ge	-8239
▁pm	-8240
▁pr	-8241
▁uc	-8242
▁교외	-8243
▁귀환	-8244
▁기원	-8245
▁낮아	-8246
▁노인	-8247
▁느낌	-8248
▁다수	-8249
▁망원	-8250
▁맥캔	-8251
▁모술	-8252
▁모아	-8253
▁무자	-8254
▁밀어	-8255
▁바탕	-8256
▁바티	-8257
▁부검	-8258
▁분께	-8259
▁살모	-8260
▁수류	-8261
▁신발	-8262
▁실현	-8263
▁아지	-8264
▁애국	-8265
▁요리	-8266
▁원인	-8267
▁유일	-8268
▁이득	-8269
▁잇는	-8270
▁정리	-8271
▁조약	-8272
▁종식	-8273
▁중태	-8274
▁판다	-8275
▁해저	-8276
▁활발	-8277
단체인	-8278
들이다	-8279
스럽다	-8280
에게도	-8281
진으로	-8282
트레이	-8283
▁int	-8284
▁기사를	-8285
▁내려진	-8286
▁누구도	-8287
▁느끼고	-8288
▁머레이	-8289
▁발표는	-8290
▁방문해	-8291
▁방법에	-8292
▁병력이	-8293
▁사진은	-8294
▁사형을	-8295
▁생각해	-8296
▁성공한	-8297
▁수행할	-8298
▁스타벅	-8299
▁스타일	-8300
▁스파이	-8301
▁영국에	-8302
▁영화가	-8303
▁왕자는	-8304
▁위하여	-8305
▁유죄를	-8306
▁자녀를	-8307
▁자르다	-8308
▁작업이	-8309
▁작품을	-8310
▁적합한	-8311
▁전투기	-8312
▁최우선	-8313
▁탑승한	-8314
▁토크쇼	-8315
▁파파라	-8316
▁판결이	-8317
▁폭력을	-8318
▁해수면	-8319
▁화려한	-8320
▁활동이	-8321
▁회사에	-8322
▁효과를	-8323
시키려는	-8324
▁york	-8325
▁계획하고	-8326
▁광범위한	-8327
▁국가비상	-8328
▁남아있는	-8329
▁누군가가	-8330
▁메릴랜드	-8331
▁모른다고	-8332
▁보고서가	-8333
▁선거관리	-8334
▁시작으로	-8335
▁실시했다	-8336
▁아라비아	-8337
▁아랍에미	-8338
▁아웅산수	-8339
▁예상하고	-8340
▁위스콘신	-8341
▁전역에서	-8342
▁제출했다	-8343
▁주민들을	-8344
▁주민들의	-8345
▁추정하고	-8346
▁카메라를	-8347
▁코소보의	-8348
▁타이틀을	-8349
▁플레이를	-8350
▁행정부는	-8351
▁홈페이지	-8352
▁개인적으로	-8353
▁국제유가가	-8354
▁요구했다고	-8355
▁안전보장이사회	-8356
▁washington	-8357
▁붐	-8358
괴한	-8359
근혜	-8360
먼트	-8361
비넨	-8362
성화	-8363
시대	-8364
아를	-8365
어와	-8366
어져	-8367
우며	-8368
종을	-8369
지대	-8370
착륙	-8371
크라	-8372
파가	-8373
프롬	-8374
▁ye	-8375
▁갤런	-8376
▁고안	-8377
▁교사	-8378
▁권총	-8379
▁남용	-8380
▁넘게	-8381
▁높게	-8382
▁뉴델	-8383
▁단독	-8384
▁담고	-8385
▁데뷔	-8386
▁도디	-8387
▁동계	-8388
▁루이	-8389
▁맞은	-8390
▁불교	-8391
▁비아	-8392
▁산책	-8393
▁신호	-8394
▁실려	-8395
▁심의	-8396
▁아나	-8397
▁양쪽	-8398
▁염려	-8399
▁완성	-8400
▁워너	-8401
▁원내	-8402
▁원정	-8403
▁유사	-8404
▁유타	-8405
▁이슈	-8406
▁이적	-8407
▁자전	-8408
▁자행	-8409
▁잭슨	-8410
▁증강	-8411
▁치를	-8412
▁투명	-8413
▁포셋	-8414
▁했고	-8415
▁현금	-8416
▁후송	-8417
갔으며	-8418
거래소	-8419
시키며	-8420
시하고	-8421
역에서	-8422
원들을	-8423
이사회	-8424
▁aig	-8425
▁ear	-8426
▁inc	-8427
▁its	-8428
▁one	-8429
▁가난한	-8430
▁강진이	-8431
▁공정한	-8432
▁국립공	-8433
▁규모를	-8434
▁근로자	-8435
▁나이로	-8436
▁내리는	-8437
▁대선에	-8438
▁도착할	-8439
▁동물원	-8440
▁디스커	-8441
▁미래를	-8442
▁미래에	-8443
▁받는다	-8444
▁방문에	-8445
▁변화에	-8446
▁보고를	-8447
▁보내고	-8448
▁사생활	-8449
▁사용된	-8450
▁사퇴를	-8451
▁상대방	-8452
▁세대를	-8453
▁수사에	-8454
▁신속히	-8455
▁실험을	-8456
▁심하게	-8457
▁알리는	-8458
▁여러번	-8459
▁오렌지	-8460
▁왕자의	-8461
▁위안부	-8462
▁위에서	-8463
▁이내에	-8464
▁이처럼	-8465
▁인구의	-8466
▁인사를	-8467
▁일자리	-8468
▁정치인	-8469
▁진전이	-8470
▁친환경	-8471
▁테일러	-8472
▁하이브	-8473
▁학생이	-8474
▁허가를	-8475
▁현재는	-8476
istan	-8477
▁bush	-8478
▁open	-8479
▁거부권을	-8480
▁거절했다	-8481
▁국제우주	-8482
▁기대한다	-8483
▁내렸다고	-8484
▁높아지고	-8485
▁달러까지	-8486
▁대피했다	-8487
▁메드베데	-8488
▁모두에게	-8489
▁목소리를	-8490
▁베네딕토	-8491
▁보냈다고	-8492
▁뿐이라고	-8493
▁사이트를	-8494
▁상황이다	-8495
▁생각하지	-8496
▁선수들은	-8497
▁선수들이	-8498
▁세속주의	-8499
▁숨졌으며	-8500
▁않았다는	-8501
▁연구결과	-8502
▁의원들이	-8503
▁이라크는	-8504
▁이메일을	-8505
▁일어났다	-8506
▁치러지는	-8507
▁학교에서	-8508
▁핵실험을	-8509
▁house	-8510
▁무장세력이	-8511
▁서브프라임	-8512
▁국가비상사태	-8513
▁international	-8514
ds	-8515
ix	-8516
ke	-8517
▁굉	-8518
▁꽃	-8519
▁뚫	-8520
▁츠	-8521
▁콰	-8522
▁큐	-8523
▁펭	-8524
관련	-8525
나를	-8526
나에	-8527
렸을	-8528
마를	-8529
매매	-8530
블로	-8531
시오	-8532
시한	-8533
쓰고	-8534
씨의	-8535
었기	-8536
역에	-8537
정도	-8538
췄다	-8539
카드	-8540
커스	-8541
케인	-8542
킥을	-8543
파의	-8544
평균	-8545
혁명	-8546
ict	-8547
our	-8548
▁do	-8549
▁dr	-8550
▁각국	-8551
▁간호	-8552
▁고의	-8553
▁구류	-8554
▁국세	-8555
▁급습	-8556
▁널리	-8557
▁당의	-8558
▁대전	-8559
▁델타	-8560
▁도난	-8561
▁등급	-8562
▁만화	-8563
▁먹고	-8564
▁모임	-8565
▁미드	-8566
▁바꿀	-8567
▁박스	-8568
▁방출	-8569
▁비가	-8570
▁성격	-8571
▁세대	-8572
▁소아	-8573
▁소장	-8574
▁스탈	-8575
▁안내	-8576
▁안드	-8577
▁앨런	-8578
▁억만	-8579
▁얻게	-8580
▁엑스	-8581
▁요한	-8582
▁워터	-8583
▁웨인	-8584
▁유람	-8585
▁유산	-8586
▁유행	-8587
▁임대	-8588
▁자바	-8589
▁장려	-8590
▁재고	-8591
▁전격	-8592
▁점이	-8593
▁정유	-8594
▁줄리	-8595
▁초에	-8596
▁총에	-8597
▁토로	-8598
▁통보	-8599
▁트라	-8600
▁티벳	-8601
▁페이	-8602
▁포트	-8603
▁향한	-8604
▁호송	-8605
겼다고	-8606
등학교	-8607
사항을	-8608
으려고	-8609
은행이	-8610
크리트	-8611
▁bda	-8612
▁ibm	-8613
▁mdc	-8614
▁rel	-8615
▁감바리	-8616
▁것인가	-8617
▁견해를	-8618
▁결정이	-8619
▁계속할	-8620
▁공개한	-8621
▁공항을	-8622
▁금리를	-8623
▁기분이	-8624
▁나라를	-8625
▁남자를	-8626
▁년으로	-8627
▁다르다	-8628
▁데리고	-8629
▁돌아갈	-8630
▁동안의	-8631
▁맡았다	-8632
▁메이저	-8633
▁명백한	-8634
▁목적을	-8635
▁부대를	-8636
▁부족한	-8637
▁비행을	-8638
▁서신을	-8639
▁성과를	-8640
▁소년이	-8641
▁아마존	-8642
▁아이들	-8643
▁얼굴을	-8644
▁원한다	-8645
▁유럽과	-8646
▁유엔이	-8647
▁의사는	-8648
▁의회를	-8649
▁이란을	-8650
▁이뤄질	-8651
▁일간지	-8652
▁재무부	-8653
▁전략을	-8654
▁전체가	-8655
▁제치고	-8656
▁중이며	-8657
▁지역이	-8658
▁출신인	-8659
▁치러질	-8660
▁클레이	-8661
▁파이프	-8662
▁퍼거슨	-8663
됨에따라	-8664
▁fifa	-8665
▁국가들의	-8666
▁국가정보	-8667
▁국제적인	-8668
▁되었다고	-8669
▁벌어졌다	-8670
▁보좌관은	-8671
▁비디오를	-8672
▁사용했다	-8673
▁살모넬라	-8674
▁시위대를	-8675
▁연구원은	-8676
▁영화에서	-8677
▁울포위츠	-8678
▁이라크내	-8679
▁중단했다	-8680
▁지도자로	-8681
▁직원들은	-8682
▁카를로스	-8683
▁파리에서	-8684
▁무장세력의	-8685
▁발견되었다	-8686
▁시위자들은	-8687
▁않았습니다	-8688
▁유권자들은	-8689
▁상승했습니다	-8690
▁자살폭탄테러가	-8691
ah	-8692
▁굳	-8693
▁렌	-8694
▁봐	-8695
▁짝	-8696
▁쳐	-8697
▁춤	-8698
공급	-8699
과학	-8700
구의	-8701
도와	-8702
라바	-8703
력과	-8704
력의	-8705
면에	-8706
모를	-8707
받는	-8708
사이	-8709
인다	-8710
인민	-8711
입을	-8712
제이	-8713
조한	-8714
크의	-8715
튼의	-8716
파울	-8717
플루	-8718
히는	-8719
ble	-8720
for	-8721
ish	-8722
ute	-8723
▁cd	-8724
▁가끔	-8725
▁강에	-8726
▁강행	-8727
▁결심	-8728
▁교토	-8729
▁군과	-8730
▁기아	-8731
▁깨끗	-8732
▁내다	-8733
▁대우	-8734
▁도덕	-8735
▁동참	-8736
▁라우	-8737
▁막아	-8738
▁만능	-8739
▁맨해	-8740
▁먹는	-8741
▁모집	-8742
▁무렵	-8743
▁묻는	-8744
▁박사	-8745
▁반전	-8746
▁발매	-8747
▁부러	-8748
▁부속	-8749
▁불만	-8750
▁세운	-8751
▁수족	-8752
▁수컷	-8753
▁숙박	-8754
▁시점	-8755
▁약혼	-8756
▁언덕	-8757
▁역임	-8758
▁연극	-8759
▁였다	-8760
▁영구	-8761
▁옥스	-8762
▁왜곡	-8763
▁요즘	-8764
▁위생	-8765
▁유적	-8766
▁이외	-8767
▁이정	-8768
▁장교	-8769
▁재무	-8770
▁전범	-8771
▁조항	-8772
▁주거	-8773
▁찾지	-8774
▁측이	-8775
▁치솟	-8776
▁포장	-8777
▁항생	-8778
▁행렬	-8779
▁협약	-8780
국들은	-8781
랜드는	-8782
럼비아	-8783
렀다고	-8784
으므로	-8785
정부의	-8786
졌으나	-8787
총리는	-8788
ains	-8789
uman	-8790
▁감정을	-8791
▁기능을	-8792
▁긴장이	-8793
▁납치한	-8794
▁다니는	-8795
▁돌아와	-8796
▁런던의	-8797
▁마이스	-8798
▁바티칸	-8799
▁박근혜	-8800
▁범죄를	-8801
▁보다는	-8802
▁상파울	-8803
▁세력을	-8804
▁수반은	-8805
▁시신은	-8806
▁신원이	-8807
▁아스날	-8808
▁업무를	-8809
▁연구가	-8810
▁열심히	-8811
▁왔다고	-8812
▁우울증	-8813
▁유력한	-8814
▁의원을	-8815
▁전쟁이	-8816
▁존스턴	-8817
▁주요한	-8818
▁중단을	-8819
▁취하고	-8820
▁크기의	-8821
▁텔레비	-8822
▁투표가	-8823
▁피랍된	-8824
▁피하기	-8825
▁해수욕	-8826
▁호텔에	-8827
▁work	-8828
▁가능하다	-8829
▁공개하지	-8830
▁관계자의	-8831
▁국민투표	-8832
▁내려졌다	-8833
▁노르웨이	-8834
▁당부했다	-8835
▁받아왔다	-8836
▁분리주의	-8837
▁분위기를	-8838
▁승인했다	-8839
▁시티그룹	-8840
▁아버지인	-8841
▁아시아의	-8842
▁위원회의	-8843
▁일으켰다	-8844
▁자동차업	-8845
▁자원봉사	-8846
▁재판에서	-8847
▁전해졌다	-8848
▁정부군이	-8849
▁차지하는	-8850
▁최고경영	-8851
▁출연했다	-8852
▁테이프를	-8853
▁평화적인	-8854
▁first	-8855
▁다우지수는	-8856
▁오하이오주	-8857
▁용의자들을	-8858
▁적극적으로	-8859
▁정기적으로	-8860
▁파키스탄에	-8861
▁프랑스에서	-8862
▁프로그램이	-8863
▁하이브리드	-8864
▁학생들에게	-8865
▁국제우주정거	-8866
▁아랍에미리트	-8867
▁아마디네자드	-8868
▁military	-8869
go	-8870
▁굿	-8871
▁깔	-8872
▁덜	-8873
검사	-8874
것도	-8875
니를	-8876
니언	-8877
당에	-8878
독한	-8879
려야	-8880
마르	-8881
미를	-8882
받침	-8883
범한	-8884
보안	-8885
본부	-8886
색을	-8887
서치	-8888
애틀	-8889
올로	-8890
정상	-8891
정의	-8892
지다	-8893
타이	-8894
테르	-8895
티에	-8896
피를	-8897
해가	-8898
해주	-8899
lic	-8900
mer	-8901
pos	-8902
urt	-8903
▁gu	-8904
▁lg	-8905
▁강간	-8906
▁것일	-8907
▁고어	-8908
▁공대	-8909
▁꺾고	-8910
▁남쪽	-8911
▁내리	-8912
▁당일	-8913
▁덕분	-8914
▁던진	-8915
▁럼스	-8916
▁모리	-8917
▁미셸	-8918
▁박격	-8919
▁발이	-8920
▁봤다	-8921
▁부결	-8922
▁사인	-8923
▁삭감	-8924
▁산맥	-8925
▁상의	-8926
▁스노	-8927
▁신사	-8928
▁아빠	-8929
▁약탈	-8930
▁없애	-8931
▁에따	-8932
▁연출	-8933
▁외계	-8934
▁우편	-8935
▁워렌	-8936
▁유수	-8937
▁음료	-8938
▁일고	-8939
▁저렴	-8940
▁전파	-8941
▁접수	-8942
▁제정	-8943
▁진전	-8944
▁체류	-8945
▁치매	-8946
▁카스	-8947
▁크리	-8948
▁표결	-8949
▁한달	-8950
▁해상	-8951
▁해소	-8952
▁해체	-8953
▁회동	-8954
고에서	-8955
까지도	-8956
어졌다	-8957
에게서	-8958
이라며	-8959
통신이	-8960
하려던	-8961
ople	-8962
▁rep	-8963
▁가져올	-8964
▁간단한	-8965
▁개발에	-8966
▁건물을	-8967
▁경고를	-8968
▁구호물	-8969
▁남성을	-8970
▁내용에	-8971
▁돌아올	-8972
▁디트로	-8973
▁못한다	-8974
▁무장한	-8975
▁반군은	-8976
▁방향을	-8977
▁부분이	-8978
▁생존자	-8979
▁선거가	-8980
▁수감된	-8981
▁수사가	-8982
▁수치는	-8983
▁실패한	-8984
▁앞섰다	-8985
▁억만장	-8986
▁에르도	-8987
▁연락을	-8988
▁예정이	-8989
▁올라가	-8990
▁위협에	-8991
▁음주운	-8992
▁이유가	-8993
▁장관과	-8994
▁전에는	-8995
▁제시한	-8996
▁제품을	-8997
▁조직을	-8998
▁주식을	-8999
▁진행될	-9000
▁총기를	-9001
▁켄터키	-9002
▁파업에	-9003
▁편지를	-9004
▁해안에	-9005
▁행위는	-9006
▁현상이	-9007
▁형태의	-9008
▁환자가	-9009
대회에서	-9010
렸습니다	-9011
시장에서	-9012
위원장은	-9013
▁apec	-9014
▁가즈프롬	-9015
▁개발도상	-9016
▁거리에서	-9017
▁관련하여	-9018
▁권고했다	-9019
▁대표하는	-9020
▁못했지만	-9021
▁반대하고	-9022
▁병사들이	-9023
▁분석했다	-9024
▁선고했다	-9025
▁시나리오	-9026
▁않습니다	-9027
▁에드워드	-9028
▁여객기는	-9029
▁윌리엄스	-9030
▁의심되는	-9031
▁인질들이	-9032
▁정부에서	-9033
▁차전에서	-9034
▁창기라이	-9035
▁출신으로	-9036
▁출전하지	-9037
▁클린턴과	-9038
▁피츠버그	-9039
▁항의하는	-9040
▁헤럴드는	-9041
▁확신한다	-9042
▁확인되지	-9043
▁회견에서	-9044
▁press	-9045
▁동영상에서	-9046
▁디트로이트	-9047
▁러닝메이트	-9048
▁연구원들은	-9049
▁유나이티드	-9050
▁유죄판결을	-9051
▁지속적으로	-9052
▁people	-9053
bo	-9054
▁괜	-9055
▁덩	-9056
▁융	-9057
국민	-9058
기부	-9059
나게	-9060
노조	-9061
놓고	-9062
당인	-9063
런스	-9064
마의	-9065
만간	-9066
보좌	-9067
석에	-9068
연을	-9069
음이	-9070
조약	-9071
지우	-9072
차는	-9073
크를	-9074
클로	-9075
클리	-9076
타를	-9077
학을	-9078
ory	-9079
▁거친	-9080
▁결합	-9081
▁괜찮	-9082
▁구경	-9083
▁기증	-9084
▁기획	-9085
▁깊이	-9086
▁끊임	-9087
▁내전	-9088
▁돈이	-9089
▁마찰	-9090
▁만료	-9091
▁매입	-9092
▁물가	-9093
▁물어	-9094
▁미셀	-9095
▁발급	-9096
▁베탕	-9097
▁북측	-9098
▁상처	-9099
▁소니	-9100
▁솔로	-9101
▁송금	-9102
▁수락	-9103
▁쉬운	-9104
▁슬로	-9105
▁시골	-9106
▁실적	-9107
▁싶지	-9108
▁양측	-9109
▁에너	-9110
▁연말	-9111
▁영장	-9112
▁오를	-9113
▁인내	-9114
▁잠수	-9115
▁점유	-9116
▁정밀	-9117
▁즐기	-9118
▁지점	-9119
▁진상	-9120
▁차가	-9121
▁체계	-9122
▁총통	-9123
▁취급	-9124
▁케르	-9125
▁코너	-9126
▁터뜨	-9127
▁파편	-9128
▁포획	-9129
▁피신	-9130
▁헬리	-9131
병으로	-9132
시키지	-9133
위에서	-9134
정으로	-9135
태평양	-9136
▁cor	-9137
▁개발한	-9138
▁거부한	-9139
▁기지를	-9140
▁긴장을	-9141
▁남부의	-9142
▁남자의	-9143
▁대테러	-9144
▁뒷받침	-9145
▁북극곰	-9146
▁분노를	-9147
▁분쟁을	-9148
▁비공식	-9149
▁사고의	-9150
▁사이버	-9151
▁석방된	-9152
▁선수로	-9153
▁스튜어	-9154
▁안보를	-9155
▁언급한	-9156
▁없다며	-9157
▁열었다	-9158
▁오프라	-9159
▁우리당	-9160
▁원자력	-9161
▁위치를	-9162
▁위치해	-9163
▁유세를	-9164
▁은신처	-9165
▁의문을	-9166
▁이곳을	-9167
▁일제히	-9168
▁자격이	-9169
▁자국의	-9170
▁자세히	-9171
▁전투를	-9172
▁접촉을	-9173
▁조만간	-9174
▁조치로	-9175
▁줄이기	-9176
▁즐기는	-9177
▁지수가	-9178
▁참가한	-9179
▁출전할	-9180
▁캐릭터	-9181
▁크루즈	-9182
▁특사는	-9183
▁하도록	-9184
▁행진을	-9185
tions	-9186
▁high	-9187
▁miss	-9188
▁거짓말을	-9189
▁결혼식을	-9190
▁계속하고	-9191
▁그들에게	-9192
▁문제들을	-9193
▁발견되지	-9194
▁사과했다	-9195
▁샤라포바	-9196
▁수십명이	-9197
▁수요일에	-9198
▁수천명이	-9199
▁시인했다	-9200
▁아무것도	-9201
▁안토니오	-9202
▁엘리베이	-9203
▁용의자를	-9204
▁재무장관	-9205
▁줄기세포	-9206
▁테러와의	-9207
▁포함됐다	-9208
▁힐러리가	-9209
ration	-9210
▁교도소에서	-9211
▁디스커버리	-9212
▁소비자들이	-9213
▁수사관들은	-9214
▁이스라엘을	-9215
▁파키스탄이	-9216
▁플로리다주	-9217
▁associ	-9218
▁secretary	-9219
ai	-9220
fo	-9221
▁갔	-9222
▁깁	-9223
▁닭	-9224
▁뮌	-9225
▁쟁	-9226
▁쪽	-9227
▁험	-9228
관과	-9229
구조	-9230
르바	-9231
름이	-9232
말라	-9233
명에	-9234
백을	-9235
분야	-9236
석은	-9237
세이	-9238
업자	-9239
자스	-9240
자원	-9241
청이	-9242
치인	-9243
타다	-9244
타운	-9245
통합	-9246
티의	-9247
파인	-9248
허가	-9249
ral	-9250
rol	-9251
vel	-9252
▁ny	-9253
▁가깝	-9254
▁가리	-9255
▁각종	-9256
▁교과	-9257
▁국적	-9258
▁기분	-9259
▁기뻐	-9260
▁나섰	-9261
▁내의	-9262
▁노던	-9263
▁느껴	-9264
▁다소	-9265
▁던져	-9266
▁덴버	-9267
▁독도	-9268
▁동굴	-9269
▁득점	-9270
▁리오	-9271
▁면서	-9272
▁무산	-9273
▁물품	-9274
▁발렌	-9275
▁발령	-9276
▁발의	-9277
▁배포	-9278
▁벌이	-9279
▁복합	-9280
▁부처	-9281
▁불황	-9282
▁사마	-9283
▁산하	-9284
▁상위	-9285
▁생겨	-9286
▁소총	-9287
▁손해	-9288
▁스콧	-9289
▁신의	-9290
▁실수	-9291
▁심슨	-9292
▁쓰는	-9293
▁씨의	-9294
▁아민	-9295
▁악의	-9296
▁엉덩	-9297
▁예언	-9298
▁위축	-9299
▁유괴	-9300
▁유조	-9301
▁인형	-9302
▁장벽	-9303
▁절약	-9304
▁제니	-9305
▁종사	-9306
▁주류	-9307
▁줄을	-9308
▁찍은	-9309
▁참전	-9310
▁추천	-9311
▁치른	-9312
▁통근	-9313
▁피추	-9314
▁필수	-9315
▁하드	-9316
▁회수	-9317
▁히트	-9318
단체의	-9319
대학교	-9320
들보다	-9321
중이다	-9322
학자인	-9323
ited	-9324
▁acc	-9325
▁dec	-9326
▁tri	-9327
▁two	-9328
▁감독을	-9329
▁검색어	-9330
▁경기장	-9331
▁과정에	-9332
▁교전을	-9333
▁국민을	-9334
▁기술이	-9335
▁끔찍한	-9336
▁넣었다	-9337
▁느끼는	-9338
▁다수의	-9339
▁다행히	-9340
▁대비해	-9341
▁대한민	-9342
▁돌아온	-9343
▁된다면	-9344
▁명이다	-9345
▁모여들	-9346
▁무소속	-9347
▁무죄를	-9348
▁번이나	-9349
▁범인은	-9350
▁보여준	-9351
▁보유한	-9352
▁본부를	-9353
▁분량의	-9354
▁분야에	-9355
▁브로드	-9356
▁사례가	-9357
▁사용을	-9358
▁사회에	-9359
▁사회의	-9360
▁새롭게	-9361
▁세웠다	-9362
▁소리를	-9363
▁소유한	-9364
▁슈퍼볼	-9365
▁스탈린	-9366
▁시애틀	-9367
▁실시될	-9368
▁아니며	-9369
▁안전에	-9370
▁오늘밤	-9371
▁외무성	-9372
▁우간다	-9373
▁유전자	-9374
▁유지할	-9375
▁의미가	-9376
▁의장이	-9377
▁인상을	-9378
▁있기를	-9379
▁자금이	-9380
▁조직의	-9381
▁죽음에	-9382
▁집회에	-9383
▁출연해	-9384
▁카지노	-9385
▁테러의	-9386
▁트라볼	-9387
▁판결에	-9388
▁평가를	-9389
▁포스트	-9390
▁한다면	-9391
▁행동이	-9392
▁협력을	-9393
▁협정을	-9394
위원회에	-9395
ainst	-9396
▁comp	-9397
▁검토하고	-9398
▁남쪽으로	-9399
▁동의했다	-9400
▁레이스를	-9401
▁방송에서	-9402
▁법적으로	-9403
▁부상자가	-9404
▁북한과의	-9405
▁불법으로	-9406
▁브레이크	-9407
▁사용되는	-9408
▁샤리프는	-9409
▁수백명이	-9410
▁예상되고	-9411
▁예측했다	-9412
▁온실가스	-9413
▁움직임이	-9414
▁워싱턴의	-9415
▁이들에게	-9416
▁전달했다	-9417
▁전쟁으로	-9418
▁증가하는	-9419
▁최고치를	-9420
▁출구조사	-9421
▁프랑스는	-9422
▁하마스의	-9423
▁활동하고	-9424
illion	-9425
▁human	-9426
▁노대통령은	-9427
▁재무장관은	-9428
▁지도자들을	-9429
▁폭력사태로	-9430
▁center	-9431
▁연방준비제도	-9432
▁지지자들에게	-9433
▁against	-9434
av	-9435
ms	-9436
▁댈	-9437
▁램	-9438
▁킨	-9439
▁헝	-9440
▁흩	-9441
가격	-9442
과정	-9443
길을	-9444
까요	-9445
내려	-9446
널티	-9447
니고	-9448
대책	-9449
되던	-9450
드폰	-9451
렌은	-9452
례를	-9453
림을	-9454
미한	-9455
방이	-9456
법이	-9457
복지	-9458
본을	-9459
브가	-9460
브레	-9461
빌리	-9462
색의	-9463
시로	-9464
심한	-9465
우석	-9466
절한	-9467
제품	-9468
클린	-9469
퍼드	-9470
평가	-9471
프에	-9472
협력	-9473
ook	-9474
ung	-9475
▁sw	-9476
▁가동	-9477
▁게리	-9478
▁고수	-9479
▁공사	-9480
▁규칙	-9481
▁균형	-9482
▁급진	-9483
▁나눠	-9484
▁날이	-9485
▁남녀	-9486
▁남미	-9487
▁남서	-9488
▁내게	-9489
▁내로	-9490
▁놀랄	-9491
▁다비	-9492
▁도핑	-9493
▁독감	-9494
▁돌을	-9495
▁드는	-9496
▁딜러	-9497
▁라울	-9498
▁레오	-9499
▁로맨	-9500
▁매도	-9501
▁매몰	-9502
▁모의	-9503
▁모험	-9504
▁반미	-9505
▁배급	-9506
▁버냉	-9507
▁버크	-9508
▁벌일	-9509
▁보증	-9510
▁복원	-9511
▁브랜	-9512
▁브로	-9513
▁생태	-9514
▁선진	-9515
▁슬픔	-9516
▁안나	-9517
▁암호	-9518
▁얼룩	-9519
▁오케	-9520
▁자사	-9521
▁작곡	-9522
▁절도	-9523
▁중반	-9524
▁지분	-9525
▁처형	-9526
▁첩보	-9527
▁첫날	-9528
▁취해	-9529
▁침묵	-9530
▁카디	-9531
▁카자	-9532
▁칸다	-9533
▁칼리	-9534
▁코피	-9535
▁클로	-9536
▁톤의	-9537
▁피할	-9538
▁해방	-9539
▁호날	-9540
▁호전	-9541
▁화염	-9542
거리는	-9543
공격을	-9544
국들이	-9545
까지는	-9546
내에서	-9547
달라는	-9548
메이션	-9549
문제를	-9550
센터는	-9551
스러워	-9552
시킨다	-9553
아티아	-9554
어지는	-9555
인에게	-9556
작으로	-9557
제네거	-9558
지역인	-9559
플루엔	-9560
할만한	-9561
화되고	-9562
enti	-9563
▁sur	-9564
▁강화할	-9565
▁경계를	-9566
▁교전이	-9567
▁급격히	-9568
▁기준금	-9569
▁끝까지	-9570
▁내셔널	-9571
▁노력할	-9572
▁뉴욕에	-9573
▁늘어날	-9574
▁다리가	-9575
▁단순히	-9576
▁담배를	-9577
▁대선주	-9578
▁대회에	-9579
▁들어와	-9580
▁레이저	-9581
▁리조트	-9582
▁머리카	-9583
▁목적이	-9584
▁못했던	-9585
▁미시건	-9586
▁미주리	-9587
▁바하마	-9588
▁반체제	-9589
▁밝히며	-9590
▁베이루	-9591
▁부인인	-9592
▁부토는	-9593
▁브리트	-9594
▁브리티	-9595
▁산불이	-9596
▁서울에	-9597
▁선박이	-9598
▁선택할	-9599
▁세계를	-9600
▁시간의	-9601
▁시작될	-9602
▁약속한	-9603
▁양측이	-9604
▁연기가	-9605
▁영상을	-9606
▁외쳤다	-9607
▁인도분	-9608
▁임기를	-9609
▁입수한	-9610
▁자신에	-9611
▁재판에	-9612
▁재판이	-9613
▁존스는	-9614
▁철저히	-9615
▁최고위	-9616
▁토대로	-9617
▁헬리콥	-9618
▁휴스턴	-9619
아프리카	-9620
▁have	-9621
▁거래됐다	-9622
▁공격했다	-9623
▁그곳에서	-9624
▁대표단은	-9625
▁목요일에	-9626
▁북한에서	-9627
▁스튜디오	-9628
▁스페인의	-9629
▁실질적인	-9630
▁야생동물	-9631
▁연구에서	-9632
▁요르단강	-9633
▁이라크로	-9634
▁인정하지	-9635
▁일어나고	-9636
▁자동차를	-9637
▁장소에서	-9638
▁전합니다	-9639
▁정부군과	-9640
▁지역사회	-9641
▁징역형을	-9642
▁총리에게	-9643
▁크레이그	-9644
▁하마스는	-9645
▁헤즈볼라	-9646
▁호주오픈	-9647
▁확인하기	-9648
▁가족들에게	-9649
▁정치적으로	-9650
▁크로아티아	-9651
▁프로그램의	-9652
▁troops	-9653
▁라스베이거스	-9654
▁인도네시아의	-9655
▁england	-9656
af	-9657
cc	-9658
mp	-9659
▁닌	-9660
▁촛	-9661
그라	-9662
다이	-9663
데버	-9664
드러	-9665
들인	-9666
듯이	-9667
디슈	-9668
라리	-9669
리야	-9670
리티	-9671
메르	-9672
물인	-9673
법의	-9674
보로	-9675
사절	-9676
세는	-9677
세에	-9678
있을	-9679
제의	-9680
지수	-9681
차량	-9682
처리	-9683
쿠니	-9684
타가	-9685
타의	-9686
토는	-9687
해도	-9688
해에	-9689
화될	-9690
int	-9691
ons	-9692
▁ai	-9693
▁가죽	-9694
▁감정	-9695
▁광장	-9696
▁군함	-9697
▁금년	-9698
▁나빠	-9699
▁네이	-9700
▁달아	-9701
▁대폭	-9702
▁도울	-9703
▁마침	-9704
▁만장	-9705
▁말로	-9706
▁메리	-9707
▁면접	-9708
▁몸값	-9709
▁무대	-9710
▁무효	-9711
▁뮌헨	-9712
▁반등	-9713
▁발레	-9714
▁부실	-9715
▁분경	-9716
▁사면	-9717
▁삶의	-9718
▁얻지	-9719
▁엔지	-9720
▁역대	-9721
▁울프	-9722
▁원치	-9723
▁입어	-9724
▁적응	-9725
▁전임	-9726
▁제네	-9727
▁제도	-9728
▁제일	-9729
▁종이	-9730
▁중도	-9731
▁집필	-9732
▁집회	-9733
▁친선	-9734
▁클루	-9735
▁키드	-9736
▁편안	-9737
▁플레	-9738
▁피부	-9739
▁피의	-9740
▁하트	-9741
▁했을	-9742
▁화가	-9743
▁확장	-9744
관계가	-9745
구에서	-9746
냈으며	-9747
시키려	-9748
rest	-9749
ther	-9750
▁가량의	-9751
▁개표가	-9752
▁겨냥한	-9753
▁국회에	-9754
▁기자의	-9755
▁남성과	-9756
▁남편은	-9757
▁내리고	-9758
▁노동당	-9759
▁뉴욕시	-9760
▁단체를	-9761
▁도시를	-9762
▁동물을	-9763
▁라호르	-9764
▁메모리	-9765
▁명확히	-9766
▁물건을	-9767
▁미군에	-9768
▁미래의	-9769
▁바닥에	-9770
▁바람이	-9771
▁방식을	-9772
▁보도한	-9773
▁부르는	-9774
▁부모가	-9775
▁분쟁이	-9776
▁사라진	-9777
▁선거는	-9778
▁속도를	-9779
▁스프링	-9780
▁시위로	-9781
▁신뢰를	-9782
▁신호를	-9783
▁쌍둥이	-9784
▁안보리	-9785
▁않겠다	-9786
▁압바스	-9787
▁야당은	-9788
▁여사가	-9789
▁연료를	-9790
▁외교관	-9791
▁원숭이	-9792
▁유감을	-9793
▁이르기	-9794
▁이스트	-9795
▁임기가	-9796
▁전력을	-9797
▁전체에	-9798
▁정치범	-9799
▁주장이	-9800
▁줄이는	-9801
▁지구의	-9802
▁지수도	-9803
▁추락한	-9804
▁취하지	-9805
▁태우고	-9806
▁특별히	-9807
▁판매를	-9808
▁하는데	-9809
▁항공은	-9810
▁행사할	-9811
▁호랑이	-9812
▁환경에	-9813
▁회의가	-9814
▁히드로	-9815
시키는데	-9816
에서부터	-9817
ublic	-9818
▁says	-9819
▁국방부가	-9820
▁기자들이	-9821
▁당선자는	-9822
▁데이비스	-9823
▁둘러싸고	-9824
▁러시아와	-9825
▁밝혔었다	-9826
▁밝혔으나	-9827
▁보였다고	-9828
▁본선에서	-9829
▁부인하고	-9830
▁사망자를	-9831
▁사상자가	-9832
▁스미스의	-9833
▁시민들은	-9834
▁아버지의	-9835
▁예정되어	-9836
▁이슬람교	-9837
▁이어졌다	-9838
▁인명피해	-9839
▁일으키는	-9840
▁저항세력	-9841
▁전쟁에서	-9842
▁제외하고	-9843
▁증언했다	-9844
▁테러단체	-9845
▁표시했다	-9846
▁확인하고	-9847
▁trans	-9848
▁가자지구를	-9849
▁때문입니다	-9850
▁받아들이지	-9851
▁상원의원에	-9852
▁애니메이션	-9853
▁어린이들이	-9854
▁우주왕복선	-9855
▁이탈리아의	-9856
▁프로그램은	-9857
▁항공우주국	-9858
▁파키스탄에서	-9859
▁팔레스타인의	-9860
▁닷	-9861
▁랄	-9862
▁슛	-9863
▁팜	-9864
권은	-9865
당국	-9866
돌이	-9867
디가	-9868
마트	-9869
무드	-9870
박한	-9871
병은	-9872
보장	-9873
선과	-9874
세기	-9875
션을	-9876
습을	-9877
의원	-9878
인도	-9879
전략	-9880
커가	-9881
크로	-9882
통을	-9883
현정	-9884
ern	-9885
ick	-9886
▁il	-9887
▁lp	-9888
▁mm	-9889
▁가한	-9890
▁개설	-9891
▁고장	-9892
▁김선	-9893
▁나왔	-9894
▁내세	-9895
▁당원	-9896
▁독자	-9897
▁딸의	-9898
▁리우	-9899
▁마스	-9900
▁만이	-9901
▁매력	-9902
▁맥주	-9903
▁모가	-9904
▁모으	-9905
▁무크	-9906
▁믿는	-9907
▁발을	-9908
▁방화	-9909
▁버진	-9910
▁번호	-9911
▁부작	-9912
▁상담	-9913
▁세웠	-9914
▁숨어	-9915
▁슈워	-9916
▁시일	-9917
▁싸움	-9918
▁아칸	-9919
▁앞선	-9920
▁역전	-9921
▁연안	-9922
▁열려	-9923
▁영광	-9924
▁예배	-9925
▁예약	-9926
▁유용	-9927
▁음란	-9928
▁입력	-9929
▁장비	-9930
▁저택	-9931
▁전부	-9932
▁점프	-9933
▁제프	-9934
▁조명	-9935
▁조짐	-9936
▁종파	-9937
▁주당	-9938
▁징계	-9939
▁칼라	-9940
▁타협	-9941
▁토마	-9942
▁퇴역	-9943
▁파크	-9944
▁펭귄	-9945
▁포괄	-9946
▁폭로	-9947
▁품목	-9948
▁휴먼	-9949
바에서	-9950
상태를	-9951
세력을	-9952
스타인	-9953
었는데	-9954
었는지	-9955
자였던	-9956
작업이	-9957
최지우	-9958
arch	-9959
ings	-9960
▁bar	-9961
▁law	-9962
▁usa	-9963
▁강타한	-9964
▁개선을	-9965
▁거리로	-9966
▁검찰의	-9967
▁것이기	-9968
▁고현정	-9969
▁공급을	-9970
▁관람객	-9971
▁그곳에	-9972
▁글래스	-9973
▁기대를	-9974
▁기반을	-9975
▁나눴다	-9976
▁나와즈	-9977
▁나타났	-9978
▁남한의	-9979
▁노력의	-9980
▁뉴스의	-9981
▁달라고	-9982
▁답변을	-9983
▁드라이	-9984
▁들어온	-9985
▁때마다	-9986
▁떨어질	-9987
▁라모스	-9988
▁런던에	-9989
▁마케팅	-9990
▁모두를	-9991
▁목소리	-9992
▁문서를	-9993
▁박사가	-9994
▁베탕쿠	-9995
▁보상을	-9996
▁부분은	-9997
▁붕괴된	-9998
▁비난한	-9999
▁선거의	-10000
▁성직자	-10001
▁세에서	-10002
▁센터의	-10003
▁손상을	-10004
▁시라크	-10005
▁아이는	-10006
▁야당의	-10007
▁야당이	-10008
▁언제나	-10009
▁에스토	-10010
▁영향력	-10011
▁요구에	-10012
▁요청한	-10013
▁운동가	-10014
▁원하지	-10015
▁이름의	-10016
▁인기가	-10017
▁일에도	-10018
▁있었기	-10019
▁자격을	-10020
▁자살한	-10021
▁재개할	-10022
▁재활용	-10023
▁중심에	-10024
▁지방의	-10025
▁차량은	-10026
▁총리로	-10027
▁취했다	-10028
▁친구가	-10029
▁통해서	-10030
▁하버드	-10031
▁행사가	-10032
▁형태로	-10033
▁확보할	-10034
되었다는	-10035
되었지만	-10036
하였으며	-10037
▁meet	-10038
▁강화하고	-10039
▁경쟁자인	-10040
▁관점에서	-10041
▁국민들을	-10042
▁국방위원	-10043
▁국회에서	-10044
▁근본주의	-10045
▁대사관은	-10046
▁들어가는	-10047
▁라이벌인	-10048
▁럼스펠드	-10049
▁말하면서	-10050
▁밝혀냈다	-10051
▁벌였다고	-10052
▁베어스턴	-10053
▁생산하는	-10054
▁수상자인	-10055
▁애틀랜타	-10056
▁에따르면	-10057
▁에르도간	-10058
▁연방수사	-10059
▁영국으로	-10060
▁인질들의	-10061
▁일어나지	-10062
▁책임자인	-10063
▁취소했다	-10064
▁크리스마	-10065
▁탈레반과	-10066
▁테러지원	-10067
▁필요성을	-10068
▁해결책을	-10069
▁행사에서	-10070
▁호주에서	-10071
▁확신했다	-10072
▁회사들이	-10073
▁휴대전화	-10074
▁힐러리는	-10075
▁court	-10076
▁secur	-10077
▁관광객들이	-10078
▁국무장관이	-10079
▁되었습니다	-10080
▁미국에서는	-10081
▁상원의원인	-10082
▁에스토니아	-10083
▁지지선언을	-10084
▁하락했습니다	-10085
hd	-10086
▁류	-10087
▁줬	-10088
▁챙	-10089
감은	-10090
개월	-10091
검찰	-10092
게도	-10093
고가	-10094
골로	-10095
두를	-10096
롭고	-10097
르며	-10098
바일	-10099
바흐	-10100
밴드	-10101
비한	-10102
선한	-10103
세대	-10104
세와	-10105
이란	-10106
이면	-10107
장애	-10108
주기	-10109
청의	-10110
총장	-10111
켓을	-10112
하러	-10113
호에	-10114
ief	-10115
ise	-10116
rac	-10117
▁bm	-10118
▁감기	-10119
▁거둔	-10120
▁권리	-10121
▁년전	-10122
▁녹색	-10123
▁대니	-10124
▁대략	-10125
▁뒤집	-10126
▁들을	-10127
▁라시	-10128
▁로버	-10129
▁리얼	-10130
▁매주	-10131
▁머무	-10132
▁명칭	-10133
▁바꿔	-10134
▁바쿠	-10135
▁반환	-10136
▁발달	-10137
▁발효	-10138
▁배를	-10139
▁배상	-10140
▁뱅크	-10141
▁본다	-10142
▁성사	-10143
▁손실	-10144
▁수수	-10145
▁스텔	-10146
▁승점	-10147
▁신원	-10148
▁안락	-10149
▁암시	-10150
▁역설	-10151
▁와의	-10152
▁요새	-10153
▁운반	-10154
▁유입	-10155
▁유해	-10156
▁은하	-10157
▁의석	-10158
▁임상	-10159
▁잡은	-10160
▁제의	-10161
▁조속	-10162
▁존경	-10163
▁좋다	-10164
▁줄여	-10165
▁지낸	-10166
▁차로	-10167
▁착취	-10168
▁창설	-10169
▁채가	-10170
▁최후	-10171
▁침팬	-10172
▁타계	-10173
▁털어	-10174
▁파란	-10175
▁펀드	-10176
▁포터	-10177
▁피로	-10178
▁하산	-10179
▁하얀	-10180
▁한층	-10181
▁할지	-10182
▁행성	-10183
▁현상	-10184
▁혈액	-10185
▁흰색	-10186
▁히스	-10187
대표는	-10188
돼있다	-10189
되지만	-10190
베리아	-10191
연구소	-10192
지기도	-10193
하자는	-10194
해서는	-10195
회장은	-10196
ents	-10197
iver	-10198
▁cap	-10199
▁car	-10200
▁kim	-10201
▁wto	-10202
▁경영진	-10203
▁공급이	-10204
▁국가는	-10205
▁국가들	-10206
▁근처에	-10207
▁끝나는	-10208
▁나가는	-10209
▁나오고	-10210
▁노력에	-10211
▁높이의	-10212
▁덕분에	-10213
▁동유럽	-10214
▁만개의	-10215
▁만명에	-10216
▁머리에	-10217
▁명백히	-10218
▁모로코	-10219
▁목적은	-10220
▁무장대	-10221
▁미국산	-10222
▁미끄러	-10223
▁병원을	-10224
▁복귀할	-10225
▁분위기	-10226
▁사람과	-10227
▁사원을	-10228
▁사이언	-10229
▁선출된	-10230
▁쇠고기	-10231
▁수업을	-10232
▁시까지	-10233
▁실업수	-10234
▁싶다고	-10235
▁쓰레기	-10236
▁않아도	-10237
▁어두운	-10238
▁어려움	-10239
▁여왕의	-10240
▁연구의	-10241
▁영감을	-10242
▁올리고	-10243
▁요청할	-10244
▁의석을	-10245
▁이래로	-10246
▁인근서	-10247
▁일으켜	-10248
▁자살을	-10249
▁자이언	-10250
▁작성한	-10251
▁정도가	-10252
▁정보가	-10253
▁정상화	-10254
▁제작된	-10255
▁조건을	-10256
▁조치에	-10257
▁종교적	-10258
▁주가가	-10259
▁주장은	-10260
▁진전을	-10261
▁차례로	-10262
▁차이나	-10263
▁차지한	-10264
▁카라치	-10265
▁코스피	-10266
▁티셔츠	-10267
▁패리스	-10268
▁폭발물	-10269
▁필요할	-10270
▁하나가	-10271
▁해왔다	-10272
▁혼란에	-10273
▁확인된	-10274
▁환경을	-10275
▁환자의	-10276
▁황우석	-10277
▁회견을	-10278
되었는데	-10279
▁city	-10280
▁take	-10281
▁경제성장	-10282
▁골든글로	-10283
▁교전으로	-10284
▁기록하며	-10285
▁대대적인	-10286
▁리처드슨	-10287
▁명단에서	-10288
▁명이라고	-10289
▁모가디슈	-10290
▁무승부를	-10291
▁반박했다	-10292
▁부통령이	-10293
▁북부에서	-10294
▁분야에서	-10295
▁사랑하는	-10296
▁상공에서	-10297
▁상승세를	-10298
▁슈퍼대의	-10299
▁스트레스	-10300
▁야스쿠니	-10301
▁어머니가	-10302
▁억달러의	-10303
▁원자바오	-10304
▁이라크인	-10305
▁일반적인	-10306
▁입었으며	-10307
▁제공하고	-10308
▁지도부는	-10309
▁지속적인	-10310
▁지지율을	-10311
▁추산했다	-10312
▁클린턴을	-10313
▁하더라도	-10314
▁현지경찰	-10315
트레이어스	-10316
▁가자지구에	-10317
▁감소했다고	-10318
▁사무총장이	-10319
▁스피어스는	-10320
▁웹사이트는	-10321
▁이산화탄소	-10322
▁주장했지만	-10323
▁지지한다고	-10324
▁한나라당이	-10325
▁마이스페이스	-10326
aw	-10327
co	-10328
np	-10329
sh	-10330
▁꼽	-10331
▁닐	-10332
▁뚜	-10333
▁란	-10334
▁했	-10335
건은	-10336
견을	-10337
구에	-10338
냄새	-10339
너럴	-10340
누엘	-10341
당과	-10342
데일	-10343
등한	-10344
디스	-10345
로우	-10346
론을	-10347
론의	-10348
르던	-10349
리한	-10350
미널	-10351
받지	-10352
부대	-10353
부모	-10354
브스	-10355
성한	-10356
소시	-10357
쉬는	-10358
스텔	-10359
심의	-10360
악한	-10361
열에	-10362
주인	-10363
증권	-10364
지면	-10365
집행	-10366
치기	-10367
팀의	-10368
포트	-10369
한국	-10370
ket	-10371
▁bu	-10372
▁gl	-10373
▁po	-10374
▁so	-10375
▁가라	-10376
▁가축	-10377
▁가할	-10378
▁거세	-10379
▁검시	-10380
▁겨우	-10381
▁격돌	-10382
▁고민	-10383
▁공기	-10384
▁관절	-10385
▁끌고	-10386
▁내는	-10387
▁뇌물	-10388
▁도메	-10389
▁되풀	-10390
▁듣지	-10391
▁따를	-10392
▁레빈	-10393
▁메인	-10394
▁면제	-10395
▁반란	-10396
▁밝힐	-10397
▁불평	-10398
▁블룸	-10399
▁설계	-10400
▁세우	-10401
▁소화	-10402
▁실은	-10403
▁안젤	-10404
▁알렌	-10405
▁알파	-10406
▁연대	-10407
▁연임	-10408
▁영원	-10409
▁오고	-10410
▁유시	-10411
▁이룩	-10412
▁이바	-10413
▁전원	-10414
▁정식	-10415
▁정오	-10416
▁중계	-10417
▁진흙	-10418
▁집무	-10419
▁채의	-10420
▁추종	-10421
▁추출	-10422
▁충족	-10423
▁취득	-10424
▁침수	-10425
▁칭찬	-10426
▁카우	-10427
▁콘텐	-10428
▁크다	-10429
▁파르	-10430
▁폴리	-10431
▁피플	-10432
▁학년	-10433
▁헤이	-10434
▁현행	-10435
▁호킹	-10436
면으로	-10437
블랜드	-10438
사건에	-10439
시켜야	-10440
연상을	-10441
이트를	-10442
조사를	-10443
총장은	-10444
테리아	-10445
해에서	-10446
해주는	-10447
▁afp	-10448
▁aid	-10449
▁air	-10450
▁nfl	-10451
▁org	-10452
▁ter	-10453
▁top	-10454
▁wfp	-10455
▁감사를	-10456
▁계획의	-10457
▁공공장	-10458
▁관계는	-10459
▁국민이	-10460
▁군대가	-10461
▁단계에	-10462
▁단순한	-10463
▁대기업	-10464
▁도시로	-10465
▁독일인	-10466
▁들어오	-10467
▁로스앤	-10468
▁로켓포	-10469
▁로한은	-10470
▁마라도	-10471
▁만명을	-10472
▁무엇이	-10473
▁바다로	-10474
▁박격포	-10475
▁반군을	-10476
▁방문이	-10477
▁버냉키	-10478
▁버마의	-10479
▁범죄에	-10480
▁보안관	-10481
▁사고에	-10482
▁사태는	-10483
▁사태의	-10484
▁수류탄	-10485
▁수준의	-10486
▁수치다	-10487
▁신문에	-10488
▁신발을	-10489
▁알제리	-10490
▁야후는	-10491
▁양국간	-10492
▁언급은	-10493
▁없었던	-10494
▁올리는	-10495
▁우리베	-10496
▁위기가	-10497
▁의미를	-10498
▁의지를	-10499
▁이어질	-10500
▁이해할	-10501
▁있거나	-10502
▁장거리	-10503
▁장비를	-10504
▁전기가	-10505
▁정책이	-10506
▁제니퍼	-10507
▁제조업	-10508
▁제출할	-10509
▁줄이고	-10510
▁카자흐	-10511
▁터키군	-10512
▁투데이	-10513
▁투표할	-10514
▁판결은	-10515
▁판매할	-10516
▁합의는	-10517
▁헬기를	-10518
▁협력할	-10519
▁활성화	-10520
▁힐튼이	-10521
지역으로	-10522
ights	-10523
ondon	-10524
▁bank	-10525
▁lpga	-10526
▁pros	-10527
▁serv	-10528
▁같습니다	-10529
▁국회의사	-10530
▁남아있다	-10531
▁네바다주	-10532
▁도로에서	-10533
▁드립니다	-10534
▁목격자는	-10535
▁무장괴한	-10536
▁받았지만	-10537
▁방지하기	-10538
▁백악관에	-10539
▁보호하고	-10540
▁보호하는	-10541
▁사라졌다	-10542
▁사무실을	-10543
▁상관없이	-10544
▁수퍼대의	-10545
▁시달리고	-10546
▁시스템이	-10547
▁시작되는	-10548
▁예상보다	-10549
▁유일하게	-10550
▁자회담에	-10551
▁전대통령	-10552
▁전세계에	-10553
▁조사하기	-10554
▁주최측은	-10555
▁중단하고	-10556
▁진출했다	-10557
▁차원에서	-10558
▁참여하는	-10559
▁추가적인	-10560
▁추정했다	-10561
▁칸다하르	-10562
▁컴퓨터가	-10563
▁크리스티	-10564
▁탈레반의	-10565
▁티베트의	-10566
▁퍼센트의	-10567
▁페이스북	-10568
▁폭풍으로	-10569
▁프랑스와	-10570
▁후보들은	-10571
▁count	-10572
▁elect	-10573
▁경기부양책	-10574
▁다큐멘터리	-10575
▁시상식에서	-10576
▁시카고에서	-10577
▁이르기까지	-10578
▁인도주의적	-10579
▁중요하다고	-10580
▁london	-10581
▁가자지구에서	-10582
▁로스앤젤레스	-10583
▁아프가니스탄에	-10584
▁아프가니스탄의	-10585
▁security	-10586
▁렉	-10587
▁웬	-10588
▁짜	-10589
▁쿼	-10590
▁튀	-10591
감시	-10592
개혁	-10593
금은	-10594
나귀	-10595
냈던	-10596
놓은	-10597
라노	-10598
란히	-10599
미가	-10600
베리	-10601
보의	-10602
부인	-10603
산층	-10604
소득	-10605
수감	-10606
수준	-10607
숙한	-10608
스프	-10609
시즌	-10610
예를	-10611
워터	-10612
인데	-10613
있고	-10614
조정	-10615
조치	-10616
참모	-10617
츠의	-10618
캐슬	-10619
턴은	-10620
표가	-10621
행정	-10622
히고	-10623
ech	-10624
ety	-10625
way	-10626
▁ak	-10627
▁거머	-10628
▁과시	-10629
▁광우	-10630
▁근교	-10631
▁기습	-10632
▁기조	-10633
▁나노	-10634
▁내비	-10635
▁놓은	-10636
▁다녀	-10637
▁단일	-10638
▁대지	-10639
▁도주	-10640
▁두개	-10641
▁둘째	-10642
▁드물	-10643
▁들은	-10644
▁러드	-10645
▁레논	-10646
▁로빈	-10647
▁롬니	-10648
▁만났	-10649
▁맞붙	-10650
▁매머	-10651
▁맺고	-10652
▁모터	-10653
▁몰래	-10654
▁몸무	-10655
▁밤새	-10656
▁배아	-10657
▁백신	-10658
▁밴드	-10659
▁범행	-10660
▁베리	-10661
▁벤자	-10662
▁부른	-10663
▁분실	-10664
▁불공	-10665
▁비영	-10666
▁비유	-10667
▁사카	-10668
▁사탕	-10669
▁생성	-10670
▁생일	-10671
▁서신	-10672
▁선을	-10673
▁성전	-10674
▁세를	-10675
▁세실	-10676
▁세이	-10677
▁소실	-10678
▁숫자	-10679
▁승부	-10680
▁싶은	-10681
▁악어	-10682
▁앞당	-10683
▁언어	-10684
▁여부	-10685
▁연령	-10686
▁연휴	-10687
▁예수	-10688
▁오키	-10689
▁올바	-10690
▁우방	-10691
▁위태	-10692
▁유효	-10693
▁응원	-10694
▁이례	-10695
▁이며	-10696
▁인계	-10697
▁일할	-10698
▁자크	-10699
▁잠을	-10700
▁장치	-10701
▁저널	-10702
▁전송	-10703
▁절감	-10704
▁주교	-10705
▁주미	-10706
▁지중	-10707
▁창조	-10708
▁출국	-10709
▁취약	-10710
▁크고	-10711
▁타지	-10712
▁탄소	-10713
▁패한	-10714
▁포위	-10715
▁포츠	-10716
▁해를	-10717
▁허블	-10718
▁호화	-10719
▁회부	-10720
▁회색	-10721
▁힘이	-10722
는지에	-10723
메리카	-10724
방에서	-10725
스와의	-10726
였으나	-10727
으려는	-10728
의사를	-10729
하기는	-10730
하는지	-10731
ense	-10732
▁fed	-10733
▁hol	-10734
▁may	-10735
▁sch	-10736
▁url	-10737
▁결혼식	-10738
▁경우가	-10739
▁계획한	-10740
▁구체적	-10741
▁국가주	-10742
▁그룹의	-10743
▁기간에	-10744
▁기간을	-10745
▁김선일	-10746
▁눈물을	-10747
▁뉴캐슬	-10748
▁느낀다	-10749
▁당국과	-10750
▁당나귀	-10751
▁대만의	-10752
▁대사가	-10753
▁대주교	-10754
▁동반한	-10755
▁되돌아	-10756
▁말라고	-10757
▁맞았다	-10758
▁명단에	-10759
▁무너져	-10760
▁바람직	-10761
▁발사를	-10762
▁발전을	-10763
▁버스를	-10764
▁보여줄	-10765
▁본사를	-10766
▁부부의	-10767
▁북부의	-10768
▁비판을	-10769
▁빠졌다	-10770
▁사항은	-10771
▁서울의	-10772
▁설치된	-10773
▁셰이크	-10774
▁손해를	-10775
▁쇼핑몰	-10776
▁수십억	-10777
▁수용할	-10778
▁시설에	-10779
▁심문을	-10780
▁아내와	-10781
▁아들인	-10782
▁아이돌	-10783
▁아칸소	-10784
▁양국이	-10785
▁엘바라	-10786
▁여왕은	-10787
▁열차가	-10788
▁영국이	-10789
▁오마르	-10790
▁의무를	-10791
▁의혹에	-10792
▁일정이	-10793
▁임무는	-10794
▁있었을	-10795
▁자산을	-10796
▁자세를	-10797
▁재정적	-10798
▁재확인	-10799
▁접전을	-10800
▁제안한	-10801
▁제프리	-10802
▁주인이	-10803
▁중산층	-10804
▁지속될	-10805
▁참석해	-10806
▁찾았다	-10807
▁최선의	-10808
▁축구팬	-10809
▁케이시	-10810
▁코끼리	-10811
▁토론을	-10812
▁판단을	-10813
▁프레드	-10814
▁하나를	-10815
▁할아버	-10816
▁행사는	-10817
▁향하고	-10818
▁호텔을	-10819
▁후지모	-10820
경기에서	-10821
선거에서	-10822
센터에서	-10823
적이었다	-10824
▁life	-10825
▁공동으로	-10826
▁구조대원	-10827
▁군인들은	-10828
▁금지하고	-10829
▁기록하고	-10830
▁대통령도	-10831
▁브리티시	-10832
▁비밀리에	-10833
▁비행기에	-10834
▁사람들도	-10835
▁세계보건	-10836
▁세트에서	-10837
▁승객들이	-10838
▁않겠다는	-10839
▁어머니와	-10840
▁유세에서	-10841
▁전국적인	-10842
▁점프하는	-10843
▁정해지지	-10844
▁중요성을	-10845
▁지구에서	-10846
▁지지율이	-10847
▁촉구하는	-10848
▁총격으로	-10849
▁학생들의	-10850
▁헤럴드가	-10851
▁후보들이	-10852
▁관계자들과	-10853
▁다이애나가	-10854
▁대통령과의	-10855
▁버지니아주	-10856
▁소식입니다	-10857
▁아시아에서	-10858
▁엘바라데이	-10859
▁의원들에게	-10860
▁짐바브웨의	-10861
▁카자흐스탄	-10862
▁폭력사태를	-10863
▁폭탄테러를	-10864
▁프로젝트를	-10865
▁경찰에따르면	-10866
▁해수욕장에서	-10867
▁연방준비제도이사회	-10868
az	-10869
cr	-10870
sc	-10871
▁끈	-10872
▁댓	-10873
▁밸	-10874
▁앰	-10875
▁즈	-10876
▁핑	-10877
건설	-10878
경이	-10879
길에	-10880
너스	-10881
놨다	-10882
다코	-10883
락은	-10884
로지	-10885
망이	-10886
문의	-10887
병에	-10888
보면	-10889
브리	-10890
액은	-10891
여행	-10892
우로	-10893
운을	-10894
유로	-10895
음악	-10896
재를	-10897
종일	-10898
죄로	-10899
줘야	-10900
질유	-10901
타와	-10902
테인	-10903
티를	-10904
호한	-10905
ail	-10906
▁bb	-10907
▁br	-10908
▁hy	-10909
▁kt	-10910
▁lo	-10911
▁가기	-10912
▁가서	-10913
▁개별	-10914
▁격리	-10915
▁경보	-10916
▁군데	-10917
▁그럼	-10918
▁기초	-10919
▁끌려	-10920
▁닥터	-10921
▁당혹	-10922
▁도발	-10923
▁도서	-10924
▁두뇌	-10925
▁드림	-10926
▁디에	-10927
▁땅을	-10928
▁로페	-10929
▁마호	-10930
▁막고	-10931
▁면역	-10932
▁몸이	-10933
▁문자	-10934
▁바위	-10935
▁방치	-10936
▁배로	-10937
▁병에	-10938
▁부품	-10939
▁비준	-10940
▁비즈	-10941
▁빠뜨	-10942
▁서안	-10943
▁서쪽	-10944
▁설정	-10945
▁스케	-10946
▁시판	-10947
▁신장	-10948
▁실어	-10949
▁싫어	-10950
▁아끼	-10951
▁아사	-10952
▁아우	-10953
▁원화	-10954
▁유망	-10955
▁의식	-10956
▁인신	-10957
▁인치	-10958
▁일단	-10959
▁일명	-10960
▁잃고	-10961
▁입학	-10962
▁자서	-10963
▁재경	-10964
▁재벌	-10965
▁제가	-10966
▁조셉	-10967
▁조언	-10968
▁좌파	-10969
▁줄이	-10970
▁지닌	-10971
▁지뢰	-10972
▁진단	-10973
▁첨단	-10974
▁촛불	-10975
▁추격	-10976
▁측에	-10977
▁치고	-10978
▁침투	-10979
▁키스	-10980
▁타결	-10981
▁테리	-10982
▁통증	-10983
▁틀림	-10984
▁평소	-10985
▁폴란	-10986
▁해석	-10987
▁해킹	-10988
▁홈런	-10989
▁후퇴	-10990
▁휴양	-10991
기간을	-10992
된다는	-10993
사건을	-10994
서비스	-10995
선으로	-10996
시위를	-10997
었다는	-10998
화하는	-10999
able	-11000
alth	-11001
ital	-11002
ward	-11003
▁bur	-11004
▁cam	-11005
▁get	-11006
▁leg	-11007
▁med	-11008
▁mus	-11009
▁pml	-11010
▁ref	-11011
▁sum	-11012
▁개최된	-11013
▁거래가	-11014
▁겪었다	-11015
▁경기도	-11016
▁경기의	-11017
▁경제는	-11018
▁경제와	-11019
▁고려해	-11020
▁고향인	-11021
▁공화국	-11022
▁과거의	-11023
▁구하기	-11024
▁국세청	-11025
▁군대를	-11026
▁규모는	-11027
▁기도를	-11028
▁나토군	-11029
▁날씨가	-11030
▁남편과	-11031
▁년에도	-11032
▁논의가	-11033
▁누르고	-11034
▁뉴스는	-11035
▁대표인	-11036
▁되풀이	-11037
▁마련할	-11038
▁마을에	-11039
▁말아야	-11040
▁맡았던	-11041
▁모았다	-11042
▁무너진	-11043
▁물었다	-11044
▁미네소	-11045
▁미드필	-11046
▁발표에	-11047
▁방송의	-11048
▁벤자민	-11049
▁보호할	-11050
▁불렀다	-11051
▁사임할	-11052
▁생산할	-11053
▁성추행	-11054
▁소녀가	-11055
▁소리가	-11056
▁수치를	-11057
▁시장과	-11058
▁시즌을	-11059
▁아기가	-11060
▁아기의	-11061
▁아들의	-11062
▁알자와	-11063
▁양측의	-11064
▁어디서	-11065
▁언제든	-11066
▁오딩가	-11067
▁운행을	-11068
▁유수프	-11069
▁응답자	-11070
▁의식을	-11071
▁인정한	-11072
▁인정할	-11073
▁있을지	-11074
▁장치를	-11075
▁전망이	-11076
▁전쟁의	-11077
▁전하며	-11078
▁중국인	-11079
▁증시의	-11080
▁지나지	-11081
▁지진은	-11082
▁지키고	-11083
▁지키기	-11084
▁진술을	-11085
▁차이를	-11086
▁타이완	-11087
▁태국의	-11088
▁터키는	-11089
▁토론토	-11090
▁판사가	-11091
▁페트로	-11092
▁풍부한	-11093
▁프로듀	-11094
▁피아노	-11095
▁한다며	-11096
▁합의가	-11097
▁헌법을	-11098
▁호르몬	-11099
▁화상을	-11100
▁회동을	-11101
▁힘들다	-11102
▁week	-11103
▁경찰서에	-11104
▁글래스고	-11105
▁기반으로	-11106
▁기상청은	-11107
▁니콜라스	-11108
▁대답했다	-11109
▁라이스는	-11110
▁명령했다	-11111
▁모습으로	-11112
▁민주당과	-11113
▁받았으나	-11114
▁벌어지고	-11115
▁부문에서	-11116
▁비즈니스	-11117
▁사임했다	-11118
▁상원에서	-11119
▁상파울루	-11120
▁시점에서	-11121
▁아이들과	-11122
▁애완동물	-11123
▁억달러를	-11124
▁연기했다	-11125
▁예상되는	-11126
▁우주정거	-11127
▁웨스트버	-11128
▁위협하는	-11129
▁위협했다	-11130
▁유명하다	-11131
▁이라크가	-11132
▁이용하고	-11133
▁이재민이	-11134
▁인디아나	-11135
▁인종차별	-11136
▁일정으로	-11137
▁자신감을	-11138
▁장난감을	-11139
▁재정경제	-11140
▁정상들은	-11141
▁제공했다	-11142
▁지나치게	-11143
▁지방에서	-11144
▁착수했다	-11145
▁참가했다	-11146
▁참여하지	-11147
▁참여했다	-11148
▁추진하고	-11149
▁커뮤니티	-11150
▁쿠데타로	-11151
▁쿠르드족	-11152
▁판결했다	-11153
▁팔레스타	-11154
▁플레이어	-11155
▁확실하지	-11156
▁활동하는	-11157
▁회사들은	-11158
▁plans	-11159
▁국제유가는	-11160
▁아이디어를	-11161
▁지도자들과	-11162
▁투자자들은	-11163
▁투자자들이	-11164
▁한국인들이	-11165
▁former	-11166
▁세계보건기구	-11167
▁정상회담에서	-11168
▁남아프리카공화국	-11169
▁association	-11170
ma	-11171
ug	-11172
▁릭	-11173
▁빗	-11174
▁빵	-11175
▁툴	-11176
가족	-11177
거는	-11178
경비	-11179
공사	-11180
그래	-11181
극을	-11182
긴다	-11183
대사	-11184
돌프	-11185
동생	-11186
되게	-11187
두에	-11188
들리	-11189
디언	-11190
디의	-11191
려면	-11192
뤘다	-11193
문과	-11194
베르	-11195
병의	-11196
비엘	-11197
센은	-11198
야의	-11199
얄라	-11200
열을	-11201
오염	-11202
욕을	-11203
인수	-11204
일라	-11205
자지	-11206
작업	-11207
조로	-11208
주와	-11209
중계	-11210
트맨	-11211
퍼스	-11212
형에	-11213
ctv	-11214
ugh	-11215
▁hs	-11216
▁kn	-11217
▁pf	-11218
▁가결	-11219
▁가던	-11220
▁각자	-11221
▁갈등	-11222
▁격려	-11223
▁결함	-11224
▁계곡	-11225
▁고마	-11226
▁공판	-11227
▁공학	-11228
▁구사	-11229
▁구할	-11230
▁구형	-11231
▁그때	-11232
▁길에	-11233
▁김경	-11234
▁냄새	-11235
▁누드	-11236
▁단식	-11237
▁대면	-11238
▁대에	-11239
▁동일	-11240
▁동점	-11241
▁뒤따	-11242
▁듯한	-11243
▁때가	-11244
▁라왈	-11245
▁레저	-11246
▁로라	-11247
▁만찬	-11248
▁맞게	-11249
▁몸집	-11250
▁미친	-11251
▁바나	-11252
▁바에	-11253
▁방한	-11254
▁복사	-11255
▁본드	-11256
▁빛을	-11257
▁속옷	-11258
▁속한	-11259
▁수업	-11260
▁승용	-11261
▁시범	-11262
▁쓰여	-11263
▁아닐	-11264
▁악영	-11265
▁야자	-11266
▁양보	-11267
▁얻는	-11268
▁에디	-11269
▁에버	-11270
▁에탄	-11271
▁여년	-11272
▁예보	-11273
▁오징	-11274
▁오프	-11275
▁우호	-11276
▁월과	-11277
▁이나	-11278
▁이내	-11279
▁일방	-11280
▁일째	-11281
▁자라	-11282
▁자백	-11283
▁잔디	-11284
▁저작	-11285
▁정통	-11286
▁제패	-11287
▁조장	-11288
▁종말	-11289
▁종신	-11290
▁종양	-11291
▁좋게	-11292
▁즐거	-11293
▁지수	-11294
▁지침	-11295
▁집어	-11296
▁차림	-11297
▁차에	-11298
▁채워	-11299
▁총알	-11300
▁출장	-11301
▁침범	-11302
▁침착	-11303
▁캐리	-11304
▁캠벨	-11305
▁코네	-11306
▁콜레	-11307
▁테마	-11308
▁퇴직	-11309
▁티모	-11310
▁평론	-11311
▁평방	-11312
▁폴슨	-11313
▁피셔	-11314
▁하리	-11315
▁호수	-11316
▁호의	-11317
▁회피	-11318
대사는	-11319
대학의	-11320
렸지만	-11321
명으로	-11322
버그는	-11323
스탄불	-11324
스트롱	-11325
시설을	-11326
자리에	-11327
장치를	-11328
적이지	-11329
피니언	-11330
ange	-11331
ants	-11332
atch	-11333
▁ann	-11334
▁reg	-11335
▁sci	-11336
▁가격에	-11337
▁가져다	-11338
▁갤런당	-11339
▁경찰을	-11340
▁공격의	-11341
▁국제사	-11342
▁군부가	-11343
▁권한을	-11344
▁그린피	-11345
▁금융위	-11346
▁기술의	-11347
▁년형을	-11348
▁니케이	-11349
▁다음과	-11350
▁단어를	-11351
▁단체에	-11352
▁대선을	-11353
▁대중의	-11354
▁대학살	-11355
▁던졌다	-11356
▁도널드	-11357
▁뒤에서	-11358
▁라이프	-11359
▁마약을	-11360
▁매코맥	-11361
▁맥케인	-11362
▁맥코맥	-11363
▁맨해튼	-11364
▁모바일	-11365
▁무엇인	-11366
▁바바라	-11367
▁바이오	-11368
▁방사능	-11369
▁버몬트	-11370
▁베컴이	-11371
▁부상당	-11372
▁브루스	-11373
▁비교해	-11374
▁비무장	-11375
▁사업에	-11376
▁산불로	-11377
▁생일을	-11378
▁선언한	-11379
▁세계에	-11380
▁소수의	-11381
▁수위가	-11382
▁스피처	-11383
▁시도를	-11384
▁식량을	-11385
▁식민지	-11386
▁아스널	-11387
▁아흐메	-11388
▁안타깝	-11389
▁얼음이	-11390
▁여파로	-11391
▁역사가	-11392
▁연승을	-11393
▁영장을	-11394
▁오리건	-11395
▁요구할	-11396
▁우승한	-11397
▁이것을	-11398
▁이름은	-11399
▁입국을	-11400
▁자유의	-11401
▁장소로	-11402
▁재판은	-11403
▁잭슨은	-11404
▁정신과	-11405
▁정치에	-11406
▁존드로	-11407
▁주말에	-11408
▁주어진	-11409
▁중상을	-11410
▁지원에	-11411
▁지지율	-11412
▁참가할	-11413
▁철저한	-11414
▁총기난	-11415
▁총선에	-11416
▁최대한	-11417
▁출마할	-11418
▁출전한	-11419
▁커지고	-11420
▁크라우	-11421
▁투표는	-11422
▁특이한	-11423
▁페널티	-11424
▁필요는	-11425
▁협조를	-11426
단체들은	-11427
통합민주	-11428
▁fire	-11429
▁rese	-11430
▁가족에게	-11431
▁개최되는	-11432
▁결의안에	-11433
▁경제적인	-11434
▁국가보안	-11435
▁금지하는	-11436
▁기본적인	-11437
▁단체들은	-11438
▁당국자는	-11439
▁대부분을	-11440
▁데이터를	-11441
▁도미니카	-11442
▁동영상은	-11443
▁동쪽으로	-11444
▁떨어지는	-11445
▁마흐무드	-11446
▁만달러를	-11447
▁말했지만	-11448
▁미드필더	-11449
▁박테리아	-11450
▁법무장관	-11451
▁부상자는	-11452
▁부족으로	-11453
▁부총리는	-11454
▁브리트니	-11455
▁사망하는	-11456
▁사무총장	-11457
▁사용되고	-11458
▁사이트에	-11459
▁사회주의	-11460
▁상승으로	-11461
▁선정됐다	-11462
▁수사관은	-11463
▁수하르토	-11464
▁시스템은	-11465
▁시위대와	-11466
▁알자와히	-11467
▁암스트롱	-11468
▁앞으로의	-11469
▁어린이를	-11470
▁어머니는	-11471
▁연구팀은	-11472
▁용의자의	-11473
▁유권자의	-11474
▁이스탄불	-11475
▁일자리가	-11476
▁일축했다	-11477
▁전문가인	-11478
▁정상적인	-11479
▁좋아한다	-11480
▁중단됐다	-11481
▁중심으로	-11482
▁중앙정보	-11483
▁차베스는	-11484
▁카트리나	-11485
▁케르비엘	-11486
▁학생들과	-11487
▁확인하는	-11488
▁환경보호	-11489
▁후세인의	-11490
▁death	-11491
▁관광객들은	-11492
▁동계올림픽	-11493
▁메사추세츠	-11494
▁보도합니다	-11495
▁사망자수가	-11496
▁살해했다고	-11497
▁수감자들을	-11498
▁시위자들이	-11499
▁아웅산수치	-11500
▁알카에다는	-11501
▁이라크전에	-11502
▁크리스티나	-11503
▁확인했다고	-11504
▁모스크바에서	-11505
▁미국인들에게	-11506
▁사망했습니다	-11507
▁유럽축구연맹	-11508
▁control	-11509
▁research	-11510
dp	-11511
wc	-11512
▁굶	-11513
▁꽤	-11514
▁닿	-11515
▁룰	-11516
▁룸	-11517
▁앗	-11518
▁옵	-11519
▁칩	-11520
▁캥	-11521
가리	-11522
개가	-11523
거루	-11524
겔라	-11525
구로	-11526
냐고	-11527
로로	-11528
머는	-11529
봉을	-11530
부족	-11531
비용	-11532
산이	-11533
상승	-11534
시바	-11535
엄한	-11536
웨어	-11537
유의	-11538
작을	-11539
장치	-11540
재가	-11541
저널	-11542
적은	-11543
카르	-11544
통화	-11545
해져	-11546
ces	-11547
ino	-11548
▁ev	-11549
▁간섭	-11550
▁감추	-11551
▁건립	-11552
▁걷는	-11553
▁격추	-11554
▁경신	-11555
▁고정	-11556
▁공략	-11557
▁교내	-11558
▁군용	-11559
▁그날	-11560
▁김계	-11561
▁꿈을	-11562
▁나쁘	-11563
▁냉동	-11564
▁넣어	-11565
▁노왁	-11566
▁농부	-11567
▁다짐	-11568
▁달에	-11569
▁돕고	-11570
▁딸인	-11571
▁라틴	-11572
▁러셀	-11573
▁리치	-11574
▁마주	-11575
▁매수	-11576
▁메뉴	-11577
▁미망	-11578
▁미트	-11579
▁미하	-11580
▁바퀴	-11581
▁방북	-11582
▁방식	-11583
▁백화	-11584
▁번영	-11585
▁복부	-11586
▁복지	-11587
▁볼리	-11588
▁불행	-11589
▁브레	-11590
▁산소	-11591
▁서버	-11592
▁선생	-11593
▁세균	-11594
▁수마	-11595
▁수지	-11596
▁시경	-11597
▁식이	-11598
▁아미	-11599
▁악성	-11600
▁안겨	-11601
▁않자	-11602
▁애도	-11603
▁얼리	-11604
▁오직	-11605
▁오차	-11606
▁완공	-11607
▁요하	-11608
▁운하	-11609
▁월터	-11610
▁웨이	-11611
▁잃지	-11612
▁장갑	-11613
▁전과	-11614
▁전미	-11615
▁전비	-11616
▁정체	-11617
▁정한	-11618
▁지킬	-11619
▁책정	-11620
▁초고	-11621
▁초과	-11622
▁켈리	-11623
▁크누	-11624
▁타입	-11625
▁토양	-11626
▁펼칠	-11627
▁포유	-11628
▁폭도	-11629
▁폭등	-11630
▁하반	-11631
▁합참	-11632
▁후쿠	-11633
▁흥행	-11634
겼으며	-11635
계획을	-11636
기적인	-11637
되지는	-11638
력으로	-11639
렸다는	-11640
문제에	-11641
세포를	-11642
소시에	-11643
시키다	-11644
어가고	-11645
였다는	-11646
이트는	-11647
코비치	-11648
하다며	-11649
혔다고	-11650
회담을	-11651
acks	-11652
ploy	-11653
▁bmw	-11654
▁est	-11655
▁eta	-11656
▁fts	-11657
▁pak	-11658
▁sen	-11659
▁가정에	-11660
▁가하고	-11661
▁걸렸다	-11662
▁경보를	-11663
▁경선이	-11664
▁경향이	-11665
▁경호원	-11666
▁고립된	-11667
▁공격할	-11668
▁공항은	-11669
▁과반수	-11670
▁과학자	-11671
▁교수가	-11672
▁구스마	-11673
▁국왕은	-11674
▁국왕이	-11675
▁그래미	-11676
▁그런가	-11677
▁기술은	-11678
▁기준을	-11679
▁나란히	-11680
▁나타낸	-11681
▁네덜란	-11682
▁뇌물을	-11683
▁대단히	-11684
▁대학은	-11685
▁도시에	-11686
▁동물의	-11687
▁마침내	-11688
▁만장일	-11689
▁메시지	-11690
▁모니터	-11691
▁모르고	-11692
▁목격한	-11693
▁몸무게	-11694
▁법정에	-11695
▁보안을	-11696
▁불안한	-11697
▁비영리	-11698
▁비자를	-11699
▁빠질까	-11700
▁사랑에	-11701
▁사적인	-11702
▁살해할	-11703
▁샘플을	-11704
▁석방할	-11705
▁선데이	-11706
▁수개월	-11707
▁수용소	-11708
▁시도한	-11709
▁시작해	-11710
▁신속한	-11711
▁아들은	-11712
▁아이티	-11713
▁않았을	-11714
▁어려워	-11715
▁에서는	-11716
▁엔데버	-11717
▁여명을	-11718
▁여배우	-11719
▁여사와	-11720
▁위기로	-11721
▁유니버	-11722
▁유럽을	-11723
▁유리한	-11724
▁음모를	-11725
▁의약품	-11726
▁이사는	-11727
▁이상한	-11728
▁이었다	-11729
▁이의를	-11730
▁이틀간	-11731
▁일정은	-11732
▁자메이	-11733
▁작품은	-11734
▁잡았다	-11735
▁장관급	-11736
▁장관을	-11737
▁장기간	-11738
▁장악한	-11739
▁재개될	-11740
▁재배치	-11741
▁저희는	-11742
▁전망을	-11743
▁제너럴	-11744
▁주목을	-11745
▁준장은	-11746
▁지원한	-11747
▁진행할	-11748
▁질환을	-11749
▁출동한	-11750
▁출전을	-11751
▁취임한	-11752
▁캔자스	-11753
▁캥거루	-11754
▁코커스	-11755
▁크로커	-11756
▁타임스	-11757
▁탈라바	-11758
▁탈북자	-11759
▁터미널	-11760
▁파병을	-11761
▁패스를	-11762
▁페리노	-11763
▁폐쇄를	-11764
▁하여금	-11765
▁학대를	-11766
▁행동은	-11767
▁협의를	-11768
▁화장실	-11769
▁회장의	-11770
▁후에도	-11771
▁휴대용	-11772
으로서의	-11773
▁down	-11774
▁said	-11775
▁this	-11776
▁강조하고	-11777
▁거부하고	-11778
▁건물에서	-11779
▁것이지만	-11780
▁경찰관은	-11781
▁공원에서	-11782
▁국영방송	-11783
▁국토안보	-11784
▁금메달을	-11785
▁기소했다	-11786
▁뉴멕시코	-11787
▁담당하고	-11788
▁돌아왔다	-11789
▁들어있는	-11790
▁따뜻하면	-11791
▁매케인을	-11792
▁모르겠다	-11793
▁목소리로	-11794
▁무시하고	-11795
▁미얀마를	-11796
▁민주변화	-11797
▁보수주의	-11798
▁부사장은	-11799
▁브라질의	-11800
▁사람들에	-11801
▁사용하기	-11802
▁사원에서	-11803
▁산사태로	-11804
▁산타클로	-11805
▁상태라고	-11806
▁선수들의	-11807
▁성폭행을	-11808
▁세실리아	-11809
▁스미스는	-11810
▁스파이스	-11811
▁스피어스	-11812
▁싶어한다	-11813
▁알베르토	-11814
▁애틀란타	-11815
▁여기에는	-11816
▁오토바이	-11817
▁오픈에서	-11818
▁올랐으며	-11819
▁왔습니다	-11820
▁움직이고	-11821
▁움직임에	-11822
▁이상으로	-11823
▁자리잡고	-11824
▁전적으로	-11825
▁조선중앙	-11826
▁주도하는	-11827
▁주지사의	-11828
▁지역이다	-11829
▁지원하기	-11830
▁착용하고	-11831
▁충격으로	-11832
▁팬들에게	-11833
▁평양에서	-11834
▁표현했다	-11835
▁피추시킨	-11836
▁하겠다고	-11837
▁하나이다	-11838
▁하락세를	-11839
▁하락하며	-11840
▁하원의원	-11841
▁해외에서	-11842
▁환영했다	-11843
▁후보에게	-11844
위원회에서	-11845
으로부터의	-11846
minist	-11847
▁prime	-11848
▁무샤라프의	-11849
▁바이러스에	-11850
▁샤라포바는	-11851
▁슈워제네거	-11852
▁아이들에게	-11853
▁엘리베이터	-11854
▁월드시리즈	-11855
▁이슬람교도	-11856
▁전반적으로	-11857
▁체포되었다	-11858
▁클리블랜드	-11859
▁테러지원국	-11860
▁파키스탄은	-11861
▁평화적으로	-11862
▁market	-11863
▁police	-11864
▁prosec	-11865
▁united	-11866
▁자유무역협정	-11867
titution	-11868
▁administ	-11869
▁economic	-11870
▁election	-11871
ik	-11872
pt	-11873
we	-11874
xt	-11875
▁람	-11876
▁쉴	-11877
▁탓	-11878
▁톱	-11879
▁팩	-11880
▁픽	-11881
▁혐	-11882
개로	-11883
노는	-11884
능을	-11885
류가	-11886
마리	-11887
멘토	-11888
물질	-11889
분간	-11890
분한	-11891
브로	-11892
세요	-11893
수수	-11894
심은	-11895
야만	-11896
오가	-11897
오프	-11898
웠던	-11899
이저	-11900
인권	-11901
일인	-11902
있지	-11903
자고	-11904
자르	-11905
잡을	-11906
장암	-11907
쟁을	-11908
전선	-11909
절을	-11910
종이	-11911
주택	-11912
즈에	-11913
지리	-11914
질러	-11915
카를	-11916
카스	-11917
테랑	-11918
해로	-11919
호른	-11920
ads	-11921
als	-11922
ged	-11923
ock	-11924
ron	-11925
unc	-11926
▁ps	-11927
▁강의	-11928
▁갤럭	-11929
▁고아	-11930
▁골로	-11931
▁공통	-11932
▁구름	-11933
▁구의	-11934
▁궁극	-11935
▁권한	-11936
▁그냥	-11937
▁기권	-11938
▁나치	-11939
▁낙찰	-11940
▁납세	-11941
▁낭비	-11942
▁내장	-11943
▁넓은	-11944
▁년도	-11945
▁농작	-11946
▁닉슨	-11947
▁닌텐	-11948
▁다녔	-11949
▁다뤄	-11950
▁대담	-11951
▁대와	-11952
▁라인	-11953
▁많지	-11954
▁말은	-11955
▁맹세	-11956
▁밀리	-11957
▁밀림	-11958
▁밀집	-11959
▁바가	-11960
▁바오	-11961
▁발부	-11962
▁배나	-11963
▁배에	-11964
▁불매	-11965
▁사직	-11966
▁색깔	-11967
▁서약	-11968
▁성경	-11969
▁세는	-11970
▁셔츠	-11971
▁수잔	-11972
▁시한	-11973
▁아크	-11974
▁앗아	-11975
▁어휘	-11976
▁에미	-11977
▁여유	-11978
▁열쇠	-11979
▁예로	-11980
▁올드	-11981
▁올릴	-11982
▁요인	-11983
▁용인	-11984
▁원격	-11985
▁월경	-11986
▁위법	-11987
▁유골	-11988
▁유태	-11989
▁이겨	-11990
▁이벤	-11991
▁인지	-11992
▁일년	-11993
▁자매	-11994
▁정규	-11995
▁종의	-11996
▁죄수	-11997
▁주관	-11998
▁주를	-11999
▁죽을	-12000
▁중소	-12001
▁지내	-12002
▁지미	-12003
▁지저	-12004
▁직장	-12005
▁차전	-12006
▁참배	-12007
▁체스	-12008
▁출범	-12009
▁측의	-12010
▁코트	-12011
▁크기	-12012
▁터치	-12013
▁토지	-12014
▁통역	-12015
▁특사	-12016
▁파운	-12017
▁편지	-12018
▁허위	-12019
▁헤르	-12020
▁혁신	-12021
▁화석	-12022
▁확고	-12023
▁후계	-12024
경기에	-12025
계에서	-12026
기록을	-12027
레스테	-12028
레이션	-12029
방송의	-12030
버렸다	-12031
법원에	-12032
브리지	-12033
슬러는	-12034
시간을	-12035
인들과	-12036
정책을	-12037
ally	-12038
ious	-12039
reak	-12040
umer	-12041
▁bag	-12042
▁cal	-12043
▁det	-12044
▁lee	-12045
▁각국의	-12046
▁감옥에	-12047
▁개국이	-12048
▁건강을	-12049
▁걸었다	-12050
▁검찰에	-12051
▁겁니다	-12052
▁고려할	-12053
▁고문을	-12054
▁곧바로	-12055
▁공항의	-12056
▁과도한	-12057
▁규제를	-12058
▁그쳤다	-12059
▁급속히	-12060
▁기온이	-12061
▁남편을	-12062
▁달한다	-12063
▁돌려보	-12064
▁때로는	-12065
▁뛰어난	-12066
▁뛰어들	-12067
▁레이더	-12068
▁로딕은	-12069
▁린제이	-12070
▁마호메	-12071
▁만남을	-12072
▁명성을	-12073
▁모델을	-12074
▁무기한	-12075
▁무책임	-12076
▁물질을	-12077
▁믿는다	-12078
▁반군에	-12079
▁받았고	-12080
▁벨몬트	-12081
▁보내기	-12082
▁봤다고	-12083
▁부근에	-12084
▁부상한	-12085
▁빠르면	-12086
▁사람도	-12087
▁사전에	-12088
▁사태로	-12089
▁생중계	-12090
▁선거법	-12091
▁성관계	-12092
▁아끼지	-12093
▁아니고	-12094
▁아이슬	-12095
▁악화될	-12096
▁않다는	-12097
▁알리기	-12098
▁알았다	-12099
▁암살된	-12100
▁어려울	-12101
▁에이미	-12102
▁여동생	-12103
▁연관된	-12104
▁연합은	-12105
▁열렸던	-12106
▁올바른	-12107
▁요구가	-12108
▁운전을	-12109
▁유가족	-12110
▁유엔과	-12111
▁은행이	-12112
▁의료진	-12113
▁이른바	-12114
▁이씨는	-12115
▁인권을	-12116
▁인식을	-12117
▁일만에	-12118
▁임명된	-12119
▁재산을	-12120
▁저렴한	-12121
▁전화로	-12122
▁정권은	-12123
▁정당이	-12124
▁정보부	-12125
▁정책은	-12126
▁제공해	-12127
▁제이미	-12128
▁제품에	-12129
▁주민이	-12130
▁주석은	-12131
▁주치의	-12132
▁지중해	-12133
▁진단을	-12134
▁진실을	-12135
▁차례나	-12136
▁초대형	-12137
▁초래할	-12138
▁총리에	-12139
▁최우수	-12140
▁태양열	-12141
▁파견된	-12142
▁펼치고	-12143
▁피난민	-12144
▁하기로	-12145
▁학교를	-12146
▁행위가	-12147
▁헤럴드	-12148
▁협상은	-12149
▁홍수가	-12150
▁홍콩의	-12151
▁확인한	-12152
▁확인해	-12153
해달라고	-12154
icial	-12155
▁back	-12156
▁가능하게	-12157
▁공격하는	-12158
▁국민에게	-12159
▁기자들의	-12160
▁끊임없이	-12161
▁다운로드	-12162
▁다음으로	-12163
▁독일에서	-12164
▁매케인에	-12165
▁모르지만	-12166
▁모하마드	-12167
▁미네소타	-12168
▁발생했던	-12169
▁본격적인	-12170
▁승려들이	-12171
▁신용카드	-12172
▁아버지와	-12173
▁아흐마디	-12174
▁악영향을	-12175
▁엔지니어	-12176
▁엔터테인	-12177
▁여성들을	-12178
▁오키나와	-12179
▁우주에서	-12180
▁워싱턴에	-12181
▁의료진은	-12182
▁의료진이	-12183
▁의원들의	-12184
▁이용하여	-12185
▁자선단체	-12186
▁전형적인	-12187
▁진행중인	-12188
▁초등학교	-12189
▁컬럼비아	-12190
▁포기하지	-12191
▁포함하고	-12192
▁폭발물을	-12193
▁프리메라	-12194
▁협상에서	-12195
▁희망하고	-12196
▁chief	-12197
▁under	-12198
▁교통사고로	-12199
▁기록했다고	-12200
▁내무장관은	-12201
▁라운드에서	-12202
▁무샤라프가	-12203
▁생각합니다	-12204
▁생방송으로	-12205
▁선거운동을	-12206
▁수색작업을	-12207
▁스피어스가	-12208
▁알카에다를	-12209
▁어린이들을	-12210
▁이스라엘군	-12211
▁일부에서는	-12212
▁토네이도가	-12213
▁구조대원들이	-12214
▁베네수엘라의	-12215
▁사이클론으로	-12216
▁살해하겠다고	-12217
▁유권자들에게	-12218
▁퍼트레이어스	-12219
▁chinese	-12220
▁general	-12221
▁웨스트버지니아	-12222
ha	-12223
ij	-12224
la	-12225
ob	-12226
▁겐	-12227
▁깜	-12228
▁댐	-12229
▁삽	-12230
▁섞	-12231
▁웅	-12232
▁첨	-12233
▁첸	-12234
▁쾌	-12235
▁팰	-12236
것을	-12237
관광	-12238
달라	-12239
데르	-12240
동영	-12241
란다	-12242
레즈	-12243
류에	-12244
머스	-12245
무니	-12246
속에	-12247
수산	-12248
수출	-12249
신문	-12250
알라	-12251
연상	-12252
연설	-12253
였을	-12254
와이	-12255
요원	-12256
운트	-12257
원들	-12258
의약	-12259
일로	-12260
있게	-12261
잡이	-12262
재로	-12263
전시	-12264
주며	-12265
지길	-12266
지스	-12267
지않	-12268
층을	-12269
층이	-12270
티컷	-12271
anu	-12272
gra	-12273
lam	-12274
mit	-12275
ool	-12276
tim	-12277
▁dc	-12278
▁가뭄	-12279
▁가볍	-12280
▁감량	-12281
▁걸프	-12282
▁검출	-12283
▁고생	-12284
▁고심	-12285
▁과다	-12286
▁과잉	-12287
▁과테	-12288
▁구타	-12289
▁군복	-12290
▁그랜	-12291
▁그로	-12292
▁기쁨	-12293
▁기적	-12294
▁꾸준	-12295
▁넣은	-12296
▁년째	-12297
▁녹화	-12298
▁농산	-12299
▁뇌졸	-12300
▁단백	-12301
▁당뇨	-12302
▁독점	-12303
▁뒤로	-12304
▁레인	-12305
▁리틀	-12306
▁링컨	-12307
▁마닐	-12308
▁말고	-12309
▁맞을	-12310
▁맡게	-12311
▁맺은	-12312
▁메가	-12313
▁무리	-12314
▁무어	-12315
▁배럭	-12316
▁번에	-12317
▁베니	-12318
▁별로	-12319
▁병역	-12320
▁보드	-12321
▁부각	-12322
▁불명	-12323
▁비싼	-12324
▁뿌리	-12325
▁삼림	-12326
▁선적	-12327
▁세컨	-12328
▁쇼에	-12329
▁시의	-12330
▁심판	-12331
▁안고	-12332
▁야간	-12333
▁없기	-12334
▁연립	-12335
▁열정	-12336
▁오락	-12337
▁와서	-12338
▁왕자	-12339
▁위장	-12340
▁유동	-12341
▁유물	-12342
▁유포	-12343
▁유혹	-12344
▁육상	-12345
▁의구	-12346
▁이브	-12347
▁재발	-12348
▁재생	-12349
▁전례	-12350
▁제국	-12351
▁종업	-12352
▁좌익	-12353
▁준다	-12354
▁증진	-12355
▁지폐	-12356
▁짝짓	-12357
▁체인	-12358
▁체제	-12359
▁클래	-12360
▁테크	-12361
▁톰슨	-12362
▁파울	-12363
▁피어	-12364
▁피오	-12365
▁해가	-12366
▁혼합	-12367
▁홀리	-12368
▁환수	-12369
거리가	-12370
관으로	-12371
났지만	-12372
되도록	-12373
라이프	-12374
사건이	-12375
선고를	-12376
성으로	-12377
에서만	-12378
웨스트	-12379
자들로	-12380
자로서	-12381
카드를	-12382
테니스	-12383
트로터	-12384
해진다	-12385
행위에	-12386
form	-12387
hdad	-12388
▁bbk	-12389
▁bri	-12390
▁env	-12391
▁mic	-12392
▁pow	-12393
▁sex	-12394
▁ufo	-12395
▁was	-12396
▁you	-12397
▁감소를	-12398
▁강경한	-12399
▁강에서	-12400
▁건설을	-12401
▁경관은	-12402
▁공개할	-12403
▁공군기	-12404
▁공장을	-12405
▁과학적	-12406
▁구멍을	-12407
▁국무총	-12408
▁국정원	-12409
▁근소한	-12410
▁남편의	-12411
▁노리에	-12412
▁뉴욕증	-12413
▁달러화	-12414
▁당분간	-12415
▁당수는	-12416
▁대결을	-12417
▁대체할	-12418
▁도로에	-12419
▁독일은	-12420
▁되면서	-12421
▁마을을	-12422
▁맨유는	-12423
▁문제다	-12424
▁미국발	-12425
▁미치지	-12426
▁발견돼	-12427
▁방송이	-12428
▁배터리	-12429
▁베테랑	-12430
▁변화의	-12431
▁부인과	-12432
▁부인이	-12433
▁부토가	-12434
▁블로거	-12435
▁비롯해	-12436
▁비율이	-12437
▁사이로	-12438
▁새겨진	-12439
▁새끼를	-12440
▁생활에	-12441
▁세번째	-12442
▁세상을	-12443
▁세트를	-12444
▁소년의	-12445
▁소방관	-12446
▁소방대	-12447
▁솔로몬	-12448
▁수요가	-12449
▁수준을	-12450
▁스카이	-12451
▁시기를	-12452
▁시한을	-12453
▁식으로	-12454
▁신청을	-12455
▁실종자	-12456
▁싱가폴	-12457
▁안타까	-12458
▁애쓰고	-12459
▁에넹은	-12460
▁여진이	-12461
▁역사의	-12462
▁연이어	-12463
▁열렬한	-12464
▁영화로	-12465
▁예산을	-12466
▁예수의	-12467
▁오늘은	-12468
▁월에도	-12469
▁위반한	-12470
▁위치에	-12471
▁이들에	-12472
▁이베이	-12473
▁이정인	-12474
▁인도와	-12475
▁임신한	-12476
▁입원한	-12477
▁작업은	-12478
▁장소를	-12479
▁장착된	-12480
▁전략적	-12481
▁전원이	-12482
▁정동영	-12483
▁정상에	-12484
▁제기한	-12485
▁제도를	-12486
▁제안에	-12487
▁주도의	-12488
▁주식은	-12489
▁지구로	-12490
▁지명을	-12491
▁직면한	-12492
▁집행유	-12493
▁처음에	-12494
▁추수감	-12495
▁콘서트	-12496
▁터키가	-12497
▁토론회	-12498
▁판정을	-12499
▁퍼레이	-12500
▁평범한	-12501
▁평화상	-12502
▁포스터	-12503
▁학교의	-12504
▁항소할	-12505
▁해주는	-12506
▁헬기니	-12507
▁확률이	-12508
과정에서	-12509
적으로는	-12510
▁fund	-12511
▁into	-12512
▁결승전에	-12513
▁결의안은	-12514
▁공개되지	-12515
▁교회에서	-12516
▁국가대표	-12517
▁규정하고	-12518
▁나타내고	-12519
▁내무부가	-12520
▁논의하고	-12521
▁논의했다	-12522
▁대표단이	-12523
▁대표들은	-12524
▁도움으로	-12525
▁만달러의	-12526
▁말했으며	-12527
▁민간인이	-12528
▁배제하지	-12529
▁백악관의	-12530
▁보건복지	-12531
▁보여주기	-12532
▁북한으로	-12533
▁사용한다	-12534
▁살아있는	-12535
▁선수들을	-12536
▁수만명의	-12537
▁시작하는	-12538
▁없었지만	-12539
▁연합군은	-12540
▁연합군이	-12541
▁예정대로	-12542
▁우주선이	-12543
▁유지하기	-12544
▁유지하는	-12545
▁응답자의	-12546
▁의료보험	-12547
▁이란에서	-12548
▁인도에서	-12549
▁인플루엔	-12550
▁자신들을	-12551
▁장기적인	-12552
▁재판관은	-12553
▁줄어들고	-12554
▁지목했다	-12555
▁진행하는	-12556
▁참석하기	-12557
▁코미디언	-12558
▁콘서트를	-12559
▁쿠데타를	-12560
▁탈라바니	-12561
▁터키군은	-12562
▁틸트로터	-12563
▁학생들을	-12564
▁행동으로	-12565
▁확보했다	-12566
▁휴대폰을	-12567
▁희망한다	-12568
ission	-12569
▁journ	-12570
▁관계당국은	-12571
▁구체적으로	-12572
▁국제사회가	-12573
▁만장일치로	-12574
▁무장단체가	-12575
▁바그다드에	-12576
▁바그다드의	-12577
▁바이러스가	-12578
▁사살했다고	-12579
▁시작되었다	-12580
▁추수감사절	-12581
▁크리스티아	-12582
▁agency	-12583
▁health	-12584
▁leader	-12585
▁결과에따르면	-12586
▁웹사이트에서	-12587
▁baghdad	-12588
▁consumer	-12589
▁pakistan	-12590
tc	-12591
▁q	-12592
▁됐	-12593
▁펌	-12594
▁횟	-12595
▁힉	-12596
각이	-12597
건강	-12598
국제	-12599
놀드	-12600
라나	-12601
레아	-12602
먼이	-12603
문화	-12604
미국	-12605
방위	-12606
비오	-12607
살상	-12608
서도	-12609
스포	-12610
씨를	-12611
온난	-12612
익을	-12613
인한	-12614
조에	-12615
주재	-12616
지나	-12617
처에	-12618
체와	-12619
탕카	-12620
티드	-12621
파이	-12622
페이	-12623
피크	-12624
day	-12625
ger	-12626
ile	-12627
pro	-12628
vie	-12629
vis	-12630
▁hd	-12631
▁ma	-12632
▁os	-12633
▁감안	-12634
▁갤러	-12635
▁결렬	-12636
▁결별	-12637
▁고백	-12638
▁곤돌	-12639
▁공직	-12640
▁군수	-12641
▁궁금	-12642
▁극장	-12643
▁기가	-12644
▁기둥	-12645
▁나간	-12646
▁난폭	-12647
▁냉각	-12648
▁노선	-12649
▁녹아	-12650
▁당이	-12651
▁당첨	-12652
▁덩어	-12653
▁동쪽	-12654
▁드문	-12655
▁땅에	-12656
▁라크	-12657
▁루마	-12658
▁리브	-12659
▁리타	-12660
▁리트	-12661
▁마샤	-12662
▁마오	-12663
▁막는	-12664
▁맥코	-12665
▁모닝	-12666
▁뮤직	-12667
▁미들	-12668
▁밀매	-12669
▁밖의	-12670
▁받던	-12671
▁밝은	-12672
▁배터	-12673
▁버린	-12674
▁범람	-12675
▁벽에	-12676
▁보류	-12677
▁부추	-12678
▁붙어	-12679
▁브란	-12680
▁브뤼	-12681
▁비방	-12682
▁비싸	-12683
▁사장	-12684
▁새해	-12685
▁수직	-12686
▁술에	-12687
▁스틸	-12688
▁식물	-12689
▁썼다	-12690
▁앤디	-12691
▁앨라	-12692
▁앵커	-12693
▁야심	-12694
▁어울	-12695
▁억압	-12696
▁엔진	-12697
▁여야	-12698
▁역을	-12699
▁온천	-12700
▁요격	-12701
▁요소	-12702
▁운이	-12703
▁윈프	-12704
▁유예	-12705
▁이건	-12706
▁이끈	-12707
▁이데	-12708
▁이룬	-12709
▁인력	-12710
▁인원	-12711
▁입지	-12712
▁입찰	-12713
▁자격	-12714
▁잠정	-12715
▁잡기	-12716
▁지에	-12717
▁지칭	-12718
▁창립	-12719
▁채권	-12720
▁채로	-12721
▁척이	-12722
▁컨퍼	-12723
▁타운	-12724
▁탐지	-12725
▁퇴장	-12726
▁파고	-12727
▁퍼져	-12728
▁페퍼	-12729
▁펠리	-12730
▁평생	-12731
▁하려	-12732
▁한쪽	-12733
▁항복	-12734
▁행한	-12735
▁헌신	-12736
경기를	-12737
는지를	-12738
떨어진	-12739
로서는	-12740
면서도	-12741
문제가	-12742
상태가	-12743
수술을	-12744
스트를	-12745
심으로	-12746
으로의	-12747
크에서	-12748
하려면	-12749
혁명군	-12750
ated	-12751
ator	-12752
orts	-12753
ound	-12754
reet	-12755
▁arm	-12756
▁mad	-12757
▁pop	-12758
▁suv	-12759
▁갖는다	-12760
▁같았다	-12761
▁개월이	-12762
▁거라고	-12763
▁게임에	-12764
▁격차로	-12765
▁경우에	-12766
▁공군은	-12767
▁공무원	-12768
▁공습이	-12769
▁그린스	-12770
▁극적인	-12771
▁기간이	-12772
▁긴밀한	-12773
▁김계관	-12774
▁끝났다	-12775
▁나가고	-12776
▁논란을	-12777
▁높이고	-12778
▁뉴스를	-12779
▁대답을	-12780
▁대도시	-12781
▁대사를	-12782
▁더보기	-12783
▁도로가	-12784
▁동안에	-12785
▁동원해	-12786
▁라왈핀	-12787
▁로맨틱	-12788
▁로한이	-12789
▁리서치	-12790
▁맥도날	-12791
▁면담을	-12792
▁밀란은	-12793
▁바스크	-12794
▁발견은	-12795
▁발표가	-12796
▁범행을	-12797
▁보고는	-12798
▁부당한	-12799
▁부대가	-12800
▁부딪혀	-12801
▁분명한	-12802
▁불길이	-12803
▁비핵화	-12804
▁비행사	-12805
▁사인을	-12806
▁상반기	-12807
▁상승을	-12808
▁상승할	-12809
▁상품을	-12810
▁서로를	-12811
▁세력의	-12812
▁세우고	-12813
▁소유의	-12814
▁수단을	-12815
▁숨지게	-12816
▁승부를	-12817
▁앙겔라	-12818
▁앞에서	-12819
▁얘기를	-12820
▁어렵게	-12821
▁어렵다	-12822
▁업체인	-12823
▁에탄올	-12824
▁오르며	-12825
▁오스틴	-12826
▁왔으며	-12827
▁외치며	-12828
▁우려로	-12829
▁우즈는	-12830
▁원장은	-12831
▁은행은	-12832
▁이하의	-12833
▁인접한	-12834
▁일기로	-12835
▁일에서	-12836
▁자이툰	-12837
▁저질렀	-12838
▁전달한	-12839
▁전역의	-12840
▁전체를	-12841
▁점수를	-12842
▁점에서	-12843
▁접근을	-12844
▁접근할	-12845
▁정보는	-12846
▁주장해	-12847
▁중점을	-12848
▁지니고	-12849
▁지원이	-12850
▁질병을	-12851
▁창문을	-12852
▁취임식	-12853
▁취해야	-12854
▁카리스	-12855
▁카톨릭	-12856
▁터무니	-12857
▁터키를	-12858
▁토마토	-12859
▁투탕카	-12860
▁폭발은	-12861
▁폴라로	-12862
▁표적이	-12863
▁프랑크	-12864
▁피해는	-12865
▁하원은	-12866
▁학생들	-12867
▁해결에	-12868
▁해군은	-12869
▁해안을	-12870
▁향하던	-12871
▁허커비	-12872
▁협회는	-12873
▁확신을	-12874
▁활용할	-12875
▁후보자	-12876
기때문에	-12877
레스테롤	-12878
리우드의	-12879
지리스탄	-12880
했는지는	-12881
▁cand	-12882
▁conc	-12883
▁ftse	-12884
▁star	-12885
▁stri	-12886
▁wild	-12887
▁year	-12888
▁가자시티	-12889
▁개월간의	-12890
▁것인지에	-12891
▁게임에서	-12892
▁결승에서	-12893
▁공장에서	-12894
▁관광객이	-12895
▁그루지아	-12896
▁기념하기	-12897
▁기다리는	-12898
▁기록적인	-12899
▁기업들이	-12900
▁기울이고	-12901
▁나머지는	-12902
▁노력으로	-12903
▁담겨있다	-12904
▁대중교통	-12905
▁대한민국	-12906
▁도착했을	-12907
▁돌아가는	-12908
▁루마니아	-12909
▁리얼리티	-12910
▁말입니다	-12911
▁보스니아	-12912
▁부정선거	-12913
▁사건에서	-12914
▁사망했고	-12915
▁살해했다	-12916
▁서명했다	-12917
▁석방됐다	-12918
▁소개했다	-12919
▁소수민족	-12920
▁수행하고	-12921
▁승리하는	-12922
▁승리하며	-12923
▁언론과의	-12924
▁오케스트	-12925
▁외교부는	-12926
▁원인으로	-12927
▁이끌었던	-12928
▁이데올로	-12929
▁이뤄지지	-12930
▁이자율을	-12931
▁자메이카	-12932
▁장악하고	-12933
▁정보기관	-12934
▁제공하기	-12935
▁중앙은행	-12936
▁지지율로	-12937
▁총격전이	-12938
▁추구하는	-12939
▁친구들과	-12940
▁파파라치	-12941
▁페르난도	-12942
▁페일린은	-12943
▁포함된다	-12944
▁푸에르토	-12945
▁한반도의	-12946
▁항공사는	-12947
▁해변에서	-12948
▁핵시설을	-12949
통합민주신	-12950
▁peace	-12951
▁soldi	-12952
▁가자지구의	-12953
▁고위관리는	-12954
▁노동자들이	-12955
▁동남아시아	-12956
▁러시아에서	-12957
▁메드베데프	-12958
▁사무실에서	-12959
▁살모넬라균	-12960
▁상태입니다	-12961
▁생각한다고	-12962
▁용의자들이	-12963
▁유권자들의	-12964
▁자회담에서	-12965
▁전통적으로	-12966
▁정부로부터	-12967
▁정상적으로	-12968
▁참가자들은	-12969
▁파키스탄을	-12970
▁희생자들을	-12971
▁달라이라마는	-12972
▁대통합민주신	-12973
▁이라크에서의	-12974
▁이스라엘군은	-12975
▁america	-12976
dy	-12977
ty	-12978
▁갓	-12979
▁놔	-12980
▁닮	-12981
▁쉐	-12982
▁싣	-12983
▁컸	-12984
▁퓨	-12985
감과	-12986
건이	-12987
기상	-12988
노프	-12989
느라	-12990
둘러	-12991
라트	-12992
마에	-12993
맨은	-12994
모는	-12995
바리	-12996
북한	-12997
빌에	-12998
사람	-12999
사진	-13000
샤는	-13001
선언	-13002
세탁	-13003
셀러	-13004
소연	-13005
여야	-13006
예방	-13007
인해	-13008
일즈	-13009
임에	-13010
자치	-13011
잡지	-13012
줄기	-13013
츠를	-13014
층의	-13015
폭력	-13016
해의	-13017
헤드	-13018
aim	-13019
air	-13020
ecd	-13021
hed	-13022
▁간첩	-13023
▁감면	-13024
▁감원	-13025
▁검정	-13026
▁계절	-13027
▁고집	-13028
▁공안	-13029
▁공조	-13030
▁군을	-13031
▁권유	-13032
▁글렌	-13033
▁급파	-13034
▁기번	-13035
▁나뉘	-13036
▁나자	-13037
▁낙하	-13038
▁날을	-13039
▁남지	-13040
▁농구	-13041
▁농장	-13042
▁농촌	-13043
▁단기	-13044
▁도박	-13045
▁돕는	-13046
▁됐던	-13047
▁두목	-13048
▁두자	-13049
▁뒤덮	-13050
▁디아	-13051
▁랜드	-13052
▁레젭	-13053
▁로열	-13054
▁마가	-13055
▁마텔	-13056
▁만의	-13057
▁만톤	-13058
▁머피	-13059
▁모토	-13060
▁무려	-13061
▁보아	-13062
▁본래	-13063
▁볼튼	-13064
▁분양	-13065
▁분출	-13066
▁비만	-13067
▁빌리	-13068
▁뽑아	-13069
▁사제	-13070
▁산유	-13071
▁산토	-13072
▁상정	-13073
▁섬에	-13074
▁성당	-13075
▁세라	-13076
▁속해	-13077
▁싸울	-13078
▁아로	-13079
▁아웃	-13080
▁약품	-13081
▁언더	-13082
▁얼어	-13083
▁연애	-13084
▁예일	-13085
▁올랜	-13086
▁요금	-13087
▁유네	-13088
▁유아	-13089
▁이길	-13090
▁임산	-13091
▁자부	-13092
▁자위	-13093
▁장의	-13094
▁재차	-13095
▁저격	-13096
▁정글	-13097
▁정직	-13098
▁제퍼	-13099
▁조카	-13100
▁중년	-13101
▁줬다	-13102
▁지식	-13103
▁지표	-13104
▁질식	-13105
▁집이	-13106
▁쫓겨	-13107
▁처럼	-13108
▁추도	-13109
▁카나	-13110
▁칼로	-13111
▁쿼터	-13112
▁키우	-13113
▁타는	-13114
▁터진	-13115
▁퇴치	-13116
▁팔루	-13117
▁펼쳤	-13118
▁평창	-13119
▁피델	-13120
▁한글	-13121
▁현직	-13122
▁혐오	-13123
▁호위	-13124
▁황교	-13125
가스를	-13126
거래를	-13127
국들의	-13128
내용을	-13129
들에서	-13130
르에서	-13131
방으로	-13132
법안을	-13133
보다도	-13134
사고가	-13135
센터의	-13136
안으로	-13137
연하게	-13138
원서를	-13139
웠다고	-13140
작업에	-13141
지거나	-13142
지었다	-13143
탈리아	-13144
파운드	-13145
하기에	-13146
reen	-13147
▁can	-13148
▁cur	-13149
▁del	-13150
▁gir	-13151
▁red	-13152
▁wwf	-13153
▁가볍게	-13154
▁가속화	-13155
▁가스를	-13156
▁가졌던	-13157
▁가톨릭	-13158
▁개국의	-13159
▁건물로	-13160
▁결정될	-13161
▁결정한	-13162
▁경력을	-13163
▁경보가	-13164
▁고래를	-13165
▁광장에	-13166
▁구매할	-13167
▁끌어들	-13168
▁끝내고	-13169
▁나라가	-13170
▁나라는	-13171
▁날짜를	-13172
▁남자아	-13173
▁노조는	-13174
▁논쟁의	-13175
▁누구든	-13176
▁니제르	-13177
▁다하고	-13178
▁당신을	-13179
▁대선이	-13180
▁데니스	-13181
▁동부에	-13182
▁뜨거운	-13183
▁마르코	-13184
▁마을의	-13185
▁마음이	-13186
▁만나는	-13187
▁면에서	-13188
▁몬타나	-13189
▁무차별	-13190
▁물러날	-13191
▁반군과	-13192
▁발사된	-13193
▁발사한	-13194
▁버시바	-13195
▁변화는	-13196
▁보고가	-13197
▁복용한	-13198
▁부모는	-13199
▁부시가	-13200
▁부시와	-13201
▁부정부	-13202
▁부족을	-13203
▁분석가	-13204
▁불편한	-13205
▁브뤼셀	-13206
▁빙하가	-13207
▁빨간색	-13208
▁사카쉬	-13209
▁산업이	-13210
▁생각은	-13211
▁석방에	-13212
▁선택한	-13213
▁설립한	-13214
▁성범죄	-13215
▁세워진	-13216
▁세컨드	-13217
▁센터는	-13218
▁소감을	-13219
▁소아과	-13220
▁수익이	-13221
▁승객을	-13222
▁시기가	-13223
▁시대에	-13224
▁신경을	-13225
▁싸움을	-13226
▁아내가	-13227
▁앨범을	-13228
▁야후가	-13229
▁억류된	-13230
▁엄마가	-13231
▁업체가	-13232
▁여권을	-13233
▁여자아	-13234
▁열리고	-13235
▁오르는	-13236
▁우주로	-13237
▁의견에	-13238
▁의원과	-13239
▁이동할	-13240
▁이유에	-13241
▁작전에	-13242
▁전기를	-13243
▁정권의	-13244
▁제조사	-13245
▁조언을	-13246
▁중서부	-13247
▁증거로	-13248
▁지금이	-13249
▁지나친	-13250
▁지위를	-13251
▁지점에	-13252
▁직면해	-13253
▁천명의	-13254
▁첼시는	-13255
▁첼시의	-13256
▁촬영을	-13257
▁충돌을	-13258
▁치르는	-13259
▁쿠바의	-13260
▁크리켓	-13261
▁태어나	-13262
▁통과한	-13263
▁파업이	-13264
▁페인트	-13265
▁포기할	-13266
▁폭동이	-13267
▁폭발해	-13268
▁한번도	-13269
▁합참의	-13270
▁해제할	-13271
▁행위로	-13272
▁협정에	-13273
▁호르타	-13274
▁화재는	-13275
▁확실시	-13276
코비치는	-13277
항공우주	-13278
▁call	-13279
▁face	-13280
▁good	-13281
▁oecd	-13282
▁that	-13283
▁zanu	-13284
▁강력하게	-13285
▁경고하고	-13286
▁공급하는	-13287
▁그라운드	-13288
▁근무하는	-13289
▁금융제재	-13290
▁나타나고	-13291
▁내용이다	-13292
▁내전으로	-13293
▁다큐멘터	-13294
▁대량살상	-13295
▁대처하기	-13296
▁동물들이	-13297
▁득표율을	-13298
▁레바논의	-13299
▁마련했다	-13300
▁미국인의	-13301
▁반대했다	-13302
▁발생한지	-13303
▁벌어지는	-13304
▁보수적인	-13305
▁불가능한	-13306
▁불과했다	-13307
▁비행기는	-13308
▁사상자는	-13309
▁상징적인	-13310
▁상태였다	-13311
▁선택했다	-13312
▁소요사태	-13313
▁수마트라	-13314
▁시간으로	-13315
▁시스템에	-13316
▁식품의약	-13317
▁신속하게	-13318
▁앤더슨은	-13319
▁여객기를	-13320
▁여객기의	-13321
▁여러가지	-13322
▁여성에게	-13323
▁여성으로	-13324
▁연속으로	-13325
▁움직이는	-13326
▁원한다고	-13327
▁은신처를	-13328
▁이끌었다	-13329
▁이루어질	-13330
▁인용하여	-13331
▁인정하고	-13332
▁잃었다고	-13333
▁있겠지만	-13334
▁전설적인	-13335
▁조사했다	-13336
▁주지사와	-13337
▁지도자를	-13338
▁진행됐다	-13339
▁최저치를	-13340
▁추락했다	-13341
▁콘크리트	-13342
▁타임스가	-13343
▁테스트를	-13344
▁특파원이	-13345
▁판매하는	-13346
▁퍼센트가	-13347
▁풀려났다	-13348
▁피라미드	-13349
▁하마스와	-13350
▁한국은행	-13351
▁항공기가	-13352
▁환자들이	-13353
▁희생자가	-13354
▁about	-13355
▁group	-13356
▁union	-13357
▁white	-13358
▁국방장관이	-13359
▁도착했다고	-13360
▁미국인들의	-13361
▁바르셀로나	-13362
▁받아들였다	-13363
▁발견했으며	-13364
▁브로드웨이	-13365
▁스피어스의	-13366
▁아웅산수지	-13367
▁에드워즈는	-13368
▁연방수사국	-13369
▁이루어지고	-13370
▁콜레스테롤	-13371
▁파키스탄과	-13372
▁프로그램과	-13373
▁필요하다는	-13374
▁해리포터와	-13375
▁홈페이지에	-13376
▁희생자들의	-13377
▁희생자들이	-13378
▁office	-13379
▁rights	-13380
▁천문학자들은	-13381
▁프리메라리가	-13382
be	-13383
cd	-13384
ep	-13385
io	-13386
wn	-13387
▁꿀	-13388
▁낡	-13389
▁멘	-13390
▁뭉	-13391
▁쏜	-13392
▁왈	-13393
▁젖	-13394
▁젠	-13395
▁족	-13396
▁짙	-13397
▁켐	-13398
▁훈	-13399
▁휠	-13400
가게	-13401
과이	-13402
나르	-13403
델타	-13404
락이	-13405
렐은	-13406
리즘	-13407
벌리	-13408
범이	-13409
변을	-13410
상업	-13411
석방	-13412
세스	-13413
시다	-13414
시미	-13415
시스	-13416
씨와	-13417
액이	-13418
요한	-13419
우가	-13420
우조	-13421
웰은	-13422
이게	-13423
자문	-13424
적의	-13425
질환	-13426
쿠버	-13427
탄과	-13428
투스	-13429
편에	-13430
편이	-13431
포로	-13432
해준	-13433
ank	-13434
hes	-13435
ord	-13436
tig	-13437
▁gr	-13438
▁가이	-13439
▁간접	-13440
▁걸고	-13441
▁곡물	-13442
▁공부	-13443
▁괴롭	-13444
▁굉장	-13445
▁깨달	-13446
▁남을	-13447
▁남측	-13448
▁누설	-13449
▁능력	-13450
▁당장	-13451
▁대조	-13452
▁더글	-13453
▁더블	-13454
▁데비	-13455
▁동요	-13456
▁동해	-13457
▁됐고	-13458
▁롱고	-13459
▁루시	-13460
▁리사	-13461
▁만평	-13462
▁맞출	-13463
▁맡아	-13464
▁매체	-13465
▁맨하	-13466
▁모자	-13467
▁몬테	-13468
▁무서	-13469
▁문학	-13470
▁미치	-13471
▁밀러	-13472
▁바비	-13473
▁바시	-13474
▁발송	-13475
▁발자	-13476
▁법에	-13477
▁병을	-13478
▁보트	-13479
▁보행	-13480
▁볼드	-13481
▁부당	-13482
▁부의	-13483
▁불태	-13484
▁비어	-13485
▁상임	-13486
▁생기	-13487
▁생후	-13488
▁샤론	-13489
▁서해	-13490
▁세에	-13491
▁섹시	-13492
▁수습	-13493
▁수염	-13494
▁순교	-13495
▁순회	-13496
▁시몬	-13497
▁시체	-13498
▁시키	-13499
▁신생	-13500
▁신설	-13501
▁신종	-13502
▁십년	-13503
▁십대	-13504
▁십만	-13505
▁싱글	-13506
▁아리	-13507
▁애널	-13508
▁언색	-13509
▁에밀	-13510
▁에바	-13511
▁영부	-13512
▁영입	-13513
▁예금	-13514
▁온건	-13515
▁외각	-13516
▁우드	-13517
▁월말	-13518
▁의지	-13519
▁인천	-13520
▁일곱	-13521
▁일기	-13522
▁일대	-13523
▁잃게	-13524
▁잃을	-13525
▁임박	-13526
▁임원	-13527
▁자루	-13528
▁잡스	-13529
▁잡을	-13530
▁잡힌	-13531
▁장군	-13532
▁적힌	-13533
▁전세	-13534
▁전의	-13535
▁점은	-13536
▁접한	-13537
▁정비	-13538
▁제보	-13539
▁제인	-13540
▁조달	-13541
▁졸릭	-13542
▁죽어	-13543
▁진공	-13544
▁차고	-13545
▁천여	-13546
▁초콜	-13547
▁총살	-13548
▁테헤	-13549
▁토끼	-13550
▁퇴진	-13551
▁트랜	-13552
▁트루	-13553
▁팀에	-13554
▁팀은	-13555
▁파워	-13556
▁표면	-13557
▁풍력	-13558
▁풍자	-13559
▁해명	-13560
▁향년	-13561
▁호킨	-13562
▁후안	-13563
▁휴일	-13564
고했다	-13565
뉴스는	-13566
라이브	-13567
렸으나	-13568
릴랜드	-13569
문으로	-13570
변인은	-13571
부들이	-13572
았으나	-13573
어지고	-13574
월드컵	-13575
임이사	-13576
터바흐	-13577
회사가	-13578
▁cro	-13579
▁dep	-13580
▁gnp	-13581
▁hot	-13582
▁pet	-13583
▁six	-13584
▁tax	-13585
▁가이드	-13586
▁거머쥐	-13587
▁거짓말	-13588
▁경사는	-13589
▁경우는	-13590
▁경의를	-13591
▁계기가	-13592
▁고어는	-13593
▁공동성	-13594
▁관리를	-13595
▁교수인	-13596
▁교황의	-13597
▁구성할	-13598
▁국기를	-13599
▁군복을	-13600
▁그림을	-13601
▁금융시	-13602
▁기관의	-13603
▁기술에	-13604
▁기존의	-13605
▁꾸준히	-13606
▁끌어올	-13607
▁끝나지	-13608
▁남겼다	-13609
▁높였다	-13610
▁누구나	-13611
▁늘어난	-13612
▁능력이	-13613
▁다르게	-13614
▁더이상	-13615
▁도전을	-13616
▁독일과	-13617
▁들어보	-13618
▁등에서	-13619
▁따뜻한	-13620
▁떨어뜨	-13621
▁리더십	-13622
▁말았다	-13623
▁목표가	-13624
▁못하면	-13625
▁문화를	-13626
▁발전소	-13627
▁법적인	-13628
▁베이비	-13629
▁별도로	-13630
▁병력은	-13631
▁보낸다	-13632
▁보도된	-13633
▁사냥꾼	-13634
▁사망에	-13635
▁살았던	-13636
▁살짜리	-13637
▁생각할	-13638
▁서부의	-13639
▁선수는	-13640
▁설명을	-13641
▁성적을	-13642
▁소방서	-13643
▁속으로	-13644
▁수반이	-13645
▁수행한	-13646
▁순례객	-13647
▁슈나이	-13648
▁스텔스	-13649
▁식사를	-13650
▁신부는	-13651
▁신행정	-13652
▁실수로	-13653
▁실험에	-13654
▁아놀드	-13655
▁아이만	-13656
▁아직은	-13657
▁애플은	-13658
▁앨라배	-13659
▁어디에	-13660
▁여사의	-13661
▁연패를	-13662
▁열린다	-13663
▁오래전	-13664
▁올해는	-13665
▁용납할	-13666
▁운행이	-13667
▁원조를	-13668
▁위성을	-13669
▁유망주	-13670
▁이득을	-13671
▁이소연	-13672
▁이어진	-13673
▁자사의	-13674
▁자신도	-13675
▁작용할	-13676
▁작전이	-13677
▁장례식	-13678
▁장면은	-13679
▁장소에	-13680
▁장애가	-13681
▁저녁식	-13682
▁적당한	-13683
▁전문의	-13684
▁전통을	-13685
▁전투가	-13686
▁정말로	-13687
▁정보에	-13688
▁정부청	-13689
▁제목의	-13690
▁주머니	-13691
▁주변을	-13692
▁주유소	-13693
▁줄어든	-13694
▁증거는	-13695
▁지구를	-13696
▁지난밤	-13697
▁지명에	-13698
▁지속된	-13699
▁지시를	-13700
▁지정된	-13701
▁지켜보	-13702
▁지키지	-13703
▁진출에	-13704
▁차지할	-13705
▁추진할	-13706
▁친구인	-13707
▁케냐의	-13708
▁파괴된	-13709
▁하기도	-13710
▁합의된	-13711
▁해결책	-13712
▁향했다	-13713
▁허드슨	-13714
▁회장과	-13715
▁휴식을	-13716
리스트인	-13717
했음에도	-13718
▁aust	-13719
▁host	-13720
▁next	-13721
▁wind	-13722
▁가졌다고	-13723
▁가족들을	-13724
▁가했다고	-13725
▁강화했다	-13726
▁경쟁에서	-13727
▁고객들이	-13728
▁공항으로	-13729
▁관광산업	-13730
▁구호품을	-13731
▁그렇다면	-13732
▁그루지야	-13733
▁그린스펀	-13734
▁기념하는	-13735
▁내비쳤다	-13736
▁다국적군	-13737
▁답변했다	-13738
▁대변인의	-13739
▁도쿄에서	-13740
▁동부에서	-13741
▁들어오는	-13742
▁러시아를	-13743
▁롱고리아	-13744
▁무크타다	-13745
▁무하메드	-13746
▁받았다는	-13747
▁발표하지	-13748
▁방콕에서	-13749
▁변호사를	-13750
▁보였지만	-13751
▁부적절한	-13752
▁불과하다	-13753
▁불법적인	-13754
▁블룸버그	-13755
▁사령관이	-13756
▁생각했던	-13757
▁서비스가	-13758
▁서식하는	-13759
▁서쪽으로	-13760
▁선거캠페	-13761
▁선관위는	-13762
▁선보였다	-13763
▁소지하고	-13764
▁시민들의	-13765
▁시작했고	-13766
▁신고했다	-13767
▁실업수당	-13768
▁아이디어	-13769
▁악화되고	-13770
▁안보리의	-13771
▁어려움이	-13772
▁어머니인	-13773
▁억만장자	-13774
▁에너지를	-13775
▁여겨지는	-13776
▁연결하는	-13777
▁외교정책	-13778
▁원한다면	-13779
▁이야기가	-13780
▁이야기는	-13781
▁입장이다	-13782
▁자본주의	-13783
▁자살폭탄	-13784
▁자유로운	-13785
▁자회담이	-13786
▁전투기가	-13787
▁전투에서	-13788
▁전해지고	-13789
▁정식으로	-13790
▁주도하고	-13791
▁줄리아니	-13792
▁중태라고	-13793
▁증권거래	-13794
▁지구온난	-13795
▁직원들의	-13796
▁참가하는	-13797
▁컴퓨터와	-13798
▁클럽에서	-13799
▁클레이코	-13800
▁탈레반에	-13801
▁탑승하고	-13802
▁태국에서	-13803
▁파업으로	-13804
▁한국전쟁	-13805
▁한반도에	-13806
▁행정부에	-13807
▁허용하는	-13808
▁호나우두	-13809
▁효과적인	-13810
ancial	-13811
▁earth	-13812
▁islam	-13813
▁국경지역에	-13814
▁노대통령의	-13815
▁당국자들은	-13816
▁대량살상무	-13817
▁대선주자인	-13818
▁라우터바흐	-13819
▁리히터규모	-13820
▁목격했다고	-13821
▁바이러스는	-13822
▁받았습니다	-13823
▁부상했으며	-13824
▁상대적으로	-13825
▁수용소에서	-13826
▁승무원들은	-13827
▁실종됐다고	-13828
▁여론조사를	-13829
▁오바마에게	-13830
▁요청했다고	-13831
▁이라크전을	-13832
▁인터넷에서	-13833
▁코리아타임	-13834
▁프로젝트에	-13835
eration	-13836
ization	-13837
▁school	-13838
▁threat	-13839
▁보도했습니다	-13840
▁austral	-13841
▁관계자에따르면	-13842
▁인도네시아에서	-13843
▁financial	-13844
▁constitution	-13845
▁administration	-13846
br	-13847
do	-13848
mo	-13849
so	-13850
▁곁	-13851
▁낫	-13852
▁딴	-13853
▁샀	-13854
▁솜	-13855
▁숭	-13856
▁콤	-13857
▁퀴	-13858
▁킴	-13859
▁틈	-13860
▁펴	-13861
강을	-13862
고는	-13863
구역	-13864
글리	-13865
기념	-13866
기증	-13867
나드	-13868
낸셜	-13869
레드	-13870
렬히	-13871
로그	-13872
링턴	-13873
마가	-13874
마드	-13875
마켓	-13876
모어	-13877
몬드	-13878
무라	-13879
바의	-13880
반응	-13881
받게	-13882
버는	-13883
버린	-13884
버스	-13885
법과	-13886
별로	-13887
봐야	-13888
수술	-13889
스케	-13890
슬램	-13891
시픽	-13892
신저	-13893
아리	-13894
액을	-13895
액의	-13896
어에	-13897
오밍	-13898
용의	-13899
원도	-13900
이익	-13901
중국	-13902
중을	-13903
지오	-13904
직원	-13905
차이	-13906
천옹	-13907
청을	-13908
트만	-13909
튼을	-13910
폰테	-13911
폴로	-13912
햄은	-13913
협상	-13914
화학	-13915
act	-13916
ame	-13917
app	-13918
erg	-13919
its	-13920
mex	-13921
ony	-13922
ues	-13923
▁jp	-13924
▁sg	-13925
▁가금	-13926
▁가두	-13927
▁강아	-13928
▁개념	-13929
▁개와	-13930
▁개조	-13931
▁객실	-13932
▁경유	-13933
▁구급	-13934
▁그럴	-13935
▁극히	-13936
▁기름	-13937
▁낡은	-13938
▁납부	-13939
▁낮게	-13940
▁내야	-13941
▁넬슨	-13942
▁년은	-13943
▁노숙	-13944
▁놀랍	-13945
▁다룰	-13946
▁다툼	-13947
▁단축	-13948
▁달할	-13949
▁동행	-13950
▁땅콩	-13951
▁라자	-13952
▁레노	-13953
▁로보	-13954
▁리스	-13955
▁린다	-13956
▁만델	-13957
▁맞춘	-13958
▁매트	-13959
▁먹을	-13960
▁명명	-13961
▁목에	-13962
▁몰디	-13963
▁무관	-13964
▁무의	-13965
▁무중	-13966
▁물려	-13967
▁반다	-13968
▁발명	-13969
▁배달	-13970
▁보르	-13971
▁부수	-13972
▁비로	-13973
▁빈번	-13974
▁살펴	-13975
▁상속	-13976
▁상자	-13977
▁서류	-13978
▁서열	-13979
▁서한	-13980
▁선동	-13981
▁스릴	-13982
▁시께	-13983
▁시트	-13984
▁시합	-13985
▁신시	-13986
▁실용	-13987
▁안심	-13988
▁연맹	-13989
▁연상	-13990
▁예외	-13991
▁오페	-13992
▁옮기	-13993
▁왕궁	-13994
▁외신	-13995
▁우익	-13996
▁위크	-13997
▁육성	-13998
▁이반	-13999
▁일삼	-14000
▁있길	-14001
▁잊지	-14002
▁자란	-14003
▁자와	-14004
▁장성	-14005
▁장이	-14006
▁재단	-14007
▁제라	-14008
▁제어	-14009
▁조차	-14010
▁주된	-14011
▁중대	-14012
▁진료	-14013
▁진열	-14014
▁진원	-14015
▁초당	-14016
▁출간	-14017
▁키티	-14018
▁탑재	-14019
▁투기	-14020
▁투항	-14021
▁팔을	-14022
▁패널	-14023
▁포옹	-14024
▁폭넓	-14025
▁푸켓	-14026
▁하비	-14027
▁해협	-14028
▁현수	-14029
▁호박	-14030
▁화폐	-14031
▁황박	-14032
▁후속	-14033
감으로	-14034
나갔다	-14035
들간의	-14036
라인을	-14037
리면서	-14038
미사일	-14039
범으로	-14040
법으로	-14041
사들의	-14042
사진을	-14043
성에서	-14044
위기에	-14045
자마자	-14046
주었다	-14047
하지도	-14048
협정을	-14049
ater	-14050
stem	-14051
▁bet	-14052
▁che	-14053
▁col	-14054
▁fil	-14055
▁gps	-14056
▁har	-14057
▁mem	-14058
▁가라앉	-14059
▁가방을	-14060
▁가석방	-14061
▁가슴에	-14062
▁감독과	-14063
▁거두며	-14064
▁걸리는	-14065
▁결승전	-14066
▁결심을	-14067
▁결정된	-14068
▁결함이	-14069
▁경기후	-14070
▁경로를	-14071
▁경우를	-14072
▁계획과	-14073
▁관여한	-14074
▁교황이	-14075
▁구조를	-14076
▁군정은	-14077
▁군정이	-14078
▁권한이	-14079
▁궤도를	-14080
▁균형을	-14081
▁그룹은	-14082
▁극심한	-14083
▁급상승	-14084
▁기리기	-14085
▁기업에	-14086
▁기자를	-14087
▁김경준	-14088
▁나타내	-14089
▁남았다	-14090
▁내리지	-14091
▁노선을	-14092
▁노조가	-14093
▁논평을	-14094
▁놓았다	-14095
▁니스텔	-14096
▁대신해	-14097
▁대출을	-14098
▁대표와	-14099
▁대화가	-14100
▁도착해	-14101
▁돈세탁	-14102
▁되어야	-14103
▁두려움	-14104
▁라일라	-14105
▁로널드	-14106
▁마련된	-14107
▁만나고	-14108
▁말하지	-14109
▁메르세	-14110
▁못하다	-14111
▁무너지	-14112
▁문화적	-14113
▁물러난	-14114
▁미국내	-14115
▁미하일	-14116
▁바람에	-14117
▁발언이	-14118
▁방안에	-14119
▁배우인	-14120
▁버렸다	-14121
▁버스에	-14122
▁벌이던	-14123
▁병원의	-14124
▁보리스	-14125
▁부모의	-14126
▁부분에	-14127
▁부상은	-14128
▁부유한	-14129
▁분기에	-14130
▁불안정	-14131
▁비정부	-14132
▁비틀즈	-14133
▁사기를	-14134
▁사랑을	-14135
▁사항이	-14136
▁삼엄한	-14137
▁상세한	-14138
▁상원은	-14139
▁선박에	-14140
▁선박을	-14141
▁선택을	-14142
▁소니는	-14143
▁소문이	-14144
▁손해배	-14145
▁시에서	-14146
▁시점에	-14147
▁식이요	-14148
▁신천옹	-14149
▁심리학	-14150
▁심슨은	-14151
▁아라파	-14152
▁아이다	-14153
▁아이팟	-14154
▁애플의	-14155
▁언론을	-14156
▁에서도	-14157
▁역할에	-14158
▁연관이	-14159
▁열차는	-14160
▁오토바	-14161
▁외국의	-14162
▁요인이	-14163
▁우비넨	-14164
▁운영을	-14165
▁운전사	-14166
▁웃으며	-14167
▁윌리암	-14168
▁유가가	-14169
▁유람선	-14170
▁유럽에	-14171
▁이른다	-14172
▁이전의	-14173
▁이틀째	-14174
▁인디언	-14175
▁일부로	-14176
▁일정에	-14177
▁자금은	-14178
▁작성된	-14179
▁잠재적	-14180
▁저자인	-14181
▁전에도	-14182
▁전통적	-14183
▁점이다	-14184
▁접어들	-14185
▁정책의	-14186
▁제시할	-14187
▁중단된	-14188
▁증가로	-14189
▁지방에	-14190
▁지배를	-14191
▁지불할	-14192
▁지진의	-14193
▁지하드	-14194
▁차량의	-14195
▁착륙을	-14196
▁찬사를	-14197
▁철수할	-14198
▁체제를	-14199
▁총으로	-14200
▁카스트	-14201
▁커피를	-14202
▁코스타	-14203
▁코카인	-14204
▁크기가	-14205
▁클레멘	-14206
▁타블로	-14207
▁타이거	-14208
▁탁신은	-14209
▁테헤란	-14210
▁통과할	-14211
▁통화를	-14212
▁투쟁을	-14213
▁트레킹	-14214
▁파업은	-14215
▁파티를	-14216
▁폭설로	-14217
▁표한다	-14218
▁프라임	-14219
▁하는지	-14220
▁하에서	-14221
▁한국계	-14222
▁해리왕	-14223
▁해준다	-14224
▁확산을	-14225
▁힌두교	-14226
그로폰테	-14227
이었으며	-14228
하겠지만	-14229
하였다고	-14230
ijing	-14231
iness	-14232
ition	-14233
ivers	-14234
ology	-14235
tical	-14236
▁hsbc	-14237
▁post	-14238
▁russ	-14239
▁soci	-14240
▁갑작스런	-14241
▁게이츠는	-14242
▁결의안이	-14243
▁경찰관이	-14244
▁고양이를	-14245
▁고조되고	-14246
▁공격하기	-14247
▁구스마오	-14248
▁구호단체	-14249
▁국제사면	-14250
▁기업들은	-14251
▁기업들의	-14252
▁끌어들이	-14253
▁나오면서	-14254
▁나타나는	-14255
▁내다봤다	-14256
▁노력했다	-14257
▁높아졌다	-14258
▁뉴욕상업	-14259
▁당선자가	-14260
▁당신에게	-14261
▁대표들이	-14262
▁돌아갔다	-14263
▁돌아오는	-14264
▁돌입했다	-14265
▁마련하기	-14266
▁말했었다	-14267
▁매들린의	-14268
▁무너졌다	-14269
▁무엇인지	-14270
▁미얀마에	-14271
▁발생하자	-14272
▁발언으로	-14273
▁방문하고	-14274
▁방침이다	-14275
▁백악관을	-14276
▁버시바우	-14277
▁베이징에	-14278
▁베탕쿠르	-14279
▁분명하다	-14280
▁분석가는	-14281
▁분석가인	-14282
▁비극적인	-14283
▁비핵화를	-14284
▁사람으로	-14285
▁사실이다	-14286
▁삼성그룹	-14287
▁생산량을	-14288
▁선거캠프	-14289
▁성공적인	-14290
▁세계무역	-14291
▁수행하는	-14292
▁시민들을	-14293
▁시위대에	-14294
▁시작하기	-14295
▁싶어하는	-14296
▁양국간의	-14297
▁어소시에	-14298
▁여객기에	-14299
▁여겨지고	-14300
▁외곽에서	-14301
▁요청하는	-14302
▁요하네스	-14303
▁용의자인	-14304
▁우려하는	-14305
▁위원회가	-14306
▁이송됐다	-14307
▁이전에는	-14308
▁일요일에	-14309
▁일이었다	-14310
▁잃어버린	-14311
▁재미있는	-14312
▁정권인수	-14313
▁정보통신	-14314
▁제공한다	-14315
▁지켜보는	-14316
▁직원들을	-14317
▁진지하게	-14318
▁처음에는	-14319
▁총격전을	-14320
▁총기난사	-14321
▁컴퓨터에	-14322
▁테네시주	-14323
▁텔레비전	-14324
▁특파원은	-14325
▁평화로운	-14326
▁폐쇄하고	-14327
▁하원에서	-14328
▁한국으로	-14329
▁해결하는	-14330
▁헬리콥터	-14331
▁확실하다	-14332
▁환영한다	-14333
▁후임으로	-14334
들에따르면	-14335
vestig	-14336
▁break	-14337
▁claim	-14338
▁democ	-14339
▁movie	-14340
▁nymex	-14341
▁start	-14342
▁결과에따라	-14343
▁경제적으로	-14344
▁골든글로브	-14345
▁긍정적으로	-14346
▁기록했으며	-14347
▁떨어졌다고	-14348
▁발견됐으며	-14349
▁발표하면서	-14350
▁베를린에서	-14351
▁베스트셀러	-14352
▁사르코지가	-14353
▁선거캠프는	-14354
▁시작했으며	-14355
▁아파트에서	-14356
▁여론조사는	-14357
▁예상된다고	-14358
▁올림픽에서	-14359
▁일시적으로	-14360
▁자발적으로	-14361
▁전문가들의	-14362
▁주식시장이	-14363
▁주차장에서	-14364
▁중앙일보가	-14365
▁타블로이드	-14366
▁플로리다의	-14367
▁하원의장은	-14368
▁한국인들은	-14369
▁현지경찰이	-14370
▁arrest	-14371
▁candid	-14372
▁resign	-14373
▁street	-14374
▁summit	-14375
▁system	-14376
▁로드리게스는	-14377
▁매사추세츠주	-14378
▁크라이슬러는	-14379
▁팔레스타인과	-14380
▁푸에르토리코	-14381
▁프라이머리를	-14382
▁beijing	-14383
▁defense	-14384
▁society	-14385
▁국가비상사태를	-14386
▁investig	-14387
ca	-14388
lp	-14389
▁랩	-14390
▁뭔	-14391
▁봅	-14392
▁샬	-14393
▁션	-14394
▁째	-14395
▁췌	-14396
▁핫	-14397
강산	-14398
경색	-14399
권의	-14400
그리	-14401
꺼이	-14402
나갈	-14403
네트	-14404
능한	-14405
데자	-14406
라니	-14407
럽게	-14408
리학	-14409
막을	-14410
만인	-14411
묘한	-14412
문서	-14413
바에	-14414
벌을	-14415
변에	-14416
보나	-14417
분의	-14418
식량	-14419
에트	-14420
우드	-14421
운영	-14422
워즈	-14423
자키	-14424
제인	-14425
조가	-14426
지요	-14427
측과	-14428
퀘어	-14429
토록	-14430
투어	-14431
파르	-14432
파에	-14433
팍스	-14434
펀드	-14435
편을	-14436
함과	-14437
함에	-14438
행동	-14439
황을	-14440
ely	-14441
ied	-14442
ned	-14443
ult	-14444
▁fc	-14445
▁wr	-14446
▁각기	-14447
▁갖춰	-14448
▁갱신	-14449
▁거센	-14450
▁걸음	-14451
▁견해	-14452
▁경주	-14453
▁공주	-14454
▁공표	-14455
▁과일	-14456
▁광대	-14457
▁구를	-14458
▁구분	-14459
▁구상	-14460
▁귀를	-14461
▁김영	-14462
▁깜짝	-14463
▁끝내	-14464
▁나르	-14465
▁나체	-14466
▁납북	-14467
▁내달	-14468
▁노란	-14469
▁노엘	-14470
▁다카	-14471
▁대공	-14472
▁데는	-14473
▁도구	-14474
▁돌며	-14475
▁될지	-14476
▁들며	-14477
▁때도	-14478
▁때에	-14479
▁라마	-14480
▁루디	-14481
▁리터	-14482
▁마터	-14483
▁만개	-14484
▁맞교	-14485
▁맞설	-14486
▁매리	-14487
▁면허	-14488
▁반짝	-14489
▁방코	-14490
▁법의	-14491
▁병이	-14492
▁본거	-14493
▁부를	-14494
▁부착	-14495
▁불거	-14496
▁불필	-14497
▁비율	-14498
▁빼고	-14499
▁사로	-14500
▁사모	-14501
▁사촌	-14502
▁상무	-14503
▁상세	-14504
▁스탤	-14505
▁스필	-14506
▁심어	-14507
▁쓰지	-14508
▁씨를	-14509
▁아브	-14510
▁아유	-14511
▁안다	-14512
▁양은	-14513
▁양조	-14514
▁어리	-14515
▁여덟	-14516
▁완수	-14517
▁외딴	-14518
▁외출	-14519
▁울머	-14520
▁위헌	-14521
▁은폐	-14522
▁이성	-14523
▁인적	-14524
▁인준	-14525
▁자고	-14526
▁자진	-14527
▁작별	-14528
▁장래	-14529
▁적게	-14530
▁적지	-14531
▁전념	-14532
▁절단	-14533
▁점에	-14534
▁접경	-14535
▁제주	-14536
▁졌다	-14537
▁조세	-14538
▁죄를	-14539
▁주권	-14540
▁주력	-14541
▁쫓아	-14542
▁처분	-14543
▁첫째	-14544
▁청중	-14545
▁카림	-14546
▁탄약	-14547
▁투옥	-14548
▁판명	-14549
▁팔려	-14550
▁팽팽	-14551
▁하퍼	-14552
▁합리	-14553
▁행방	-14554
▁행해	-14555
▁혼다	-14556
▁흡수	-14557
다니는	-14558
다코타	-14559
대서양	-14560
되기를	-14561
렌스탐	-14562
부장은	-14563
석에서	-14564
업체가	-14565
여부를	-14566
왔다는	-14567
이기도	-14568
이치로	-14569
일러는	-14570
자들도	-14571
장에게	-14572
조사에	-14573
지원을	-14574
프라이	-14575
하우스	-14576
하이머	-14577
회사는	-14578
eren	-14579
head	-14580
turn	-14581
▁aut	-14582
▁bro	-14583
▁ecb	-14584
▁faa	-14585
▁per	-14586
▁str	-14587
▁unh	-14588
▁wid	-14589
▁wti	-14590
▁가동을	-14591
▁가이트	-14592
▁가하는	-14593
▁감추지	-14594
▁감축할	-14595
▁강세를	-14596
▁개인의	-14597
▁개정을	-14598
▁검토할	-14599
▁것과는	-14600
▁경쟁이	-14601
▁공격해	-14602
▁구입한	-14603
▁국가와	-14604
▁궤도에	-14605
▁근처의	-14606
▁금강산	-14607
▁기금을	-14608
▁기꺼이	-14609
▁기다려	-14610
▁깃발을	-14611
▁나폴리	-14612
▁내년에	-14613
▁내부의	-14614
▁년대에	-14615
▁놀라게	-14616
▁다루는	-14617
▁단거리	-14618
▁단계로	-14619
▁대응할	-14620
▁대표단	-14621
▁데이브	-14622
▁도덕적	-14623
▁동생인	-14624
▁두개골	-14625
▁디에고	-14626
▁떠나지	-14627
▁똑같은	-14628
▁라스무	-14629
▁레드삭	-14630
▁로드맵	-14631
▁마누엘	-14632
▁마시는	-14633
▁마찰을	-14634
▁만나기	-14635
▁많았다	-14636
▁망명을	-14637
▁맺었다	-14638
▁먹이를	-14639
▁메디컬	-14640
▁명단을	-14641
▁모하메	-14642
▁목록을	-14643
▁무너뜨	-14644
▁무료로	-14645
▁무중력	-14646
▁물질이	-14647
▁물품을	-14648
▁바다에	-14649
▁바이든	-14650
▁밝히기	-14651
▁방송국	-14652
▁버스는	-14653
▁변호인	-14654
▁북측의	-14655
▁비난이	-14656
▁비용은	-14657
▁비율은	-14658
▁빈라덴	-14659
▁산업의	-14660
▁삼았다	-14661
▁생겼다	-14662
▁서명한	-14663
▁석유를	-14664
▁선생님	-14665
▁선정된	-14666
▁선포한	-14667
▁설립된	-14668
▁설치한	-14669
▁성공할	-14670
▁성장이	-14671
▁세계가	-14672
▁수비수	-14673
▁수색을	-14674
▁수준에	-14675
▁수치가	-14676
▁순간에	-14677
▁스콜세	-14678
▁시간은	-14679
▁시민이	-14680
▁시부터	-14681
▁시험을	-14682
▁아들과	-14683
▁아로요	-14684
▁알자지	-14685
▁약물을	-14686
▁언급도	-14687
▁언론과	-14688
▁얼어붙	-14689
▁없도록	-14690
▁없었고	-14691
▁여왕이	-14692
▁영어를	-14693
▁올랜도	-14694
▁와중에	-14695
▁요구해	-14696
▁우려해	-14697
▁우주의	-14698
▁의사와	-14699
▁의사의	-14700
▁이건희	-14701
▁이바노	-14702
▁이행할	-14703
▁인터내	-14704
▁임무에	-14705
▁잘못을	-14706
▁전반에	-14707
▁점으로	-14708
▁조직은	-14709
▁주변의	-14710
▁죽음의	-14711
▁지나가	-14712
▁지내고	-14713
▁징역형	-14714
▁참석을	-14715
▁초부터	-14716
▁친구와	-14717
▁캠페인	-14718
▁테러와	-14719
▁테이블	-14720
▁텔레콤	-14721
▁트럭이	-14722
▁파도가	-14723
▁팬들의	-14724
▁폐쇄할	-14725
▁폭격기	-14726
▁폭격을	-14727
▁피해여	-14728
▁필리스	-14729
▁하려는	-14730
▁학부모	-14731
▁함유된	-14732
▁혐의와	-14733
▁호날두	-14734
▁호주는	-14735
▁혼란이	-14736
▁화해를	-14737
▁확보에	-14738
▁회의는	-14739
▁후쿠다	-14740
▁휴전을	-14741
되었으나	-14742
법원에서	-14743
회견에서	-14744
▁char	-14745
▁euro	-14746
▁head	-14747
▁make	-14748
▁park	-14749
▁stud	-14750
▁가로질러	-14751
▁가졌으며	-14752
▁강화하는	-14753
▁격돌한다	-14754
▁결정하기	-14755
▁경찰에게	-14756
▁고양이가	-14757
▁곳곳에서	-14758
▁공화당은	-14759
▁관계자와	-14760
▁구조대가	-14761
▁국가들과	-14762
▁급속도로	-14763
▁기후변화	-14764
▁나스닥은	-14765
▁나타나지	-14766
▁뉴저지주	-14767
▁대통령궁	-14768
▁동물보호	-14769
▁동영상에	-14770
▁드레스를	-14771
▁루아얄은	-14772
▁리버풀은	-14773
▁마터호른	-14774
▁매릴랜드	-14775
▁매케인과	-14776
▁메시지가	-14777
▁멸종위기	-14778
▁모른다는	-14779
▁못했으며	-14780
▁무대에서	-14781
▁미국인이	-14782
▁발생한다	-14783
▁보고되지	-14784
▁보조금을	-14785
▁부모들이	-14786
▁부통령의	-14787
▁사생활을	-14788
▁살해하고	-14789
▁소렌스탐	-14790
▁소속으로	-14791
▁수단으로	-14792
▁스스로를	-14793
▁시리아와	-14794
▁시사했다	-14795
▁신용경색	-14796
▁실종됐다	-14797
▁안젤리나	-14798
▁압도적인	-14799
▁연구하는	-14800
▁올림픽에	-14801
▁올해들어	-14802
▁요원들이	-14803
▁우승자인	-14804
▁위원장의	-14805
▁유네스코	-14806
▁의미하는	-14807
▁의존하고	-14808
▁이뤄져야	-14809
▁이뤄지고	-14810
▁이후에도	-14811
▁인정하는	-14812
▁입원했다	-14813
▁있었는지	-14814
▁자전거를	-14815
▁재무부는	-14816
▁적극적인	-14817
▁정확하게	-14818
▁조사하는	-14819
▁중국으로	-14820
▁지도자의	-14821
▁집회에서	-14822
▁최근까지	-14823
▁최루탄을	-14824
▁코네티컷	-14825
▁테러범이	-14826
▁텍사스와	-14827
▁토로했다	-14828
▁투탕카멘	-14829
▁폐쇄했다	-14830
▁포기했다	-14831
▁포틀랜드	-14832
▁푸에르타	-14833
▁프랑스가	-14834
▁하마스를	-14835
▁합법적인	-14836
▁해안경비	-14837
▁현지에서	-14838
▁교착상태에	-14839
▁국제적으로	-14840
▁그랜드슬램	-14841
▁기준금리를	-14842
▁나타났다고	-14843
▁뉴스입니다	-14844
▁무장세력을	-14845
▁배심원단은	-14846
▁보고서에는	-14847
▁비평가들은	-14848
▁사망자수는	-14849
▁스트레스를	-14850
▁시작됐으며	-14851
▁아니었다고	-14852
▁와지리스탄	-14853
▁자르다리는	-14854
▁자체적으로	-14855
▁젊은이들이	-14856
▁직접적으로	-14857
▁추가적으로	-14858
▁추정된다고	-14859
▁코커스에서	-14860
▁콜롬비아의	-14861
▁플로리다에	-14862
▁할리우드의	-14863
▁효과적으로	-14864
▁forces	-14865
▁public	-14866
▁달라이라마가	-14867
▁주장했습니다	-14868
▁프로그램에서	-14869
▁committ	-14870
▁journal	-14871
▁소식통에따르면	-14872
▁official	-14873
▁prosecut	-14874
▁commission	-14875
dm	-14876
fk	-14877
gs	-14878
▁둥	-14879
▁띠	-14880
▁럭	-14881
▁롭	-14882
▁맑	-14883
▁멍	-14884
▁뻔	-14885
▁셔	-14886
▁싼	-14887
▁씻	-14888
▁잦	-14889
▁튜	-14890
감에	-14891
감한	-14892
강한	-14893
건의	-14894
결혼	-14895
고등	-14896
귀한	-14897
그레	-14898
그만	-14899
끼를	-14900
넷소	-14901
대출	-14902
럴드	-14903
려져	-14904
류는	-14905
마이	-14906
마저	-14907
망에	-14908
모델	-14909
바가	-14910
바닥	-14911
바를	-14912
바인	-14913
방의	-14914
방한	-14915
번에	-14916
베키	-14917
비안	-14918
비츠	-14919
스팅	-14920
어서	-14921
없다	-14922
에다	-14923
연대	-14924
오를	-14925
와르	-14926
왔고	-14927
이에	-14928
인하	-14929
있어	-14930
자산	-14931
자유	-14932
적일	-14933
제한	-14934
중독	-14935
질의	-14936
취를	-14937
치료	-14938
카이	-14939
코가	-14940
코드	-14941
크레	-14942
타스	-14943
터에	-14944
티노	-14945
티브	-14946
팀에	-14947
팅을	-14948
펠러	-14949
폰을	-14950
프와	-14951
한한	-14952
혈을	-14953
효과	-14954
ale	-14955
leg	-14956
uge	-14957
ush	-14958
▁fe	-14959
▁fi	-14960
▁sl	-14961
▁가야	-14962
▁가혹	-14963
▁개회	-14964
▁건이	-14965
▁게놈	-14966
▁겪은	-14967
▁경이	-14968
▁공범	-14969
▁과장	-14970
▁구해	-14971
▁국유	-14972
▁그랬	-14973
▁금전	-14974
▁길게	-14975
▁날카	-14976
▁낳은	-14977
▁넣고	-14978
▁농담	-14979
▁눈보	-14980
▁단절	-14981
▁대단	-14982
▁대원	-14983
▁더미	-14984
▁델라	-14985
▁도피	-14986
▁독특	-14987
▁돌풍	-14988
▁되살	-14989
▁든다	-14990
▁딜런	-14991
▁뚜렷	-14992
▁라드	-14993
▁라싸	-14994
▁로렌	-14995
▁로얄	-14996
▁루스	-14997
▁마루	-14998
▁만회	-14999
▁말도	-15000
▁말아	-15001
▁맞지	-15002
▁메흐	-15003
▁멜리	-15004
▁명시	-15005
▁목을	-15006
▁묻혀	-15007
▁물라	-15008
▁미수	-15009
▁미화	-15010
▁바랍	-15011
▁바랬	-15012
▁바바	-15013
▁발리	-15014
▁밤을	-15015
▁배정	-15016
▁백과	-15017
▁벤처	-15018
▁봉인	-15019
▁봉착	-15020
▁북경	-15021
▁불리	-15022
▁비리	-15023
▁비참	-15024
▁사의	-15025
▁상실	-15026
▁상트	-15027
▁서머	-15028
▁섬유	-15029
▁성지	-15030
▁쇼를	-15031
▁숨겨	-15032
▁스몰	-15033
▁시리	-15034
▁신병	-15035
▁싣고	-15036
▁실감	-15037
▁아세	-15038
▁아티	-15039
▁안을	-15040
▁야외	-15041
▁에르	-15042
▁연못	-15043
▁영유	-15044
▁오디	-15045
▁오지	-15046
▁오클	-15047
▁와일	-15048
▁왕복	-15049
▁왜냐	-15050
▁용기	-15051
▁용서	-15052
▁우파	-15053
▁의상	-15054
▁인텔	-15055
▁일환	-15056
▁자민	-15057
▁자수	-15058
▁자정	-15059
▁잘라	-15060
▁재결	-15061
▁재계	-15062
▁재앙	-15063
▁재해	-15064
▁점심	-15065
▁정박	-15066
▁조립	-15067
▁존엄	-15068
▁좁은	-15069
▁주입	-15070
▁중립	-15071
▁지향	-15072
▁진도	-15073
▁척추	-15074
▁철강	-15075
▁철거	-15076
▁청색	-15077
▁첼시	-15078
▁춤을	-15079
▁카펠	-15080
▁캠퍼	-15081
▁쿠르	-15082
▁토드	-15083
▁투여	-15084
▁투하	-15085
▁트위	-15086
▁파커	-15087
▁팔아	-15088
▁퍼뜨	-15089
▁평결	-15090
▁포도	-15091
▁표기	-15092
▁프란	-15093
▁하누	-15094
▁하위	-15095
▁햇볕	-15096
▁행크	-15097
▁허리	-15098
▁홈구	-15099
▁황폐	-15100
▁회상	-15101
▁후인	-15102
▁훔쳐	-15103
검사를	-15104
계선을	-15105
관계에	-15106
레이터	-15107
리라고	-15108
방안을	-15109
보나레	-15110
상황을	-15111
센터에	-15112
소시엄	-15113
스럽고	-15114
스에게	-15115
시한을	-15116
안에는	-15117
어사전	-15118
었었다	-15119
여사는	-15120
이라크	-15121
있다는	-15122
줬다고	-15123
지역은	-15124
측에서	-15125
카메라	-15126
케이션	-15127
텍사스	-15128
품으로	-15129
하기가	-15130
하에서	-15131
하자고	-15132
했거나	-15133
협회는	-15134
ands	-15135
ones	-15136
reed	-15137
ries	-15138
week	-15139
▁ben	-15140
▁end	-15141
▁hal	-15142
▁low	-15143
▁sun	-15144
▁uae	-15145
▁ump	-15146
▁wom	-15147
▁감행한	-15148
▁강화된	-15149
▁거리가	-15150
▁거슬러	-15151
▁게임은	-15152
▁격차가	-15153
▁격차를	-15154
▁계획된	-15155
▁고유가	-15156
▁공개될	-15157
▁공동의	-15158
▁공연은	-15159
▁관계로	-15160
▁교수의	-15161
▁교회에	-15162
▁군부는	-15163
▁그래픽	-15164
▁그래함	-15165
▁기관인	-15166
▁기준에	-15167
▁길이의	-15168
▁까지는	-15169
▁깨끗한	-15170
▁나아갈	-15171
▁나이에	-15172
▁나중에	-15173
▁나토의	-15174
▁남자와	-15175
▁내각을	-15176
▁내놓은	-15177
▁내부에	-15178
▁넘어서	-15179
▁놀랐다	-15180
▁누군가	-15181
▁느꼈다	-15182
▁다이앤	-15183
▁다이어	-15184
▁단계를	-15185
▁당선된	-15186
▁당시의	-15187
▁당하는	-15188
▁대가를	-15189
▁대령은	-15190
▁데에는	-15191
▁독재자	-15192
▁동북아	-15193
▁돼있다	-15194
▁뒤이어	-15195
▁드레스	-15196
▁등록된	-15197
▁디얄라	-15198
▁마리화	-15199
▁매카트	-15200
▁면밀히	-15201
▁명확한	-15202
▁목사가	-15203
▁목사의	-15204
▁몰려들	-15205
▁몰아넣	-15206
▁무기와	-15207
▁물의를	-15208
▁미소를	-15209
▁미확인	-15210
▁반대의	-15211
▁반응이	-15212
▁반하는	-15213
▁발견해	-15214
▁발표될	-15215
▁방송사	-15216
▁버려진	-15217
▁법안의	-15218
▁병사가	-15219
▁보고된	-15220
▁분야의	-15221
▁불만이	-15222
▁비공개	-15223
▁사라질	-15224
▁사진기	-15225
▁사회를	-15226
▁상태는	-15227
▁서울대	-15228
▁선거인	-15229
▁선고를	-15230
▁성향을	-15231
▁성화를	-15232
▁세포를	-15233
▁센트럴	-15234
▁소녀는	-15235
▁소년은	-15236
▁소니의	-15237
▁소행성	-15238
▁손상된	-15239
▁손으로	-15240
▁수반과	-15241
▁수십년	-15242
▁스타가	-15243
▁승객과	-15244
▁식량과	-15245
▁신문의	-15246
▁실었다	-15247
▁쓰러져	-15248
▁아내는	-15249
▁안락사	-15250
▁암스테	-15251
▁애도의	-15252
▁억원의	-15253
▁얼굴에	-15254
▁없이는	-15255
▁여기서	-15256
▁여기에	-15257
▁염두에	-15258
▁예상한	-15259
▁예언자	-15260
▁오늘의	-15261
▁외국계	-15262
▁우연히	-15263
▁운항을	-15264
▁운항이	-15265
▁원칙을	-15266
▁위기의	-15267
▁은행인	-15268
▁음와이	-15269
▁의문이	-15270
▁의장의	-15271
▁의혹이	-15272
▁이곳의	-15273
▁이르게	-15274
▁이상은	-15275
▁이스마	-15276
▁인도는	-15277
▁입장에	-15278
▁있을까	-15279
▁자체가	-15280
▁잠비아	-15281
▁장식된	-15282
▁전당대	-15283
▁절반이	-15284
▁제품이	-15285
▁제한을	-15286
▁조약을	-15287
▁좋았다	-15288
▁주위를	-15289
▁지금의	-15290
▁지도부	-15291
▁직원은	-15292
▁진지한	-15293
▁찍었다	-15294
▁차원의	-15295
▁차질이	-15296
▁체계를	-15297
▁초안을	-15298
▁초콜릿	-15299
▁촉발된	-15300
▁총리도	-15301
▁총선이	-15302
▁추락해	-15303
▁축제를	-15304
▁출마를	-15305
▁충돌한	-15306
▁충돌해	-15307
▁치료에	-15308
▁친구를	-15309
▁카르발	-15310
▁카이로	-15311
▁커플은	-15312
▁클라크	-15313
▁통신에	-15314
▁통제를	-15315
▁통증을	-15316
▁파손된	-15317
▁판매가	-15318
▁포드는	-15319
▁폭풍이	-15320
▁프로디	-15321
▁프리츨	-15322
▁피고인	-15323
▁하나다	-15324
▁하락을	-15325
▁하반기	-15326
▁하지는	-15327
▁해결될	-15328
▁해외로	-15329
▁해제를	-15330
▁홀에서	-15331
▁환자는	-15332
났습니다	-15333
스타인은	-15334
인이었다	-15335
잉글랜드	-15336
투표에서	-15337
하였으나	-15338
함으로서	-15339
▁food	-15340
▁home	-15341
▁rctv	-15342
▁some	-15343
▁than	-15344
▁가르시아	-15345
▁가정에서	-15346
▁감소했다	-15347
▁것인지는	-15348
▁결정하지	-15349
▁경찰들이	-15350
▁고마움을	-15351
▁공격하고	-15352
▁구조대는	-15353
▁국가들에	-15354
▁근본적인	-15355
▁금융감독	-15356
▁나왔다고	-15357
▁늘어나고	-15358
▁달한다고	-15359
▁당선자의	-15360
▁대사관이	-15361
▁도착하자	-15362
▁등장하는	-15363
▁마스터스	-15364
▁말했으나	-15365
▁매니저인	-15366
▁머레이는	-15367
▁못한다고	-15368
▁민주적인	-15369
▁발생하기	-15370
▁비서실장	-15371
▁사드르가	-15372
▁사형집행	-15373
▁상승하며	-15374
▁소송에서	-15375
▁수감됐다	-15376
▁수준이다	-15377
▁수행했다	-15378
▁스튜어트	-15379
▁승객들은	-15380
▁시간동안	-15381
▁시도했다	-15382
▁시리즈의	-15383
▁시민권을	-15384
▁시민단체	-15385
▁식당에서	-15386
▁신중하게	-15387
▁실시됐다	-15388
▁심사위원	-15389
▁아이다호	-15390
▁아프간의	-15391
▁않았다면	-15392
▁앞서있다	-15393
▁어렵다고	-15394
▁어린이가	-15395
▁억류되어	-15396
▁없었으며	-15397
▁여성들의	-15398
▁연구하고	-15399
▁연기됐다	-15400
▁연말까지	-15401
▁연방정부	-15402
▁영향으로	-15403
▁와이오밍	-15404
▁완화하기	-15405
▁왜냐하면	-15406
▁위원회에	-15407
▁위험성을	-15408
▁유엔사무	-15409
▁유전자를	-15410
▁의구심을	-15411
▁의원들과	-15412
▁이라크군	-15413
▁이뤄지는	-15414
▁이제까지	-15415
▁이혼했다	-15416
▁인권단체	-15417
▁인질들은	-15418
▁인터폴은	-15419
▁일주일에	-15420
▁있는지에	-15421
▁있음에도	-15422
▁저질렀다	-15423
▁전까지는	-15424
▁전당대회	-15425
▁제기됐다	-15426
▁조사결과	-15427
▁조종사가	-15428
▁주문했다	-15429
▁주인공인	-15430
▁즈보나레	-15431
▁지지했다	-15432
▁지켜보고	-15433
▁촉구하고	-15434
▁취소됐다	-15435
▁측에서는	-15436
▁쿠즈넷소	-15437
▁태어났다	-15438
▁통신과의	-15439
▁트로피를	-15440
▁파견했다	-15441
▁파예드의	-15442
▁포괄적인	-15443
▁포기하고	-15444
▁폭발물이	-15445
▁프로듀서	-15446
▁하루종일	-15447
▁함부르크	-15448
▁항의했다	-15449
▁확신하고	-15450
▁회복하고	-15451
▁획득했다	-15452
▁후세인은	-15453
▁힐러리의	-15454
폴리스에서	-15455
▁heart	-15456
▁가능하다고	-15457
▁경기장에서	-15458
▁관계당국이	-15459
▁나이트클럽	-15460
▁네그로폰테	-15461
▁뉴올리언스	-15462
▁대선후보가	-15463
▁미얀마에서	-15464
▁민간인들을	-15465
▁바스라에서	-15466
▁밝혀졌다고	-15467
▁본격적으로	-15468
▁불가능하다	-15469
▁사르코지의	-15470
▁아프리카의	-15471
▁예정이지만	-15472
▁이라크군이	-15473
▁중앙정보국	-15474
▁지시했다고	-15475
▁집중적으로	-15476
▁체포됐으며	-15477
▁평론가들은	-15478
▁합법적으로	-15479
▁france	-15480
▁window	-15481
▁떨어졌습니다	-15482
▁소프트웨어를	-15483
▁아프리카에서	-15484
▁어린이들에게	-15485
▁와인하우스가	-15486
▁인도네시아는	-15487
▁핵프로그램을	-15488
ployment	-15489
▁express	-15490
▁마터호른에서의	-15491
▁굽	-15492
▁돋	-15493
▁몫	-15494
▁뻗	-15495
▁슐	-15496
▁왓	-15497
▁죠	-15498
▁찔	-15499
▁캡	-15500
▁퀘	-15501
계와	-15502
고에	-15503
권과	-15504
나왓	-15505
다피	-15506
당할	-15507
더드	-15508
독립	-15509
되다	-15510
드르	-15511
디다	-15512
라기	-15513
라브	-15514
레티	-15515
르담	-15516
릭스	-15517
매설	-15518
먼의	-15519
면허	-15520
목이	-15521
물과	-15522
박신	-15523
방향	-15524
설이	-15525
솔린	-15526
안토	-15527
열차	-15528
완다	-15529
운하	-15530
을때	-15531
작가	-15532
쟁이	-15533
저우	-15534
전과	-15535
전인	-15536
전한	-15537
정과	-15538
정희	-15539
제와	-15540
차관	-15541
채를	-15542
천후	-15543
철도	-15544
치다	-15545
카라	-15546
크와	-15547
킨스	-15548
탄이	-15549
테이	-15550
통은	-15551
투아	-15552
트랙	-15553
튼이	-15554
파일	-15555
판매	-15556
판은	-15557
풋볼	-15558
호프	-15559
히지	-15560
att	-15561
iam	-15562
ich	-15563
ics	-15564
ink	-15565
ner	-15566
▁mp	-15567
▁가계	-15568
▁값싼	-15569
▁강연	-15570
▁같아	-15571
▁개구	-15572
▁개는	-15573
▁개리	-15574
▁거행	-15575
▁건스	-15576
▁겪을	-15577
▁고독	-15578
▁고맙	-15579
▁곤란	-15580
▁공백	-15581
▁공적	-15582
▁관제	-15583
▁교역	-15584
▁굶주	-15585
▁급히	-15586
▁기용	-15587
▁끄는	-15588
▁나포	-15589
▁난처	-15590
▁날려	-15591
▁날에	-15592
▁남긴	-15593
▁났다	-15594
▁낳을	-15595
▁내기	-15596
▁노린	-15597
▁놀랐	-15598
▁놓인	-15599
▁늘릴	-15600
▁다닐	-15601
▁다스	-15602
▁다할	-15603
▁다해	-15604
▁단언	-15605
▁돌진	-15606
▁동기	-15607
▁동아	-15608
▁들려	-15609
▁때와	-15610
▁러브	-15611
▁레비	-15612
▁로브	-15613
▁로젠	-15614
▁로즈	-15615
▁루고	-15616
▁리베	-15617
▁마츠	-15618
▁막바	-15619
▁많을	-15620
▁매설	-15621
▁명절	-15622
▁모나	-15623
▁몸싸	-15624
▁미안	-15625
▁믿지	-15626
▁바우	-15627
▁반경	-15628
▁배의	-15629
▁법규	-15630
▁변형	-15631
▁보궐	-15632
▁복수	-15633
▁분배	-15634
▁분주	-15635
▁분화	-15636
▁불빛	-15637
▁블래	-15638
▁블리	-15639
▁비춰	-15640
▁빨라	-15641
▁사귀	-15642
▁사립	-15643
▁상아	-15644
▁생길	-15645
▁서기	-15646
▁선교	-15647
▁세골	-15648
▁세관	-15649
▁소란	-15650
▁속출	-15651
▁숨져	-15652
▁스즈	-15653
▁시모	-15654
▁식수	-15655
▁신기	-15656
▁실내	-15657
▁쌓인	-15658
▁아드	-15659
▁약을	-15660
▁양이	-15661
▁어드	-15662
▁어미	-15663
▁에워	-15664
▁여개	-15665
▁연습	-15666
▁연패	-15667
▁오닐	-15668
▁오퍼	-15669
▁올림	-15670
▁왔던	-15671
▁외모	-15672
▁워커	-15673
▁월로	-15674
▁위는	-15675
▁유독	-15676
▁이빨	-15677
▁잉그	-15678
▁자가	-15679
▁재규	-15680
▁적도	-15681
▁전술	-15682
▁정원	-15683
▁져야	-15684
▁조율	-15685
▁주니	-15686
▁주소	-15687
▁주어	-15688
▁죽고	-15689
▁증폭	-15690
▁지대	-15691
▁지어	-15692
▁직무	-15693
▁찍힌	-15694
▁참패	-15695
▁체첸	-15696
▁총회	-15697
▁최다	-15698
▁추기	-15699
▁충청	-15700
▁치르	-15701
▁칠면	-15702
▁침대	-15703
▁카누	-15704
▁카렌	-15705
▁캐시	-15706
▁컨셉	-15707
▁탔다	-15708
▁터져	-15709
▁템파	-15710
▁토레	-15711
▁토튼	-15712
▁트래	-15713
▁트러	-15714
▁패러	-15715
▁퍼부	-15716
▁페어	-15717
▁편에	-15718
▁푸미	-15719
▁프렌	-15720
▁핑크	-15721
▁한창	-15722
▁할로	-15723
▁해줄	-15724
▁헤어	-15725
▁호는	-15726
▁활주	-15727
▁회전	-15728
▁횡단	-15729
▁휘말	-15730
갔지만	-15731
네이루	-15732
되었을	-15733
라이트	-15734
러시아	-15735
렀으며	-15736
레이트	-15737
로에서	-15738
루스코	-15739
목으로	-15740
바이잔	-15741
박신원	-15742
사건과	-15743
사로서	-15744
습니까	-15745
영장을	-15746
왔지만	-15747
이라면	-15748
인민당	-15749
장관을	-15750
정이다	-15751
정책에	-15752
조직을	-15753
테이프	-15754
포스트	-15755
프레드	-15756
하였고	-15757
협회의	-15758
화하고	-15759
회사를	-15760
goti	-15761
ives	-15762
roll	-15763
tain	-15764
urch	-15765
ving	-15766
▁but	-15767
▁ent	-15768
▁inv	-15769
▁mid	-15770
▁pal	-15771
▁sad	-15772
▁san	-15773
▁toe	-15774
▁가깝게	-15775
▁가담한	-15776
▁가솔린	-15777
▁가정집	-15778
▁강풍을	-15779
▁개정된	-15780
▁개최될	-15781
▁거래에	-15782
▁거부할	-15783
▁건물은	-15784
▁것들을	-15785
▁게임의	-15786
▁결혼한	-15787
▁계약이	-15788
▁고르바	-15789
▁고릴라	-15790
▁공약을	-15791
▁과정이	-15792
▁관절염	-15793
▁광우병	-15794
▁교전은	-15795
▁교회의	-15796
▁구속된	-15797
▁그런데	-15798
▁그려진	-15799
▁그리핀	-15800
▁그린존	-15801
▁금지된	-15802
▁금지를	-15803
▁급격한	-15804
▁급속한	-15805
▁기업체	-15806
▁기원전	-15807
▁기자인	-15808
▁기회로	-15809
▁나갔다	-15810
▁나온다	-15811
▁년동안	-15812
▁농산물	-15813
▁뉴델리	-15814
▁단장은	-15815
▁대만에	-15816
▁대열에	-15817
▁대운하	-15818
▁대학에	-15819
▁대학이	-15820
▁댈러스	-15821
▁도메인	-15822
▁도시는	-15823
▁동료인	-15824
▁동맹을	-15825
▁동의를	-15826
▁들어서	-15827
▁로날드	-15828
▁르완다	-15829
▁리치는	-15830
▁마련해	-15831
▁마스크	-15832
▁마을로	-15833
▁맥주를	-15834
▁메신저	-15835
▁며칠간	-15836
▁명만이	-15837
▁모델로	-15838
▁모두는	-15839
▁모였다	-15840
▁목격자	-15841
▁목록에	-15842
▁무거운	-15843
▁무대에	-15844
▁무혐의	-15845
▁미스터	-15846
▁밀라노	-15847
▁밀란의	-15848
▁밀접한	-15849
▁바리케	-15850
▁바이에	-15851
▁박사의	-15852
▁박정희	-15853
▁반대를	-15854
▁반대해	-15855
▁밝혔고	-15856
▁방침을	-15857
▁방화를	-15858
▁버틀러	-15859
▁벌어들	-15860
▁벌이다	-15861
▁보건부	-15862
▁보안군	-15863
▁복장을	-15864
▁부담을	-15865
▁부드러	-15866
▁부문에	-15867
▁부인은	-15868
▁부정적	-15869
▁북쪽에	-15870
▁불안을	-15871
▁불행한	-15872
▁비난의	-15873
▁산업에	-15874
▁상금을	-15875
▁샤리아	-15876
▁서류를	-15877
▁선거유	-15878
▁선언을	-15879
▁성공회	-15880
▁성매매	-15881
▁세레나	-15882
▁소령은	-15883
▁소유주	-15884
▁손실이	-15885
▁쇼핑을	-15886
▁수상은	-15887
▁수상자	-15888
▁수입이	-15889
▁수집한	-15890
▁스테판	-15891
▁승객이	-15892
▁승리가	-15893
▁승용차	-15894
▁승인한	-15895
▁시신의	-15896
▁시위자	-15897
▁신문이	-15898
▁신선한	-15899
▁신원은	-15900
▁실업률	-15901
▁싶다는	-15902
▁쏟아져	-15903
▁아시안	-15904
▁아이튠	-15905
▁아제르	-15906
▁아지즈	-15907
▁아폴로	-15908
▁악화된	-15909
▁않았기	-15910
▁암으로	-15911
▁업계의	-15912
▁업무에	-15913
▁여당이	-15914
▁여론이	-15915
▁연구원	-15916
▁열리기	-15917
▁영상은	-15918
▁영어로	-15919
▁예산이	-15920
▁올라온	-15921
▁올스타	-15922
▁왕복선	-15923
▁외곽에	-15924
▁위원장	-15925
▁은행을	-15926
▁의도가	-15927
▁이들과	-15928
▁이외의	-15929
▁이자율	-15930
▁인공위	-15931
▁인물로	-15932
▁인물이	-15933
▁인수가	-15934
▁인수를	-15935
▁일했다	-15936
▁임시로	-15937
▁입원해	-15938
▁자르카	-15939
▁잔혹한	-15940
▁장기를	-15941
▁재건축	-15942
▁저소득	-15943
▁저작권	-15944
▁전국의	-15945
▁전달할	-15946
▁정교회	-15947
▁정부군	-15948
▁정치가	-15949
▁제이슨	-15950
▁제작자	-15951
▁조선일	-15952
▁조용히	-15953
▁조직이	-15954
▁조직인	-15955
▁존슨은	-15956
▁졸업생	-15957
▁주목할	-15958
▁주석이	-15959
▁주장인	-15960
▁주제로	-15961
▁주최한	-15962
▁죽음이	-15963
▁중동의	-15964
▁중령은	-15965
▁증가에	-15966
▁증상을	-15967
▁지명된	-15968
▁지역과	-15969
▁직원과	-15970
▁진압을	-15971
▁질병에	-15972
▁쪽으로	-15973
▁차세대	-15974
▁착용한	-15975
▁체중이	-15976
▁초드리	-15977
▁총재가	-15978
▁촬영된	-15979
▁최상의	-15980
▁친구의	-15981
▁케이스	-15982
▁쿠알라	-15983
▁크메르	-15984
▁탈출한	-15985
▁파리의	-15986
▁팔렸다	-15987
▁편안한	-15988
▁평했다	-15989
▁폭우가	-15990
▁푸틴의	-15991
▁하늘을	-15992
▁하이킹	-15993
▁학교는	-15994
▁한가지	-15995
▁한통이	-15996
▁항의를	-15997
▁핸드폰	-15998
▁헌법에	-15999
▁헝가리	-16000
▁현상을	-16001
▁혐의도	-16002
▁화산이	-16003
▁화성의	-16004
▁확보해	-16005
▁환자를	-16006
▁회복을	-16007
▁흐름을	-16008
▁희생을	-16009
민주당은	-16010
받았다고	-16011
아메리카	-16012
업자들은	-16013
조사에서	-16014
크라멘토	-16015
하면서도	-16016
ather	-16017
ected	-16018
gress	-16019
▁bill	-16020
▁expl	-16021
▁glob	-16022
▁spec	-16023
▁가이트너	-16024
▁가족들의	-16025
▁강화하기	-16026
▁거부하는	-16027
▁걱정하고	-16028
▁결혼했다	-16029
▁경쟁력을	-16030
▁계속됐다	-16031
▁고위관리	-16032
▁관광객을	-16033
▁국가안전	-16034
▁국경지역	-16035
▁국내에서	-16036
▁군사력을	-16037
▁군인들을	-16038
▁극장에서	-16039
▁극적으로	-16040
▁금요일에	-16041
▁기각했다	-16042
▁기록됐다	-16043
▁기자들과	-16044
▁남자아이	-16045
▁납치됐다	-16046
▁내놓았다	-16047
▁단체들이	-16048
▁담당자인	-16049
▁당선됐다	-16050
▁대학교의	-16051
▁도로매설	-16052
▁동성결혼	-16053
▁두번째로	-16054
▁들어주지	-16055
▁로비스트	-16056
▁리트비넨	-16057
▁멕시코의	-16058
▁명이었다	-16059
▁목격했다	-16060
▁무가베는	-16061
▁무너지고	-16062
▁민간인을	-16063
▁민족주의	-16064
▁밀리밴드	-16065
▁바랍니다	-16066
▁발표되지	-16067
▁방문했을	-16068
▁방코델타	-16069
▁배경으로	-16070
▁배아줄기	-16071
▁벌였으며	-16072
▁베이루트	-16073
▁병사들은	-16074
▁보고서의	-16075
▁보였으며	-16076
▁보이지만	-16077
▁불쾌감을	-16078
▁사망했을	-16079
▁사용자가	-16080
▁상황으로	-16081
▁생각된다	-16082
▁서비스는	-16083
▁석방했다	-16084
▁선수들과	-16085
▁성명서를	-16086
▁수용소에	-16087
▁스트리트	-16088
▁시상식은	-16089
▁시스템의	-16090
▁시위대의	-16091
▁심리에서	-16092
▁아버지를	-16093
▁아시아와	-16094
▁안보리는	-16095
▁앨라배마	-16096
▁양곤에서	-16097
▁연구소는	-16098
▁영국군은	-16099
▁영어사전	-16100
▁우승으로	-16101
▁위협적인	-16102
▁유권자가	-16103
▁유니세프	-16104
▁유명인사	-16105
▁이사회는	-16106
▁이틀간의	-16107
▁일상적인	-16108
▁자이언트	-16109
▁전문가는	-16110
▁전시작전	-16111
▁제한하는	-16112
▁주지사를	-16113
▁중앙일보	-16114
▁지지자들	-16115
▁참석하는	-16116
▁총리와의	-16117
▁총회에서	-16118
▁추정되고	-16119
▁충돌했다	-16120
▁카불에서	-16121
▁크리스틴	-16122
▁탈출했다	-16123
▁통과하는	-16124
▁티셔츠를	-16125
▁파손됐다	-16126
▁파악하고	-16127
▁파예드는	-16128
▁패션계의	-16129
▁포기하는	-16130
▁폭락했다	-16131
▁폭발했다	-16132
▁프랑스를	-16133
▁환경에서	-16134
▁환자들은	-16135
▁회사에서	-16136
▁획기적인	-16137
데자네이루	-16138
항공우주국	-16139
▁child	-16140
▁found	-16141
▁organ	-16142
▁구조작업을	-16143
▁국제올림픽	-16144
▁다우지수가	-16145
▁디스플레이	-16146
▁만들어졌다	-16147
▁바에따르면	-16148
▁베를루스코	-16149
▁소식통들은	-16150
▁신행정수도	-16151
▁압도적으로	-16152
▁애틀랜티스	-16153
▁외무장관이	-16154
▁운동가들은	-16155
▁재정경제부	-16156
▁정상회담에	-16157
▁조사에서는	-16158
▁주장했다고	-16159
▁주장했었다	-16160
▁줄리아니는	-16161
▁중국에서는	-16162
▁중앙일보는	-16163
▁탈레반측은	-16164
▁토론회에서	-16165
▁페널티킥을	-16166
▁플레이오프	-16167
▁플로리다와	-16168
▁피해자들을	-16169
▁합의에따라	-16170
▁희망한다고	-16171
▁report	-16172
▁travel	-16173
▁관광객들에게	-16174
▁아제르바이잔	-16175
▁열린우리당은	-16176
▁예정이었으나	-16177
▁요하네스버그	-16178
▁이슬라마바드	-16179
▁캘리포니아에	-16180
▁economy	-16181
▁방코델타아시아	-16182
▁오사마빈라덴의	-16183
▁캘리포니아에서	-16184
▁soldiers	-16185
ci	-16186
fc	-16187
▁긱	-16188
▁눌	-16189
▁룩	-16190
▁릴	-16191
▁빔	-16192
▁썩	-16193
▁쐈	-16194
▁쭉	-16195
▁콴	-16196
▁홉	-16197
가루	-16198
고로	-16199
고의	-16200
구와	-16201
그러	-16202
금의	-16203
난을	-16204
더미	-16205
더와	-16206
됐기	-16207
랜더	-16208
럼을	-16209
레오	-16210
루즈	-16211
르다	-16212
린이	-16213
린트	-16214
마뱀	-16215
목에	-16216
민순	-16217
박물	-16218
반이	-16219
병원	-16220
보드	-16221
보지	-16222
분석	-16223
석현	-16224
세의	-16225
수비	-16226
슬링	-16227
시마	-16228
시킴	-16229
애를	-16230
에겐	-16231
예프	-16232
유는	-16233
인들	-16234
인터	-16235
주간	-16236
지사	-16237
최초	-16238
탐사	-16239
테스	-16240
토야	-16241
토프	-16242
티네	-16243
팀인	-16244
파와	-16245
패닉	-16246
행은	-16247
히기	-16248
히드	-16249
ady	-16250
ago	-16251
emy	-16252
ges	-16253
gin	-16254
ids	-16255
ism	-16256
ote	-16257
uss	-16258
▁bp	-16259
▁el	-16260
▁ip	-16261
▁가루	-16262
▁가시	-16263
▁각성	-16264
▁강철	-16265
▁개로	-16266
▁개에	-16267
▁거울	-16268
▁걸림	-16269
▁겪게	-16270
▁결장	-16271
▁경력	-16272
▁고층	-16273
▁곡을	-16274
▁공업	-16275
▁공작	-16276
▁과속	-16277
▁규명	-16278
▁그외	-16279
▁그저	-16280
▁금치	-16281
▁깨고	-16282
▁끝낼	-16283
▁나뭇	-16284
▁날로	-16285
▁누출	-16286
▁늦추	-16287
▁다나	-16288
▁다둘	-16289
▁달고	-16290
▁당연	-16291
▁대성	-16292
▁독극	-16293
▁드미	-16294
▁디젤	-16295
▁디카	-16296
▁때를	-16297
▁로야	-16298
▁로키	-16299
▁로하	-16300
▁룰라	-16301
▁리비	-16302
▁먼지	-16303
▁명씩	-16304
▁무척	-16305
▁물과	-16306
▁미식	-16307
▁발작	-16308
▁방금	-16309
▁보니	-16310
▁불꽃	-16311
▁불사	-16312
▁산체	-16313
▁살상	-16314
▁삼각	-16315
▁서던	-16316
▁서두	-16317
▁선사	-16318
▁설교	-16319
▁섬의	-16320
▁성실	-16321
▁성행	-16322
▁셰르	-16323
▁소더	-16324
▁순위	-16325
▁스펙	-16326
▁스폰	-16327
▁아쿠	-16328
▁애슐	-16329
▁액션	-16330
▁야만	-16331
▁어윈	-16332
▁어쩔	-16333
▁언젠	-16334
▁에반	-16335
▁엠마	-16336
▁온도	-16337
▁우체	-16338
▁원심	-16339
▁유머	-16340
▁유언	-16341
▁육박	-16342
▁음향	-16343
▁의거	-16344
▁의논	-16345
▁의류	-16346
▁이타	-16347
▁인접	-16348
▁일생	-16349
▁일일	-16350
▁자궁	-16351
▁자는	-16352
▁잠겨	-16353
▁잠깐	-16354
▁저가	-16355
▁저하	-16356
▁적혀	-16357
▁전두	-16358
▁제왕	-16359
▁조업	-16360
▁좌우	-16361
▁죽게	-16362
▁중개	-16363
▁중장	-16364
▁즐겁	-16365
▁즐겨	-16366
▁증산	-16367
▁진짜	-16368
▁진척	-16369
▁집결	-16370
▁짙은	-16371
▁참수	-16372
▁창업	-16373
▁천명	-16374
▁출항	-16375
▁출현	-16376
▁치타	-16377
▁친미	-16378
▁카니	-16379
▁칼데	-16380
▁컨설	-16381
▁키르	-16382
▁타개	-16383
▁탈퇴	-16384
▁티나	-16385
▁파는	-16386
▁파일	-16387
▁페리	-16388
▁품질	-16389
▁피그	-16390
▁피를	-16391
▁하르	-16392
▁한꺼	-16393
▁할인	-16394
▁해발	-16395
▁핵을	-16396
▁헬만	-16397
▁현저	-16398
▁현존	-16399
▁형을	-16400
▁혼인	-16401
▁화상	-16402
▁희박	-16403
객들이	-16404
과정을	-16405
기관인	-16406
기구가	-16407
기구를	-16408
나이트	-16409
됐는지	-16410
라이너	-16411
란티스	-16412
리아스	-16413
명하게	-16414
법안에	-16415
사건의	-16416
센터를	-16417
여행을	-16418
임에도	-16419
자라고	-16420
자에서	-16421
졌는데	-16422
졌었다	-16423
주의를	-16424
친구를	-16425
판에서	-16426
하게도	-16427
해주고	-16428
회사의	-16429
회의가	-16430
bass	-16431
ison	-16432
ting	-16433
tish	-16434
▁big	-16435
▁den	-16436
▁epl	-16437
▁lib	-16438
▁nhc	-16439
▁set	-16440
▁uci	-16441
▁won	-16442
▁www	-16443
▁가옥이	-16444
▁가치는	-16445
▁가혹한	-16446
▁갈수록	-16447
▁감소할	-16448
▁개막식	-16449
▁개성공	-16450
▁개인적	-16451
▁개최할	-16452
▁검사가	-16453
▁게임이	-16454
▁경선에	-16455
▁경영자	-16456
▁고객을	-16457
▁과정은	-16458
▁구조조	-16459
▁국가적	-16460
▁국회는	-16461
▁군부의	-16462
▁군인을	-16463
▁그래도	-16464
▁그룹이	-16465
▁기네스	-16466
▁기념행	-16467
▁기사에	-16468
▁기존에	-16469
▁기지에	-16470
▁나타날	-16471
▁난동을	-16472
▁날씨는	-16473
▁남우주	-16474
▁납치를	-16475
▁낳았다	-16476
▁내각의	-16477
▁노리는	-16478
▁눈으로	-16479
▁뉴욕과	-16480
▁다윈은	-16481
▁달했다	-16482
▁당선이	-16483
▁대니얼	-16484
▁대선은	-16485
▁대승을	-16486
▁대우를	-16487
▁대응을	-16488
▁대표로	-16489
▁던지는	-16490
▁도달할	-16491
▁도요타	-16492
▁독립한	-16493
▁독특한	-16494
▁됐지만	-16495
▁되는데	-16496
▁들어갔	-16497
▁들어올	-16498
▁따르지	-16499
▁때부터	-16500
▁라덴은	-16501
▁라시드	-16502
▁롤링은	-16503
▁마다가	-16504
▁만델라	-16505
▁만든다	-16506
▁말라는	-16507
▁머리가	-16508
▁목표에	-16509
▁무게가	-16510
▁물체가	-16511
▁바다가	-16512
▁바오로	-16513
▁반면에	-16514
▁반응은	-16515
▁반지를	-16516
▁받기도	-16517
▁받도록	-16518
▁발간된	-16519
▁발견할	-16520
▁발레리	-16521
▁밝혀질	-16522
▁버리고	-16523
▁버스가	-16524
▁벌어질	-16525
▁본사가	-16526
▁볼티모	-16527
▁부담이	-16528
▁부모님	-16529
▁분쟁에	-16530
▁불과한	-16531
▁불길에	-16532
▁불참을	-16533
▁붙였다	-16534
▁비난해	-16535
▁비스타	-16536
▁사망할	-16537
▁사업은	-16538
▁사업의	-16539
▁사용이	-16540
▁사용자	-16541
▁사이를	-16542
▁사진에	-16543
▁산업을	-16544
▁샌안토	-16545
▁생산된	-16546
▁서둘러	-16547
▁성장률	-16548
▁세기에	-16549
▁센터에	-16550
▁소동이	-16551
▁소유즈	-16552
▁소재로	-16553
▁소지한	-16554
▁송민순	-16555
▁수단이	-16556
▁수하물	-16557
▁승리의	-16558
▁승부차	-16559
▁승인할	-16560
▁시대가	-16561
▁신생아	-16562
▁실적을	-16563
▁실행에	-16564
▁실험이	-16565
▁심리를	-16566
▁싶다면	-16567
▁아내인	-16568
▁아디다	-16569
▁아르메	-16570
▁아름다	-16571
▁아메드	-16572
▁아브라	-16573
▁아프카	-16574
▁악천후	-16575
▁안에는	-16576
▁않을까	-16577
▁알아야	-16578
▁어렸을	-16579
▁얻는데	-16580
▁없음을	-16581
▁여행할	-16582
▁역할이	-16583
▁연합의	-16584
▁영국을	-16585
▁영업이	-16586
▁영토를	-16587
▁예술가	-16588
▁오디오	-16589
▁오르고	-16590
▁오사카	-16591
▁올해로	-16592
▁요소가	-16593
▁운동이	-16594
▁운명을	-16595
▁월에서	-16596
▁윌슨은	-16597
▁유용한	-16598
▁유조선	-16599
▁음베키	-16600
▁의사인	-16601
▁이겼다	-16602
▁이미지	-16603
▁이어져	-16604
▁이와는	-16605
▁인구는	-16606
▁인질이	-16607
▁일부다	-16608
▁일종의	-16609
▁일하던	-16610
▁자국민	-16611
▁자전거	-16612
▁작품이	-16613
▁장군이	-16614
▁장벽을	-16615
▁재건을	-16616
▁재결합	-16617
▁전쟁은	-16618
▁전투로	-16619
▁정권에	-16620
▁정당은	-16621
▁정치를	-16622
▁정통한	-16623
▁정해진	-16624
▁제의를	-16625
▁제품의	-16626
▁주간의	-16627
▁즐거운	-16628
▁증상이	-16629
▁지방을	-16630
▁지분을	-16631
▁지시한	-16632
▁지지한	-16633
▁지켜본	-16634
▁직원을	-16635
▁차량과	-16636
▁처음엔	-16637
▁천문학	-16638
▁철회할	-16639
▁추방된	-16640
▁추측이	-16641
▁췌장암	-16642
▁취하는	-16643
▁카르자	-16644
▁키티호	-16645
▁타이어	-16646
▁탐사선	-16647
▁통과된	-16648
▁통치를	-16649
▁트럭에	-16650
▁트럭을	-16651
▁파란색	-16652
▁팬들을	-16653
▁편이다	-16654
▁평양에	-16655
▁포기한	-16656
▁포즈를	-16657
▁폭동을	-16658
▁표결에	-16659
▁표현을	-16660
▁푸미폰	-16661
▁프레슬	-16662
▁학교와	-16663
▁학생은	-16664
▁학생의	-16665
▁합류할	-16666
▁해변에	-16667
▁해안의	-16668
▁했는지	-16669
▁행복한	-16670
▁혐의는	-16671
▁협력해	-16672
▁협상의	-16673
▁홍석현	-16674
▁화성에	-16675
▁화재를	-16676
▁화합을	-16677
▁확정될	-16678
▁흡연을	-16679
관계자는	-16680
니케이션	-16681
랜드에서	-16682
로부터의	-16683
연설에서	-16684
중앙은행	-16685
하기에는	-16686
ences	-16687
iforn	-16688
▁case	-16689
▁dead	-16690
▁deal	-16691
▁four	-16692
▁grow	-16693
▁isaf	-16694
▁kill	-16695
▁move	-16696
▁rock	-16697
▁tech	-16698
▁usgs	-16699
▁감소하고	-16700
▁개체수가	-16701
▁결심했다	-16702
▁결정하는	-16703
▁경기후퇴	-16704
▁경우에는	-16705
▁공격적인	-16706
▁과도하게	-16707
▁관광객은	-16708
▁관리들과	-16709
▁국무총리	-16710
▁그녀에게	-16711
▁글로리아	-16712
▁금융기관	-16713
▁기점으로	-16714
▁노력하는	-16715
▁늘어났다	-16716
▁대법원에	-16717
▁대사관에	-16718
▁대표적인	-16719
▁동료들은	-16720
▁동점골을	-16721
▁드미트리	-16722
▁들어가기	-16723
▁들었다고	-16724
▁떠오르던	-16725
▁라왈핀디	-16726
▁매들린이	-16727
▁메시지는	-16728
▁모색하고	-16729
▁목소리가	-16730
▁무하마드	-16731
▁미시간주	-16732
▁바탕으로	-16733
▁박물관에	-16734
▁박물관은	-16735
▁받았었다	-16736
▁발표하는	-16737
▁방문한다	-16738
▁백과사전	-16739
▁벗어나기	-16740
▁베이징의	-16741
▁변호사와	-16742
▁보도자료	-16743
▁부정부패	-16744
▁북대서양	-16745
▁불필요한	-16746
▁사드르의	-16747
▁사무실에	-16748
▁사살하고	-16749
▁사용하여	-16750
▁사직서를	-16751
▁사회에서	-16752
▁상임이사	-16753
▁선거기부	-16754
▁센터에서	-16755
▁수십명의	-16756
▁수치이다	-16757
▁스프레이	-16758
▁시리아는	-16759
▁시상식을	-16760
▁압수했다	-16761
▁억달러에	-16762
▁에스트라	-16763
▁엑스파일	-16764
▁여러차례	-16765
▁연구진이	-16766
▁영향력이	-16767
▁영화제작	-16768
▁왕세자의	-16769
▁외교관은	-16770
▁요구한다	-16771
▁요청으로	-16772
▁우리당은	-16773
▁우승했다	-16774
▁이해하고	-16775
▁인사들과	-16776
▁임명했다	-16777
▁장례식에	-16778
▁전세계의	-16779
▁정부에게	-16780
▁정상들이	-16781
▁주둔중인	-16782
▁중소기업	-16783
▁중심부에	-16784
▁지도부가	-16785
▁지불하고	-16786
▁지역에는	-16787
▁지지자의	-16788
▁지질조사	-16789
▁진압하기	-16790
▁진행자인	-16791
▁집권당인	-16792
▁차량에서	-16793
▁참여하고	-16794
▁청와대는	-16795
▁충돌하는	-16796
▁측면에서	-16797
▁캐나다의	-16798
▁태풍으로	-16799
▁토요일에	-16800
▁통제하는	-16801
▁트레이드	-16802
▁파예드가	-16803
▁파이낸셜	-16804
▁페르난데	-16805
▁포함하는	-16806
▁피해자가	-16807
▁한꺼번에	-16808
▁항공사가	-16809
▁항구도시	-16810
▁해적들이	-16811
▁홀랜드는	-16812
▁확보해야	-16813
▁확인하지	-16814
▁환자들을	-16815
▁환자에게	-16816
▁히스패닉	-16817
평균지수는	-16818
▁after	-16819
▁green	-16820
▁paris	-16821
▁right	-16822
▁their	-16823
▁고속도로를	-16824
▁관계자들의	-16825
▁관광객들을	-16826
▁국무장관과	-16827
▁국제사회는	-16828
▁기대한다고	-16829
▁뉴잉글랜드	-16830
▁당국자들이	-16831
▁동물원에서	-16832
▁동의했다고	-16833
▁레바논에서	-16834
▁마다가스카	-16835
▁무장단체의	-16836
▁비상사태가	-16837
▁비행기에서	-16838
▁새크라멘토	-16839
▁서부텍사스	-16840
▁성공시켰다	-16841
▁소비자들은	-16842
▁소탕작전을	-16843
▁소행이라고	-16844
▁시민들에게	-16845
▁실질적으로	-16846
▁싱가포르의	-16847
▁아이슬란드	-16848
▁오래전부터	-16849
▁외국인들이	-16850
▁위원회에서	-16851
▁제조업체인	-16852
▁조심스럽게	-16853
▁지지자들을	-16854
▁청문회에서	-16855
▁캐나다에서	-16856
▁하락했다고	-16857
▁헌법재판소	-16858
ifornia	-16859
▁negoti	-16860
▁return	-16861
▁국제축구연맹	-16862
▁마드리드에서	-16863
▁미항공우주국	-16864
▁소비자들에게	-16865
▁아프카니스탄	-16866
▁알자와히리는	-16867
▁엔터테인먼트	-16868
▁크리스티아누	-16869
▁플로리다에서	-16870
▁attacks	-16871
▁british	-16872
▁million	-16873
▁service	-16874
▁자살폭탄테러로	-16875
▁business	-16876
▁newsweek	-16877
▁이슬라마바드에서	-16878
▁committee	-16879
▁california	-16880
hs	-16881
mn	-16882
ok	-16883
ys	-16884
▁꾀	-16885
▁낚	-16886
▁놈	-16887
▁딱	-16888
▁락	-16889
▁뭐	-16890
▁뮬	-16891
▁뷰	-16892
▁셈	-16893
▁쇄	-16894
▁윗	-16895
▁율	-16896
▁춘	-16897
▁탕	-16898
▁흠	-16899
가락	-16900
간을	-16901
고리	-16902
고문	-16903
교회	-16904
구는	-16905
군요	-16906
낸다	-16907
뉴얼	-16908
다를	-16909
대기	-16910
더가	-16911
든지	-16912
들만	-16913
때로	-16914
로워	-16915
록을	-16916
리히	-16917
마라	-16918
반을	-16919
버릴	-16920
범을	-16921
본이	-16922
블리	-16923
사찰	-16924
상도	-16925
선박	-16926
세르	-16927
셨다	-16928
손은	-16929
수아	-16930
시민	-16931
식간	-16932
실의	-16933
심에	-16934
업계	-16935
오던	-16936
이치	-16937
자나	-16938
자다	-16939
자리	-16940
잡한	-16941
젠은	-16942
중생	-16943
증에	-16944
지휘	-16945
차의	-16946
천히	-16947
충돌	-16948
쿠스	-16949
크에	-16950
타노	-16951
타닉	-16952
탄의	-16953
토바	-16954
티리	-16955
판무	-16956
편의	-16957
포럼	-16958
플리	-16959
학적	-16960
행에	-16961
행이	-16962
cil	-16963
eep	-16964
lar	-16965
let	-16966
ple	-16967
ror	-16968
uck	-16969
▁er	-16970
▁fo	-16971
▁ic	-16972
▁mg	-16973
▁tg	-16974
▁가오	-16975
▁간다	-16976
▁갈망	-16977
▁감동	-16978
▁감수	-16979
▁강대	-16980
▁강탈	-16981
▁갖기	-16982
▁건에	-16983
▁격분	-16984
▁결백	-16985
▁경색	-16986
▁계승	-16987
▁고령	-16988
▁고전	-16989
▁공영	-16990
▁과실	-16991
▁관례	-16992
▁교량	-16993
▁구가	-16994
▁구소	-16995
▁구직	-16996
▁권장	-16997
▁규탄	-16998
▁그어	-16999
▁금주	-17000
▁기를	-17001
▁까다	-17002
▁꿈이	-17003
▁끝이	-17004
▁난투	-17005
▁내륙	-17006
▁내외	-17007
▁냉장	-17008
▁넘기	-17009
▁넘길	-17010
▁넘쳐	-17011
▁농림	-17012
▁뇌의	-17013
▁누워	-17014
▁다름	-17015
▁다저	-17016
▁당수	-17017
▁당직	-17018
▁대거	-17019
▁대배	-17020
▁동거	-17021
▁됐을	-17022
▁되자	-17023
▁뒤쳐	-17024
▁듣게	-17025
▁따르	-17026
▁딸은	-17027
▁라벨	-17028
▁래드	-17029
▁로게	-17030
▁리옹	-17031
▁리츠	-17032
▁마신	-17033
▁마우	-17034
▁마자	-17035
▁마테	-17036
▁만드	-17037
▁매진	-17038
▁메탄	-17039
▁명단	-17040
▁몰린	-17041
▁무언	-17042
▁무패	-17043
▁묶여	-17044
▁미만	-17045
▁미용	-17046
▁민영	-17047
▁바닷	-17048
▁바락	-17049
▁방을	-17050
▁버려	-17051
▁법이	-17052
▁변함	-17053
▁보라	-17054
▁본선	-17055
▁봤을	-17056
▁부에	-17057
▁부친	-17058
▁분개	-17059
▁불량	-17060
▁비관	-17061
▁비전	-17062
▁사교	-17063
▁사료	-17064
▁사하	-17065
▁살던	-17066
▁살된	-17067
▁상기	-17068
▁새우	-17069
▁생겼	-17070
▁서포	-17071
▁세와	-17072
▁세울	-17073
▁속도	-17074
▁속의	-17075
▁수성	-17076
▁수에	-17077
▁순조	-17078
▁슬픈	-17079
▁시급	-17080
▁시술	-17081
▁식별	-17082
▁신흥	-17083
▁십자	-17084
▁씨앗	-17085
▁아비	-17086
▁아인	-17087
▁알츠	-17088
▁양도	-17089
▁에비	-17090
▁여사	-17091
▁연일	-17092
▁열광	-17093
▁예고	-17094
▁오델	-17095
▁오찬	-17096
▁옳은	-17097
▁외설	-17098
▁원로	-17099
▁웰스	-17100
▁위배	-17101
▁의대	-17102
▁의정	-17103
▁이병	-17104
▁일광	-17105
▁일조	-17106
▁입힌	-17107
▁있으	-17108
▁자페	-17109
▁재가	-17110
▁적법	-17111
▁적의	-17112
▁전제	-17113
▁전후	-17114
▁정계	-17115
▁정복	-17116
▁제휴	-17117
▁좁혀	-17118
▁종전	-17119
▁좌석	-17120
▁주먹	-17121
▁주제	-17122
▁증오	-17123
▁지아	-17124
▁지을	-17125
▁찍어	-17126
▁체험	-17127
▁총파	-17128
▁최장	-17129
▁추운	-17130
▁취업	-17131
▁치뤄	-17132
▁친지	-17133
▁카펫	-17134
▁캐피	-17135
▁콜럼	-17136
▁크랜	-17137
▁클랩	-17138
▁클릭	-17139
▁키팅	-17140
▁타디	-17141
▁타바	-17142
▁태워	-17143
▁투병	-17144
▁트랙	-17145
▁특혜	-17146
▁파기	-17147
▁페레	-17148
▁포크	-17149
▁프랜	-17150
▁피에	-17151
▁필리	-17152
▁하우	-17153
▁한명	-17154
▁할렘	-17155
▁햇빛	-17156
▁헬렌	-17157
▁호프	-17158
▁확립	-17159
▁휘두	-17160
▁휘트	-17161
겠는가	-17162
국가로	-17163
나르도	-17164
냈지만	-17165
라리온	-17166
명령을	-17167
밀하게	-17168
버스터	-17169
부대를	-17170
비용을	-17171
비치가	-17172
소리가	-17173
스키는	-17174
시설에	-17175
위원은	-17176
일정을	-17177
자료를	-17178
자리를	-17179
자원부	-17180
장관의	-17181
장치가	-17182
총장이	-17183
평의회	-17184
할머니	-17185
행진을	-17186
협상을	-17187
호에서	-17188
화하기	-17189
book	-17190
ects	-17191
ines	-17192
lest	-17193
line	-17194
omes	-17195
ould	-17196
ures	-17197
ying	-17198
▁ces	-17199
▁chr	-17200
▁cri	-17201
▁cut	-17202
▁dar	-17203
▁gdp	-17204
▁gol	-17205
▁hit	-17206
▁ill	-17207
▁iwc	-17208
▁kbs	-17209
▁maj	-17210
▁mtv	-17211
▁pen	-17212
▁rev	-17213
▁ser	-17214
▁tak	-17215
▁ver	-17216
▁way	-17217
▁가격의	-17218
▁가까워	-17219
▁가량이	-17220
▁가져야	-17221
▁간단히	-17222
▁감소한	-17223
▁감시를	-17224
▁강원도	-17225
▁강타해	-17226
▁개월을	-17227
▁검정색	-17228
▁것이나	-17229
▁경수로	-17230
▁경제성	-17231
▁곤경에	-17232
▁공격수	-17233
▁공급할	-17234
▁공상과	-17235
▁공원에	-17236
▁공장이	-17237
▁공항이	-17238
▁굉장히	-17239
▁교과서	-17240
▁교육부	-17241
▁구성원	-17242
▁국민은	-17243
▁국방성	-17244
▁국영언	-17245
▁극도로	-17246
▁금메달	-17247
▁기술로	-17248
▁기지로	-17249
▁나아가	-17250
▁남쪽에	-17251
▁내각이	-17252
▁내리기	-17253
▁냄새가	-17254
▁넣으며	-17255
▁노력해	-17256
▁노리고	-17257
▁노벨상	-17258
▁노출된	-17259
▁놀이공	-17260
▁높았다	-17261
▁느끼게	-17262
▁느끼지	-17263
▁다리에	-17264
▁다시는	-17265
▁단백질	-17266
▁달라는	-17267
▁달성할	-17268
▁대만이	-17269
▁대처할	-17270
▁대표의	-17271
▁대하여	-17272
▁도로는	-17273
▁도왔다	-17274
▁도움의	-17275
▁되도록	-17276
▁떠나는	-17277
▁라덴의	-17278
▁로리언	-17279
▁로브는	-17280
▁마을이	-17281
▁만나게	-17282
▁만약에	-17283
▁만토바	-17284
▁말하자	-17285
▁망원경	-17286
▁맞교환	-17287
▁맞추고	-17288
▁메릴린	-17289
▁메이도	-17290
▁메트로	-17291
▁모두의	-17292
▁모습은	-17293
▁몰디브	-17294
▁무조건	-17295
▁미쳤다	-17296
▁바나프	-17297
▁박사와	-17298
▁박차를	-17299
▁받기로	-17300
▁버클리	-17301
▁번화가	-17302
▁벌였던	-17303
▁벌이며	-17304
▁범인을	-17305
▁변하지	-17306
▁병원은	-17307
▁보내며	-17308
▁보안에	-17309
▁보았다	-17310
▁볼드윈	-17311
▁부근의	-17312
▁부위에	-17313
▁부채를	-17314
▁분리된	-17315
▁불안이	-17316
▁불편을	-17317
▁블랙홀	-17318
▁블레이	-17319
▁빠지게	-17320
▁사랑과	-17321
▁사례를	-17322
▁사이먼	-17323
▁사임한	-17324
▁사장이	-17325
▁사진과	-17326
▁상승은	-17327
▁생기는	-17328
▁서서히	-17329
▁서울을	-17330
▁석방될	-17331
▁선관위	-17332
▁선물로	-17333
▁선물을	-17334
▁선보일	-17335
▁선수의	-17336
▁설명할	-17337
▁설치할	-17338
▁성명에	-17339
▁성화가	-17340
▁세골렌	-17341
▁세력과	-17342
▁세상에	-17343
▁섹시한	-17344
▁셰퍼드	-17345
▁소동을	-17346
▁소속된	-17347
▁속도가	-17348
▁솔직히	-17349
▁쇼에서	-17350
▁수년간	-17351
▁수술이	-17352
▁수십만	-17353
▁수영을	-17354
▁수위를	-17355
▁순간을	-17356
▁순식간	-17357
▁순이익	-17358
▁스타인	-17359
▁시도로	-17360
▁신뢰할	-17361
▁신문을	-17362
▁신시내	-17363
▁신중한	-17364
▁신체적	-17365
▁실적이	-17366
▁심슨의	-17367
▁심슨이	-17368
▁십자가	-17369
▁아내를	-17370
▁안았다	-17371
▁안전이	-17372
▁애도를	-17373
▁앤더슨	-17374
▁언론인	-17375
▁없다면	-17376
▁여중생	-17377
▁연기에	-17378
▁예방접	-17379
▁오르지	-17380
▁오전에	-17381
▁오페라	-17382
▁온난화	-17383
▁올라와	-17384
▁요청에	-17385
▁용기를	-17386
▁용의가	-17387
▁원인에	-17388
▁유가는	-17389
▁유지될	-17390
▁유지해	-17391
▁유태인	-17392
▁의무가	-17393
▁의식이	-17394
▁의심을	-17395
▁이견을	-17396
▁이목을	-17397
▁이익이	-17398
▁이해를	-17399
▁인류가	-17400
▁인물을	-17401
▁인수제	-17402
▁입장이	-17403
▁잇따라	-17404
▁있느냐	-17405
▁자녀가	-17406
▁자치구	-17407
▁작곡가	-17408
▁잡스는	-17409
▁재개를	-17410
▁재단은	-17411
▁잭슨이	-17412
▁적절히	-17413
▁전국에	-17414
▁정당한	-17415
▁정상은	-17416
▁정착촌	-17417
▁정찰위	-17418
▁제보를	-17419
▁제재가	-17420
▁제조한	-17421
▁제한된	-17422
▁조류독	-17423
▁조사해	-17424
▁조용한	-17425
▁종말론	-17426
▁주기로	-17427
▁주민은	-17428
▁죽음과	-17429
▁중심의	-17430
▁지냈던	-17431
▁지켰다	-17432
▁진영의	-17433
▁집권한	-17434
▁찾아야	-17435
▁천천히	-17436
▁총선은	-17437
▁출연할	-17438
▁치안을	-17439
▁친밀한	-17440
▁카드를	-17441
▁카타르	-17442
▁커플이	-17443
▁콜린스	-17444
▁쿼터백	-17445
▁탄압을	-17446
▁투자에	-17447
▁파이어	-17448
▁파티에	-17449
▁판매될	-17450
▁패배한	-17451
▁패트로	-17452
▁퍼시픽	-17453
▁폭행을	-17454
▁풍선을	-17455
▁하루가	-17456
▁하리리	-17457
▁하토야	-17458
▁학살을	-17459
▁학생을	-17460
▁학위를	-17461
▁한글판	-17462
▁한동안	-17463
▁항공모	-17464
▁행해진	-17465
▁헤드폰	-17466
▁호주에	-17467
▁확고한	-17468
▁확정된	-17469
▁획득한	-17470
▁효력을	-17471
▁후보작	-17472
▁흑인이	-17473
▁흔들며	-17474
▁흔적이	-17475
▁흥미를	-17476
▁흥분한	-17477
▁흩어져	-17478
▁희생된	-17479
▁힘들게	-17480
스테이션	-17481
시간으로	-17482
연구소의	-17483
적이지만	-17484
지대에서	-17485
iance	-17486
illed	-17487
▁acad	-17488
▁clin	-17489
▁eads	-17490
▁free	-17491
▁iran	-17492
▁irna	-17493
▁live	-17494
▁test	-17495
▁감행했다	-17496
▁개발하고	-17497
▁거래에서	-17498
▁검문소를	-17499
▁경기침체	-17500
▁고등학생	-17501
▁고르바초	-17502
▁공약으로	-17503
▁공화당이	-17504
▁관리하고	-17505
▁광장에서	-17506
▁국가들을	-17507
▁국가주석	-17508
▁국제유가	-17509
▁규정했다	-17510
▁기다렸다	-17511
▁기대된다	-17512
▁나라에서	-17513
▁나타난다	-17514
▁나토군이	-17515
▁납치했다	-17516
▁넘어섰다	-17517
▁노동조합	-17518
▁농장에서	-17519
▁다가오는	-17520
▁달러에서	-17521
▁대변인을	-17522
▁대항하는	-17523
▁돌고래가	-17524
▁들어왔다	-17525
▁들어있다	-17526
▁마련하고	-17527
▁메모리얼	-17528
▁무자비한	-17529
▁무책임한	-17530
▁문제점을	-17531
▁물리치고	-17532
▁민병대가	-17533
▁민주노동	-17534
▁반발했다	-17535
▁발견하지	-17536
▁발령했다	-17537
▁발생했을	-17538
▁방송과의	-17539
▁백악관이	-17540
▁벌였지만	-17541
▁보건부는	-17542
▁보안군이	-17543
▁본국으로	-17544
▁부양책을	-17545
▁부족하다	-17546
▁부회장은	-17547
▁불안정한	-17548
▁블레이크	-17549
▁사람이다	-17550
▁산사태가	-17551
▁상징으로	-17552
▁생물학적	-17553
▁생존자를	-17554
▁석유수출	-17555
▁설명하지	-17556
▁성장률을	-17557
▁성장률이	-17558
▁세계경제	-17559
▁세계최초	-17560
▁수도에서	-17561
▁수직착륙	-17562
▁스타디움	-17563
▁승리해야	-17564
▁시작하고	-17565
▁시작한다	-17566
▁실업률이	-17567
▁심장마비	-17568
▁아들에게	-17569
▁아프간을	-17570
▁어려움에	-17571
▁어머니의	-17572
▁엉덩이는	-17573
▁여러분이	-17574
▁연구팀이	-17575
▁예상했던	-17576
▁위태롭게	-17577
▁이동했다	-17578
▁이례적인	-17579
▁이어갔다	-17580
▁이어지고	-17581
▁이전에도	-17582
▁이해하는	-17583
▁인신매매	-17584
▁일으키고	-17585
▁자부심을	-17586
▁자신만의	-17587
▁작가조합	-17588
▁장식했다	-17589
▁적대적인	-17590
▁정부군은	-17591
▁제작했다	-17592
▁조승희가	-17593
▁죽음으로	-17594
▁준이치로	-17595
▁중국과의	-17596
▁중단해야	-17597
▁중요하게	-17598
▁지원했다	-17599
▁지적하며	-17600
▁지켜봤다	-17601
▁진행하고	-17602
▁질병통제	-17603
▁집행유예	-17604
▁처음부터	-17605
▁촬영했다	-17606
▁축하하기	-17607
▁충격적인	-17608
▁충분하지	-17609
▁친구들은	-17610
▁타이타닉	-17611
▁투표권을	-17612
▁판매량이	-17613
▁판사에게	-17614
▁퍼센트로	-17615
▁퍼센트를	-17616
▁프랑스로	-17617
▁프랑스에	-17618
▁피해자의	-17619
▁핵심적인	-17620
▁현장으로	-17621
▁확산되는	-17622
▁활주로를	-17623
▁후보였던	-17624
dition	-17625
erence	-17626
▁early	-17627
▁toeic	-17628
▁unhcr	-17629
▁years	-17630
▁구호물품을	-17631
▁국토안보부	-17632
▁근로자들이	-17633
▁기본적으로	-17634
▁다이애나의	-17635
▁마라도나는	-17636
▁모여들었다	-17637
▁무장세력과	-17638
▁바이러스의	-17639
▁받아들이고	-17640
▁법무장관은	-17641
▁법무장관이	-17642
▁북서쪽으로	-17643
▁북아일랜드	-17644
▁불러일으키	-17645
▁사무국장은	-17646
▁석방됐다고	-17647
▁선고받았다	-17648
▁시에라리온	-17649
▁시위자들을	-17650
▁심장마비로	-17651
▁알카에다에	-17652
▁암스테르담	-17653
▁약속했다고	-17654
▁어린이들은	-17655
▁여론조사에	-17656
▁왕세자비가	-17657
▁용의자들은	-17658
▁유권자들을	-17659
▁의미한다고	-17660
▁이루어지는	-17661
▁인터내셔널	-17662
▁인플루엔자	-17663
▁전달했다고	-17664
▁정치인들이	-17665
▁주식시장은	-17666
▁중심부에서	-17667
▁즉각적으로	-17668
▁지역에서도	-17669
▁지지자들의	-17670
▁최고경영자	-17671
▁콜로라도주	-17672
▁파바로티의	-17673
▁폭탄테러는	-17674
▁폭탄테러의	-17675
▁플루토늄을	-17676
▁현대자동차	-17677
▁회원국들은	-17678
위원회에서는	-17679
▁global	-17680
▁height	-17681
▁indust	-17682
▁nation	-17683
▁produc	-17684
▁progra	-17685
▁senate	-17686
▁경제학자들은	-17687
▁고속도로에서	-17688
▁공공장소에서	-17689
▁구조대원들은	-17690
▁국경지역에서	-17691
▁남부지역에서	-17692
▁말레이시아의	-17693
▁발생했습니다	-17694
▁불가능하다고	-17695
▁와인하우스는	-17696
▁우크라이나가	-17697
▁이탈리아에서	-17698
▁주식시장에서	-17699
▁준결승전에서	-17700
▁지도자들에게	-17701
▁workers	-17702
▁뉴욕상업거래소	-17703
▁리우데자네이루	-17704
▁테러리스트들이	-17705
▁japanese	-17706
km	-17707
▁꽂	-17708
▁꽉	-17709
▁늑	-17710
▁랭	-17711
▁씩	-17712
▁얇	-17713
▁젤	-17714
▁챌	-17715
▁켜	-17716
▁팻	-17717
▁흙	-17718
가며	-17719
건물	-17720
건에	-17721
공을	-17722
교섭	-17723
구성	-17724
균형	-17725
금에	-17726
기서	-17727
나요	-17728
내용	-17729
네오	-17730
농축	-17731
단계	-17732
동에	-17733
두아	-17734
뒀다	-17735
든은	-17736
란은	-17737
러코	-17738
론에	-17739
롭다	-17740
류와	-17741
르노	-17742
르모	-17743
르베	-17744
리안	-17745
린의	-17746
린첨	-17747
메일	-17748
면이	-17749
모니	-17750
민이	-17751
반은	-17752
버른	-17753
범의	-17754
벨트	-17755
병과	-17756
보관	-17757
보이	-17758
브르	-17759
빌은	-17760
사르	-17761
생의	-17762
서비	-17763
설에	-17764
섬에	-17765
세서	-17766
소인	-17767
수이	-17768
슬람	-17769
슬로	-17770
시앙	-17771
신고	-17772
씨로	-17773
압을	-17774
야에	-17775
양이	-17776
역이	-17777
열로	-17778
위와	-17779
이은	-17780
자도	-17781
자연	-17782
점인	-17783
조의	-17784
종은	-17785
중의	-17786
차에	-17787
처로	-17788
츠와	-17789
케는	-17790
코프	-17791
키마	-17792
킨은	-17793
통계	-17794
투자	-17795
티와	-17796
파는	-17797
품의	-17798
피는	-17799
하의	-17800
향의	-17801
헤딘	-17802
홍보	-17803
화할	-17804
회복	-17805
회장	-17806
효율	-17807
ada	-17808
ann	-17809
ful	-17810
per	-17811
raw	-17812
rup	-17813
ube	-17814
ump	-17815
usp	-17816
▁om	-17817
▁가방	-17818
▁갖지	-17819
▁겪는	-17820
▁견디	-17821
▁결성	-17822
▁공립	-17823
▁공헌	-17824
▁관통	-17825
▁교정	-17826
▁교훈	-17827
▁구두	-17828
▁권위	-17829
▁귀가	-17830
▁그간	-17831
▁근접	-17832
▁기내	-17833
▁깨닫	-17834
▁꼬리	-17835
▁꾸며	-17836
▁나눈	-17837
▁나도	-17838
▁나미	-17839
▁난무	-17840
▁냉소	-17841
▁넘긴	-17842
▁넣을	-17843
▁네브	-17844
▁농경	-17845
▁늘고	-17846
▁다임	-17847
▁단편	-17848
▁달링	-17849
▁대미	-17850
▁대부	-17851
▁대슐	-17852
▁도둑	-17853
▁돌고	-17854
▁두지	-17855
▁등교	-17856
▁뚫고	-17857
▁라운	-17858
▁랜디	-17859
▁루머	-17860
▁루터	-17861
▁마른	-17862
▁말씀	-17863
▁매번	-17864
▁목사	-17865
▁무작	-17866
▁뭔가	-17867
▁미라	-17868
▁밀수	-17869
▁바꾼	-17870
▁버밍	-17871
▁번식	-17872
▁법사	-17873
▁법은	-17874
▁법조	-17875
▁별칭	-17876
▁본질	-17877
▁봉투	-17878
▁부합	-17879
▁불고	-17880
▁불륜	-17881
▁비축	-17882
▁비키	-17883
▁빚을	-17884
▁뼈가	-17885
▁사안	-17886
▁산시	-17887
▁살기	-17888
▁살라	-17889
▁살레	-17890
▁상표	-17891
▁생생	-17892
▁생선	-17893
▁샤프	-17894
▁섭씨	-17895
▁성분	-17896
▁수신	-17897
▁수학	-17898
▁스머	-17899
▁슬림	-17900
▁시가	-17901
▁신년	-17902
▁신랑	-17903
▁신혼	-17904
▁싸우	-17905
▁쌓여	-17906
▁아델	-17907
▁아서	-17908
▁아타	-17909
▁안된	-17910
▁알릴	-17911
▁알메	-17912
▁압델	-17913
▁압승	-17914
▁양을	-17915
▁어스	-17916
▁어지	-17917
▁엄격	-17918
▁영사	-17919
▁예의	-17920
▁오웬	-17921
▁와코	-17922
▁완구	-17923
▁요트	-17924
▁용이	-17925
▁웃는	-17926
▁원동	-17927
▁유류	-17928
▁이룰	-17929
▁이맘	-17930
▁이모	-17931
▁이의	-17932
▁익사	-17933
▁익숙	-17934
▁일렉	-17935
▁잃어	-17936
▁자폭	-17937
▁잠들	-17938
▁장병	-17939
▁적임	-17940
▁전락	-17941
▁전한	-17942
▁정몽	-17943
▁정황	-17944
▁제레	-17945
▁조니	-17946
▁조롱	-17947
▁좋을	-17948
▁주모	-17949
▁주시	-17950
▁주와	-17951
▁주행	-17952
▁죽이	-17953
▁중유	-17954
▁중이	-17955
▁집값	-17956
▁철폐	-17957
▁청산	-17958
▁추돌	-17959
▁추억	-17960
▁추후	-17961
▁츠방	-17962
▁칸은	-17963
▁퀘벡	-17964
▁타격	-17965
▁타당	-17966
▁타워	-17967
▁탈세	-17968
▁태도	-17969
▁텐트	-17970
▁트럼	-17971
▁티켓	-17972
▁팔로	-17973
▁퍼붓	-17974
▁표본	-17975
▁풍경	-17976
▁프래	-17977
▁하노	-17978
▁하라	-17979
▁한일	-17980
▁한해	-17981
▁합쳐	-17982
▁해온	-17983
▁헤엄	-17984
▁혹등	-17985
▁환급	-17986
▁휠체	-17987
▁흉내	-17988
▁흑색	-17989
▁흔히	-17990
▁흡입	-17991
가격이	-17992
국장이	-17993
기관은	-17994
기관이	-17995
기구인	-17996
느냐는	-17997
는다면	-17998
닷컴은	-17999
당하고	-18000
당하는	-18001
때보다	-18002
랜드의	-18003
레이는	-18004
로서의	-18005
문제로	-18006
법원이	-18007
베이스	-18008
사들을	-18009
섰다고	-18010
업체에	-18011
위츠는	-18012
은행의	-18013
자였다	-18014
즈에서	-18015
치료를	-18016
타니아	-18017
편으로	-18018
해지는	-18019
행위로	-18020
회사에	-18021
회의는	-18022
ests	-18023
ters	-18024
tice	-18025
ties	-18026
▁abn	-18027
▁bel	-18028
▁bom	-18029
▁des	-18030
▁gaz	-18031
▁let	-18032
▁num	-18033
▁tsa	-18034
▁가득한	-18035
▁가정을	-18036
▁가지는	-18037
▁가지의	-18038
▁갈등을	-18039
▁개월의	-18040
▁개최를	-18041
▁거리의	-18042
▁건강검	-18043
▁결승에	-18044
▁계기로	-18045
▁공세를	-18046
▁관리인	-18047
▁광고에	-18048
▁교통부	-18049
▁교회는	-18050
▁구글은	-18051
▁구성에	-18052
▁국경에	-18053
▁국민들	-18054
▁국왕의	-18055
▁군대에	-18056
▁군사작	-18057
▁권총을	-18058
▁권했다	-18059
▁그들과	-18060
▁그레그	-18061
▁기관은	-18062
▁기록은	-18063
▁기록인	-18064
▁기록할	-18065
▁기사는	-18066
▁기숙사	-18067
▁기한을	-18068
▁나라에	-18069
▁나이키	-18070
▁내각은	-18071
▁내용도	-18072
▁노던록	-18073
▁노력은	-18074
▁노워크	-18075
▁노인성	-18076
▁논란의	-18077
▁높이기	-18078
▁높이는	-18079
▁뉴스가	-18080
▁다루고	-18081
▁다비드	-18082
▁단체로	-18083
▁대검찰	-18084
▁대사와	-18085
▁대사의	-18086
▁대체로	-18087
▁도쿄의	-18088
▁돈으로	-18089
▁돌아간	-18090
▁동결된	-18091
▁동부의	-18092
▁때때로	-18093
▁라이더	-18094
▁래드클	-18095
▁레이드	-18096
▁레이크	-18097
▁리스트	-18098
▁리투아	-18099
▁마가렛	-18100
▁마피아	-18101
▁만화를	-18102
▁매몰된	-18103
▁멜버른	-18104
▁모델이	-18105
▁모레스	-18106
▁모색할	-18107
▁모자를	-18108
▁몸집이	-18109
▁못했을	-18110
▁무력을	-18111
▁무릎을	-18112
▁문서는	-18113
▁문제도	-18114
▁문화의	-18115
▁물리적	-18116
▁물질의	-18117
▁미연방	-18118
▁미프로	-18119
▁바꾸기	-18120
▁바다위	-18121
▁바람을	-18122
▁바쿠바	-18123
▁박수를	-18124
▁반도체	-18125
▁받았을	-18126
▁방송인	-18127
▁방에서	-18128
▁배트맨	-18129
▁배후로	-18130
▁벌인다	-18131
▁법으로	-18132
▁벗어날	-18133
▁병사를	-18134
▁보고에	-18135
▁보내게	-18136
▁보안이	-18137
▁보이스	-18138
▁보트를	-18139
▁부대의	-18140
▁부문의	-18141
▁부장은	-18142
▁분노한	-18143
▁불쾌한	-18144
▁붕괴로	-18145
▁비아그	-18146
▁비정상	-18147
▁사무차	-18148
▁사업가	-18149
▁사원에	-18150
▁사형이	-18151
▁사형제	-18152
▁사회가	-18153
▁사회당	-18154
▁살리기	-18155
▁상업적	-18156
▁생산이	-18157
▁생존을	-18158
▁서한을	-18159
▁선수를	-18160
▁선수인	-18161
▁선정한	-18162
▁세력에	-18163
▁세력은	-18164
▁세우는	-18165
▁소요될	-18166
▁수천만	-18167
▁숨겨진	-18168
▁스탠리	-18169
▁승리에	-18170
▁시간당	-18171
▁시대의	-18172
▁시도가	-18173
▁시드르	-18174
▁시민권	-18175
▁시설의	-18176
▁시위의	-18177
▁시켰다	-18178
▁시행할	-18179
▁신문사	-18180
▁심리가	-18181
▁심의를	-18182
▁아래로	-18183
▁아마드	-18184
▁아스카	-18185
▁아시프	-18186
▁안보와	-18187
▁알라헴	-18188
▁압력에	-18189
▁애슐리	-18190
▁양상을	-18191
▁없으나	-18192
▁에드로	-18193
▁엘리엇	-18194
▁연계된	-18195
▁연료로	-18196
▁영향에	-18197
▁옆에서	-18198
▁오마바	-18199
▁올랐고	-18200
▁와일드	-18201
▁요금을	-18202
▁우세를	-18203
▁운동에	-18204
▁위성이	-18205
▁위협은	-18206
▁윈프리	-18207
▁유대교	-18208
▁유로에	-18209
▁유발할	-18210
▁유치를	-18211
▁은퇴를	-18212
▁의미로	-18213
▁이름과	-18214
▁이후의	-18215
▁인종적	-18216
▁일이며	-18217
▁일했던	-18218
▁임신을	-18219
▁입후보	-18220
▁자유가	-18221
▁자유당	-18222
▁작년에	-18223
▁작품상	-18224
▁잔해를	-18225
▁장착한	-18226
▁잭슨의	-18227
▁저명한	-18228
▁정당의	-18229
▁정보국	-18230
▁정했다	-18231
▁제네바	-18232
▁제안은	-18233
▁제퍼슨	-18234
▁조그만	-18235
▁조명을	-18236
▁조세프	-18237
▁조속한	-18238
▁조속히	-18239
▁조직에	-18240
▁조직원	-18241
▁졸리는	-18242
▁좋겠다	-18243
▁주권을	-18244
▁중질유	-18245
▁증가를	-18246
▁증명할	-18247
▁지구와	-18248
▁지금도	-18249
▁지었다	-18250
▁지지해	-18251
▁지출이	-18252
▁진료를	-18253
▁집권당	-18254
▁징후가	-18255
▁차에서	-18256
▁차이는	-18257
▁찾아온	-18258
▁처해질	-18259
▁청문회	-18260
▁체중을	-18261
▁체포한	-18262
▁초고속	-18263
▁최신작	-18264
▁치르게	-18265
▁침체가	-18266
▁침팬지	-18267
▁케이프	-18268
▁키스를	-18269
▁터키와	-18270
▁통합을	-18271
▁퇴진을	-18272
▁투표한	-18273
▁파견한	-18274
▁패했다	-18275
▁평양을	-18276
▁폭발한	-18277
▁폭설이	-18278
▁프란체	-18279
▁프레이	-18280
▁피그미	-18281
▁피살된	-18282
▁피해로	-18283
▁핀란드	-18284
▁하니야	-18285
▁하라고	-18286
▁하락해	-18287
▁하루를	-18288
▁학교가	-18289
▁항생제	-18290
▁행복을	-18291
▁헬만드	-18292
▁현금을	-18293
▁협박을	-18294
▁호텔은	-18295
▁화제가	-18296
▁환영을	-18297
▁환율은	-18298
▁활력을	-18299
▁회복할	-18300
▁회장을	-18301
▁회장인	-18302
드립니다	-18303
위원회를	-18304
주에서는	-18305
짐에따라	-18306
쳤습니다	-18307
현장에서	-18308
ating	-18309
ative	-18310
ities	-18311
▁appe	-18312
▁auth	-18313
▁disp	-18314
▁inde	-18315
▁king	-18316
▁left	-18317
▁list	-18318
▁poll	-18319
▁sing	-18320
▁stop	-18321
▁susp	-18322
▁강조하며	-18323
▁건물들이	-18324
▁경매에서	-18325
▁경찰서로	-18326
▁계획으로	-18327
[...]
