<pad>	0
<s>	0
</s>	0
<unk>	0
▁.	-0
▁이	-1
했다	-2
▁대	-3
▁있	-4
에서	-5
▁,	-6
▁사	-7
▁그	-8
▁지	-9
▁일	-10
▁것	-11
으로	-12
▁수	-13
▁전	-14
▁미	-15
▁가	-16
▁아	-17
▁있다	-18
▁한	-19
▁시	-20
▁주	-21
▁고	-22
▁위	-23
▁보	-24
▁경	-25
▁정	-26
▁말	-27
▁중	-28
▁인	-29
▁기	-30
▁자	-31
하고	-32
▁명	-33
하는	-34
▁부	-35
라고	-36
▁밝	-37
다고	-38
▁발	-39
▁공	-40
▁의	-41
▁년	-42
▁오	-43
▁관	-44
▁국	-45
▁밝혔	-46
▁다	-47
들이	-48
▁유	-49
들은	-50
▁여	-51
▁밝혔다	-52
▁현	-53
▁말했다	-54
▁미국	-55
▁것이	-56
▁조	-57
▁않	-58
▁비	-59
▁상	-60
▁나	-61
▁만	-62
니다	-63
▁하	-64
▁마	-65
▁제	-66
▁소	-67
▁있는	-68
▁연	-69
▁개	-70
통령	-71
▁영	-72
▁세	-73
▁모	-74
▁동	-75
▁대통령	-76
▁선	-77
▁내	-78
으며	-79
▁우	-80
▁지난	-81
었다	-82
▁월	-83
에게	-84
▁해	-85
▁무	-86
▁그는	-87
▁최	-88
▁당	-89
▁후	-90
▁스	-91
▁방	-92
▁바	-93
▁알	-94
▁예	-95
▁파	-96
▁북	-97
▁위해	-98
▁c	-99
▁t	-100
▁받	-101
▁a	-102
▁대한	-103
▁결	-104
▁도	-105
▁회	-106
▁없	-107
▁남	-108
▁에	-109
▁이라	-110
▁현지	-111
▁총	-112
▁정부	-113
▁이번	-114
▁통	-115
▁성	-116
▁구	-117
습니다	-118
▁차	-119
▁전했다	-120
지만	-121
▁반	-122
했다고	-123
▁어	-124
▁신	-125
시간	-126
▁불	-127
이다	-128
▁노	-129
적인	-130
▁대해	-131
▁포	-132
▁장	-133
하기	-134
▁거	-135
in	-136
▁현지시간	-137
▁원	-138
▁달	-139
▁생	-140
▁계	-141
▁강	-142
▁s	-143
▁프	-144
▁실	-145
▁며	-146
▁또	-147
▁이라크	-148
들을	-149
까지	-150
리는	-151
▁매	-152
▁로	-153
▁약	-154
▁폭	-155
▁경찰	-156
▁분	-157
▁사람	-158
됐다	-159
▁올	-160
들의	-161
▁서	-162
▁것으로	-163
▁감	-164
▁때	-165
▁재	-166
▁더	-167
▁명이	-168
▁안	-169
▁교	-170
▁라	-171
▁북한	-172
▁문	-173
▁요	-174
▁피	-175
▁것이라고	-176
▁진	-177
▁중국	-178
하지	-179
▁그러	-180
▁있다고	-181
▁외	-182
▁자신	-183
한다	-184
▁것을	-185
▁한국	-186
▁입	-187
▁열	-188
▁그러나	-189
▁추	-190
았다	-191
였다	-192
on	-193
re	-194
▁사망	-195
▁출	-196
▁주장	-197
적으로	-198
▁호	-199
▁많	-200
▁발생	-201
▁확	-202
▁등	-203
부터	-204
▁군	-205
▁테	-206
에는	-207
▁민	-208
인은	-209
▁행	-210
▁카	-211
▁살	-212
▁다른	-213
▁f	-214
▁명의	-215
하게	-216
▁p	-217
▁영국	-218
▁두	-219
시아	-220
▁같	-221
er	-222
▁지역	-223
▁m	-224
▁관계	-225
▁증	-226
▁투	-227
▁예정	-228
▁작	-229
▁과	-230
▁리	-231
▁배	-232
바마	-233
▁타	-234
▁목	-235
▁베	-236
▁발표	-237
▁설	-238
▁단	-239
▁오바마	-240
▁대변	-241
사는	-242
▁법	-243
리아	-244
장은	-245
▁집	-246
▁한편	-247
기를	-248
▁되	-249
▁승	-250
▁새	-251
▁이라고	-252
an	-253
▁문제	-254
▁건	-255
▁독	-256
들에게	-257
▁화	-258
ti	-259
▁n	-260
졌다	-261
▁보도	-262
▁뉴	-263
▁일본	-264
▁b	-265
▁이후	-266
▁처	-267
▁할	-268
▁관련	-269
▁못	-270
▁후보	-271
▁검	-272
▁금	-273
▁심	-274
▁평	-275
▁세계	-276
▁코	-277
다는	-278
▁버	-279
▁k	-280
▁참	-281
▁치	-282
▁판	-283
▁적	-284
에서는	-285
▁w	-286
에따	-287
자는	-288
면서	-289
▁통해	-290
▁많은	-291
▁위한	-292
▁앞	-293
▁부시	-294
▁들	-295
▁협	-296
▁크	-297
▁클	-298
▁데	-299
▁억	-300
▁언	-301
▁저	-302
▁레	-303
▁번	-304
▁체	-305
하며	-306
▁핵	-307
리고	-308
▁달러	-309
▁대통령은	-310
en	-311
스탄	-312
▁국가	-313
▁병	-314
or	-315
▁물	-316
했으며	-317
자가	-318
관은	-319
사를	-320
▁운	-321
he	-322
▁변	-323
▁가장	-324
▁합	-325
▁필	-326
라는	-327
▁테러	-328
▁학	-329
▁벌	-330
리가	-331
▁동안	-332
▁같은	-333
▁그의	-334
스트	-335
▁경제	-336
▁영화	-337
▁사건	-338
▁산	-339
▁것이다	-340
▁초	-341
▁시작	-342
▁이상	-343
▁대변인은	-344
▁양	-345
문에	-346
스는	-347
▁브	-348
▁공격	-349
▁아프	-350
▁항	-351
원의	-352
▁d	-353
된다	-354
ar	-355
le	-356
리를	-357
▁아이	-358
▁직	-359
▁은	-360
▁i	-361
▁현재	-362
자들은	-363
들과	-364
▁역	-365
▁보고	-366
▁o	-367
▁계획	-368
▁민주	-369
▁임	-370
▁연구	-371
al	-372
▁될	-373
이트	-374
▁사용	-375
▁존	-376
▁국제	-377
▁선거	-378
▁야	-379
▁인터	-380
혐의	-381
▁미군	-382
이라고	-383
▁것은	-384
▁시간	-385
▁한다	-386
▁주장했다	-387
지는	-388
▁메	-389
도록	-390
▁조사	-391
▁e	-392
▁함	-393
▁또한	-394
요일	-395
▁지지	-396
▁는	-397
하다	-398
▁최근	-399
▁돌	-400
상을	-401
▁일부	-402
▁뒤	-403
스라	-404
▁했다	-405
되는	-406
▁경기	-407
으나	-408
▁발견	-409
▁토	-410
었다고	-411
▁덧	-412
▁u	-413
▁덧붙	-414
▁혐의	-415
▁계속	-416
▁페	-417
▁시위	-418
▁특	-419
▁the	-420
▁포함	-421
▁러	-422
력을	-423
▁경우	-424
했습니다	-425
▁보도했다	-426
▁취	-427
▁사실	-428
▁여성	-429
▁덧붙였다	-430
▁및	-431
▁생각	-432
▁태	-433
▁회담	-434
▁요구	-435
▁이란	-436
스라엘	-437
▁환	-438
▁이스라엘	-439
원은	-440
▁설명	-441
했던	-442
▁않았다	-443
▁h	-444
▁표	-445
▁결정	-446
▁박	-447
라이	-448
레이	-449
▁방문	-450
▁에서	-451
자들이	-452
▁자신의	-453
▁석	-454
▁탈	-455
레스	-456
▁지도	-457
로운	-458
▁모든	-459
▁줄	-460
장을	-461
▁비난	-462
▁프로	-463
▁복	-464
리스	-465
▁몇	-466
▁당국	-467
▁라고	-468
▁종	-469
키스탄	-470
es	-471
▁게	-472
▁함께	-473
▁파키스탄	-474
니아	-475
▁당시	-476
르면	-477
▁가능	-478
▁결과	-479
▁점	-480
주의	-481
인이	-482
▁백	-483
▁활	-484
▁프랑	-485
▁g	-486
되고	-487
nn	-488
사가	-489
▁to	-490
▁음	-491
▁팔	-492
해야	-493
▁하는	-494
▁그리고	-495
▁논	-496
▁j	-497
입니다	-498
▁허	-499
▁곳	-500
보다	-501
▁때문에	-502
▁원문	-503
▁걸	-504
▁맞	-505
▁높	-506
시키	-507
원이	-508
▁대선	-509
▁수도	-510
▁인도	-511
▁온	-512
▁모두	-513
▁근	-514
▁드	-515
▁러시아	-516
▁필요	-517
▁cnn	-518
랜드	-519
회의	-520
at	-521
▁간	-522
▁채	-523
▁정치	-524
에따르면	-525
▁애	-526
▁클린	-527
is	-528
▁새로운	-529
▁지원	-530
▁예정이다	-531
▁유엔	-532
▁천	-533
▁친	-534
▁처음	-535
지를	-536
▁프랑스	-537
▁설명했다	-538
자인	-539
▁클린턴	-540
▁충	-541
▁있습니다	-542
지고	-543
▁있으며	-544
▁l	-545
▁정부는	-546
▁경찰은	-547
▁열린	-548
▁in	-549
▁사이	-550
▁숨	-551
▁갖	-552
에도	-553
▁민주당	-554
▁떨	-555
▁본	-556
▁블	-557
▁용	-558
▁알려	-559
▁피해	-560
▁사고	-561
왔다	-562
서는	-563
▁아직	-564
▁찾	-565
▁철	-566
▁기록	-567
▁케	-568
▁터	-569
▁들어	-570
ro	-571
▁기자	-572
장이	-573
▁규	-574
▁좋	-575
▁우리	-576
부는	-577
▁큰	-578
▁떨어	-579
▁유럽	-580
▁있었다	-581
▁우주	-582
▁디	-583
▁를	-584
▁뉴욕	-585
기가	-586
▁없다	-587
원회	-588
▁권	-589
안을	-590
▁담	-591
▁상황	-592
▁않았	-593
▁휴	-594
▁않는	-595
ic	-596
▁질	-597
▁플	-598
▁폭탄	-599
▁그녀	-600
▁대표	-601
▁하고	-602
치를	-603
▁대통령이	-604
▁쿠	-605
it	-606
비아	-607
되어	-608
▁김	-609
▁지난해	-610
▁합의	-611
▁않을	-612
tion	-613
▁아니	-614
▁올해	-615
▁식	-616
이스	-617
▁힐	-618
▁날	-619
▁성명	-620
▁상원의	-621
▁손	-622
▁최고	-623
▁미국의	-624
▁나타	-625
▁압	-626
▁청	-627
▁co	-628
▁국민	-629
▁준	-630
▁이에	-631
▁따	-632
기에	-633
▁무장	-634
▁와	-635
▁네	-636
▁가족	-637
화를	-638
▁of	-639
▁있을	-640
됐다고	-641
그램	-642
▁이날	-643
▁침	-644
▁광	-645
▁있었	-646
▁루	-647
▁비행	-648
부분	-649
ing	-650
▁총리는	-651
▁완	-652
▁체포	-653
▁첫	-654
▁진행	-655
▁접	-656
전을	-657
▁대학	-658
▁패	-659
하여	-660
거나	-661
이고	-662
▁정보	-663
▁속	-664
수는	-665
▁번째	-666
▁위치	-667
▁확인	-668
▁반대	-669
▁끝	-670
▁난	-671
▁부상	-672
▁이슬	-673
이며	-674
자를	-675
▁발생한	-676
▁있다는	-677
동을	-678
▁명을	-679
▁발표했다	-680
과의	-681
▁범	-682
명의	-683
성이	-684
▁받고	-685
▁순	-686
▁이미	-687
▁아프간	-688
▁총리	-689
▁공개	-690
▁대부분	-691
as	-692
ed	-693
▁다음	-694
▁소식	-695
▁잘	-696
▁폐	-697
▁트	-698
▁이는	-699
▁얻	-700
▁희	-701
스의	-702
▁다시	-703
▁만들	-704
▁각	-705
이나	-706
▁주민	-707
▁빠	-708
▁증가	-709
자의	-710
▁이용	-711
▁사람들이	-712
운데	-713
▁워	-714
▁그가	-715
에따라	-716
▁가운데	-717
▁정부가	-718
렸다	-719
▁왕	-720
하면	-721
▁누	-722
▁방송	-723
정부	-724
▁항공	-725
단체	-726
▁중단	-727
▁넘	-728
▁축	-729
▁예상	-730
▁전문	-731
▁의해	-732
원을	-733
▁주요	-734
정을	-735
▁밝혀	-736
사의	-737
타인	-738
▁프로그램	-739
성을	-740
레반	-741
▁우리는	-742
▁골	-743
하면서	-744
▁콜	-745
지역	-746
▁투표	-747
▁탈레반	-748
▁막	-749
스가	-750
▁감독	-751
▁공화	-752
▁내용	-753
▁실시	-754
간의	-755
이는	-756
▁오늘	-757
▁얼	-758
▁이슬람	-759
▁된다	-760
▁된	-761
▁외교	-762
와의	-763
▁인해	-764
▁절	-765
▁차량	-766
▁암	-767
▁여러	-768
▁납	-769
▁병원	-770
▁상태	-771
▁해결	-772
들에	-773
기사	-774
인을	-775
▁홍	-776
▁않은	-777
▁책	-778
로부터	-779
▁을	-780
무장	-781
▁머	-782
는데	-783
▁받아	-784
▁조지	-785
장에서	-786
하려	-787
▁지적	-788
▁됐다	-789
▁밀	-790
▁전쟁	-791
났다	-792
▁인터뷰	-793
▁중요	-794
▁언급	-795
▁언론	-796
▁농	-797
▁독일	-798
▁의회	-799
▁jo	-800
▁향	-801
금을	-802
▁평화	-803
▁팔레스	-804
▁급	-805
드는	-806
▁혐의로	-807
▁tv	-808
▁형	-809
ore	-810
▁이어	-811
했지만	-812
il	-813
▁돌아	-814
디오	-815
▁지금	-816
▁국방	-817
▁폭발	-818
▁대통령의	-819
▁캐	-820
스를	-821
▁re	-822
▁변호	-823
달러	-824
▁정상	-825
위원회	-826
▁도시	-827
▁잡	-828
동차	-829
▁퍼	-830
림픽	-831
▁티	-832
처럼	-833
되지	-834
ins	-835
▁단체	-836
▁원문기사	-837
▁요청	-838
대로	-839
▁학생	-840
무부	-841
▁팔레스타인	-842
기로	-843
▁촉	-844
▁살해	-845
업체	-846
▁승리	-847
▁위치한	-848
▁매우	-849
▁헤	-850
▁있어	-851
▁인터넷	-852
ent	-853
▁데이	-854
▁개월	-855
▁우려	-856
보기	-857
▁악	-858
자로	-859
▁연방	-860
▁호주	-861
▁제공	-862
관이	-863
▁브라	-864
▁석방	-865
▁이유	-866
▁받았다	-867
▁죽	-868
▁공화당	-869
가는	-870
▁매케	-871
▁상승	-872
▁이를	-873
▁없는	-874
▁금융	-875
ou	-876
▁관리	-877
▁이들	-878
▁탄	-879
▁강조	-880
도로	-881
ra	-882
▁편	-883
▁소속	-884
▁추가	-885
사태	-886
▁당선	-887
▁판매	-888
▁?	-889
▁방법	-890
▁참석	-891
▁한다고	-892
▁개발	-893
▁남부	-894
▁마이	-895
▁km	-896
▁떠	-897
임을	-898
▁사실을	-899
수가	-900
▁성공	-901
리카	-902
▁사진	-903
겠다고	-904
▁서울	-905
▁볼	-906
▁모습	-907
▁않고	-908
▁키	-909
▁힘	-910
했고	-911
한다고	-912
기는	-913
되었다	-914
격을	-915
▁맥	-916
스터	-917
▁자동차	-918
▁여행	-919
▁위협	-920
명이	-921
▁개의	-922
▁보여	-923
▁협상	-924
▁베이	-925
▁생산	-926
▁터키	-927
리포	-928
▁관계자는	-929
▁긴	-930
▁기술	-931
▁군사	-932
테러	-933
▁하락	-934
▁어떤	-935
▁joins	-936
냈다	-937
▁쓰	-938
▁구조	-939
▁용의	-940
▁지적했다	-941
▁측	-942
▁그들은	-943
▁올림픽	-944
전에	-945
▁인질	-946
▁하나	-947
자들을	-948
이지	-949
장에	-950
▁위험	-951
▁주지	-952
▁인근	-953
▁명은	-954
▁전문가	-955
▁원문기사보기	-956
▁보안	-957
▁보호	-958
▁사무	-959
▁인정	-960
르는	-961
이었다	-962
되었	-963
업을	-964
▁일어	-965
▁회사	-966
에서의	-967
▁당국은	-968
▁과학	-969
▁ap	-970
▁정책	-971
▁크리스	-972
▁하지	-973
▁이라며	-974
력이	-975
▁반군	-976
▁최소	-977
▁영향	-978
리에	-979
▁보인	-980
▁백악	-981
▁잠	-982
▁없다고	-983
ation	-984
▁검찰	-985
ec	-986
▁폴	-987
▁납치	-988
권을	-989
▁커	-990
치는	-991
▁외국	-992
▁받은	-993
id	-994
센터	-995
▁경고	-996
▁어린	-997
▁준비	-998
인의	-999
▁하지만	-1000
있는	-1001
의를	-1002
tic	-1003
▁관광	-1004
부를	-1005
▁건물	-1006
▁으로	-1007
▁북한이	-1008
▁자유	-1009
▁공식	-1010
▁선수	-1011
▁의원	-1012
▁이와	-1013
▁노동	-1014
▁몰	-1015
▁컴	-1016
얀마	-1017
▁이름	-1018
▁제작	-1019
th	-1020
▁ar	-1021
ig	-1022
대를	-1023
했으나	-1024
▁미얀마	-1025
지에	-1026
회담	-1027
▁안전	-1028
하기로	-1029
음을	-1030
▁지구	-1031
▁오후	-1032
했었다	-1033
▁북한의	-1034
명을	-1035
식을	-1036
▁있던	-1037
샤라	-1038
▁것에	-1039
▁공항	-1040
▁마지	-1041
▁받았	-1042
▁an	-1043
▁웹	-1044
▁니	-1045
다드	-1046
▁나는	-1047
▁자살	-1048
싱턴	-1049
▁도착	-1050
▁은행	-1051
▁극	-1052
▁고위	-1053
▁바그	-1054
▁엘	-1055
▁차례	-1056
▁런	-1057
선을	-1058
인트	-1059
▁아시아	-1060
▁보고서	-1061
▁팀	-1062
▁여론	-1063
▁kore	-1064
▁건강	-1065
▁힐러	-1066
▁사회	-1067
▁길	-1068
▁스타	-1069
▁경찰이	-1070
▁인터뷰에서	-1071
▁착	-1072
▁년간	-1073
▁노력	-1074
▁격	-1075
퓨터	-1076
도를	-1077
신은	-1078
▁런던	-1079
▁스페	-1080
▁워싱턴	-1081
st	-1082
▁푸	-1083
▁알카	-1084
▁시민	-1085
▁이러	-1086
▁학교	-1087
▁미국이	-1088
회견	-1089
▁com	-1090
▁앞으로	-1091
▁컴퓨터	-1092
은행	-1093
▁이러한	-1094
▁바그다드	-1095
시켰	-1096
▁치료	-1097
ac	-1098
▁사태	-1099
▁싶	-1100
▁갖고	-1101
▁미국은	-1102
▁정부의	-1103
▁창	-1104
리의	-1105
문을	-1106
▁앞서	-1107
▁밖	-1108
▁동물	-1109
▁마지막	-1110
▁있도록	-1111
▁북부	-1112
▁오는	-1113
▁조직	-1114
▁거래	-1115
나라	-1116
▁촉구	-1117
▁for	-1118
었던	-1119
▁그녀는	-1120
ur	-1121
▁면	-1122
하는데	-1123
▁가진	-1124
▁인쇄	-1125
▁떨어진	-1126
▁강조했다	-1127
지가	-1128
위를	-1129
지지	-1130
▁목표	-1131
씨는	-1132
▁도움	-1133
▁연합	-1134
et	-1135
▁윌	-1136
▁이탈	-1137
세를	-1138
자와	-1139
▁st	-1140
▁빌	-1141
▁놓	-1142
ad	-1143
▁알카에	-1144
수를	-1145
▁발언	-1146
▁연설	-1147
▁기자회견	-1148
▁수상	-1149
▁공동	-1150
▁기업	-1151
하다고	-1152
▁돈	-1153
▁잃	-1154
▁독해	-1155
▁비난했다	-1156
▁r	-1157
▁거부	-1158
▁거의	-1159
▁야당	-1160
▁유명	-1161
▁백악관	-1162
▁장관은	-1163
▁빈	-1164
있다	-1165
▁규모	-1166
▁자신이	-1167
▁혼	-1168
▁결혼	-1169
▁버락	-1170
▁느	-1171
장의	-1172
조사	-1173
▁민간	-1174
▁오전	-1175
▁활동	-1176
▁처음으로	-1177
bc	-1178
사일	-1179
▁논의	-1180
▁슈	-1181
▁출신	-1182
▁가격	-1183
▁국경	-1184
▁불법	-1185
▁차지	-1186
에서도	-1187
▁헬	-1188
▁까지	-1189
▁최대	-1190
리포니아	-1191
ol	-1192
▁삼	-1193
▁캘	-1194
설명	-1195
회를	-1196
▁소비	-1197
같은	-1198
▁경쟁	-1199
▁수감	-1200
▁재판	-1201
했다는	-1202
▁남아	-1203
▁불구	-1204
▁타임	-1205
▁판결	-1206
▁눈	-1207
▁지난달	-1208
▁독해설명	-1209
▁사람들은	-1210
▁금지	-1211
하도록	-1212
동안	-1213
▁수백	-1214
▁이전	-1215
▁충돌	-1216
▁투자	-1217
됐으며	-1218
▁이들은	-1219
▁밤	-1220
기도	-1221
▁부인	-1222
▁환경	-1223
▁헌	-1224
전히	-1225
▁이탈리아	-1226
▁그것	-1227
샤라프	-1228
▁오바마는	-1229
▁보내	-1230
▁좋은	-1231
자들의	-1232
으로부터	-1233
니스탄	-1234
▁무샤라프	-1235
▁샤	-1236
▁다이	-1237
▁라이	-1238
▁사우	-1239
▁심각	-1240
▁베이징	-1241
▁즉	-1242
마스	-1243
심을	-1244
▁관한	-1245
▁희생	-1246
인들이	-1247
▁있지만	-1248
▁북한은	-1249
▁알카에다	-1250
▁un	-1251
▁참가	-1252
▁출연	-1253
▁통과	-1254
▁캘리포니아	-1255
쳤다	-1256
▁많이	-1257
▁밝히	-1258
▁아무	-1259
▁호텔	-1260
사이트	-1261
▁만에	-1262
▁부족	-1263
합니다	-1264
들도	-1265
▁이곳	-1266
▁이런	-1267
▁폭력	-1268
▁이상의	-1269
사인	-1270
센트	-1271
▁운영	-1272
▁않는다	-1273
▁공급	-1274
▁주둔	-1275
un	-1276
군이	-1277
▁콘	-1278
▁참여	-1279
▁유지	-1280
▁친구	-1281
했을	-1282
▁움	-1283
대가	-1284
▁미사일	-1285
▁늘	-1286
제를	-1287
▁약속	-1288
▁역사	-1289
▁전망	-1290
▁하루	-1291
▁보인다	-1292
군은	-1293
▁지방	-1294
el	-1295
▁귀	-1296
▁그를	-1297
▁못했다	-1298
규모	-1299
▁감소	-1300
▁범죄	-1301
▁문제를	-1302
▁없이	-1303
▁코리아	-1304
am	-1305
스타	-1306
▁사망했다	-1307
▁몸	-1308
대한	-1309
세계	-1310
▁동영	-1311
가니스탄	-1312
▁우승	-1313
▁어린이	-1314
▁엄	-1315
▁대상	-1316
▁중요한	-1317
치가	-1318
▁수사	-1319
▁아프가니스탄	-1320
▁바이	-1321
안에	-1322
국의	-1323
니는	-1324
▁최초	-1325
▁artic	-1326
▁구성	-1327
▁이루	-1328
▁지진	-1329
▁article	-1330
감을	-1331
나는	-1332
▁낮	-1333
▁너	-1334
▁정도	-1335
졌다고	-1336
▁미국과	-1337
ss	-1338
라도	-1339
베이	-1340
원들이	-1341
▁박사는	-1342
▁회담을	-1343
드의	-1344
▁갈	-1345
▁움직	-1346
▁징	-1347
▁이야	-1348
▁포인트	-1349
▁보다	-1350
▁가자	-1351
▁변화	-1352
▁불구하고	-1353
▁알려졌다	-1354
▁웹사이트	-1355
▁앤	-1356
▁대의	-1357
자들에게	-1358
▁응	-1359
어진	-1360
▁독립	-1361
▁공격을	-1362
▁봉	-1363
▁기대	-1364
▁일으	-1365
▁놀	-1366
▁스페인	-1367
▁말했습니다	-1368
가를	-1369
르코	-1370
▁맡	-1371
▁반면	-1372
▁아버	-1373
▁장관	-1374
▁특별	-1375
사회	-1376
▁인용	-1377
▁것입니다	-1378
트는	-1379
▁남성	-1380
▁역할	-1381
▁전투	-1382
원들은	-1383
▁딸	-1384
원에	-1385
▁부토	-1386
▁유권	-1387
▁폐쇄	-1388
▁힐러리	-1389
▁퇴	-1390
하자	-1391
▁대사	-1392
▁짐	-1393
▁성명을	-1394
하던	-1395
▁가지	-1396
▁직접	-1397
후보	-1398
▁서비	-1399
리에서	-1400
▁사망한	-1401
▁쇼	-1402
▁안보	-1403
▁전에	-1404
▁기소	-1405
▁회의	-1406
▁것이라는	-1407
▁말을	-1408
▁확실	-1409
ay	-1410
▁웨	-1411
▁칼	-1412
가가	-1413
주는	-1414
▁내려	-1415
▁맨	-1416
리다	-1417
사전	-1418
▁마을	-1419
▁목격	-1420
나라당	-1421
기구	-1422
부가	-1423
▁발사	-1424
▁세의	-1425
▁업	-1426
▁이것	-1427
▁사망했다고	-1428
▁글	-1429
ia	-1430
▁별	-1431
▁펼	-1432
기의	-1433
대의	-1434
▁ch	-1435
▁나라	-1436
▁신문	-1437
▁추정	-1438
▁통신	-1439
▁조치를	-1440
▁한나라당	-1441
계를	-1442
즈는	-1443
▁강화	-1444
▁높은	-1445
▁알고	-1446
▁데이비	-1447
▁모습을	-1448
▁대통령과	-1449
▁발생했다	-1450
스템	-1451
▁어려	-1452
▁콜롬	-1453
▁전세계	-1454
서를	-1455
▁기상	-1456
▁담당	-1457
▁지난주	-1458
▁레바	-1459
▁의하면	-1460
▁가능성이	-1461
▁엔	-1462
▁기간	-1463
▁강력	-1464
▁경선	-1465
▁년에	-1466
▁의견	-1467
▁인권	-1468
인들은	-1469
▁뿐	-1470
▁la	-1471
▁운동	-1472
▁혐의를	-1473
▁성명에서	-1474
▁황	-1475
국은	-1476
물을	-1477
▁이제	-1478
▁중심	-1479
▁지나	-1480
▁행사	-1481
▁확보	-1482
▁지역에서	-1483
▁뜻	-1484
▁캠	-1485
였던	-1486
▁개인	-1487
▁더욱	-1488
▁전체	-1489
▁플로	-1490
원에서	-1491
▁레바논	-1492
이가	-1493
▁되는	-1494
▁석유	-1495
▁인한	-1496
▁일반	-1497
▁주택	-1498
적이	-1499
ter	-1500
▁것이며	-1501
om	-1502
라인	-1503
해서	-1504
▁소유	-1505
▁중국의	-1506
하겠다고	-1507
▁팬	-1508
▁개최	-1509
▁과정	-1510
▁수천	-1511
회에서	-1512
▁중앙	-1513
▁계획을	-1514
▁총리가	-1515
▁믿	-1516
▁문제가	-1517
▁아침	-1518
▁화재	-1519
▁지역에	-1520
시킬	-1521
▁의료	-1522
▁않았다고	-1523
▁도로	-1524
▁이뤄	-1525
▁필요한	-1526
대는	-1527
베트	-1528
측은	-1529
▁때문	-1530
▁마련	-1531
▁핵무	-1532
▁매케인	-1533
▁입장을	-1534
ts	-1535
대에	-1536
▁us	-1537
▁어제	-1538
▁위원	-1539
▁겪	-1540
훈련	-1541
▁일간	-1542
▁아니다	-1543
자들	-1544
▁분석	-1545
▁일을	-1546
us	-1547
▁히	-1548
슨은	-1549
시코	-1550
▁건설	-1551
▁사르코	-1552
갔다	-1553
두고	-1554
▁윌리	-1555
▁v	-1556
머니	-1557
스와	-1558
▁남북	-1559
▁내년	-1560
▁너무	-1561
▁먹	-1562
▁eu	-1563
ce	-1564
드가	-1565
라마	-1566
시켰다	-1567
애나	-1568
▁남편	-1569
▁레이	-1570
▁시도	-1571
▁영향을	-1572
트를	-1573
▁실종	-1574
▁관련된	-1575
▁만달러	-1576
▁폭탄테러	-1577
리자	-1578
소를	-1579
▁여객	-1580
▁있고	-1581
멕시코	-1582
부의	-1583
▁결국	-1584
▁타이	-1585
▁해외	-1586
전에서	-1587
▁티베트	-1588
▁거주	-1589
▁남자	-1590
▁생활	-1591
▁여자	-1592
▁증거	-1593
▁한국의	-1594
▁콜롬비아	-1595
▁기자회견에서	-1596
▁교육	-1597
▁노무	-1598
▁선택	-1599
▁없었다	-1600
▁울	-1601
▁잔	-1602
▁ne	-1603
▁연기	-1604
▁con	-1605
▁풀	-1606
▁효	-1607
▁선고	-1608
▁선언	-1609
▁받을	-1610
▁수행	-1611
▁제조	-1612
▁타고	-1613
었으며	-1614
▁브라운	-1615
▁있었다고	-1616
드리	-1617
품을	-1618
▁노무현	-1619
▁korea	-1620
▁육	-1621
너지	-1622
▁올라	-1623
▁재개	-1624
한다는	-1625
▁and	-1626
스카	-1627
전이	-1628
▁시설	-1629
사와	-1630
▁문제에	-1631
는지	-1632
이자	-1633
지구	-1634
▁또는	-1635
▁아마	-1636
▁일이	-1637
라이나	-1638
▁우리가	-1639
▁탑	-1640
▁산업	-1641
▁어떻	-1642
▁주변	-1643
▁소식통	-1644
▁둘	-1645
▁망	-1646
스크	-1647
▁얼마	-1648
▁이동	-1649
▁비용	-1650
▁시장	-1651
▁프리	-1652
어가	-1653
▁역시	-1654
▁주식	-1655
네시아	-1656
▁년까지	-1657
▁했다고	-1658
▁끌	-1659
▁나오	-1660
▁사상	-1661
▁사건에	-1662
텍사	-1663
▁드러	-1664
▁사람이	-1665
▁어떻게	-1666
▁익	-1667
무를	-1668
▁게임	-1669
▁수준	-1670
▁행동	-1671
▁열리는	-1672
▁조사를	-1673
ri	-1674
▁즐	-1675
스에	-1676
▁그렇	-1677
▁음악	-1678
▁제안	-1679
▁해안	-1680
▁이유로	-1681
▁지도자	-1682
▁뇌	-1683
신을	-1684
제로	-1685
하이	-1686
▁비상	-1687
▁관광객	-1688
▁동영상	-1689
▁찾아	-1690
▁총선	-1691
ve	-1692
▁곧	-1693
국이	-1694
ver	-1695
▁탐	-1696
버트	-1697
▁de	-1698
▁이끌	-1699
▁책임	-1700
▁시스템	-1701
▁아프리카	-1702
▁찬	-1703
랐다	-1704
▁감염	-1705
▁의미	-1706
▁제기	-1707
▁화요일	-1708
▁인도네시아	-1709
▁자금	-1710
▁철수	-1711
▁피해를	-1712
▁플로리다	-1713
ow	-1714
▁샌	-1715
▁라는	-1716
▁라이스	-1717
▁정보를	-1718
▁붙	-1719
▁on	-1720
▁바로	-1721
▁출전	-1722
▁훈련	-1723
▁멕시코	-1724
만에	-1725
▁펜	-1726
스코	-1727
이를	-1728
▁내가	-1729
▁전달	-1730
▁회복	-1731
▁휴대	-1732
▁비디오	-1733
는다	-1734
스로	-1735
▁있게	-1736
▁말하는	-1737
▁예정이라고	-1738
▁전문가들은	-1739
점을	-1740
▁구호	-1741
▁스티	-1742
▁왔다	-1743
▁제출	-1744
▁중동	-1745
쪽으로	-1746
▁윌리엄	-1747
▁자신들의	-1748
가지	-1749
베스	-1750
정에	-1751
▁베네	-1752
▁대선후보	-1753
술을	-1754
▁배우	-1755
약을	-1756
학교	-1757
▁인구	-1758
▁대신	-1759
▁답	-1760
▁기념	-1761
▁년대	-1762
▁따라	-1763
▁수십	-1764
▁부상을	-1765
▁정치적	-1766
무장관은	-1767
당의	-1768
프는	-1769
▁제재	-1770
▁텍사	-1771
▁데이비드	-1772
세력	-1773
▁국영	-1774
▁불가	-1775
▁실패	-1776
▁행위	-1777
겠다는	-1778
▁대규모	-1779
▁보였다	-1780
ap	-1781
oc	-1782
ut	-1783
▁as	-1784
▁사업	-1785
▁달러를	-1786
료를	-1787
▁헌법	-1788
도가	-1789
촬영	-1790
▁주말	-1791
소에서	-1792
ir	-1793
리트	-1794
치고	-1795
▁사라	-1796
▁추락	-1797
였다고	-1798
▁시작했다	-1799
▁흑	-1800
▁부분	-1801
▁저장	-1802
▁파괴	-1803
▁그들의	-1804
▁위원회	-1805
당한	-1806
부에	-1807
▁약어	-1808
▁월에	-1809
▁전화	-1810
▁특히	-1811
▁상원의원	-1812
드로	-1813
▁교통	-1814
▁부모	-1815
▁부정	-1816
▁제시	-1817
하려는	-1818
▁대피	-1819
▁보건	-1820
▁시아	-1821
▁사우디	-1822
▁앞두고	-1823
▁약어표	-1824
드를	-1825
수지	-1826
어를	-1827
▁비롯	-1828
▁에너지	-1829
▁이같은	-1830
▁대부분의	-1831
▁사망하고	-1832
만을	-1833
스러	-1834
스턴	-1835
▁명과	-1836
▁무기	-1837
▁수용	-1838
▁정확	-1839
▁지속	-1840
▁심각한	-1841
▁아니라	-1842
었습니다	-1843
▁벨	-1844
▁감시	-1845
▁관할	-1846
▁국내	-1847
▁주도	-1848
▁송	-1849
▁싸	-1850
▁다우	-1851
▁수단	-1852
▁억달러	-1853
▁포함한	-1854
군의	-1855
나다	-1856
▁고려	-1857
▁사과	-1858
▁아닌	-1859
▁에이	-1860
▁작업	-1861
▁촬영	-1862
▁희망	-1863
▁있었던	-1864
ge	-1865
▁돼	-1866
▁앨	-1867
프트	-1868
행을	-1869
▁가까	-1870
▁교수는	-1871
▁미국인	-1872
▁던	-1873
수로	-1874
피언	-1875
▁그런	-1876
▁비판	-1877
▁조치	-1878
▁포기	-1879
으로써	-1880
▁그들이	-1881
▁만들어	-1882
▁의원은	-1883
▁이상이	-1884
바이	-1885
▁살고	-1886
▁전국	-1887
▁중인	-1888
▁사망자	-1889
▁붕	-1890
사에	-1891
연합	-1892
트로	-1893
▁전해	-1894
▁협력	-1895
ta	-1896
으면	-1897
폭탄	-1898
▁지명	-1899
▁라디오	-1900
▁가자지구	-1901
섰다	-1902
성에	-1903
형을	-1904
▁억원	-1905
▁입은	-1906
▁장면	-1907
▁가지고	-1908
▁것이라	-1909
▁지원을	-1910
▁한국인	-1911
신이	-1912
▁메시	-1913
▁수입	-1914
▁작은	-1915
▁직원	-1916
▁축구	-1917
▁탑승	-1918
▁홍콩	-1919
▁로버트	-1920
▁부통령	-1921
만이	-1922
안이	-1923
▁토론	-1924
▁여전히	-1925
ment	-1926
▁달러의	-1927
▁역할을	-1928
▁퍼센트	-1929
▁벗	-1930
실을	-1931
위원	-1932
▁교도	-1933
▁만나	-1934
▁않다	-1935
▁의사	-1936
▁월요일	-1937
르고	-1938
움을	-1939
회에	-1940
▁안에	-1941
▁태국	-1942
▁당국이	-1943
▁마이클	-1944
고를	-1945
인지	-1946
정한	-1947
▁과거	-1948
▁붕괴	-1949
▁열차	-1950
▁전시	-1951
▁최종	-1952
▁푸틴	-1953
um	-1954
▁젊	-1955
바브	-1956
▁운전	-1957
바브웨	-1958
▁일본의	-1959
▁지역의	-1960
▁pro	-1961
▁경기를	-1962
▁온라인	-1963
▁이루어	-1964
▁생각한다	-1965
▁먼	-1966
▁챔	-1967
겠다	-1968
리그	-1969
시켜	-1970
and	-1971
▁le	-1972
▁시험	-1973
시키는	-1974
ot	-1975
▁좌	-1976
단은	-1977
들로	-1978
리노	-1979
성은	-1980
▁기다	-1981
▁스미	-1982
▁승객	-1983
이라는	-1984
▁나타났다	-1985
▁되어	-1986
▁월드	-1987
▁증시	-1988
▁브라질	-1989
▁경기에서	-1990
ate	-1991
▁결의	-1992
▁난민	-1993
무장관	-1994
▁말한다	-1995
▁짐바브웨	-1996
op	-1997
▁씨	-1998
▁휘	-1999
▁저지	-2000
장으로	-2001
▁관계자가	-2002
▁촉구했다	-2003
보는	-2004
소에	-2005
▁be	-2006
▁없을	-2007
ch	-2008
▁빨	-2009
▁풍	-2010
대표	-2011
시설	-2012
어들	-2013
▁국립	-2014
▁만원	-2015
▁밝힌	-2016
▁국무부	-2017
▁겨	-2018
ers	-2019
▁살아	-2020
▁생존	-2021
▁서로	-2022
▁아르	-2023
▁확산	-2024
리스트	-2025
스에서	-2026
▁y	-2027
▁녹	-2028
▁섬	-2029
버그	-2030
▁다양	-2031
▁만약	-2032
▁암살	-2033
▁오른	-2034
▁정권	-2035
▁후보가	-2036
im	-2037
▁슬	-2038
란드	-2039
▁비해	-2040
▁설치	-2041
▁성장	-2042
▁수색	-2043
▁정신	-2044
▁자회담	-2045
▁뛰	-2046
운드	-2047
ion	-2048
▁결승	-2049
▁그린	-2050
▁동료	-2051
▁동맹	-2052
▁반응	-2053
▁승인	-2054
▁식량	-2055
▁제한	-2056
▁하기	-2057
▁발표한	-2058
▁챔피언	-2059
방송	-2060
운티	-2061
▁구속	-2062
▁상원	-2063
▁수는	-2064
▁회원	-2065
▁민간인	-2066
▁캐나다	-2067
▁한다는	-2068
▁곤	-2069
▁낙	-2070
▁무엇	-2071
▁전통	-2072
▁제품	-2073
▁충분	-2074
▁케냐	-2075
▁경고했다	-2076
▁요구했다	-2077
수의	-2078
해를	-2079
▁심장	-2080
▁정당	-2081
▁항의	-2082
▁시위를	-2083
지의	-2084
▁th	-2085
▁사랑	-2086
▁사임	-2087
▁업체	-2088
▁외국인	-2089
▁밝혀졌다	-2090
▁칸	-2091
단을	-2092
ill	-2093
▁선정	-2094
▁소송	-2095
▁수가	-2096
▁수출	-2097
▁시즌	-2098
▁지불	-2099
▁진압	-2100
▁클린턴은	-2101
▁흔	-2102
운동	-2103
중인	-2104
▁가져	-2105
▁같이	-2106
▁발전	-2107
▁보수	-2108
▁신용	-2109
▁실험	-2110
▁치러	-2111
▁이름을	-2112
▁프라이	-2113
일을	-2114
장인	-2115
▁is	-2116
▁공연	-2117
▁소방	-2118
▁페르	-2119
▁평가	-2120
▁활동을	-2121
▁미국에서	-2122
▁싱	-2123
시킨	-2124
이프	-2125
▁니콜	-2126
▁대법	-2127
▁병사	-2128
▁위반	-2129
▁취임	-2130
▁관계를	-2131
▁사무총	-2132
▁여론조사	-2133
려는	-2134
어나	-2135
igh	-2136
▁경험	-2137
▁명령	-2138
▁분명	-2139
▁여름	-2140
▁종교	-2141
▁지하	-2142
하거나	-2143
▁결과를	-2144
▁내용을	-2145
▁상황을	-2146
▁시아파	-2147
▁중국은	-2148
▁핵무기	-2149
▁견	-2150
▁넣	-2151
어는	-2152
지로	-2153
▁것과	-2154
▁그래	-2155
▁다르	-2156
▁알리	-2157
▁에드	-2158
▁추진	-2159
인인	-2160
일한	-2161
책을	-2162
▁사령	-2163
시키고	-2164
▁년부터	-2165
▁대변인이	-2166
▁이라크에서	-2167
▁홀	-2168
안은	-2169
▁ac	-2170
▁각각	-2171
▁선출	-2172
▁수석	-2173
▁임명	-2174
▁젊은	-2175
▁접근	-2176
▁평균	-2177
하지만	-2178
▁감독은	-2179
▁프로그램을	-2180
ak	-2181
▁왔	-2182
▁무역	-2183
▁있기	-2184
▁전반	-2185
▁경찰에	-2186
bs	-2187
▁벤	-2188
르트	-2189
리와	-2190
▁문화	-2191
▁비밀	-2192
▁성폭	-2193
▁스피	-2194
▁않아	-2195
▁취소	-2196
관을	-2197
리케	-2198
ist	-2199
▁교황	-2200
▁동의	-2201
▁센터	-2202
▁총격	-2203
지니아	-2204
▁pre	-2205
▁사건을	-2206
▁이수지	-2207
▁상원의원은	-2208
▁쉽	-2209
됐던	-2210
▁구제	-2211
▁소녀	-2212
▁장기	-2213
▁행정부	-2214
▁대통령을	-2215
거래	-2216
상이	-2217
스럽	-2218
정이	-2219
지도	-2220
▁나온	-2221
▁마무	-2222
▁밖에	-2223
▁벌어	-2224
▁아메	-2225
▁악화	-2226
▁통제	-2227
▁관심을	-2228
▁사건이	-2229
▁지지를	-2230
이로	-2231
장과	-2232
▁게이	-2233
▁동부	-2234
▁사는	-2235
▁파병	-2236
▁국회의	-2237
▁그녀의	-2238
de	-2239
사건	-2240
오는	-2241
▁걸쳐	-2242
▁나토	-2243
▁단계	-2244
▁받는	-2245
▁연료	-2246
▁작품	-2247
장관은	-2248
▁시리아	-2249
▁후보는	-2250
▁과정에서	-2251
▁왜	-2252
가로	-2253
엘라	-2254
▁돈을	-2255
▁마감	-2256
▁후세	-2257
▁검색	-2258
▁대중	-2259
▁미래	-2260
▁상대	-2261
▁설립	-2262
▁아내	-2263
관계	-2264
리핀	-2265
▁그룹	-2266
▁뉴스	-2267
▁시카	-2268
▁지켜	-2269
▁집중	-2270
지에서	-2271
▁사이에	-2272
되기	-2273
었고	-2274
적을	-2275
▁대비	-2276
▁바란	-2277
▁보유	-2278
▁중에	-2279
▁파견	-2280
▁비행기	-2281
▁잉	-2282
▁개혁	-2283
▁북핵	-2284
▁유죄	-2285
▁주재	-2286
▁허용	-2287
무부는	-2288
▁경찰서	-2289
▁대상으로	-2290
니스	-2291
로는	-2292
리우	-2293
소의	-2294
▁개선	-2295
▁경영	-2296
▁논쟁	-2297
▁뜻을	-2298
▁사퇴	-2299
▁온몸	-2300
▁이집	-2301
▁일에	-2302
▁수요일	-2303
▁일까지	-2304
▁대해서는	-2305
▁되고	-2306
▁로켓	-2307
▁혼란	-2308
▁어머니	-2309
▁관계자들은	-2310
앞서	-2311
▁동성	-2312
▁바이러	-2313
▁북한에	-2314
▁정부에	-2315
▁옮	-2316
명박	-2317
▁구매	-2318
▁대응	-2319
▁배치	-2320
▁살인	-2321
▁야후	-2322
▁일자	-2323
▁해리	-2324
▁환영	-2325
시키기	-2326
캐스터	-2327
▁베네수	-2328
▁시카고	-2329
▁알려진	-2330
▁총리의	-2331
▁텍사스	-2332
▁사람들을	-2333
▁이에앞서	-2334
se	-2335
▁홈	-2336
진이	-2337
▁공습	-2338
▁블로	-2339
▁조건	-2340
대통령	-2341
자들과	-2342
▁new	-2343
▁상대로	-2344
▁이명박	-2345
▁온몸으로	-2346
▁흥	-2347
나지	-2348
진을	-2349
회는	-2350
▁남한	-2351
▁등의	-2352
▁이해	-2353
▁인간	-2354
▁점을	-2355
▁해야	-2356
▁승리를	-2357
▁변호사는	-2358
▁기상캐스터	-2359
▁깨	-2360
▁찰	-2361
끄는	-2362
비를	-2363
어도	-2364
학생	-2365
▁넘어	-2366
▁로마	-2367
▁서부	-2368
▁이래	-2369
▁이로	-2370
▁좋아	-2371
▁발견된	-2372
▁벌이고	-2373
▁갑	-2374
단이	-2375
도의	-2376
메라	-2377
▁마리	-2378
▁유로	-2379
▁자녀	-2380
▁전역	-2381
▁표현	-2382
▁민주주의	-2383
▁아직까지	-2384
관리	-2385
▁두고	-2386
▁사형	-2387
▁선포	-2388
▁임시	-2389
▁사실이	-2390
▁기록했다	-2391
if	-2392
▁십	-2393
기와	-2394
물이	-2395
워드	-2396
트의	-2397
▁양국	-2398
▁크게	-2399
▁사람은	-2400
▁사이트	-2401
리지	-2402
회가	-2403
▁at	-2404
▁강한	-2405
▁아랍	-2406
▁위를	-2407
▁적이	-2408
▁때까지	-2409
▁합니다	-2410
▁밝혔습니다	-2411
▁상원의원이	-2412
▁깊	-2413
산을	-2414
▁고용	-2415
▁고통	-2416
▁복귀	-2417
▁신화	-2418
졌으며	-2419
▁마이크	-2420
▁벌였다	-2421
uc	-2422
번째	-2423
우주	-2424
asa	-2425
▁누구	-2426
▁자체	-2427
▁결정을	-2428
▁받아들	-2429
▁일부터	-2430
▁폭력사태	-2431
bi	-2432
지인	-2433
▁모델	-2434
▁분쟁	-2435
▁인수	-2436
▁재정	-2437
▁쿠바	-2438
▁펜실	-2439
통신은	-2440
▁대사관	-2441
▁명으로	-2442
▁목요일	-2443
▁시간이	-2444
▁아니라고	-2445
▁오바마가	-2446
oo	-2447
▁윈	-2448
려고	-2449
▁같다	-2450
▁등을	-2451
▁마크	-2452
▁바다	-2453
▁스트	-2454
▁최악	-2455
▁한반	-2456
▁효과	-2457
▁검찰은	-2458
▁그것은	-2459
▁다양한	-2460
▁도움이	-2461
▁무장단체	-2462
▁위해서는	-2463
가고	-2464
르게	-2465
선거	-2466
프로	-2467
▁관해	-2468
▁구체	-2469
▁따른	-2470
▁파업	-2471
▁하마스	-2472
되었다고	-2473
▁사르코지	-2474
사로	-2475
진은	-2476
▁광고	-2477
▁기관	-2478
▁연결	-2479
▁이틀	-2480
▁전자	-2481
▁베네수엘라	-2482
▁솔	-2483
많은	-2484
식이	-2485
▁검토	-2486
▁받게	-2487
▁보좌	-2488
▁아바	-2489
▁주한	-2490
▁지시	-2491
▁집권	-2492
▁해당	-2493
▁강력한	-2494
▁못하고	-2495
▁치료를	-2496
▁회장은	-2497
ll	-2498
▁능	-2499
상의	-2500
화가	-2501
▁부근	-2502
트에서	-2503
▁상황이	-2504
▁수많은	-2505
▁필리핀	-2506
▁보고서는	-2507
▁린	-2508
밖에	-2509
▁고속	-2510
▁매년	-2511
▁분야	-2512
▁제임	-2513
▁집행	-2514
▁포르	-2515
▁도움을	-2516
▁미군이	-2517
▁일요일	-2518
▁nasa	-2519
▁버지니아	-2520
ae	-2521
▁컨	-2522
르드	-2523
리즈	-2524
▁sh	-2525
▁높아	-2526
▁소년	-2527
▁어느	-2528
▁전략	-2529
▁처리	-2530
▁가능한	-2531
▁달러에	-2532
▁있다며	-2533
▁자신을	-2534
▁공격으로	-2535
군과	-2536
자에	-2537
▁대만	-2538
▁만명	-2539
▁못한	-2540
▁사항	-2541
▁선박	-2542
▁주간	-2543
였으며	-2544
점에서	-2545
하기도	-2546
▁방법을	-2547
▁이라크에	-2548
▁긴급	-2549
▁받지	-2550
▁압둘	-2551
▁에어	-2552
▁지휘	-2553
▁진출	-2554
▁확신	-2555
▁계획이다	-2556
▁무장세력	-2557
▁프라이머	-2558
▁둔	-2559
르타	-2560
이드	-2561
이어	-2562
▁강제	-2563
▁고객	-2564
▁징역	-2565
▁시간을	-2566
▁정부와	-2567
▁타임즈	-2568
▁ro	-2569
▁근처	-2570
▁선두	-2571
▁수익	-2572
▁아파	-2573
▁작년	-2574
▁영국의	-2575
▁플레이	-2576
이션	-2577
이의	-2578
▁관심	-2579
▁나머	-2580
▁예측	-2581
▁있지	-2582
▁주의	-2583
▁힘들	-2584
스러운	-2585
▁이라크의	-2586
▁주지사는	-2587
▁사람들에게	-2588
다면	-2589
차를	-2590
▁나와	-2591
▁순간	-2592
▁스위	-2593
▁시행	-2594
▁입원	-2595
▁향해	-2596
었지만	-2597
자에게	-2598
▁곳에서	-2599
▁내렸다	-2600
▁오하이	-2601
▁이끄는	-2602
▁발견했다	-2603
▁언급했다	-2604
▁빅	-2605
▁잭	-2606
▁공산	-2607
▁미국을	-2608
▁론	-2609
리로	-2610
율을	-2611
회사	-2612
▁노조	-2613
▁막기	-2614
▁비슷	-2615
▁빠져	-2616
▁오래	-2617
▁정말	-2618
▁제거	-2619
▁국방부	-2620
▁일리노	-2621
▁협상을	-2622
▁다이애나	-2623
▁받았다고	-2624
▁맺	-2625
▁쉬	-2626
키는	-2627
▁근거	-2628
▁만큼	-2629
▁소재	-2630
▁승무	-2631
▁어떠	-2632
▁잘못	-2633
되면서	-2634
▁밝히지	-2635
▁후보를	-2636
▁오하이오	-2637
▁졸	-2638
▁펠	-2639
가인	-2640
배를	-2641
이라	-2642
줬다	-2643
▁he	-2644
▁고등	-2645
▁도쿄	-2646
▁위로	-2647
▁착륙	-2648
▁다음달	-2649
였습니다	-2650
▁사람들의	-2651
▁요청했다	-2652
▁냉	-2653
없이	-2654
자이	-2655
▁논란	-2656
▁마약	-2657
▁만든	-2658
▁목숨	-2659
▁비교	-2660
▁인디	-2661
▁달하는	-2662
▁성폭행	-2663
▁이것은	-2664
▁이란이	-2665
▁정도로	-2666
▁정상회담	-2667
▁주장하고	-2668
▁탁	-2669
도에	-2670
법을	-2671
직을	-2672
▁sp	-2673
▁스포	-2674
▁위성	-2675
가들은	-2676
하였다	-2677
▁되었다	-2678
▁숨지고	-2679
▁이들의	-2680
▁이란의	-2681
em	-2682
▁찍	-2683
비치	-2684
상에	-2685
생활	-2686
투표	-2687
ity	-2688
▁둘러	-2689
▁세르	-2690
▁수치	-2691
▁자연	-2692
▁후에	-2693
▁병력을	-2694
▁북한을	-2695
▁비난을	-2696
▁작업을	-2697
▁최고의	-2698
▁허리케	-2699
겼다	-2700
데이	-2701
상태	-2702
시는	-2703
식에	-2704
제가	-2705
▁소말	-2706
▁신고	-2707
▁여기	-2708
▁집단	-2709
▁하마	-2710
글랜드	-2711
해왔다	-2712
▁어떠한	-2713
▁우리의	-2714
▁소말리아	-2715
▁예상된다	-2716
▁득	-2717
▁묘	-2718
▁id	-2719
▁대회	-2720
▁라며	-2721
▁제외	-2722
▁케이	-2723
▁하며	-2724
▁했던	-2725
▁여성이	-2726
▁움직임	-2727
▁지역을	-2728
▁일리노이	-2729
ks	-2730
▁삶	-2731
결을	-2732
소가	-2733
즈니	-2734
피아	-2735
▁공공	-2736
▁끝에	-2737
▁물론	-2738
▁세금	-2739
▁인물	-2740
▁출발	-2741
된다고	-2742
으로서	-2743
▁말레이	-2744
▁사진을	-2745
▁여부를	-2746
▁적어도	-2747
롤라이나	-2748
▁낸	-2749
기간	-2750
사한	-2751
▁계약	-2752
▁되지	-2753
▁모른	-2754
▁보낸	-2755
▁분리	-2756
▁슈퍼	-2757
▁입고	-2758
▁대표는	-2759
▁미군은	-2760
ef	-2761
내는	-2762
라스	-2763
측이	-2764
▁am	-2765
▁알렉	-2766
▁폭풍	-2767
▁항상	-2768
전으로	-2769
▁프로젝	-2770
ld	-2771
▁습	-2772
러는	-2773
화에	-2774
▁su	-2775
▁경비	-2776
▁기후	-2777
▁수니	-2778
▁접촉	-2779
▁증언	-2780
▁진술	-2781
▁미국에	-2782
▁사이클	-2783
▁완전히	-2784
▁유명한	-2785
폭탄테러	-2786
▁결정했다	-2787
▁발생했다고	-2788
▁듯	-2789
▁묻	-2790
구를	-2791
롭게	-2792
리기	-2793
인과	-2794
하메	-2795
▁wh	-2796
▁곳에	-2797
▁넘는	-2798
▁베컴	-2799
▁시상	-2800
▁아카	-2801
▁의혹	-2802
▁이달	-2803
▁목숨을	-2804
▁병원에	-2805
▁블로그	-2806
▁올랐다	-2807
▁쿠르드	-2808
▁한국은	-2809
▁술	-2810
같이	-2811
개발	-2812
당은	-2813
도는	-2814
로를	-2815
▁se	-2816
▁불안	-2817
▁씨는	-2818
▁압박	-2819
▁예비	-2820
▁자치	-2821
▁조종	-2822
▁fbi	-2823
▁발생해	-2824
▁사건은	-2825
▁유일한	-2826
▁이야기	-2827
▁질문에	-2828
▁주민들이	-2829
▁늦	-2830
량을	-2831
보를	-2832
▁검사	-2833
▁목소	-2834
▁시청	-2835
▁신뢰	-2836
▁아주	-2837
▁의심	-2838
▁적절	-2839
▁출마	-2840
하지는	-2841
▁정부를	-2842
▁최초의	-2843
▁지도자인	-2844
na	-2845
▁좀	-2846
경을	-2847
스토	-2848
이기	-2849
▁거절	-2850
▁경매	-2851
▁노스	-2852
▁대기	-2853
▁명에	-2854
▁무너	-2855
▁바람	-2856
▁아베	-2857
▁청소	-2858
대에서	-2859
▁관련해	-2860
▁방안을	-2861
▁사고가	-2862
▁이집트	-2863
▁휴대폰	-2864
▁korean	-2865
▁끊	-2866
성의	-2867
연구	-2868
art	-2869
▁가스	-2870
▁근무	-2871
▁리버	-2872
▁수술	-2873
▁인사	-2874
▁즉각	-2875
▁해군	-2876
됩니다	-2877
▁가졌다	-2878
▁서비스	-2879
▁삭	-2880
기지	-2881
나이	-2882
상은	-2883
티나	-2884
▁물러	-2885
▁여왕	-2886
▁위에	-2887
▁카르	-2888
이지만	-2889
▁대해서	-2890
▁보여주	-2891
▁사고로	-2892
▁아무런	-2893
▁언론은	-2894
▁여명이	-2895
▁정책을	-2896
▁과학자들은	-2897
들어	-2898
위에	-2899
▁간의	-2900
▁규정	-2901
▁기준	-2902
▁총재	-2903
▁평양	-2904
▁규모의	-2905
▁나왔다	-2906
▁제임스	-2907
지역에서	-2908
▁않았지만	-2909
되었습니다	-2910
ul	-2911
▁걱	-2912
▁톰	-2913
르의	-2914
소는	-2915
안보	-2916
어난	-2917
크는	-2918
▁op	-2919
▁가질	-2920
▁것인	-2921
▁기억	-2922
▁적용	-2923
▁존재	-2924
한다면	-2925
▁게이츠	-2926
▁중국이	-2927
▁카운티	-2928
▁합의했다	-2929
▁확인했다	-2930
▁흡	-2931
량의	-2932
아니	-2933
장관	-2934
▁동결	-2935
▁동원	-2936
▁머물	-2937
▁청와	-2938
하다는	-2939
▁목표로	-2940
▁방문한	-2941
▁월부터	-2942
os	-2943
qu	-2944
해진	-2945
▁개정	-2946
▁등록	-2947
▁성화	-2948
▁애플	-2949
▁유대	-2950
▁유전	-2951
▁장난	-2952
▁저는	-2953
▁트럭	-2954
▁한미	-2955
▁행정	-2956
했는데	-2957
▁의견을	-2958
▁차베스	-2959
▁최악의	-2960
▁반대하는	-2961
▁오바마의	-2962
▁말레이시아	-2963
▁갤	-2964
▁듣	-2965
▁땅	-2966
▁옷	-2967
국인	-2968
군을	-2969
량이	-2970
렀다	-2971
비행	-2972
웠다	-2973
▁go	-2974
▁군인	-2975
▁숨진	-2976
▁실업	-2977
▁영어	-2978
▁이민	-2979
▁해병	-2980
▁힐튼	-2981
일랜드	-2982
▁우려를	-2983
캐롤라이나	-2984
▁품	-2985
그룹	-2986
되며	-2987
마다	-2988
트가	-2989
▁en	-2990
▁느끼	-2991
▁말리	-2992
▁백만	-2993
▁병력	-2994
▁블레	-2995
▁연속	-2996
▁자주	-2997
▁코소	-2998
▁투입	-2999
▁현대	-3000
▁그리스	-3001
▁보이는	-3002
▁사무실	-3003
▁연설을	-3004
▁덴	-3005
▁멸	-3006
브라	-3007
어야	-3008
한을	-3009
ary	-3010
▁고양	-3011
▁년이	-3012
▁당신	-3013
▁들고	-3014
▁박물	-3015
▁법률	-3016
▁부동	-3017
▁블랙	-3018
▁상징	-3019
▁생물	-3020
▁야생	-3021
▁이송	-3022
▁죽음	-3023
하라고	-3024
▁내무부	-3025
▁마드리	-3026
▁만명의	-3027
▁법안을	-3028
▁판결을	-3029
▁필요가	-3030
위원회는	-3031
▁크리스토	-3032
▁테러리스트	-3033
ly	-3034
▁굴	-3035
뉴스	-3036
단의	-3037
도시	-3038
로스	-3039
문이	-3040
방을	-3041
서부	-3042
치의	-3043
▁경호	-3044
▁고래	-3045
▁기본	-3046
▁나가	-3047
▁놓고	-3048
▁새로	-3049
▁아들	-3050
▁오픈	-3051
▁자세	-3052
▁저항	-3053
▁최신	-3054
▁대의원	-3055
▁스포츠	-3056
▁계속해서	-3057
▁델	-3058
▁빙	-3059
국을	-3060
리프	-3061
베즈	-3062
협회	-3063
▁근로	-3064
▁매일	-3065
▁몇몇	-3066
▁위기	-3067
▁임무	-3068
▁저녁	-3069
▁주최	-3070
▁차기	-3071
▁찰스	-3072
▁피터	-3073
리우드	-3074
▁나머지	-3075
▁잉글랜드	-3076
▁돕	-3077
▁벽	-3078
가의	-3079
데미	-3080
동부	-3081
역을	-3082
ith	-3083
▁ms	-3084
▁도중	-3085
▁동시	-3086
▁부패	-3087
▁신청	-3088
▁약물	-3089
▁없어	-3090
▁올메	-3091
▁전혀	-3092
았다고	-3093
▁그에게	-3094
▁미군의	-3095
▁수니파	-3096
▁숨졌다	-3097
▁이라는	-3098
▁하원의	-3099
위가	-3100
tal	-3101
▁것도	-3102
▁마일	-3103
▁세력	-3104
▁주는	-3105
▁홍보	-3106
▁bbc	-3107
▁있음을	-3108
▁카메라	-3109
▁세르비아	-3110
▁밴	-3111
기관	-3112
▁ag	-3113
▁국회	-3114
▁년의	-3115
▁다니	-3116
▁물질	-3117
▁민병	-3118
▁싶어	-3119
▁얼굴	-3120
▁작성	-3121
▁지연	-3122
▁통합	-3123
▁확대	-3124
▁흑인	-3125
아니라	-3126
▁입었다	-3127
▁전까지	-3128
▁판사는	-3129
▁후보에	-3130
▁밝혀지지	-3131
▁주민들은	-3132
▁잇	-3133
로서	-3134
사고	-3135
율이	-3136
친구	-3137
평양	-3138
▁ex	-3139
▁노래	-3140
▁대처	-3141
▁무가	-3142
▁분노	-3143
▁수반	-3144
▁억류	-3145
▁언제	-3146
▁여당	-3147
▁완화	-3148
났다고	-3149
▁마무리	-3150
▁스스로	-3151
▁의원이	-3152
▁선거에서	-3153
ag	-3154
▁괴	-3155
결과	-3156
트리	-3157
트에	-3158
▁구입	-3159
▁대형	-3160
▁무사	-3161
▁불러	-3162
▁스테	-3163
▁싱가	-3164
▁오랫	-3165
▁인상	-3166
▁하이	-3167
▁부시는	-3168
▁시장은	-3169
▁매케인은	-3170
▁비상사태	-3171
▁연설에서	-3172
▁오랫동안	-3173
▁쥐	-3174
률이	-3175
▁보장	-3176
▁빠른	-3177
▁작전	-3178
▁파손	-3179
라비아	-3180
▁스피어	-3181
▁이들을	-3182
▁지수는	-3183
▁확실히	-3184
만아니라	-3185
▁숨졌다고	-3186
보가	-3187
우고	-3188
위는	-3189
▁ce	-3190
▁pl	-3191
▁겪고	-3192
▁나이	-3193
▁등이	-3194
▁불과	-3195
▁우크	-3196
▁주인	-3197
▁직후	-3198
▁클럽	-3199
▁태양	-3200
▁핵심	-3201
▁cat	-3202
▁그렇게	-3203
▁자금을	-3204
▁발견됐다	-3205
ational	-3206
▁칠	-3207
복을	-3208
실험	-3209
았던	-3210
웨이	-3211
지와	-3212
프라	-3213
▁개봉	-3214
▁모여	-3215
▁상당	-3216
▁연장	-3217
▁지배	-3218
렸다고	-3219
▁만명이	-3220
▁소식을	-3221
▁없다는	-3222
▁웨스트	-3223
▁이들이	-3224
하겠다는	-3225
▁병원에서	-3226
▁회담에서	-3227
르기	-3228
민주	-3229
바는	-3230
우리	-3231
항공	-3232
sid	-3233
▁감축	-3234
▁교수	-3235
▁낮은	-3236
▁리처	-3237
▁맞아	-3238
▁멸종	-3239
▁분기	-3240
▁사살	-3241
▁산불	-3242
▁수정	-3243
▁실제	-3244
▁알게	-3245
▁알아	-3246
▁열릴	-3247
▁예방	-3248
▁오랜	-3249
▁원조	-3250
▁조작	-3251
겠지만	-3252
▁대화를	-3253
▁수백만	-3254
▁얼마나	-3255
▁위기에	-3256
▁책임을	-3257
▁가능성을	-3258
▁민주당의	-3259
▁병원으로	-3260
▁크리스토퍼	-3261
da	-3262
▁앉	-3263
▁죄	-3264
가스	-3265
대원	-3266
보호	-3267
푸르	-3268
arc	-3269
ine	-3270
▁끌어	-3271
▁두려	-3272
▁아기	-3273
▁왕세	-3274
▁조금	-3275
▁집계	-3276
▁처벌	-3277
▁축하	-3278
▁표명	-3279
▁허가	-3280
▁말하고	-3281
▁바란다	-3282
▁원자로	-3283
▁행동을	-3284
▁아카데미	-3285
▁허리케인	-3286
포를	-3287
▁결론	-3288
▁내각	-3289
▁노출	-3290
▁북극	-3291
▁떨어져	-3292
▁변호사	-3293
▁보이고	-3294
▁주장을	-3295
▁중이다	-3296
▁관리들은	-3297
▁멀	-3298
▁색	-3299
▁혹	-3300
aea	-3301
▁개를	-3302
▁공군	-3303
▁그중	-3304
▁떠나	-3305
▁목적	-3306
▁방향	-3307
▁의한	-3308
▁자료	-3309
▁절반	-3310
▁주년	-3311
▁주로	-3312
▁총기	-3313
▁카라	-3314
식으로	-3315
▁경찰과	-3316
▁발생할	-3317
▁사람들	-3318
▁월까지	-3319
▁이란은	-3320
▁iaea	-3321
▁with	-3322
▁부상했다고	-3323
tp	-3324
▁궁	-3325
▁래	-3326
리며	-3327
▁강타	-3328
▁개입	-3329
▁골을	-3330
▁기반	-3331
▁네덜	-3332
▁배럴	-3333
▁법정	-3334
▁서명	-3335
▁이혼	-3336
▁주고	-3337
▁주일	-3338
▁질병	-3339
▁차관	-3340
주에서	-3341
하메드	-3342
orth	-3343
▁cia	-3344
▁기회를	-3345
▁남성이	-3346
▁노력을	-3347
▁무가베	-3348
▁보냈다	-3349
▁사우스	-3350
▁시작된	-3351
▁월드컵	-3352
▁일어난	-3353
▁고속도로	-3354
▁소식통은	-3355
▁전망이다	-3356
iv	-3357
▁숙	-3358
▁헨	-3359
내고	-3360
단한	-3361
체를	-3362
▁나무	-3363
▁망명	-3364
▁브리	-3365
▁영한	-3366
▁하다	-3367
▁한영	-3368
▁sou	-3369
▁동성애	-3370
▁문제는	-3371
▁위험한	-3372
▁집에서	-3373
▁부인했다	-3374
▁영한사전	-3375
▁펜실베이	-3376
▁한영사전	-3377
▁척	-3378
디에	-3379
슨이	-3380
조직	-3381
▁고든	-3382
▁말한	-3383
▁먼저	-3384
▁바르	-3385
▁외환	-3386
▁크로	-3387
원으로	-3388
▁번째로	-3389
▁스티브	-3390
▁후보로	-3391
▁블로그에	-3392
▁올메르트	-3393
▁위원장은	-3394
▁사망했으며	-3395
▁우크라이나	-3396
▁펜실베이니아	-3397
▁휩	-3398
란시	-3399
산업	-3400
▁fr	-3401
▁ht	-3402
▁kg	-3403
▁가정	-3404
▁걱정	-3405
▁놀라	-3406
▁대북	-3407
▁번의	-3408
▁보이	-3409
▁속에	-3410
▁엄마	-3411
▁인기	-3412
▁입장	-3413
▁조정	-3414
▁해제	-3415
▁후반	-3416
▁결과가	-3417
▁경제적	-3418
▁리처드	-3419
▁블레어	-3420
▁비슷한	-3421
▁스미스	-3422
▁출신의	-3423
▁code	-3424
▁메시지를	-3425
▁total	-3426
▁대통령에게	-3427
▁롤	-3428
▁염	-3429
▁층	-3430
▁획	-3431
디아	-3432
만한	-3433
분이	-3434
증을	-3435
체가	-3436
▁네팔	-3437
▁보기	-3438
▁보험	-3439
▁사례	-3440
▁안정	-3441
▁연루	-3442
▁원유	-3443
▁전력	-3444
▁지급	-3445
▁찬성	-3446
▁파리	-3447
▁파악	-3448
▁피랍	-3449
▁하게	-3450
▁asp	-3451
▁wor	-3452
▁기록을	-3453
▁대표팀	-3454
▁석방을	-3455
▁일본은	-3456
▁최소한	-3457
▁테러로	-3458
▁http	-3459
▁사용하는	-3460
▁있었으며	-3461
▁낳	-3462
▁윤	-3463
▁킬	-3464
▁킹	-3465
다른	-3466
디어	-3467
선에	-3468
소로	-3469
치로	-3470
타임	-3471
▁단지	-3472
▁대체	-3473
▁못할	-3474
▁센트	-3475
▁장애	-3476
▁태풍	-3477
인들의	-3478
ight	-3479
▁거대한	-3480
▁경기에	-3481
▁구성된	-3482
▁기자는	-3483
▁변화를	-3484
▁영화를	-3485
▁이밖에	-3486
▁이용해	-3487
▁일부는	-3488
▁노대통령	-3489
▁이야기를	-3490
▁긍	-3491
▁봤	-3492
라의	-3493
스키	-3494
지게	-3495
티아	-3496
▁일정	-3497
▁진입	-3498
▁총을	-3499
▁케네	-3500
▁표시	-3501
관계를	-3502
됐지만	-3503
프리카	-3504
▁것처럼	-3505
▁기자가	-3506
▁들어가	-3507
▁스티븐	-3508
▁실시된	-3509
▁알려져	-3510
▁여명의	-3511
▁있는데	-3512
▁대통령에	-3513
▁차지했다	-3514
▁빼	-3515
▁혈	-3516
드와	-3517
들린	-3518
보고	-3519
승을	-3520
▁개국	-3521
▁기타	-3522
▁김정	-3523
▁내부	-3524
▁대답	-3525
▁바라	-3526
▁세기	-3527
▁손을	-3528
▁쇼핑	-3529
▁시드	-3530
▁아부	-3531
▁얻은	-3532
▁가까운	-3533
▁문제로	-3534
▁시위대	-3535
▁아직도	-3536
▁임무를	-3537
▁테러를	-3538
▁회원국	-3539
▁후보의	-3540
▁자신들이	-3541
계의	-3542
르크	-3543
하우	-3544
▁pp	-3545
▁구글	-3546
▁분위	-3547
▁해변	-3548
사에서	-3549
쳤다고	-3550
▁법원은	-3551
▁불만을	-3552
▁공화당의	-3553
▁north	-3554
경제	-3555
라늄	-3556
우는	-3557
점에	-3558
정보	-3559
통신	-3560
항을	-3561
▁기독	-3562
▁당한	-3563
▁라스	-3564
▁며칠	-3565
▁무시	-3566
▁벌인	-3567
▁비자	-3568
▁빨리	-3569
▁시신	-3570
▁원자	-3571
▁이행	-3572
▁인종	-3573
▁점령	-3574
▁파타	-3575
▁프레	-3576
당국은	-3577
인으로	-3578
자들에	-3579
▁가격이	-3580
▁관리는	-3581
▁나섰다	-3582
▁실제로	-3583
▁위해서	-3584
▁정확한	-3585
▁후세인	-3586
함으로써	-3587
▁farc	-3588
▁없습니다	-3589
▁사무총장은	-3590
▁자살폭탄테러	-3591
▁곡	-3592
▁혁	-3593
개의	-3594
경찰	-3595
랭킹	-3596
스테	-3597
연맹	-3598
하길	-3599
ice	-3600
ign	-3601
▁고문	-3602
▁국왕	-3603
▁글로	-3604
▁늘어	-3605
▁대가	-3606
▁물리	-3607
▁쉽게	-3608
▁시티	-3609
▁애완	-3610
▁이웃	-3611
▁임신	-3612
▁증명	-3613
▁클라	-3614
▁확정	-3615
더라도	-3616
돌리자	-3617
환으로	-3618
▁상황에	-3619
▁아르헨	-3620
▁엘리자	-3621
▁청소년	-3622
▁추가로	-3623
▁한반도	-3624
들로부터	-3625
▁끼	-3626
▁몬	-3627
▁섹	-3628
면을	-3629
오와	-3630
청은	-3631
est	-3632
▁가는	-3633
▁대화	-3634
▁시에	-3635
▁음식	-3636
▁지키	-3637
▁최저	-3638
▁추방	-3639
▁한번	-3640
▁형태	-3641
드에서	-3642
▁발언을	-3643
▁사용할	-3644
▁살해한	-3645
▁소프트	-3646
▁실시한	-3647
▁않다고	-3648
▁압력을	-3649
▁테러범	-3650
▁하워드	-3651
▁south	-3652
▁!	-3653
▁르	-3654
▁멜	-3655
▁셰	-3656
가에	-3657
다가	-3658
분을	-3659
재판	-3660
▁그와	-3661
▁긍정	-3662
▁기울	-3663
▁내린	-3664
▁다가	-3665
▁부활	-3666
▁실망	-3667
▁응답	-3668
▁자국	-3669
▁작가	-3670
▁직면	-3671
이었던	-3672
▁전쟁을	-3673
▁주에서	-3674
▁줄어들	-3675
▁토요일	-3676
▁한국과	-3677
▁회담은	-3678
▁나타냈다	-3679
▁보고서를	-3680
▁상황에서	-3681
▁멋	-3682
▁첼	-3683
니가	-3684
바로	-3685
배우	-3686
일린	-3687
ace	-3688
▁메이	-3689
▁반발	-3690
▁방해	-3691
▁신속	-3692
▁즉시	-3693
▁활용	-3694
지역에	-3695
▁ira	-3696
▁수술을	-3697
▁여행을	-3698
▁용의자	-3699
▁이전에	-3700
▁현장에	-3701
▁꾸	-3702
▁콩	-3703
기고	-3704
되면	-3705
리오	-3706
부와	-3707
비가	-3708
주를	-3709
짜리	-3710
출을	-3711
ard	-3712
ial	-3713
▁af	-3714
▁교체	-3715
▁내에	-3716
▁노벨	-3717
▁연락	-3718
▁유세	-3719
▁장악	-3720
▁제이	-3721
▁토니	-3722
▁화산	-3723
체스터	-3724
▁강하게	-3725
▁그녀가	-3726
▁남북한	-3727
▁요구한	-3728
▁준비가	-3729
▁테러가	-3730
▁투표를	-3731
▁행위를	-3732
▁콘돌리자	-3733
▁할리우드	-3734
고한	-3735
라가	-3736
슬러	-3737
제에	-3738
▁거짓	-3739
▁방어	-3740
▁사기	-3741
▁수퍼	-3742
▁순찰	-3743
▁스코	-3744
▁애틀	-3745
▁오마	-3746
▁우선	-3747
▁전기	-3748
▁크루	-3749
▁하원	-3750
하려고	-3751
▁검사를	-3752
▁계획이	-3753
▁드라마	-3754
▁요구를	-3755
▁참석한	-3756
▁코소보	-3757
▁서비스를	-3758
▁시작됐다	-3759
▁우주비행	-3760
ee	-3761
ip	-3762
▁꺾	-3763
격이	-3764
르토	-3765
이던	-3766
정책	-3767
티는	-3768
ian	-3769
▁sc	-3770
▁가수	-3771
▁만족	-3772
▁복용	-3773
▁부대	-3774
▁예술	-3775
▁와인	-3776
▁완전	-3777
▁요르	-3778
▁주가	-3779
▁페더	-3780
▁협조	-3781
지면서	-3782
▁fta	-3783
▁기술을	-3784
▁대사는	-3785
▁대학의	-3786
▁모스크	-3787
▁불가능	-3788
▁사건의	-3789
▁소비자	-3790
▁여행객	-3791
▁이번이	-3792
▁차량을	-3793
▁페일린	-3794
▁않는다고	-3795
▁요구하는	-3796
▁유럽연합	-3797
▁신화통신은	-3798
▁쌍	-3799
▁액	-3800
국가	-3801
마크	-3802
수도	-3803
주교	-3804
준다	-3805
트남	-3806
호를	-3807
▁cl	-3808
▁곳을	-3809
▁끝난	-3810
▁몰아	-3811
▁미시	-3812
▁법안	-3813
▁사드	-3814
▁자택	-3815
▁증권	-3816
스럽게	-3817
▁기독교	-3818
▁말리키	-3819
▁외무부	-3820
▁의장은	-3821
▁총격을	-3822
▁포르투	-3823
란시스코	-3824
▁구체적인	-3825
▁소프트웨	-3826
▁약속했다	-3827
▁열린우리	-3828
▁조사하고	-3829
▁웃	-3830
당이	-3831
무역	-3832
비는	-3833
셀로	-3834
축구	-3835
▁im	-3836
▁감행	-3837
▁갖추	-3838
▁기구	-3839
▁날씨	-3840
▁되면	-3841
▁법적	-3842
▁부문	-3843
▁캠프	-3844
▁흔들	-3845
관들은	-3846
리포터	-3847
상으로	-3848
하라는	-3849
▁김정일	-3850
▁리버풀	-3851
▁매들린	-3852
▁보이지	-3853
▁싱가포	-3854
▁의사를	-3855
▁이것이	-3856
▁회담에	-3857
▁수천명의	-3858
▁페르베즈	-3859
▁포함되어	-3860
▁이스라엘의	-3861
ba	-3862
▁앙	-3863
▁캄	-3864
글라	-3865
만의	-3866
워크	-3867
▁가택	-3868
▁보석	-3869
▁운행	-3870
▁유니	-3871
▁조각	-3872
▁철회	-3873
질랜드	-3874
▁국가의	-3875
▁비롯한	-3876
▁소송을	-3877
▁시리즈	-3878
▁시상식	-3879
▁아바스	-3880
▁아이를	-3881
▁위협을	-3882
▁체포된	-3883
▁핵실험	-3884
▁iraq	-3885
▁못했다고	-3886
▁사이클론	-3887
▁아이들을	-3888
▁아이들이	-3889
▁없었다고	-3890
▁필요하다	-3891
▁웹사이트에	-3892
▁빛	-3893
▁옆	-3894
계획	-3895
기문	-3896
미르	-3897
어로	-3898
처를	-3899
▁긴장	-3900
▁나달	-3901
▁내놓	-3902
▁위안	-3903
▁장례	-3904
▁해적	-3905
기에서	-3906
래스카	-3907
사들이	-3908
적이고	-3909
지수는	-3910
▁cbs	-3911
▁론스타	-3912
▁발표할	-3913
▁베트남	-3914
▁부동산	-3915
▁우라늄	-3916
▁했으며	-3917
▁회담이	-3918
▁뉴질랜드	-3919
▁대부분은	-3920
▁맨체스터	-3921
▁받아들이	-3922
▁인터뷰를	-3923
▁지지하는	-3924
▁공식적으로	-3925
▁크리스마스	-3926
▁앓	-3927
간다	-3928
계에	-3929
드에	-3930
디는	-3931
아몬	-3932
전의	-3933
환을	-3934
all	-3935
▁스파	-3936
▁아래	-3937
▁올랐	-3938
▁이재	-3939
▁이하	-3940
▁캠페	-3941
▁탈출	-3942
▁탐사	-3943
▁헤럴	-3944
때문에	-3945
▁ceo	-3946
▁독립을	-3947
▁됐다고	-3948
▁선거를	-3949
▁속에서	-3950
▁에이즈	-3951
▁이르는	-3952
▁있는지	-3953
▁있으나	-3954
▁조지아	-3955
▁중에는	-3956
▁당선인은	-3957
▁영국에서	-3958
▁중이라고	-3959
▁현장에서	-3960
▁아르헨티나	-3961
ry	-3962
▁얘	-3963
▁훌	-3964
네이	-3965
동물	-3966
됐고	-3967
령을	-3968
리언	-3969
점이	-3970
츠는	-3971
측의	-3972
함을	-3973
▁강경	-3974
▁관여	-3975
▁상업	-3976
▁소지	-3977
▁적극	-3978
▁집을	-3979
▁초기	-3980
▁침해	-3981
▁패션	-3982
▁헬기	-3983
▁힘든	-3984
▁sec	-3985
▁경찰관	-3986
▁곳으로	-3987
▁만드는	-3988
▁않도록	-3989
▁않으면	-3990
▁얻었다	-3991
▁테이프	-3992
▁포르투갈	-3993
▁학생들이	-3994
▁혜	-3995
간에	-3996
금이	-3997
단에	-3998
랑카	-3999
발유	-4000
▁mo	-4001
▁마르	-4002
▁마치	-4003
▁변경	-4004
▁브루	-4005
▁사법	-4006
▁삼성	-4007
▁오르	-4008
▁외곽	-4009
▁이른	-4010
▁전면	-4011
▁질문	-4012
▁찾기	-4013
▁협의	-4014
▁형성	-4015
▁호소	-4016
▁화성	-4017
▁계획에	-4018
▁국제유	-4019
▁반기문	-4020
▁역사상	-4021
▁일어나	-4022
▁장관이	-4023
▁휘발유	-4024
▁지진으로	-4025
▁엘리자베스	-4026
▁붉	-4027
과는	-4028
제는	-4029
주일	-4030
한이	-4031
▁가입	-4032
▁나쁜	-4033
▁로봇	-4034
▁마음	-4035
▁마카	-4036
▁믿고	-4037
▁산타	-4038
▁소개	-4039
▁소요	-4040
▁오사	-4041
▁유혈	-4042
▁인하	-4043
▁일은	-4044
▁주석	-4045
▁피트	-4046
▁학살	-4047
▁향후	-4048
▁화학	-4049
사회의	-4050
왔다고	-4051
▁min	-4052
▁ppp	-4053
▁리비아	-4054
▁사람의	-4055
▁스위스	-4056
▁이상을	-4057
▁주인공	-4058
▁인정했다	-4059
me	-4060
pl	-4061
▁꿈	-4062
▁흘	-4063
선이	-4064
수한	-4065
어스	-4066
주로	-4067
쪽에	-4068
측에	-4069
터를	-4070
트릭	-4071
했기	-4072
▁답변	-4073
▁수영	-4074
▁어렵	-4075
▁육군	-4076
▁음반	-4077
▁입양	-4078
▁집에	-4079
▁탁신	-4080
▁화장	-4081
었으나	-4082
플레이	-4083
▁권리를	-4084
▁사람을	-4085
▁최근의	-4086
▁때문이다	-4087
▁총선에서	-4088
▁덮	-4089
▁훨	-4090
나와	-4091
대학	-4092
류의	-4093
리드	-4094
리조	-4095
미디	-4096
슨의	-4097
시티	-4098
자기	-4099
팀은	-4100
호가	-4101
▁or	-4102
▁걸어	-4103
▁대량	-4104
▁배심	-4105
▁불참	-4106
▁음모	-4107
▁착용	-4108
▁콘서	-4109
▁훨씬	-4110
격으로	-4111
으로는	-4112
▁공격이	-4113
▁단체는	-4114
▁박물관	-4115
▁반정부	-4116
▁벌어진	-4117
▁압둘라	-4118
▁야당인	-4119
▁영화는	-4120
▁오스트	-4121
▁크라이	-4122
▁예정이며	-4123
▁정치적인	-4124
▁타임즈는	-4125
▁해리포터	-4126
▁옥	-4127
골을	-4128
원과	-4129
치지	-4130
하마	-4131
ort	-4132
▁ad	-4133
▁가득	-4134
▁국무	-4135
▁랭킹	-4136
▁방침	-4137
▁보냈	-4138
▁샌프	-4139
▁서식	-4140
▁성인	-4141
▁스웨	-4142
▁실행	-4143
▁앨범	-4144
▁예산	-4145
▁이렇	-4146
▁잠재	-4147
▁좋지	-4148
▁착수	-4149
▁dna	-4150
▁들었다	-4151
▁북한과	-4152
▁일본이	-4153
▁충분한	-4154
▁포함해	-4155
▁협상이	-4156
▁모하메드	-4157
▁요구하고	-4158
▁이라크전	-4159
▁하락했다	-4160
▁샌프란시스코	-4161
▁칭	-4162
거리	-4163
대전	-4164
리칸	-4165
만큼	-4166
시장	-4167
십자	-4168
티모	-4169
ure	-4170
▁ab	-4171
▁네트	-4172
▁무력	-4173
▁성향	-4174
▁수집	-4175
▁심한	-4176
▁영토	-4177
▁중재	-4178
▁천연	-4179
▁해고	-4180
국으로	-4181
▁관리가	-4182
▁발언은	-4183
▁방문할	-4184
▁불리는	-4185
▁사태가	-4186
▁의회의	-4187
▁특별한	-4188
▁대변인인	-4189
▁대부분이	-4190
▁만들었다	-4191
▁방법으로	-4192
▁주장하는	-4193
▁해결하기	-4194
▁국무장관은	-4195
dc	-4196
▁빚	-4197
고래	-4198
시각	-4199
원인	-4200
ess	-4201
▁가르	-4202
▁기능	-4203
▁대다	-4204
▁맞서	-4205
▁맨유	-4206
▁무릎	-4207
▁밀란	-4208
▁붉은	-4209
▁스리	-4210
▁시절	-4211
▁심리	-4212
▁이익	-4213
▁전개	-4214
▁지목	-4215
▁지출	-4216
▁치안	-4217
▁침체	-4218
▁특파	-4219
▁패배	-4220
▁해산	-4221
▁헤즈	-4222
나이티	-4223
틀랜드	-4224
해졌다	-4225
▁who	-4226
▁가능성	-4227
▁경제학	-4228
▁요르단	-4229
▁우승을	-4230
▁익명의	-4231
▁주한미	-4232
함에따라	-4233
▁거주하는	-4234
▁네덜란드	-4235
▁입었다고	-4236
▁presid	-4237
▁든	-4238
▁밑	-4239
▁택	-4240
▁텔	-4241
금융	-4242
르가	-4243
표를	-4244
ans	-4245
▁거뒀	-4246
▁그곳	-4247
▁나를	-4248
▁달리	-4249
▁로이	-4250
▁문을	-4251
▁온난	-4252
▁유리	-4253
▁이메	-4254
▁접속	-4255
▁회견	-4256
▁획득	-4257
▁경찰의	-4258
▁그들을	-4259
▁된다고	-4260
▁반응을	-4261
▁벗어나	-4262
▁원하는	-4263
▁이끌어	-4264
▁경선에서	-4265
▁생각하고	-4266
▁알려지지	-4267
▁의원들은	-4268
▁딜	-4269
동이	-4270
렬한	-4271
므로	-4272
▁공중	-4273
▁누군	-4274
▁담배	-4275
▁도달	-4276
▁로스	-4277
▁리콜	-4278
▁법원	-4279
▁보조	-4280
▁복제	-4281
▁소탕	-4282
▁영변	-4283
▁이르	-4284
▁일로	-4285
▁찾는	-4286
▁측근	-4287
▁치명	-4288
▁편집	-4289
▁폐기	-4290
▁하와	-4291
▁합동	-4292
▁남자가	-4293
▁년에는	-4294
▁밖으로	-4295
▁의회가	-4296
▁적절한	-4297
▁코미디	-4298
▁태평양	-4299
▁항공사	-4300
▁헤즈볼	-4301
▁희생자	-4302
▁다이아몬	-4303
▁어려움을	-4304
▁파키스탄의	-4305
▁뒷	-4306
▁뽑	-4307
▁뿌	-4308
▁엑	-4309
▁켄	-4310
▁흉	-4311
▁흐	-4312
데타	-4313
바다	-4314
실에	-4315
양의	-4316
었을	-4317
져야	-4318
치에	-4319
▁경계	-4320
▁도전	-4321
▁마틴	-4322
▁말해	-4323
▁식품	-4324
▁싶다	-4325
▁약간	-4326
▁잠시	-4327
▁주목	-4328
▁취할	-4329
▁허락	-4330
에게는	-4331
▁결정은	-4332
▁금요일	-4333
▁나타나	-4334
▁대변인	-4335
▁루이스	-4336
▁모습이	-4337
▁바라고	-4338
▁생각을	-4339
▁외교부	-4340
▁이번주	-4341
▁일간의	-4342
▁자리를	-4343
▁제안을	-4344
▁조사에	-4345
▁중국에	-4346
▁케네디	-4347
▁comm	-4348
▁will	-4349
▁러시아의	-4350
▁아일랜드	-4351
▁알래스카	-4352
▁이곳에서	-4353
▁발견했다고	-4354
tv	-4355
담을	-4356
미터	-4357
브는	-4358
세츠	-4359
스톤	-4360
영화	-4361
켰다	-4362
훼손	-4363
▁권고	-4364
▁농축	-4365
▁버마	-4366
▁베를	-4367
▁재산	-4368
▁출시	-4369
▁카페	-4370
▁폭우	-4371
스트로	-4372
▁mar	-4373
▁nbc	-4374
▁관계가	-4375
▁사건과	-4376
▁에드워	-4377
▁여성은	-4378
▁전화를	-4379
▁중국과	-4380
▁청와대	-4381
▁항공기	-4382
무장관이	-4383
▁말합니다	-4384
▁사건으로	-4385
▁아이오와	-4386
▁않았으며	-4387
▁유나이티	-4388
▁체포됐다	-4389
▁현지시각	-4390
▁필요하다고	-4391
▁걷	-4392
▁봄	-4393
건을	-4394
격한	-4395
군에	-4396
나미	-4397
루살	-4398
류를	-4399
업이	-4400
ies	-4401
▁fa	-4402
▁담긴	-4403
▁도와	-4404
▁보관	-4405
▁성과	-4406
▁시기	-4407
▁옮겨	-4408
▁적은	-4409
▁내용이	-4410
▁모두가	-4411
▁발표된	-4412
▁선거캠	-4413
▁수사를	-4414
▁신문은	-4415
▁알렉산	-4416
▁우려가	-4417
▁의회는	-4418
▁장면을	-4419
▁쿠데타	-4420
프로그램	-4421
▁공개했다	-4422
▁동영상을	-4423
▁드러났다	-4424
▁떨어졌다	-4425
▁챔피언스	-4426
▁워싱턴에서	-4427
▁이스라엘과	-4428
▁균	-4429
▁뮤	-4430
▁톤	-4431
국에	-4432
됐을	-4433
라덴	-4434
선의	-4435
인에	-4436
장한	-4437
차가	-4438
▁bo	-4439
▁cm	-4440
▁tr	-4441
▁끝나	-4442
▁디스	-4443
▁만한	-4444
▁바꾸	-4445
▁보면	-4446
▁보통	-4447
▁서방	-4448
▁수요	-4449
▁얼음	-4450
▁에도	-4451
▁자랑	-4452
▁장을	-4453
▁중독	-4454
▁찾고	-4455
▁추측	-4456
▁콜로	-4457
▁트리	-4458
▁해수	-4459
▁휴전	-4460
사들은	-4461
▁nat	-4462
▁갑자기	-4463
▁게임을	-4464
▁관심이	-4465
▁다우존	-4466
▁샤리프	-4467
▁어려운	-4468
▁일주일	-4469
▁핵시설	-4470
▁회사의	-4471
▁회의를	-4472
라이라마	-4473
▁도착했다	-4474
▁보여주는	-4475
▁언급하지	-4476
▁예상했다	-4477
▁중국에서	-4478
▁현재까지	-4479
바라	-4480
병을	-4481
시의	-4482
자금	-4483
제도	-4484
▁겨울	-4485
▁교회	-4486
▁뛰어	-4487
▁마흐	-4488
▁만날	-4489
▁메르	-4490
▁명예	-4491
▁모르	-4492
▁부총	-4493
▁사찰	-4494
▁소행	-4495
▁소환	-4496
▁스키	-4497
▁오브	-4498
▁원제	-4499
▁자리	-4500
▁자이	-4501
▁커피	-4502
▁포경	-4503
▁훌륭	-4504
루살렘	-4505
실에서	-4506
▁강력히	-4507
▁당했다	-4508
▁시작한	-4509
▁이렇게	-4510
▁작전을	-4511
▁총리와	-4512
▁최초로	-4513
▁통신은	-4514
▁했지만	-4515
▁회사인	-4516
이지리아	-4517
▁마이크로	-4518
▁처음이다	-4519
▁달라이라마	-4520
▁대선후보인	-4521
ab	-4522
ey	-4523
▁록	-4524
▁횡	-4525
계가	-4526
공화	-4527
나가	-4528
졌던	-4529
차로	-4530
타나	-4531
하라	-4532
ood	-4533
▁걸릴	-4534
▁권력	-4535
▁나누	-4536
▁대리	-4537
▁동반	-4538
▁라파	-4539
▁맞이	-4540
▁불을	-4541
▁시인	-4542
▁에는	-4543
▁연관	-4544
▁이주	-4545
▁진정	-4546
▁체니	-4547
▁추산	-4548
▁파티	-4549
▁판단	-4550
▁합법	-4551
▁흡연	-4552
상에서	-4553
하고자	-4554
했는지	-4555
▁대법원	-4556
▁명령을	-4557
▁아버지	-4558
▁여성의	-4559
▁올렸다	-4560
▁지금은	-4561
▁치러진	-4562
▁하나의	-4563
▁chin	-4564
▁다르푸르	-4565
▁모스크바	-4566
▁사망자가	-4567
▁일환으로	-4568
▁inter	-4569
▁나이지리아	-4570
국적	-4571
로드	-4572
리게	-4573
수에	-4574
시에	-4575
용을	-4576
율은	-4577
지어	-4578
판을	-4579
anc	-4580
▁개막	-4581
▁건의	-4582
▁남은	-4583
▁모인	-4584
▁설득	-4585
▁세워	-4586
▁업무	-4587
▁오염	-4588
▁음주	-4589
▁정기	-4590
▁초대	-4591
▁통치	-4592
▁폭락	-4593
▁가까이	-4594
▁거래를	-4595
▁것보다	-4596
▁경제가	-4597
▁문제의	-4598
▁밖에서	-4599
▁보좌관	-4600
▁연구를	-4601
▁유사한	-4602
▁장난감	-4603
▁타격을	-4604
▁노력하고	-4605
▁보고했다	-4606
▁스리랑카	-4607
▁아메리칸	-4608
▁일자리를	-4609
▁추정되는	-4610
▁셀	-4611
내에	-4612
도르	-4613
되자	-4614
만은	-4615
사추	-4616
세가	-4617
시피	-4618
아이	-4619
즈가	-4620
트너	-4621
ong	-4622
▁강요	-4623
▁걸친	-4624
▁공무	-4625
▁교착	-4626
▁귀국	-4627
▁나의	-4628
▁단순	-4629
▁대출	-4630
▁명백	-4631
▁발굴	-4632
▁복잡	-4633
▁부과	-4634
▁산악	-4635
▁신경	-4636
▁신체	-4637
▁이사	-4638
▁작동	-4639
▁장식	-4640
▁점점	-4641
▁조합	-4642
▁통화	-4643
▁표를	-4644
▁피고	-4645
▁호세	-4646
글라데	-4647
▁pol	-4648
▁res	-4649
▁공격에	-4650
▁그것이	-4651
▁당신이	-4652
▁모른다	-4653
▁못하는	-4654
▁밝히고	-4655
▁시위에	-4656
▁아이의	-4657
▁않지만	-4658
▁이유는	-4659
▁지진이	-4660
▁화재가	-4661
▁목적으로	-4662
▁방글라데	-4663
▁방문했다	-4664
▁부상했다	-4665
▁선거운동	-4666
▁시장에서	-4667
▁이와같은	-4668
▁오스트리아	-4669
▁national	-4670
▁샘	-4671
▁쏟	-4672
내기	-4673
닷컴	-4674
라디	-4675
불어	-4676
시가	-4677
통상	-4678
프리	-4679
ack	-4680
end	-4681
iss	-4682
▁pe	-4683
▁관객	-4684
▁그에	-4685
▁기존	-4686
▁길을	-4687
▁깊은	-4688
▁대책	-4689
▁매각	-4690
▁방영	-4691
▁선보	-4692
▁소설	-4693
▁스튜	-4694
▁앉아	-4695
▁야기	-4696
▁자본	-4697
▁전당	-4698
▁조선	-4699
▁지정	-4700
▁출석	-4701
▁치열	-4702
▁통일	-4703
▁특정	-4704
▁파예	-4705
▁하면	-4706
회사인	-4707
vern	-4708
▁경제에	-4709
▁년간의	-4710
▁더불어	-4711
▁반군이	-4712
▁시신을	-4713
▁시위가	-4714
▁아무도	-4715
▁위기를	-4716
▁진행된	-4717
▁계속되고	-4718
▁성공했다	-4719
▁기자회견을	-4720
ue	-4721
▁넓	-4722
▁짧	-4723
▁틀	-4724
발을	-4725
상과	-4726
세로	-4727
세포	-4728
스틴	-4729
일리	-4730
▁ec	-4731
▁그림	-4732
▁나서	-4733
▁나스	-4734
▁나아	-4735
▁내릴	-4736
▁도입	-4737
▁레드	-4738
▁사냥	-4739
▁상품	-4740
▁새끼	-4741
▁서브	-4742
▁수송	-4743
▁아스	-4744
▁엄청	-4745
▁엘리	-4746
▁의존	-4747
▁자기	-4748
▁천만	-4749
▁취재	-4750
▁칠레	-4751
▁폭행	-4752
▁피난	-4753
▁하늘	-4754
▁합류	-4755
▁해양	-4756
▁후임	-4757
▁훼손	-4758
국장은	-4759
보다는	-4760
아시아	-4761
음에도	-4762
▁jap	-4763
▁관련이	-4764
▁됩니다	-4765
▁무기를	-4766
▁사태를	-4767
▁생활을	-4768
▁언론이	-4769
▁의회에	-4770
▁있다면	-4771
▁주지사	-4772
사추세츠	-4773
▁것이라며	-4774
▁고등학교	-4775
▁국무장관	-4776
▁싱가포르	-4777
▁연구진은	-4778
▁조사에서	-4779
▁바그다드에서	-4780
▁president	-4781
▁묵	-4782
▁털	-4783
대회	-4784
드시	-4785
바키	-4786
선은	-4787
주에	-4788
튜브	-4789
평화	-4790
후드	-4791
▁sa	-4792
▁가량	-4793
▁건축	-4794
▁검거	-4795
▁관람	-4796
▁그루	-4797
▁부여	-4798
▁분의	-4799
▁비록	-4800
▁사담	-4801
▁식당	-4802
▁여겨	-4803
▁이중	-4804
▁인식	-4805
▁잔해	-4806
▁전날	-4807
▁전직	-4808
▁추적	-4809
▁파산	-4810
▁폐지	-4811
부에서	-4812
으면서	-4813
있었다	-4814
▁off	-4815
▁것이고	-4816
▁계획은	-4817
▁남아공	-4818
▁논의할	-4819
▁덴마크	-4820
▁레이스	-4821
▁사실상	-4822
▁스웨덴	-4823
▁시설을	-4824
▁없으며	-4825
▁여객기	-4826
▁위험이	-4827
▁이유를	-4828
▁폭발로	-4829
▁증가하고	-4830
▁japan	-4831
▁남아프리카	-4832
▁이스라엘이	-4833
▁노스캐롤라이나	-4834
▁섭	-4835
▁숫	-4836
▁쌓	-4837
라미	-4838
린다	-4839
수인	-4840
없는	-4841
정은	-4842
틀러	-4843
학자	-4844
ama	-4845
ust	-4846
▁al	-4847
▁나갈	-4848
▁년을	-4849
▁농민	-4850
▁달성	-4851
▁돌려	-4852
▁리히	-4853
▁말라	-4854
▁멋진	-4855
▁버스	-4856
▁봉쇄	-4857
▁은신	-4858
▁의학	-4859
▁체결	-4860
▁트레	-4861
▁풀려	-4862
▁행복	-4863
▁혜택	-4864
▁힘을	-4865
▁dis	-4866
▁것인지	-4867
▁결정에	-4868
▁그래서	-4869
▁민주화	-4870
▁부상자	-4871
▁분명히	-4872
▁빠르게	-4873
▁신원을	-4874
▁폭탄이	-4875
졌습니다	-4876
▁기다리고	-4877
▁인디애나	-4878
▁자리에서	-4879
▁주지사가	-4880
▁클린턴이	-4881
▁지도자들은	-4882
▁govern	-4883
to	-4884
▁x	-4885
▁멈	-4886
▁캔	-4887
네스	-4888
라로	-4889
실이	-4890
하였	-4891
efa	-4892
ell	-4893
led	-4894
ren	-4895
▁가옥	-4896
▁개가	-4897
▁고조	-4898
▁대항	-4899
▁독재	-4900
▁명확	-4901
▁모색	-4902
▁목록	-4903
▁무료	-4904
▁문서	-4905
▁받기	-4906
▁생명	-4907
▁성적	-4908
▁실질	-4909
▁줄기	-4910
▁철도	-4911
▁출판	-4912
▁콩고	-4913
▁페루	-4914
작업을	-4915
eric	-4916
▁ioc	-4917
▁가격을	-4918
▁국경을	-4919
▁그동안	-4920
▁따라서	-4921
▁말까지	-4922
▁반드시	-4923
▁시드니	-4924
▁운동을	-4925
▁이재민	-4926
▁피해가	-4927
▁해결을	-4928
▁uefa	-4929
▁국제사회	-4930
▁부근에서	-4931
▁세계대전	-4932
▁시위대는	-4933
▁여자친구	-4934
▁예루살렘	-4935
▁운영하는	-4936
▁제안했다	-4937
▁챔피언스리그	-4938
og	-4939
구가	-4940
산화	-4941
수와	-4942
어버	-4943
어의	-4944
지기	-4945
진다	-4946
ant	-4947
▁고발	-4948
▁군부	-4949
▁극단	-4950
▁노예	-4951
▁득표	-4952
▁만일	-4953
▁배출	-4954
▁비서	-4955
▁빠진	-4956
▁열대	-4957
▁완벽	-4958
▁운송	-4959
▁인공	-4960
▁자원	-4961
▁절대	-4962
▁하던	-4963
는지는	-4964
들과의	-4965
리조나	-4966
▁계약을	-4967
▁권력을	-4968
▁내용의	-4969
▁니콜라	-4970
▁달러로	-4971
▁돌아가	-4972
▁방문을	-4973
▁승무원	-4974
▁시장에	-4975
▁있었고	-4976
▁정확히	-4977
▁조치가	-4978
▁준비를	-4979
▁증거를	-4980
▁질문을	-4981
▁한국이	-4982
▁네트워크	-4983
▁보인다고	-4984
▁시스템을	-4985
▁외교통상	-4986
ations	-4987
▁과학자들이	-4988
▁이스라엘은	-4989
ib	-4990
▁z	-4991
▁옐	-4992
▁읽	-4993
공항	-4994
나마	-4995
봉송	-4996
아야	-4997
안전	-4998
우스	-4999
이크	-5000
일러	-5001
터는	-5002
트라	-5003
혔다	-5004
ire	-5005
oun	-5006
ton	-5007
▁ra	-5008
▁감바	-5009
▁고대	-5010
▁고향	-5011
▁골프	-5012
▁광산	-5013
▁구출	-5014
▁근본	-5015
▁기지	-5016
▁누가	-5017
▁달려	-5018
▁되찾	-5019
▁등장	-5020
▁디지	-5021
▁민감	-5022
▁승려	-5023
▁아웅	-5024
▁연주	-5025
▁유력	-5026
▁자극	-5027
▁자산	-5028
▁자선	-5029
▁재검	-5030
▁조기	-5031
▁철저	-5032
▁측은	-5033
▁클리	-5034
▁고통을	-5035
▁대가로	-5036
▁라운드	-5037
▁선거에	-5038
▁적십자	-5039
▁제재를	-5040
▁주식시	-5041
▁줄리아	-5042
▁한국에	-5043
▁회사는	-5044
▁훈련을	-5045
▁국민들은	-5046
▁국방부는	-5047
▁시위대가	-5048
▁위원회는	-5049
▁이라크를	-5050
▁관계자들이	-5051
▁마지막으로	-5052
▁쇠	-5053
냐는	-5054
네자	-5055
대중	-5056
령은	-5057
연금	-5058
위로	-5059
정거	-5060
함이	-5061
lec	-5062
▁it	-5063
▁pc	-5064
▁강도	-5065
▁결선	-5066
▁국정	-5067
▁레알	-5068
▁마찬	-5069
▁매장	-5070
▁분열	-5071
▁불능	-5072
▁선물	-5073
▁소매	-5074
▁소수	-5075
▁아동	-5076
▁아름	-5077
▁앤드	-5078
▁올린	-5079
▁운항	-5080
▁유가	-5081
▁응급	-5082
▁이양	-5083
▁주문	-5084
▁청문	-5085
▁추구	-5086
▁출동	-5087
▁커플	-5088
▁코커	-5089
레이크	-5090
베이거	-5091
업체인	-5092
▁frb	-5093
▁공연을	-5094
▁네바다	-5095
▁능력을	-5096
▁마치고	-5097
▁사령관	-5098
▁에어버	-5099
▁유럽의	-5100
▁이로써	-5101
▁이후로	-5102
▁nato	-5103
▁마찬가지	-5104
▁생각하는	-5105
▁의회에서	-5106
▁제공하는	-5107
▁지역으로	-5108
▁외무장관은	-5109
▁폭탄테러가	-5110
ub	-5111
▁낭	-5112
▁뼈	-5113
르도	-5114
석을	-5115
에선	-5116
유지	-5117
주고	-5118
티스	-5119
ash	-5120
der	-5121
▁교환	-5122
▁급속	-5123
▁만난	-5124
▁무죄	-5125
▁민족	-5126
▁보잉	-5127
▁브래	-5128
▁상점	-5129
▁수의	-5130
▁위조	-5131
▁입증	-5132
▁장착	-5133
▁재미	-5134
▁재배	-5135
▁재활	-5136
▁킬로	-5137
▁텔레	-5138
달라고	-5139
움에서	-5140
▁감독이	-5141
▁고양이	-5142
▁납치된	-5143
▁다국적	-5144
▁마리가	-5145
▁마리의	-5146
▁변화가	-5147
▁사장은	-5148
▁상태에	-5149
▁소식이	-5150
▁아마디	-5151
▁안전한	-5152
▁여러분	-5153
▁전쟁에	-5154
▁프리미	-5155
▁혐의가	-5156
아라비아	-5157
▁대선에서	-5158
▁러시아는	-5159
▁성화봉송	-5160
▁일본에서	-5161
▁핵무기를	-5162
▁발생했으며	-5163
▁보고서에서	-5164
▁일반적으로	-5165
▁americ	-5166
▁사우디아라비아	-5167
▁값	-5168
▁똑	-5169
▁왼	-5170
교도	-5171
니의	-5172
질을	-5173
첨단	-5174
탄을	-5175
파로	-5176
해질	-5177
화된	-5178
▁gm	-5179
▁고립	-5180
▁골드	-5181
▁공유	-5182
▁관찰	-5183
▁리조	-5184
▁방지	-5185
▁베르	-5186
▁보는	-5187
▁삶을	-5188
▁선발	-5189
▁신임	-5190
▁쓰러	-5191
▁외무	-5192
▁잃은	-5193
▁차를	-5194
하기를	-5195
▁가치가	-5196
▁결과는	-5197
▁논의를	-5198
▁당신은	-5199
▁디즈니	-5200
▁라이트	-5201
▁소녀의	-5202
▁승리한	-5203
▁시장의	-5204
▁실종된	-5205
▁약속을	-5206
▁에후드	-5207
▁일하는	-5208
▁현재의	-5209
이었다고	-5210
▁공항에서	-5211
▁기대하고	-5212
▁선언했다	-5213
▁역사적인	-5214
▁우려하고	-5215
▁계획이라고	-5216
▁일리노이주	-5217
▁프로그램에	-5218
di	-5219
ff	-5220
ga	-5221
▁듀	-5222
▁맹	-5223
▁욕	-5224
기업	-5225
러스	-5226
물에	-5227
언을	-5228
전문	-5229
ang	-5230
ast	-5231
▁감사	-5232
▁개방	-5233
▁군중	-5234
▁극복	-5235
▁맞춰	-5236
▁명도	-5237
▁바뀌	-5238
▁발간	-5239
▁보복	-5240
▁빈곤	-5241
▁사원	-5242
▁생긴	-5243
▁손상	-5244
▁수를	-5245
▁스프	-5246
▁유치	-5247
▁인생	-5248
▁입국	-5249
▁중순	-5250
▁측정	-5251
▁통한	-5252
▁펠로	-5253
▁필립	-5254
▁협박	-5255
▁환자	-5256
가에서	-5257
레스트	-5258
▁fro	-5259
▁경제를	-5260
▁국제적	-5261
▁나오는	-5262
▁나이트	-5263
▁내용은	-5264
▁다니엘	-5265
▁동티모	-5266
▁마카오	-5267
▁명에게	-5268
▁받아야	-5269
▁사용한	-5270
▁승인을	-5271
▁쓰나미	-5272
▁안전을	-5273
▁있어서	-5274
▁저장된	-5275
▁충분히	-5276
▁타이틀	-5277
▁토마스	-5278
▁서울에서	-5279
▁세계은행	-5280
▁있었지만	-5281
▁체포했다	-5282
▁라스베이거	-5283
▁베이징에서	-5284
▁전했습니다	-5285
ps	-5286
▁펀	-5287
니오	-5288
대와	-5289
로의	-5290
시를	-5291
씨가	-5292
주민	-5293
중한	-5294
지며	-5295
프의	-5296
햄프	-5297
화로	-5298
ars	-5299
▁bl	-5300
▁me	-5301
▁갖게	-5302
▁거두	-5303
▁곤잘	-5304
▁관영	-5305
▁기사	-5306
▁논평	-5307
▁로드	-5308
▁로비	-5309
▁리그	-5310
▁매춘	-5311
▁무선	-5312
▁발병	-5313
▁배제	-5314
▁보낼	-5315
▁복구	-5316
▁봉사	-5317
▁북미	-5318
▁상공	-5319
▁시각	-5320
▁연행	-5321
▁은퇴	-5322
▁장소	-5323
▁중지	-5324
▁한때	-5325
▁합병	-5326
됐으나	-5327
생활을	-5328
ance	-5329
▁par	-5330
▁개월간	-5331
▁관계자	-5332
▁김대중	-5333
▁대학교	-5334
▁법원이	-5335
▁수익을	-5336
▁아니면	-5337
▁아마도	-5338
▁여부는	-5339
▁영화의	-5340
▁유권자	-5341
▁자세한	-5342
▁첫번째	-5343
▁파트너	-5344
▁다쳤다고	-5345
▁미국과의	-5346
▁바르셀로	-5347
▁발생하지	-5348
▁수상했다	-5349
▁승리했다	-5350
▁이라크와	-5351
▁했습니다	-5352
▁국방장관은	-5353
▁폭탄테러로	-5354
ie	-5355
관에	-5356
노동	-5357
명은	-5358
슬림	-5359
와는	-5360
전은	-5361
클라	-5362
▁no	-5363
▁거쳐	-5364
▁단속	-5365
▁대를	-5366
▁막을	-5367
▁매니	-5368
▁묘사	-5369
▁불길	-5370
▁불편	-5371
▁삭제	-5372
▁세인	-5373
▁스캔	-5374
▁스탠	-5375
▁쏟아	-5376
▁적합	-5377
▁점차	-5378
▁조류	-5379
▁주차	-5380
▁죽은	-5381
▁채택	-5382
▁출산	-5383
▁카불	-5384
▁후원	-5385
나지르	-5386
햄프셔	-5387
▁검사는	-5388
▁법원에	-5389
▁베를린	-5390
▁시장이	-5391
▁안에서	-5392
▁오사마	-5393
▁의사가	-5394
▁제대로	-5395
▁주장에	-5396
▁총리를	-5397
▁케이블	-5398
▁태어난	-5399
▁만들어진	-5400
▁베나지르	-5401
▁보유하고	-5402
▁외환은행	-5403
▁진행되고	-5404
▁맛	-5405
▁힌	-5406
기술	-5407
리나	-5408
서에	-5409
▁ha	-5410
▁가난	-5411
▁공정	-5412
▁과도	-5413
▁내정	-5414
▁단어	-5415
▁세트	-5416
▁시사	-5417
▁앓고	-5418
▁연예	-5419
▁유발	-5420
▁인류	-5421
▁임기	-5422
▁재난	-5423
▁저질	-5424
▁조성	-5425
▁초래	-5426
▁코스	-5427
라이언	-5428
였지만	-5429
올림픽	-5430
인들을	-5431
▁abc	-5432
▁가격은	-5433
▁대단한	-5434
▁대학생	-5435
▁블라디	-5436
▁비용이	-5437
▁상당한	-5438
▁오늘날	-5439
▁오래된	-5440
▁올해의	-5441
▁유엔은	-5442
▁익명을	-5443
▁일정을	-5444
▁자료를	-5445
▁책임이	-5446
▁폭탄을	-5447
▁혐의에	-5448
▁회사가	-5449
▁휴대전	-5450
▁cons	-5451
▁가능성은	-5452
▁다우존스	-5453
▁대회에서	-5454
▁발생하는	-5455
▁백악관은	-5456
▁사령관은	-5457
▁증가했다	-5458
▁학생들은	-5459
▁회의에서	-5460
▁스코틀랜드	-5461
▁궤	-5462
▁묶	-5463
▁센	-5464
▁쫓	-5465
▁켈	-5466
권에	-5467
권이	-5468
렸던	-5469
받고	-5470
범위	-5471
봤다	-5472
에만	-5473
위의	-5474
프레	-5475
▁가슴	-5476
▁간주	-5477
▁개표	-5478
▁거리	-5479
▁고고	-5480
▁고소	-5481
▁구금	-5482
▁규제	-5483
▁그리	-5484
▁급등	-5485
▁따뜻	-5486
▁마시	-5487
▁상호	-5488
▁시달	-5489
▁알바	-5490
▁어디	-5491
▁얻기	-5492
▁월의	-5493
▁존스	-5494
▁존중	-5495
▁찾을	-5496
▁최우	-5497
▁펼쳐	-5498
▁화물	-5499
됐었다	-5500
라고예	-5501
선에서	-5502
▁tal	-5503
▁tim	-5504
▁거뒀다	-5505
▁논란이	-5506
▁레스토	-5507
▁말하며	-5508
▁못하게	-5509
▁스타디	-5510
▁애틀랜	-5511
▁여성을	-5512
▁이산화	-5513
▁자신은	-5514
▁자유를	-5515
▁지역은	-5516
▁천주교	-5517
▁표했다	-5518
▁보여줬다	-5519
▁상승했다	-5520
▁중요하다	-5521
▁국민들에게	-5522
▁헐	-5523
나우	-5524
내지	-5525
부양	-5526
성과	-5527
중앙	-5528
한지	-5529
▁가로	-5530
▁공장	-5531
▁기밀	-5532
▁기회	-5533
▁나올	-5534
▁미니	-5535
▁바닥	-5536
▁방안	-5537
▁비타	-5538
▁알코	-5539
▁압수	-5540
▁앞에	-5541
▁청구	-5542
▁투어	-5543
력기구	-5544
land	-5545
▁국가를	-5546
▁국제원	-5547
▁그러한	-5548
▁두번째	-5549
▁모기지	-5550
▁바스라	-5551
▁발언에	-5552
▁북동부	-5553
▁여학생	-5554
▁일으킨	-5555
▁잃었다	-5556
▁재판을	-5557
▁저지른	-5558
▁중국을	-5559
▁집으로	-5560
▁총선을	-5561
▁평화를	-5562
▁피해자	-5563
위원회가	-5564
▁cont	-5565
▁over	-5566
▁구제금융	-5567
▁뉴욕에서	-5568
▁보안관은	-5569
▁와인하우	-5570
▁카르자이	-5571
▁콜로라도	-5572
▁기자들에게	-5573
▁발견됐다고	-5574
▁뿐만아니라	-5575
▁열린우리당	-5576
ft	-5577
▁갇	-5578
▁롬	-5579
▁쓴	-5580
경기	-5581
드라	-5582
력에	-5583
릴라	-5584
모리	-5585
수사	-5586
아나	-5587
즈의	-5588
포드	-5589
ake	-5590
ase	-5591
enc	-5592
und	-5593
▁검문	-5594
▁검은	-5595
▁과격	-5596
▁군은	-5597
▁기부	-5598
▁기쁘	-5599
▁년과	-5600
▁대결	-5601
▁대륙	-5602
▁돌파	-5603
▁되기	-5604
▁머리	-5605
▁못해	-5606
▁배가	-5607
▁보상	-5608
▁부부	-5609
▁비틀	-5610
▁빙하	-5611
▁스크	-5612
▁스턴	-5613
▁아흐	-5614
▁얻어	-5615
▁얻을	-5616
▁예를	-5617
▁의무	-5618
▁의장	-5619
▁재건	-5620
▁전인	-5621
▁절차	-5622
▁지상	-5623
▁지질	-5624
▁체중	-5625
▁출입	-5626
▁충격	-5627
▁프린	-5628
▁항구	-5629
났으며	-5630
되었던	-5631
빈라덴	-5632
▁결과에	-5633
▁국가가	-5634
▁법안이	-5635
▁베컴은	-5636
▁선두를	-5637
▁세금을	-5638
▁심지어	-5639
▁아웅산	-5640
▁영화제	-5641
▁예정된	-5642
▁월스트	-5643
▁중대한	-5644
▁테스트	-5645
▁프레스	-5646
플레이션	-5647
▁elec	-5648
▁거부했다	-5649
▁검색어가	-5650
▁국민들의	-5651
▁국회의원	-5652
▁레스토랑	-5653
▁말했다고	-5654
▁받았으며	-5655
▁블라고예	-5656
▁시민들이	-5657
▁차관보는	-5658
▁호텔에서	-5659
▁방글라데시	-5660
▁주민들에게	-5661
▁보도에따르면	-5662
▁오사마빈라덴	-5663
sa	-5664
▁덕	-5665
▁숀	-5666
▁짓	-5667
▁흰	-5668
담당	-5669
레나	-5670
렌스	-5671
르지	-5672
상황	-5673
스런	-5674
왔던	-5675
으려	-5676
이즈	-5677
졌고	-5678
피해	-5679
화의	-5680
out	-5681
ric	-5682
▁가해	-5683
▁내내	-5684
▁다루	-5685
▁달간	-5686
▁도망	-5687
▁메릴	-5688
▁몸을	-5689
▁방콕	-5690
▁블루	-5691
▁비공	-5692
▁사막	-5693
▁산림	-5694
▁샤라	-5695
▁순방	-5696
▁알라	-5697
▁탄핵	-5698
▁혹은	-5699
▁휩싸	-5700
됐다는	-5701
되었고	-5702
세력이	-5703
카르타	-5704
▁bus	-5705
▁공격은	-5706
▁노동자	-5707
▁답했다	-5708
▁독일의	-5709
▁두려워	-5710
▁벌금을	-5711
▁비용을	-5712
▁소장은	-5713
▁시작할	-5714
▁없지만	-5715
▁외교적	-5716
▁위험에	-5717
▁이란에	-5718
▁일으키	-5719
▁젊은이	-5720
▁총장은	-5721
▁호나우	-5722
ister	-5723
▁보호하기	-5724
▁인터넷을	-5725
▁즉각적인	-5726
▁예정입니다	-5727
▁government	-5728
iz	-5729
▁꼭	-5730
▁멤	-5731
너는	-5732
서양	-5733
서의	-5734
수록	-5735
월드	-5736
일은	-5737
조차	-5738
준비	-5739
탱크	-5740
팀이	-5741
▁qu	-5742
▁강풍	-5743
▁개헌	-5744
▁걸려	-5745
▁구축	-5746
▁다윈	-5747
▁리차	-5748
▁만여	-5749
▁맞추	-5750
▁맡은	-5751
▁물이	-5752
▁미술	-5753
▁비극	-5754
▁성직	-5755
▁시내	-5756
▁쓰촨	-5757
▁온실	-5758
▁유출	-5759
▁진영	-5760
▁축제	-5761
▁침입	-5762
▁통계	-5763
▁판사	-5764
▁폭격	-5765
가들이	-5766
단에서	-5767
하겠다	-5768
▁ass	-5769
▁같다고	-5770
▁구조대	-5771
▁나스닥	-5772
▁두바이	-5773
▁디자인	-5774
▁리히터	-5775
▁보내는	-5776
▁사용될	-5777
▁샌디에	-5778
▁샤라포	-5779
▁시기에	-5780
▁완전한	-5781
▁왕세자	-5782
▁원인을	-5783
▁이곳에	-5784
▁일부를	-5785
▁증거가	-5786
▁패트릭	-5787
▁합의를	-5788
위원회의	-5789
▁from	-5790
▁가능성에	-5791
▁결의안을	-5792
▁경기부양	-5793
▁공식적인	-5794
▁국민들이	-5795
▁런던에서	-5796
▁미시시피	-5797
▁바이러스	-5798
▁수백명의	-5799
▁애리조나	-5800
▁용의자가	-5801
▁주장하며	-5802
▁카스트로	-5803
▁블라디미르	-5804
▁사르코지는	-5805
▁소프트웨어	-5806
▁웹사이트를	-5807
▁체포했다고	-5808
▁핵프로그램	-5809
▁전세계적으로	-5810
kk	-5811
더는	-5812
라며	-5813
률을	-5814
메이	-5815
선수	-5816
위해	-5817
체의	-5818
터리	-5819
히려	-5820
age	-5821
red	-5822
▁ob	-5823
▁공모	-5824
▁그들	-5825
▁노르	-5826
▁높이	-5827
▁뒤에	-5828
▁명인	-5829
▁물고	-5830
▁복무	-5831
▁부담	-5832
▁붙잡	-5833
▁상관	-5834
▁소득	-5835
▁압도	-5836
▁영웅	-5837
▁올려	-5838
▁원칙	-5839
▁이론	-5840
▁인명	-5841
▁자르	-5842
▁잡고	-5843
▁촉발	-5844
▁추모	-5845
▁캄보	-5846
▁케빈	-5847
▁클레	-5848
▁탈북	-5849
금으로	-5850
lear	-5851
ress	-5852
▁관계에	-5853
▁둘러싸	-5854
▁마쳤다	-5855
▁만들고	-5856
▁머리를	-5857
▁머물고	-5858
▁배럴당	-5859
▁배심원	-5860
▁보도를	-5861
▁일부가	-5862
▁전부터	-5863
▁확실한	-5864
▁회담의	-5865
▁훌륭한	-5866
되었으며	-5867
학자들은	-5868
▁cent	-5869
▁당선인의	-5870
▁미사일을	-5871
▁받아들일	-5872
▁변호사가	-5873
▁비판했다	-5874
▁실패했다	-5875
▁오바마와	-5876
▁캄보디아	-5877
▁공개적으로	-5878
▁비상사태를	-5879
▁지도자들이	-5880
up	-5881
▁객	-5882
▁꺼	-5883
▁쌀	-5884
▁옹	-5885
▁텐	-5886
거운	-5887
달을	-5888
라델	-5889
라를	-5890
말을	-5891
비의	-5892
애미	-5893
통제	-5894
하에	-5895
환경	-5896
▁em	-5897
▁거듭	-5898
▁게재	-5899
▁골든	-5900
▁날아	-5901
▁낸시	-5902
▁높다	-5903
▁눈이	-5904
▁들여	-5905
▁마라	-5906
▁물을	-5907
▁배경	-5908
▁벌여	-5909
▁법을	-5910
▁봉송	-5911
▁분에	-5912
▁빈민	-5913
▁새벽	-5914
▁시속	-5915
▁오토	-5916
▁외부	-5917
▁일찍	-5918
▁작용	-5919
▁정해	-5920
▁주연	-5921
▁중부	-5922
▁채널	-5923
▁천재	-5924
▁촉진	-5925
▁해임	-5926
▁헨리	-5927
▁호랑	-5928
공화국	-5929
글뉴스	-5930
단체가	-5931
단체는	-5932
되어야	-5933
받았다	-5934
보장이	-5935
정부는	-5936
조치를	-5937
▁결론을	-5938
▁그것을	-5939
▁디지털	-5940
▁라이벌	-5941
▁방송은	-5942
▁부부는	-5943
▁비타민	-5944
▁산사태	-5945
▁상하이	-5946
▁알코올	-5947
▁엄청난	-5948
▁연구에	-5949
▁인근에	-5950
▁중앙일	-5951
▁집회를	-5952
▁차량이	-5953
▁태도를	-5954
▁해결할	-5955
▁fore	-5956
▁도시에서	-5957
▁마감했다	-5958
▁마이애미	-5959
▁실시되는	-5960
▁우리나라	-5961
▁제기했다	-5962
▁윌리엄스는	-5963
▁캘리포니아주	-5964
ud	-5965
▁딕	-5966
▁잊	-5967
▁훔	-5968
다운	-5969
련의	-5970
망을	-5971
변화	-5972
비로	-5973
서가	-5974
위기	-5975
타는	-5976
호는	-5977
활동	-5978
ens	-5979
▁tw	-5980
▁가구	-5981
▁감금	-5982
▁감지	-5983
▁겨냥	-5984
▁결코	-5985
▁곳은	-5986
▁그레	-5987
▁근육	-5988
▁뉴저	-5989
▁대로	-5990
▁등에	-5991
▁로한	-5992
▁롤링	-5993
▁많다	-5994
▁몰려	-5995
▁비핵	-5996
▁상을	-5997
▁수하	-5998
▁심사	-5999
▁쌍둥	-6000
▁열어	-6001
▁옷을	-6002
▁위의	-6003
▁입법	-6004
▁입을	-6005
▁정착	-6006
▁졸업	-6007
▁차드	-6008
▁체코	-6009
▁초반	-6010
▁특수	-6011
▁폭파	-6012
▁프랭	-6013
▁피닉	-6014
▁후진	-6015
네자드	-6016
카운티	-6017
활동을	-6018
▁경기가	-6019
▁과정을	-6020
▁그렇지	-6021
▁방법이	-6022
▁상태로	-6023
▁언론에	-6024
▁연루된	-6025
▁일본에	-6026
▁증가한	-6027
▁차량에	-6028
▁치열한	-6029
▁토네이	-6030
▁폴란드	-6031
▁필라델	-6032
▁했다는	-6033
▁현장을	-6034
▁화이트	-6035
▁긍정적인	-6036
▁무엇보다	-6037
▁비난하고	-6038
▁생각했다	-6039
▁수석대표	-6040
▁자신에게	-6041
▁참석했다	-6042
▁평가했다	-6043
▁프리미어	-6044
▁한국에서	-6045
▁국제사회의	-6046
▁미국인들이	-6047
▁minister	-6048
gh	-6049
▁갱	-6050
▁겸	-6051
▁좁	-6052
겨진	-6053
다시	-6054
민족	-6055
밀한	-6056
셔츠	-6057
일이	-6058
즈를	-6059
지자	-6060
ath	-6061
ect	-6062
▁fl	-6063
▁te	-6064
▁갖춘	-6065
▁거대	-6066
▁과반	-6067
▁급증	-6068
▁눈에	-6069
▁다리	-6070
▁다섯	-6071
▁다운	-6072
▁뒤를	-6073
▁미칠	-6074
▁부르	-6075
▁부채	-6076
▁북쪽	-6077
▁빅토	-6078
▁사전	-6079
▁수년	-6080
▁안토	-6081
▁예전	-6082
▁원숭	-6083
▁의약	-6084
▁일제	-6085
▁전용	-6086
▁존슨	-6087
▁종합	-6088
▁최루	-6089
▁침몰	-6090
▁카를	-6091
▁풀어	-6092
▁플루	-6093
▁항소	-6094
▁현실	-6095
▁홍수	-6096
▁흥미	-6097
▁흥분	-6098
갔다고	-6099
았으며	-6100
있다고	-6101
자이자	-6102
했다며	-6103
▁all	-6104
▁nuc	-6105
▁가족과	-6106
▁가즈니	-6107
▁거리에	-6108
▁규모가	-6109
▁그랜드	-6110
▁나에게	-6111
▁당국의	-6112
▁동맹국	-6113
▁받으며	-6114
▁보스턴	-6115
▁사태에	-6116
▁상태가	-6117
▁아들이	-6118
▁아파트	-6119
▁여당인	-6120
▁연구는	-6121
▁의혹을	-6122
▁인질로	-6123
▁전역에	-6124
▁조치는	-6125
▁지하철	-6126
▁초점을	-6127
▁트레이	-6128
▁파운드	-6129
▁폭발이	-6130
회의에서	-6131
▁결선투표	-6132
▁관리들이	-6133
▁아메리카	-6134
▁자치정부	-6135
▁프랑스의	-6136
뿐만아니라	-6137
▁world	-6138
▁마이크로소	-6139
▁합의했다고	-6140
▁블라고예비치	-6141
▁nuclear	-6142
▁아프가니스탄에서	-6143
▁밥	-6144
률은	-6145
명한	-6146
목을	-6147
비와	-6148
셔널	-6149
업에	-6150
조합	-6151
중에	-6152
차별	-6153
타오	-6154
화는	-6155
ain	-6156
ass	-6157
ays	-6158
ond	-6159
ost	-6160
▁ib	-6161
▁up	-6162
▁공포	-6163
▁그라	-6164
▁기각	-6165
▁날짜	-6166
▁남극	-6167
▁늦게	-6168
▁대립	-6169
▁돌입	-6170
▁부양	-6171
▁분류	-6172
▁수만	-6173
▁안타	-6174
▁영양	-6175
▁오딩	-6176
▁올리	-6177
▁왕실	-6178
▁전염	-6179
▁중간	-6180
▁차단	-6181
▁찾은	-6182
▁초청	-6183
▁포로	-6184
▁피츠	-6185
무역협	-6186
ence	-6187
▁def	-6188
▁pkk	-6189
▁tra	-6190
▁win	-6191
▁공개된	-6192
▁공항에	-6193
▁그대로	-6194
▁달러가	-6195
▁로이터	-6196
▁마무드	-6197
▁목표를	-6198
▁사회적	-6199
▁세계의	-6200
▁승리할	-6201
▁아이폰	-6202
▁오히려	-6203
▁위대한	-6204
▁음식을	-6205
▁이사회	-6206
▁잘못된	-6207
▁증시는	-6208
▁참여한	-6209
▁페르난	-6210
▁펼쳤다	-6211
▁화재로	-6212
▁가족들이	-6213
▁미국으로	-6214
▁브라이언	-6215
▁여객기가	-6216
▁이산화탄	-6217
▁이에따라	-6218
▁컴퓨터를	-6219
▁지지자들은	-6220
감이	-6221
관의	-6222
기록	-6223
끄러	-6224
몬트	-6225
움이	-6226
케이	-6227
프가	-6228
필드	-6229
ild	-6230
oci	-6231
ors	-6232
urn	-6233
▁공간	-6234
▁광부	-6235
▁금리	-6236
▁다큐	-6237
▁대치	-6238
▁만남	-6239
▁물에	-6240
▁반복	-6241
▁반영	-6242
▁베어	-6243
▁소집	-6244
▁신도	-6245
▁에릭	-6246
▁일과	-6247
▁전설	-6248
▁정의	-6249
▁정찰	-6250
▁탄압	-6251
▁투쟁	-6252
라마바	-6253
왔으며	-6254
용으로	-6255
작전을	-6256
적이며	-6257
직에서	-6258
eral	-6259
port	-6260
▁gro	-6261
▁out	-6262
▁경험이	-6263
▁공산당	-6264
▁기록한	-6265
▁다음날	-6266
▁라이언	-6267
▁리차드	-6268
▁벨기에	-6269
▁사고를	-6270
▁사실은	-6271
▁세력이	-6272
▁아기를	-6273
▁위협이	-6274
▁유튜브	-6275
▁이같이	-6276
▁인구가	-6277
▁장면이	-6278
▁정도의	-6279
▁정책에	-6280
▁포함돼	-6281
▁하면서	-6282
▁혜택을	-6283
▁활주로	-6284
▁휴가를	-6285
시켰다고	-6286
▁뉴햄프셔	-6287
▁방식으로	-6288
▁부상으로	-6289
▁사람들과	-6290
▁세계적인	-6291
▁여성들이	-6292
▁움직임을	-6293
▁진술했다	-6294
▁투표에서	-6295
▁알카에다와	-6296
▁이루어졌다	-6297
▁인플레이션	-6298
▁필라델피아	-6299
▁낼	-6300
▁닥	-6301
▁쓸	-6302
공격	-6303
니어	-6304
범죄	-6305
소와	-6306
아는	-6307
오픈	-6308
키퍼	-6309
테네	-6310
한번	-6311
해온	-6312
▁가게	-6313
▁가을	-6314
▁관중	-6315
▁구멍	-6316
▁기도	-6317
▁남동	-6318
▁로저	-6319
▁마사	-6320
▁뮤지	-6321
▁미성	-6322
▁보지	-6323
▁부딪	-6324
▁상반	-6325
▁상상	-6326
▁소형	-6327
▁스톤	-6328
▁에베	-6329
▁와이	-6330
▁우울	-6331
▁이자	-6332
▁임금	-6333
▁전환	-6334
▁포럼	-6335
▁폭설	-6336
▁해도	-6337
▁혁명	-6338
렸으며	-6339
안에서	-6340
▁ban	-6341
▁his	-6342
▁가족이	-6343
▁가했다	-6344
▁감염된	-6345
▁골키퍼	-6346
▁그루지	-6347
▁나라의	-6348
▁남동부	-6349
▁년에서	-6350
▁다큐멘	-6351
▁단어장	-6352
▁당국에	-6353
▁또다시	-6354
▁무슬림	-6355
▁미군을	-6356
▁방문객	-6357
▁방송을	-6358
▁브랜드	-6359
▁수상한	-6360
▁아이가	-6361
▁여성과	-6362
▁영화에	-6363
▁예정인	-6364
▁장관의	-6365
▁제공할	-6366
▁조사가	-6367
▁주장한	-6368
▁패배를	-6369
▁페이지	-6370
▁홍수로	-6371
▁plan	-6372
▁국가안보	-6373
▁국제원자	-6374
▁논의하기	-6375
▁다시한번	-6376
▁비행기를	-6377
▁아이들은	-6378
▁아이들의	-6379
▁알렉산더	-6380
▁영향력을	-6381
▁이미지를	-6382
▁진행되는	-6383
▁킬로미터	-6384
▁china	-6385
▁목격자들은	-6386
▁이슬라마바	-6387
▁전문가들이	-6388
▁증가했다고	-6389
▁조사에따르면	-6390
▁까	-6391
▁랜	-6392
각을	-6393
먼은	-6394
뱅크	-6395
보험	-6396
위츠	-6397
있던	-6398
차례	-6399
치게	-6400
커는	-6401
코맥	-6402
품이	-6403
ive	-6404
▁ba	-6405
▁dv	-6406
▁가치	-6407
▁각료	-6408
▁감옥	-6409
▁개시	-6410
▁게시	-6411
▁기온	-6412
▁난사	-6413
▁누리	-6414
▁달라	-6415
▁담겨	-6416
▁당부	-6417
▁라덴	-6418
▁맡고	-6419
▁배후	-6420
▁분간	-6421
▁사육	-6422
▁세포	-6423
▁순례	-6424
▁스카	-6425
▁아난	-6426
▁아라	-6427
▁않게	-6428
▁않기	-6429
▁에게	-6430
▁에스	-6431
▁예선	-6432
▁왼쪽	-6433
▁요원	-6434
▁위인	-6435
▁입수	-6436
▁자문	-6437
▁종종	-6438
▁주에	-6439
▁진화	-6440
▁질환	-6441
▁출생	-6442
▁코끼	-6443
▁쿠웨	-6444
▁포드	-6445
▁황금	-6446
라에서	-6447
립니다	-6448
▁hiv	-6449
▁vis	-6450
▁개혁을	-6451
▁검찰이	-6452
▁국장은	-6453
▁단체가	-6454
▁당신의	-6455
▁돌아다	-6456
▁마리아	-6457
▁무사히	-6458
▁미군과	-6459
▁미디어	-6460
▁벌이는	-6461
▁부시의	-6462
▁상태를	-6463
▁우리를	-6464
▁의원의	-6465
▁인간의	-6466
▁조종사	-6467
▁진정한	-6468
▁테러에	-6469
▁part	-6470
▁것이었다	-6471
▁내무부는	-6472
▁사람에게	-6473
▁아버지가	-6474
▁안전하게	-6475
▁있었으나	-6476
▁제조업체	-6477
▁항공우주	-6478
▁백악관에서	-6479
▁알카에다의	-6480
▁에베레스트	-6481
▁외교통상부	-6482
▁한나라당은	-6483
▁사우스캐롤라이나	-6484
▁닉	-6485
▁뭄	-6486
가와	-6487
감독	-6488
계는	-6489
금지	-6490
기자	-6491
느냐	-6492
더스	-6493
라면	-6494
라에	-6495
받을	-6496
일에	-6497
조를	-6498
주가	-6499
책임	-6500
해줄	-6501
화와	-6502
tit	-6503
▁가담	-6504
▁계좌	-6505
▁곳의	-6506
▁공을	-6507
▁나은	-6508
▁날개	-6509
▁다행	-6510
▁많아	-6511
▁불이	-6512
▁비평	-6513
▁살의	-6514
▁상어	-6515
▁선관	-6516
▁선원	-6517
▁섭취	-6518
▁섹스	-6519
▁소리	-6520
▁소위	-6521
▁손에	-6522
▁쓰레	-6523
▁연쇄	-6524
▁옹호	-6525
▁인민	-6526
▁일시	-6527
▁재임	-6528
▁적대	-6529
▁조원	-6530
▁캐릭	-6531
▁팀이	-6532
▁프라	-6533
▁플래	-6534
레스를	-6535
부르크	-6536
식에서	-6537
점으로	-6538
정부가	-6539
했음을	-6540
▁ind	-6541
▁mil	-6542
▁감독의	-6543
▁개발을	-6544
▁거리를	-6545
▁결과로	-6546
▁나오지	-6547
▁남성은	-6548
▁된다는	-6549
▁둘러싼	-6550
▁방법은	-6551
▁베스트	-6552
▁북서부	-6553
▁비교적	-6554
▁사업을	-6555
▁승리로	-6556
▁안정을	-6557
▁여사는	-6558
▁역사적	-6559
▁요청을	-6560
▁인기를	-6561
▁인질을	-6562
▁자신과	-6563
▁제작한	-6564
▁충돌이	-6565
▁케이트	-6566
▁키바키	-6567
▁통신이	-6568
▁페이스	-6569
▁하나로	-6570
▁하나인	-6571
겠습니다	-6572
▁show	-6573
▁가족들은	-6574
▁발생하고	-6575
▁비난하는	-6576
▁않겠다고	-6577
▁오바마를	-6578
▁우리에게	-6579
▁지도자가	-6580
▁쿠웨이트	-6581
▁행정부가	-6582
▁후진타오	-6583
▁월스트리트	-6584
▁보고서에따르면	-6585
ax	-6586
sp	-6587
▁링	-6588
▁컬	-6589
동맹	-6590
방에	-6591
부로	-6592
비에	-6593
생물	-6594
석이	-6595
성장	-6596
스마	-6597
야는	-6598
제재	-6599
치며	-6600
터가	-6601
행한	-6602
혹한	-6603
ese	-6604
les	-6605
ous	-6606
ves	-6607
▁ur	-6608
▁가벼	-6609
▁갑작	-6610
▁개체	-6611
▁고유	-6612
▁구간	-6613
▁구역	-6614
▁글을	-6615
▁동생	-6616
▁말이	-6617
▁무게	-6618
▁보일	-6619
▁보존	-6620
▁선제	-6621
▁송환	-6622
▁수립	-6623
▁시나	-6624
▁식료	-6625
▁쓰고	-6626
▁에콰	-6627
▁예멘	-6628
▁적발	-6629
▁조용	-6630
▁지붕	-6631
▁천억	-6632
▁축소	-6633
▁호흡	-6634
▁화려	-6635
▁회장	-6636
관에서	-6637
라스틱	-6638
▁nba	-6639
▁곳이다	-6640
▁광범위	-6641
▁기회가	-6642
▁남서부	-6643
▁년만에	-6644
▁단체의	-6645
▁돌고래	-6646
▁마라톤	-6647
▁마음을	-6648
▁미성년	-6649
▁미시간	-6650
▁불가피	-6651
▁상당히	-6652
▁생물학	-6653
▁세인트	-6654
▁소규모	-6655
▁아이디	-6656
▁여론조	-6657
▁인용해	-6658
▁재검토	-6659
▁절차를	-6660
▁주도한	-6661
▁지원할	-6662
▁직원이	-6663
▁차례에	-6664
▁참석할	-6665
▁총재는	-6666
▁최근에	-6667
▁최대의	-6668
▁충격을	-6669
▁탑승객	-6670
▁협상에	-6671
▁혼란을	-6672
▁후보인	-6673
▁희망을	-6674
▁힐튼은	-6675
▁근처에서	-6676
▁대의원을	-6677
▁보여주고	-6678
▁북쪽으로	-6679
▁수준으로	-6680
▁연방준비	-6681
▁오바마에	-6682
▁월요일에	-6683
▁이용하는	-6684
▁치명적인	-6685
▁표명했다	-6686
▁헌법재판	-6687
▁경찰서장은	-6688
▁성공적으로	-6689
▁세계적으로	-6690
▁프라이머리	-6691
▁intern	-6692
pe	-6693
▁숲	-6694
▁옛	-6695
▁퀸	-6696
▁팝	-6697
▁폰	-6698
널드	-6699
려진	-6700
로이	-6701
밀히	-6702
복선	-6703
의회	-6704
지원	-6705
질이	-6706
튼은	-6707
패를	-6708
are	-6709
iti	-6710
▁걸린	-6711
▁곳이	-6712
▁길이	-6713
▁낙관	-6714
▁되돌	-6715
▁듣고	-6716
▁리더	-6717
▁마친	-6718
▁모래	-6719
▁반박	-6720
▁방사	-6721
▁부산	-6722
▁세로	-6723
▁세부	-6724
▁신규	-6725
▁이륙	-6726
▁이식	-6727
▁일의	-6728
▁자제	-6729
▁전복	-6730
▁정지	-6731
▁제목	-6732
▁제트	-6733
▁짧은	-6734
▁차별	-6735
▁참모	-6736
▁침공	-6737
▁태운	-6738
▁폭스	-6739
▁표준	-6740
▁행진	-6741
▁협정	-6742
▁횡령	-6743
▁후지	-6744
기라이	-6745
도에서	-6746
베니아	-6747
운동을	-6748
폴리스	-6749
▁dvd	-6750
▁iss	-6751
▁not	-6752
▁sol	-6753
▁가족을	-6754
▁갖추고	-6755
▁것임을	-6756
▁국민의	-6757
▁근거로	-6758
▁뉴욕의	-6759
▁달리고	-6760
▁도착한	-6761
▁뭄바이	-6762
▁민감한	-6763
▁반군의	-6764
▁발견한	-6765
▁발표를	-6766
▁부부가	-6767
▁사용해	-6768
▁상황은	-6769
▁생각이	-6770
▁시위는	-6771
▁실시할	-6772
▁영국은	-6773
▁원주민	-6774
▁이름이	-6775
▁일어날	-6776
▁정권을	-6777
▁주었다	-6778
▁차이가	-6779
▁파나마	-6780
▁했었다	-6781
▁호주의	-6782
▁가택연금	-6783
▁받아들여	-6784
▁운영하고	-6785
▁의미한다	-6786
▁차지하고	-6787
▁샌디에이고	-6788
▁지역에서는	-6789
▁국제원자력기구	-6790
▁싫	-6791
▁핀	-6792
결승	-6793
니까	-6794
니에	-6795
도우	-6796
리어	-6797
버리	-6798
비스	-6799
유럽	-6800
율로	-6801
접한	-6802
주지	-6803
직에	-6804
코는	-6805
펠드	-6806
확인	-6807
ome	-6808
ork	-6809
orn	-6810
ven	-6811
▁md	-6812
▁pa	-6813
▁가상	-6814
▁관측	-6815
▁눈을	-6816
▁뉴올	-6817
▁당초	-6818
▁리드	-6819
▁마비	-6820
▁말할	-6821
▁모건	-6822
▁모니	-6823
▁물건	-6824
▁미스	-6825
▁발휘	-6826
▁백인	-6827
▁보게	-6828
▁부사	-6829
▁부적	-6830
▁불쾌	-6831
▁비치	-6832
▁상영	-6833
▁수리	-6834
▁수비	-6835
▁스콜	-6836
▁신중	-6837
▁아는	-6838
▁얘기	-6839
▁에티	-6840
▁용납	-6841
▁저희	-6842
▁중남	-6843
▁책을	-6844
▁출두	-6845
▁케리	-6846
▁코카	-6847
▁특징	-6848
▁하미	-6849
▁호르	-6850
▁홈페	-6851
드리게	-6852
메이트	-6853
법원은	-6854
onom	-6855
▁are	-6856
▁건물이	-6857
▁결혼을	-6858
▁경찰청	-6859
▁계속될	-6860
▁교황은	-6861
▁규정을	-6862
▁도로를	-6863
▁레이건	-6864
▁메르켈	-6865
▁문제와	-6866
▁미치는	-6867
▁바라는	-6868
▁법무부	-6869
▁비서실	-6870
▁상태다	-6871
▁선수가	-6872
▁수감자	-6873
▁않았던	-6874
▁압박을	-6875
▁양국의	-6876
▁영국인	-6877
▁이브라	-6878
▁일어났	-6879
▁일이다	-6880
▁있어야	-6881
▁중단할	-6882
▁출연한	-6883
▁크레이	-6884
▁투표에	-6885
▁하루에	-6886
▁합의한	-6887
▁했으나	-6888
▁확인할	-6889
▁계속되는	-6890
▁뉴올리언	-6891
▁동티모르	-6892
▁발표하고	-6893
▁변호사인	-6894
▁소식통이	-6895
▁에드워즈	-6896
▁주둔하고	-6897
▁탈레반은	-6898
▁party	-6899
▁매사추세츠	-6900
▁미국인들은	-6901
▁안전보장이	-6902
▁체포됐다고	-6903
▁한나라당의	-6904
▁마이크로소프트	-6905
fl	-6906
▁꼬	-6907
▁뱀	-6908
▁윔	-6909
▁틸	-6910
급을	-6911
등을	-6912
물로	-6913
물의	-6914
바르	-6915
받은	-6916
설을	-6917
스티	-6918
시와	-6919
안의	-6920
일으	-6921
임이	-6922
점은	-6923
진과	-6924
ree	-6925
▁공약	-6926
▁구단	-6927
▁낮추	-6928
▁내보	-6929
▁내일	-6930
▁대대	-6931
▁따돌	-6932
▁래리	-6933
▁루아	-6934
▁본격	-6935
▁북동	-6936
▁빌딩	-6937
▁빨간	-6938
▁선임	-6939
▁수면	-6940
▁수여	-6941
▁시라	-6942
▁앤더	-6943
▁없게	-6944
▁없고	-6945
▁여명	-6946
▁연금	-6947
▁오스	-6948
▁원래	-6949
▁의도	-6950
▁정교	-6951
▁진실	-6952
▁출구	-6953
▁친척	-6954
▁쿠퍼	-6955
▁탄생	-6956
▁탱크	-6957
▁푸에	-6958
▁회계	-6959
▁효율	-6960
관들이	-6961
된다면	-6962
적이다	-6963
주의자	-6964
reat	-6965
▁가족은	-6966
▁경제의	-6967
▁관련한	-6968
▁교육을	-6969
▁군사적	-6970
▁난민촌	-6971
▁남자는	-6972
▁노력이	-6973
▁대상이	-6974
▁등으로	-6975
▁만들기	-6976
▁매니저	-6977
▁별다른	-6978
▁복잡한	-6979
▁분만에	-6980
▁사고는	-6981
▁생명을	-6982
▁속도로	-6983
▁아들을	-6984
▁애완견	-6985
▁앤드류	-6986
▁양측은	-6987
▁언급을	-6988
▁우주선	-6989
▁정권이	-6990
▁철수를	-6991
▁파업을	-6992
▁평화와	-6993
▁하락한	-6994
▁하와이	-6995
▁행사를	-6996
▁헬기가	-6997
했었다고	-6998
▁coun	-6999
▁개인적인	-7000
▁교도소에	-7001
▁국제공항	-7002
▁남부에서	-7003
▁매케인이	-7004
▁부통령은	-7005
▁불러일으	-7006
▁성관계를	-7007
▁영화배우	-7008
▁예를들어	-7009
▁주장한다	-7010
▁아프간에서	-7011
▁지지자들이	-7012
▁크라이슬러	-7013
ph	-7014
▁엠	-7015
교를	-7016
나의	-7017
니와	-7018
니티	-7019
락을	-7020
레인	-7021
름을	-7022
마는	-7023
식의	-7024
연한	-7025
였고	-7026
오고	-7027
ite	-7028
one	-7029
▁cr	-7030
▁금연	-7031
▁기여	-7032
▁끝날	-7033
▁나눴	-7034
▁녹음	-7035
▁달린	-7036
▁당황	-7037
▁딸이	-7038
▁떠난	-7039
▁벌금	-7040
▁부유	-7041
▁살이	-7042
▁샘플	-7043
▁성추	-7044
▁세가	-7045
▁솔직	-7046
▁수배	-7047
▁시대	-7048
▁신조	-7049
▁알지	-7050
▁어깨	-7051
▁얻고	-7052
▁영상	-7053
▁옐친	-7054
▁완료	-7055
▁의문	-7056
▁일상	-7057
▁종결	-7058
▁처해	-7059
▁침략	-7060
▁편의	-7061
▁향상	-7062
▁허커	-7063
▁협회	-7064
▁화면	-7065
되거나	-7066
문에서	-7067
시에서	-7068
해야만	-7069
▁exp	-7070
▁고위관	-7071
▁공습을	-7072
▁그레이	-7073
▁나타난	-7074
▁루이지	-7075
▁마흐디	-7076
▁목표는	-7077
▁무고한	-7078
▁밝혀진	-7079
▁범인이	-7080
▁법안은	-7081
▁식료품	-7082
▁신고를	-7083
▁원인이	-7084
▁은행의	-7085
▁음악을	-7086
▁인도의	-7087
▁일본과	-7088
▁일본인	-7089
▁자리에	-7090
▁조사한	-7091
▁종류의	-7092
▁죽음을	-7093
▁차례의	-7094
▁촬영한	-7095
▁팬들은	-7096
▁펠로시	-7097
▁후보와	-7098
적이라고	-7099
▁lead	-7100
▁news	-7101
▁국가들은	-7102
▁국방장관	-7103
▁들어갔다	-7104
▁로드리게	-7105
▁마드리드	-7106
▁바란다고	-7107
▁방문하는	-7108
▁브라운은	-7109
▁상태에서	-7110
▁않는다는	-7111
▁예비선거	-7112
▁외무장관	-7113
▁의사들은	-7114
▁인근에서	-7115
▁자카르타	-7116
▁조건으로	-7117
▁지점에서	-7118
▁천연가스	-7119
▁클린턴의	-7120
▁플라스틱	-7121
▁하마스가	-7122
▁해안에서	-7123
▁화요일에	-7124
▁다이아몬드	-7125
▁스타디움에서	-7126
▁foreign	-7127
▁끔	-7128
▁널	-7129
▁댄	-7130
▁햄	-7131
교통	-7132
나무	-7133
단히	-7134
데스	-7135
로가	-7136
마자	-7137
블던	-7138
식은	-7139
체제	-7140
타르	-7141
토늄	-7142
팀을	-7143
폴리	-7144
프를	-7145
학과	-7146
eek	-7147
man	-7148
▁we	-7149
▁갖는	-7150
▁관료	-7151
▁국토	-7152
▁군이	-7153
▁기차	-7154
▁낙태	-7155
▁담은	-7156
▁로딕	-7157
▁매달	-7158
▁벗어	-7159
▁본부	-7160
▁본토	-7161
▁불에	-7162
▁빠질	-7163
▁상륙	-7164
▁선호	-7165
▁설문	-7166
▁세비	-7167
▁습격	-7168
▁아시	-7169
▁앞둔	-7170
▁양의	-7171
▁유도	-7172
▁좌절	-7173
▁철군	-7174
▁축출	-7175
▁쿠즈	-7176
▁탐험	-7177
▁투르	-7178
▁팀을	-7179
▁파이	-7180
▁퍼거	-7181
▁해서	-7182
▁환호	-7183
국에서	-7184
냈다고	-7185
당국이	-7186
스트는	-7187
시스템	-7188
tive	-7189
▁day	-7190
▁hou	-7191
▁mon	-7192
▁sup	-7193
▁tro	-7194
▁가치를	-7195
▁결정할	-7196
▁교도소	-7197
▁국가로	-7198
▁기쁘다	-7199
▁놀라운	-7200
▁다리를	-7201
▁단체인	-7202
▁대표가	-7203
▁데이빗	-7204
▁동일한	-7205
▁만났다	-7206
▁뮤지컬	-7207
▁보도가	-7208
▁보이며	-7209
▁브리핑	-7210
▁사상자	-7211
▁사실에	-7212
▁상당의	-7213
▁생방송	-7214
▁성명은	-7215
▁시신이	-7216
▁실수를	-7217
▁않기로	-7218
▁윔블던	-7219
▁유엔의	-7220
▁이용할	-7221
▁일으킬	-7222
▁작업에	-7223
▁증시가	-7224
▁지지선	-7225
▁처벌을	-7226
▁충돌로	-7227
▁카트리	-7228
▁푸틴은	-7229
▁프랭크	-7230
▁하나는	-7231
▁학교에	-7232
▁회장이	-7233
ution	-7234
▁국가들이	-7235
▁밝혔으며	-7236
▁밝혔지만	-7237
▁부정적인	-7238
▁비난하며	-7239
▁비행기가	-7240
▁사용하지	-7241
▁상태이다	-7242
▁아버지는	-7243
▁원자로를	-7244
▁유혈사태	-7245
▁인질들을	-7246
▁있었다는	-7247
▁지원하는	-7248
▁평화유지	-7249
▁obama	-7250
▁대선후보로	-7251
▁분석가들은	-7252
▁유권자들이	-7253
▁프리미어리그	-7254
▁첩	-7255
▁템	-7256
격히	-7257
렸고	-7258
미니	-7259
발전	-7260
봉사	-7261
슨과	-7262
자료	-7263
전쟁	-7264
책이	-7265
톨릭	-7266
판이	-7267
향을	-7268
화한	-7269
ber	-7270
erv	-7271
ide	-7272
▁sk	-7273
▁sn	-7274
▁ww	-7275
▁갔다	-7276
▁개장	-7277
▁건너	-7278
▁급락	-7279
▁느낄	-7280
▁돕기	-7281
▁동남	-7282
▁되길	-7283
▁딸을	-7284
▁러닝	-7285
▁맞는	-7286
▁메디	-7287
▁멤버	-7288
▁몰고	-7289
▁발포	-7290
▁부서	-7291
▁사설	-7292
▁손님	-7293
▁알제	-7294
▁암컷	-7295
▁약화	-7296
▁여섯	-7297
▁위스	-7298
▁유인	-7299
▁정거	-7300
▁주유	-7301
▁주주	-7302
▁직전	-7303
▁창출	-7304
▁청년	-7305
▁태어	-7306
▁테네	-7307
▁파라	-7308
▁파파	-7309
▁포착	-7310
▁현장	-7311
▁형제	-7312
▁휩쓸	-7313
▁힌두	-7314
당했다	-7315
리프는	-7316
오피아	-7317
은행은	-7318
타나모	-7319
ates	-7320
▁mbc	-7321
▁건강이	-7322
▁광고를	-7323
▁구호를	-7324
▁기업의	-7325
▁뉴저지	-7326
▁돌아오	-7327
▁라파엘	-7328
▁민병대	-7329
▁보이콧	-7330
▁사과를	-7331
▁성장을	-7332
▁소식은	-7333
▁여부에	-7334
▁영국군	-7335
▁이제는	-7336
▁장군은	-7337
▁주의를	-7338
▁참여할	-7339
▁파바로	-7340
▁평화적	-7341
▁평화협	-7342
▁피라미	-7343
왔습니다	-7344
인들에게	-7345
축구연맹	-7346
▁거주하고	-7347
▁공개됐다	-7348
▁군인들이	-7349
▁남자친구	-7350
▁드러냈다	-7351
▁못하도록	-7352
▁소유하고	-7353
▁심각하게	-7354
▁않는다면	-7355
▁에어버스	-7356
▁인도주의	-7357
▁일이라고	-7358
▁지시했다	-7359
▁직접적인	-7360
▁해당하는	-7361
▁milit	-7362
▁루이지애나	-7363
▁에티오피아	-7364
▁자유무역협	-7365
▁폭력사태가	-7366
oy	-7367
▁겁	-7368
▁닫	-7369
▁럼	-7370
▁썼	-7371
▁컵	-7372
관인	-7373
교육	-7374
량은	-7375
로코	-7376
마디	-7377
물은	-7378
법은	-7379
브를	-7380
연방	-7381
연히	-7382
입어	-7383
즈와	-7384
하르	-7385
호의	-7386
▁au	-7387
▁ir	-7388
▁개편	-7389
▁계열	-7390
▁고급	-7391
▁괴한	-7392
▁내고	-7393
▁노트	-7394
▁데에	-7395
▁돼지	-7396
▁떠올	-7397
▁마돈	-7398
▁번역	-7399
▁북서	-7400
▁세속	-7401
▁소련	-7402
▁애니	-7403
▁열고	-7404
▁의뢰	-7405
▁잇따	-7406
▁재직	-7407
▁전사	-7408
▁제리	-7409
▁종료	-7410
▁주기	-7411
▁주전	-7412
▁줄어	-7413
▁줄일	-7414
▁진보	-7415
▁처한	-7416
▁캐롤	-7417
▁콜린	-7418
▁토크	-7419
▁하에	-7420
▁혼자	-7421
▁화합	-7422
▁활약	-7423
만으로	-7424
장관이	-7425
지역을	-7426
ical	-7427
▁att	-7428
▁fda	-7429
▁imf	-7430
▁격렬한	-7431
▁결의안	-7432
▁경쟁을	-7433
▁납치범	-7434
▁논쟁이	-7435
▁대다수	-7436
▁도시의	-7437
▁마리를	-7438
▁명에서	-7439
▁부분을	-7440
▁북부에	-7441
▁빠져나	-7442
▁사드르	-7443
▁상승한	-7444
▁성향의	-7445
▁세계적	-7446
▁소식에	-7447
▁수도인	-7448
▁시드의	-7449
▁양국은	-7450
▁언론의	-7451
▁오스카	-7452
▁원하고	-7453
▁이곳은	-7454
▁이란과	-7455
▁지지자	-7456
▁차이로	-7457
▁피닉스	-7458
▁힘입어	-7459
▁prot	-7460
▁곤잘레스	-7461
▁관타나모	-7462
▁매케인의	-7463
▁발표됐다	-7464
▁밝혔다고	-7465
▁방향으로	-7466
▁법원에서	-7467
▁불가리아	-7468
▁선포했다	-7469
▁않았으나	-7470
▁위치하고	-7471
▁자택에서	-7472
▁전망했다	-7473
▁지도자는	-7474
▁지원하고	-7475
▁직원들이	-7476
▁추정된다	-7477
▁프로젝트	-7478
▁state	-7479
▁visit	-7480
▁상원의원의	-7481
▁전국적으로	-7482
▁펜실베니아	-7483
▁econom	-7484
▁깃	-7485
▁롱	-7486
▁탔	-7487
경에	-7488
경은	-7489
고기	-7490
도상	-7491
돼야	-7492
란을	-7493
래스	-7494
론은	-7495
론이	-7496
리코	-7497
보건	-7498
성근	-7499
소속	-7500
슬리	-7501
승희	-7502
심이	-7503
아노	-7504
용이	-7505
이한	-7506
터스	-7507
품에	-7508
할지	-7509
duc	-7510
oul	-7511
ret	-7512
▁nk	-7513
▁가속	-7514
▁개성	-7515
▁공룡	-7516
▁군대	-7517
▁군의	-7518
▁금액	-7519
▁끔찍	-7520
▁남겨	-7521
▁농업	-7522
▁당사	-7523
▁도요	-7524
▁떠오	-7525
▁멀리	-7526
▁미주	-7527
▁벽돌	-7528
▁보스	-7529
▁복역	-7530
▁식민	-7531
▁신분	-7532
▁실린	-7533
▁심문	-7534
▁야스	-7535
▁양육	-7536
▁억제	-7537
▁오리	-7538
▁자동	-7539
▁잡아	-7540
▁점검	-7541
▁좀더	-7542
▁차이	-7543
▁천문	-7544
▁카터	-7545
▁탄광	-7546
▁통상	-7547
▁피살	-7548
▁하여	-7549
당에서	-7550
있으며	-7551
페이스	-7552
▁war	-7553
▁가족의	-7554
▁경기침	-7555
▁나이가	-7556
▁논쟁을	-7557
▁들어간	-7558
▁라이브	-7559
▁마스터	-7560
▁모양의	-7561
▁물러나	-7562
▁미국측	-7563
▁받았던	-7564
▁사항을	-7565
▁살아남	-7566
▁생산을	-7567
▁손실을	-7568
▁시장을	-7569
▁아테네	-7570
▁않았고	-7571
▁완벽한	-7572
▁일에는	-7573
▁정신적	-7574
▁주가는	-7575
▁주년을	-7576
▁중남미	-7577
▁최선을	-7578
▁테니스	-7579
▁통일부	-7580
▁투자가	-7581
▁페더러	-7582
▁포함된	-7583
▁필요로	-7584
▁하미드	-7585
▁한국군	-7586
▁한국을	-7587
▁행사에	-7588
▁행위에	-7589
한글뉴스	-7590
▁공산주의	-7591
▁국무부는	-7592
▁극단주의	-7593
▁뉴욕타임	-7594
▁러시아가	-7595
▁마을에서	-7596
▁무장대원	-7597
▁민주당이	-7598
▁보입니다	-7599
▁에콰도르	-7600
▁요구하며	-7601
▁용의자로	-7602
▁유럽에서	-7603
▁유지하고	-7604
▁전반적인	-7605
▁전통적인	-7606
▁좋아하는	-7607
▁주한미군	-7608
▁지지하고	-7609
▁캠페인을	-7610
▁탈레반이	-7611
▁포함하여	-7612
▁행정부의	-7613
▁talks	-7614
▁결정했다고	-7615
▁때문이라고	-7616
▁상원의원과	-7617
▁예정이었다	-7618
▁이스라엘에	-7619
▁곰	-7620
▁띄	-7621
▁밟	-7622
▁엉	-7623
▁햇	-7624
그로	-7625
내며	-7626
라드	-7627
문제	-7628
바스	-7629
비상	-7630
사무	-7631
사항	-7632
실은	-7633
유를	-7634
이상	-7635
체에	-7636
향이	-7637
호르	-7638
own	-7639
▁nh	-7640
▁간부	-7641
▁간에	-7642
▁갇혀	-7643
▁검증	-7644
▁기금	-7645
▁나선	-7646
▁나설	-7647
▁넘겨	-7648
▁놓여	-7649
▁느낀	-7650
▁도청	-7651
▁되며	-7652
▁떠날	-7653
▁말에	-7654
▁매매	-7655
▁메일	-7656
▁미네	-7657
▁방위	-7658
▁벌써	-7659
▁불어	-7660
▁석을	-7661
▁선전	-7662
▁술을	-7663
▁술집	-7664
▁아담	-7665
▁아틀	-7666
▁알레	-7667
▁양자	-7668
▁어두	-7669
▁에넹	-7670
▁연간	-7671
▁울포	-7672
▁윤리	-7673
▁일축	-7674
▁자발	-7675
▁잡혀	-7676
▁징후	-7677
▁카드	-7678
▁카리	-7679
▁카메	-7680
▁크레	-7681
▁트로	-7682
▁함유	-7683
서에서	-7684
았지만	-7685
이즈미	-7686
자동차	-7687
자이너	-7688
젤레스	-7689
판결을	-7690
해지고	-7691
olog	-7692
▁dem	-7693
▁eng	-7694
▁ins	-7695
▁man	-7696
▁rec	-7697
▁가벼운	-7698
▁감사의	-7699
▁건강에	-7700
▁건강한	-7701
▁게릴라	-7702
▁기소된	-7703
▁남부에	-7704
▁남편인	-7705
▁도시인	-7706
▁디스크	-7707
▁떠났다	-7708
▁루아얄	-7709
▁막대한	-7710
▁모르는	-7711
▁반대로	-7712
▁보도에	-7713
▁보호를	-7714
▁소속의	-7715
▁쓰촨성	-7716
▁않으며	-7717
▁오른쪽	-7718
▁우주왕	-7719
▁위험을	-7720
▁은행에	-7721
▁이뤄진	-7722
▁이용한	-7723
▁제공한	-7724
▁제출한	-7725
▁조사는	-7726
▁조사할	-7727
▁준결승	-7728
▁중이던	-7729
▁증가할	-7730
▁지역인	-7731
▁테러는	-7732
▁투자를	-7733
▁팬들이	-7734
▁합의에	-7735
▁활동에	-7736
▁회의에	-7737
▁효과가	-7738
아일랜드	-7739
았습니다	-7740
▁opec	-7741
▁공습으로	-7742
▁교통사고	-7743
▁당선인이	-7744
▁대학에서	-7745
▁민주당은	-7746
▁사망자는	-7747
▁사용하고	-7748
▁올림픽을	-7749
▁외무부는	-7750
▁이뤄졌다	-7751
▁인터넷에	-7752
▁자유롭게	-7753
▁조지아주	-7754
▁페더러는	-7755
자들로부터	-7756
▁seoul	-7757
▁있었습니다	-7758
▁정상회담을	-7759
▁american	-7760
fp	-7761
▁떼	-7762
▁뜨	-7763
▁쏘	-7764
▁앵	-7765
▁얀	-7766
기금	-7767
기기	-7768
다란	-7769
당을	-7770
라와	-7771
린은	-7772
바오	-7773
법에	-7774
사령	-7775
소한	-7776
실로	-7777
아가	-7778
제르	-7779
조건	-7780
진압	-7781
티가	-7782
피스	-7783
ife	-7784
min	-7785
▁ru	-7786
▁가고	-7787
▁가즈	-7788
▁갈라	-7789
▁고무	-7790
▁공원	-7791
▁교섭	-7792
▁기계	-7793
▁느꼈	-7794
▁다룬	-7795
▁도살	-7796
▁만년	-7797
▁면담	-7798
▁몸에	-7799
▁보급	-7800
▁사절	-7801
▁쉽지	-7802
▁실무	-7803
▁실직	-7804
▁아닙	-7805
▁양곤	-7806
▁업계	-7807
▁영업	-7808
▁오렌	-7809
▁우고	-7810
▁유감	-7811
▁점거	-7812
▁제압	-7813
▁조절	-7814
▁처방	-7815
▁커뮤	-7816
▁탈락	-7817
▁화해	-7818
▁휴가	-7819
▁흘러	-7820
때까지	-7821
면에서	-7822
시리즈	-7823
원들의	-7824
지수가	-7825
프라임	-7826
하마드	-7827
행위를	-7828
회의에	-7829
▁cdc	-7830
▁fif	-7831
▁pri	-7832
▁경선을	-7833
▁경험을	-7834
▁고고학	-7835
▁권성근	-7836
▁그녀를	-7837
▁글로벌	-7838
▁나달은	-7839
▁남성의	-7840
▁노래를	-7841
▁높다고	-7842
▁다음주	-7843
▁다쳤다	-7844
▁대회를	-7845
▁데일리	-7846
▁또다른	-7847
▁법안에	-7848
▁베네딕	-7849
▁부토의	-7850
▁스크린	-7851
▁시간에	-7852
▁약간의	-7853
▁얼마전	-7854
▁에이커	-7855
▁영국과	-7856
▁오클라	-7857
▁왕자가	-7858
▁원인은	-7859
▁월에는	-7860
▁이익을	-7861
▁일련의	-7862
▁전하고	-7863
▁조승희	-7864
▁차관은	-7865
▁총상을	-7866
▁포르노	-7867
▁하거나	-7868
▁할머니	-7869
▁해병대	-7870
▁핵개발	-7871
▁회사를	-7872
▁히틀러	-7873
▁more	-7874
▁고려하고	-7875
▁고이즈미	-7876
▁국가에서	-7877
▁기소됐다	-7878
▁당했다고	-7879
▁아니라는	-7880
▁아니었다	-7881
▁아프간에	-7882
▁이와같이	-7883
▁중동평화	-7884
▁챔피언십	-7885
▁클린턴에	-7886
▁호소했다	-7887
▁확인됐다	-7888
▁무샤라프는	-7889
▁상원의원을	-7890
▁발표했습니다	-7891
▁여론조사에서	-7892
pa	-7893
▁핸	-7894
개를	-7895
경영	-7896
글로	-7897
날드	-7898
노스	-7899
니야	-7900
두는	-7901
령이	-7902
모스	-7903
사관	-7904
았을	-7905
어질	-7906
에미	-7907
우기	-7908
작전	-7909
종의	-7910
체는	-7911
카트	-7912
키로	-7913
터키	-7914
itt	-7915
▁by	-7916
▁my	-7917
▁ph	-7918
▁sy	-7919
▁가짜	-7920
▁곳곳	-7921
▁교전	-7922
▁금메	-7923
▁금속	-7924
▁놀이	-7925
▁동북	-7926
▁들이	-7927
▁마케	-7928
▁맞고	-7929
▁매출	-7930
▁맥도	-7931
▁멈추	-7932
▁모금	-7933
▁무슨	-7934
▁미첼	-7935
▁미터	-7936
▁반도	-7937
▁발발	-7938
▁붙여	-7939
▁블록	-7940
▁서서	-7941
▁서양	-7942
▁숨을	-7943
▁스토	-7944
▁엔터	-7945
▁연계	-7946
▁연례	-7947
▁열심	-7948
▁일치	-7949
▁있은	-7950
▁잡지	-7951
▁전형	-7952
▁주립	-7953
▁중의	-7954
▁즐길	-7955
▁지고	-7956
▁지는	-7957
▁진지	-7958
▁취한	-7959
▁크라	-7960
▁타밀	-7961
▁탄도	-7962
▁테이	-7963
▁통행	-7964
▁퇴원	-7965
▁팀의	-7966
▁파월	-7967
▁풍부	-7968
▁하버	-7969
▁학대	-7970
나에서	-7971
머니는	-7972
베르토	-7973
스트라	-7974
졌지만	-7975
지역의	-7976
쳤으며	-7977
혐의로	-7978
▁fin	-7979
▁fir	-7980
▁경매에	-7981
▁공격한	-7982
▁국가에	-7983
▁권리가	-7984
▁남편이	-7985
▁노트북	-7986
▁뉴욕주	-7987
▁늘어나	-7988
▁도미니	-7989
▁됐으며	-7990
▁목사는	-7991
▁방송에	-7992
▁불능화	-7993
▁뿐이다	-7994
▁살해된	-7995
▁수입을	-7996
▁심장마	-7997
▁앞서고	-7998
▁엄격한	-7999
▁연구소	-8000
▁연기를	-8001
▁연합군	-8002
▁열대성	-8003
▁열렸다	-8004
▁유대인	-8005
▁의견이	-8006
▁이끌고	-8007
▁이메일	-8008
▁일으켰	-8009
▁제외한	-8010
▁지구에	-8011
▁최첨단	-8012
▁폭우로	-8013
▁행동에	-8014
▁향하는	-8015
▁conf	-8016
▁wash	-8017
▁강전에서	-8018
▁결정적인	-8019
▁나타내는	-8020
▁동성애자	-8021
▁보여준다	-8022
▁아닙니다	-8023
▁아름다운	-8024
▁알바니아	-8025
▁연구소의	-8026
▁오클라호	-8027
▁용의자는	-8028
▁위원장이	-8029
▁위협하고	-8030
▁일어나는	-8031
▁준비하고	-8032
▁중이었다	-8033
▁참석하지	-8034
▁타임즈가	-8035
▁확산되고	-8036
ington	-8037
▁결승전에서	-8038
▁시작했다고	-8039
▁알카에다가	-8040
▁우주비행사	-8041
▁secret	-8042
▁넬	-8043
▁몽	-8044
▁턱	-8045
거를	-8046
국과	-8047
는가	-8048
드베	-8049
란타	-8050
력은	-8051
문은	-8052
병이	-8053
생산	-8054
세한	-8055
이와	-8056
졌을	-8057
치와	-8058
크가	-8059
통이	-8060
트와	-8061
판에	-8062
행위	-8063
확실	-8064
ach	-8065
ops	-8066
▁uc	-8067
▁가중	-8068
▁거론	-8069
▁계산	-8070
▁그만	-8071
▁기숙	-8072
▁내지	-8073
▁냈다	-8074
▁단행	-8075
▁당해	-8076
▁데려	-8077
▁도심	-8078
▁때는	-8079
▁모양	-8080
▁모욕	-8081
▁무덤	-8082
▁무승	-8083
▁미리	-8084
▁믿을	-8085
▁밀려	-8086
▁박탈	-8087
▁발행	-8088
▁법무	-8089
▁부탁	-8090
▁부터	-8091
▁빼앗	-8092
▁세탁	-8093
▁씨가	-8094
▁압력	-8095
▁야구	-8096
▁양성	-8097
▁양키	-8098
▁여권	-8099
▁옆에	-8100
▁유기	-8101
▁유통	-8102
▁음성	-8103
▁이다	-8104
▁전년	-8105
▁정전	-8106
▁제약	-8107
▁조심	-8108
▁준수	-8109
▁직업	-8110
▁차베	-8111
▁채취	-8112
▁카지	-8113
▁택시	-8114
▁터널	-8115
▁퇴임	-8116
▁펼친	-8117
▁폭동	-8118
▁플라	-8119
▁하자	-8120
▁허드	-8121
▁형사	-8122
되기도	-8123
레스는	-8124
비치는	-8125
상태에	-8126
자금을	-8127
회의를	-8128
ency	-8129
▁gen	-8130
▁has	-8131
▁roh	-8132
▁강제로	-8133
▁건물에	-8134
▁경기는	-8135
▁계속된	-8136
▁고위급	-8137
▁국가인	-8138
▁남학생	-8139
▁너무나	-8140
▁대서양	-8141
▁대책을	-8142
▁데이터	-8143
▁들어갈	-8144
▁메드베	-8145
▁무엇을	-8146
▁방문은	-8147
▁법원의	-8148
▁불확실	-8149
▁브래드	-8150
▁사임을	-8151
▁사진이	-8152
▁상처를	-8153
▁서울시	-8154
▁서장은	-8155
▁성공을	-8156
▁안으로	-8157
▁알렉스	-8158
▁알렸다	-8159
▁야후의	-8160
▁여지가	-8161
▁역사를	-8162
▁위스콘	-8163
▁윈도우	-8164
▁유명인	-8165
▁이후에	-8166
▁인터폴	-8167
▁일본을	-8168
▁일하고	-8169
▁잃어버	-8170
▁자리잡	-8171
▁중에서	-8172
▁증언을	-8173
▁커다란	-8174
▁터키의	-8175
▁테네시	-8176
들에게는	-8177
▁time	-8178
▁가능성도	-8179
▁가족들과	-8180
▁담당자는	-8181
▁대법원은	-8182
▁동영상이	-8183
▁디자이너	-8184
▁미얀마의	-8185
▁법정에서	-8186
▁보고서에	-8187
▁빅토리아	-8188
▁아니지만	-8189
▁앞으로도	-8190
▁언급하며	-8191
▁여성들은	-8192
▁움직임은	-8193
▁이루어진	-8194
▁이름으로	-8195
▁이브라힘	-8196
▁제시했다	-8197
▁테러조직	-8198
▁텍사스주	-8199
▁플루토늄	-8200
▁대통령으로	-8201
▁민주주의를	-8202
▁오클라호마	-8203
▁통과시켰다	-8204
▁프라이머리에서	-8205
ck	-8206
ls	-8207
po	-8208
vs	-8209
▁딘	-8210
▁써	-8211
▁옳	-8212
▁웰	-8213
▁팽	-8214
▁펄	-8215
넬라	-8216
념을	-8217
단과	-8218
되길	-8219
로에	-8220
미는	-8221
받아	-8222
법원	-8223
사업	-8224
세프	-8225
아버	-8226
아의	-8227
았고	-8228
어요	-8229
연료	-8230
제네	-8231
지방	-8232
진의	-8233
체로	-8234
카는	-8235
클럽	-8236
▁ge	-8237
▁pm	-8238
▁pr	-8239
▁교외	-8240
▁귀환	-8241
▁기원	-8242
▁낮아	-8243
▁노인	-8244
▁느낌	-8245
▁다수	-8246
▁망원	-8247
▁맥캔	-8248
▁모술	-8249
▁모아	-8250
▁무자	-8251
▁밀어	-8252
▁바탕	-8253
▁바티	-8254
▁부검	-8255
▁분께	-8256
▁살모	-8257
▁수류	-8258
▁신발	-8259
▁실현	-8260
▁아지	-8261
▁애국	-8262
▁요리	-8263
▁원인	-8264
▁유일	-8265
▁이득	-8266
▁잇는	-8267
▁정리	-8268
▁조약	-8269
▁종식	-8270
▁중태	-8271
▁판다	-8272
▁해저	-8273
▁활발	-8274
단체인	-8275
들이다	-8276
스럽다	-8277
에게도	-8278
진으로	-8279
트레이	-8280
▁int	-8281
▁기사를	-8282
▁내려진	-8283
▁누구도	-8284
▁느끼고	-8285
▁머레이	-8286
▁발표는	-8287
▁방문해	-8288
▁방법에	-8289
▁병력이	-8290
▁사진은	-8291
▁사형을	-8292
▁생각해	-8293
▁성공한	-8294
▁수행할	-8295
▁스타벅	-8296
▁스타일	-8297
▁스파이	-8298
▁영국에	-8299
▁영화가	-8300
▁왕자는	-8301
▁위하여	-8302
▁유죄를	-8303
▁자녀를	-8304
▁자르다	-8305
▁작업이	-8306
▁작품을	-8307
▁적합한	-8308
▁전투기	-8309
▁최우선	-8310
▁탑승한	-8311
▁토크쇼	-8312
▁파파라	-8313
▁판결이	-8314
▁폭력을	-8315
▁해수면	-8316
▁화려한	-8317
▁활동이	-8318
▁회사에	-8319
▁효과를	-8320
시키려는	-8321
▁york	-8322
▁계획하고	-8323
▁광범위한	-8324
▁국가비상	-8325
▁남아있는	-8326
▁누군가가	-8327
▁메릴랜드	-8328
▁모른다고	-8329
▁보고서가	-8330
▁선거관리	-8331
▁시작으로	-8332
▁실시했다	-8333
▁아라비아	-8334
▁아랍에미	-8335
▁아웅산수	-8336
▁예상하고	-8337
▁위스콘신	-8338
▁전역에서	-8339
▁제출했다	-8340
▁주민들을	-8341
▁주민들의	-8342
▁추정하고	-8343
▁카메라를	-8344
▁코소보의	-8345
▁타이틀을	-8346
▁플레이를	-8347
▁행정부는	-8348
▁홈페이지	-8349
▁개인적으로	-8350
▁국제유가가	-8351
▁요구했다고	-8352
▁안전보장이사회	-8353
▁washington	-8354
▁붐	-8355
괴한	-8356
근혜	-8357
먼트	-8358
비넨	-8359
성화	-8360
시대	-8361
아를	-8362
어와	-8363
어져	-8364
우며	-8365
종을	-8366
지대	-8367
착륙	-8368
크라	-8369
파가	-8370
프롬	-8371
▁ye	-8372
▁갤런	-8373
▁고안	-8374
▁교사	-8375
▁권총	-8376
▁남용	-8377
▁넘게	-8378
▁높게	-8379
▁뉴델	-8380
▁단독	-8381
▁담고	-8382
▁데뷔	-8383
▁도디	-8384
▁동계	-8385
▁루이	-8386
▁맞은	-8387
▁불교	-8388
▁비아	-8389
▁산책	-8390
▁신호	-8391
▁실려	-8392
▁심의	-8393
▁아나	-8394
▁양쪽	-8395
▁염려	-8396
▁완성	-8397
▁워너	-8398
▁원내	-8399
▁원정	-8400
▁유사	-8401
▁유타	-8402
▁이슈	-8403
▁이적	-8404
▁자전	-8405
▁자행	-8406
▁잭슨	-8407
▁증강	-8408
▁치를	-8409
▁투명	-8410
▁포셋	-8411
▁했고	-8412
▁현금	-8413
▁후송	-8414
갔으며	-8415
거래소	-8416
시키며	-8417
시하고	-8418
역에서	-8419
원들을	-8420
이사회	-8421
▁aig	-8422
▁ear	-8423
▁inc	-8424
▁its	-8425
▁one	-8426
▁가난한	-8427
▁강진이	-8428
▁공정한	-8429
▁국립공	-8430
▁규모를	-8431
▁근로자	-8432
▁나이로	-8433
▁내리는	-8434
▁대선에	-8435
▁도착할	-8436
▁동물원	-8437
▁디스커	-8438
▁미래를	-8439
▁미래에	-8440
▁받는다	-8441
▁방문에	-8442
▁변화에	-8443
▁보고를	-8444
▁보내고	-8445
▁사생활	-8446
▁사용된	-8447
▁사퇴를	-8448
▁상대방	-8449
▁세대를	-8450
▁수사에	-8451
▁신속히	-8452
▁실험을	-8453
▁심하게	-8454
▁알리는	-8455
▁여러번	-8456
▁오렌지	-8457
▁왕자의	-8458
▁위안부	-8459
▁위에서	-8460
▁이내에	-8461
▁이처럼	-8462
▁인구의	-8463
▁인사를	-8464
▁일자리	-8465
▁정치인	-8466
▁진전이	-8467
▁친환경	-8468
▁테일러	-8469
▁하이브	-8470
▁학생이	-8471
▁허가를	-8472
▁현재는	-8473
istan	-8474
▁bush	-8475
▁open	-8476
▁거부권을	-8477
▁거절했다	-8478
▁국제우주	-8479
▁기대한다	-8480
▁내렸다고	-8481
▁높아지고	-8482
▁달러까지	-8483
▁대피했다	-8484
▁메드베데	-8485
▁모두에게	-8486
▁목소리를	-8487
▁베네딕토	-8488
▁보냈다고	-8489
▁뿐이라고	-8490
▁사이트를	-8491
▁상황이다	-8492
▁생각하지	-8493
▁선수들은	-8494
▁선수들이	-8495
▁세속주의	-8496
▁숨졌으며	-8497
▁않았다는	-8498
▁연구결과	-8499
▁의원들이	-8500
▁이라크는	-8501
▁이메일을	-8502
▁일어났다	-8503
▁치러지는	-8504
▁학교에서	-8505
▁핵실험을	-8506
▁house	-8507
▁무장세력이	-8508
▁서브프라임	-8509
▁국가비상사태	-8510
▁international	-8511
ds	-8512
ix	-8513
ke	-8514
▁굉	-8515
▁꽃	-8516
▁뚫	-8517
▁츠	-8518
▁콰	-8519
▁큐	-8520
▁펭	-8521
관련	-8522
나를	-8523
나에	-8524
렸을	-8525
마를	-8526
매매	-8527
블로	-8528
시오	-8529
시한	-8530
쓰고	-8531
씨의	-8532
었기	-8533
역에	-8534
정도	-8535
췄다	-8536
카드	-8537
커스	-8538
케인	-8539
킥을	-8540
파의	-8541
평균	-8542
혁명	-8543
ict	-8544
our	-8545
▁do	-8546
▁dr	-8547
▁각국	-8548
▁간호	-8549
▁고의	-8550
▁구류	-8551
▁국세	-8552
▁급습	-8553
▁널리	-8554
▁당의	-8555
▁대전	-8556
▁델타	-8557
▁도난	-8558
▁등급	-8559
▁만화	-8560
▁먹고	-8561
▁모임	-8562
▁미드	-8563
▁바꿀	-8564
▁박스	-8565
▁방출	-8566
▁비가	-8567
▁성격	-8568
▁세대	-8569
▁소아	-8570
▁소장	-8571
▁스탈	-8572
▁안내	-8573
▁안드	-8574
▁앨런	-8575
▁억만	-8576
▁얻게	-8577
▁엑스	-8578
▁요한	-8579
▁워터	-8580
▁웨인	-8581
▁유람	-8582
▁유산	-8583
▁유행	-8584
▁임대	-8585
▁자바	-8586
▁장려	-8587
▁재고	-8588
▁전격	-8589
▁점이	-8590
▁정유	-8591
▁줄리	-8592
▁초에	-8593
▁총에	-8594
▁토로	-8595
▁통보	-8596
▁트라	-8597
▁티벳	-8598
▁페이	-8599
▁포트	-8600
▁향한	-8601
▁호송	-8602
겼다고	-8603
등학교	-8604
사항을	-8605
으려고	-8606
은행이	-8607
크리트	-8608
▁bda	-8609
▁ibm	-8610
▁mdc	-8611
▁rel	-8612
▁감바리	-8613
▁것인가	-8614
▁견해를	-8615
▁결정이	-8616
▁계속할	-8617
▁공개한	-8618
▁공항을	-8619
▁금리를	-8620
▁기분이	-8621
▁나라를	-8622
▁남자를	-8623
▁년으로	-8624
▁다르다	-8625
▁데리고	-8626
▁돌아갈	-8627
▁동안의	-8628
▁맡았다	-8629
▁메이저	-8630
▁명백한	-8631
▁목적을	-8632
▁부대를	-8633
▁부족한	-8634
▁비행을	-8635
▁서신을	-8636
▁성과를	-8637
▁소년이	-8638
▁아마존	-8639
▁아이들	-8640
▁얼굴을	-8641
▁원한다	-8642
▁유럽과	-8643
▁유엔이	-8644
▁의사는	-8645
▁의회를	-8646
▁이란을	-8647
▁이뤄질	-8648
▁일간지	-8649
▁재무부	-8650
▁전략을	-8651
▁전체가	-8652
▁제치고	-8653
▁중이며	-8654
▁지역이	-8655
▁출신인	-8656
▁치러질	-8657
▁클레이	-8658
▁파이프	-8659
▁퍼거슨	-8660
됨에따라	-8661
▁fifa	-8662
▁국가들의	-8663
▁국가정보	-8664
▁국제적인	-8665
▁되었다고	-8666
▁벌어졌다	-8667
▁보좌관은	-8668
▁비디오를	-8669
▁사용했다	-8670
▁살모넬라	-8671
▁시위대를	-8672
▁연구원은	-8673
▁영화에서	-8674
▁울포위츠	-8675
▁이라크내	-8676
▁중단했다	-8677
▁지도자로	-8678
▁직원들은	-8679
▁카를로스	-8680
▁파리에서	-8681
▁무장세력의	-8682
▁발견되었다	-8683
▁시위자들은	-8684
▁않았습니다	-8685
▁유권자들은	-8686
▁상승했습니다	-8687
▁자살폭탄테러가	-8688
ah	-8689
▁굳	-8690
▁렌	-8691
▁봐	-8692
▁짝	-8693
▁쳐	-8694
▁춤	-8695
공급	-8696
과학	-8697
구의	-8698
도와	-8699
라바	-8700
력과	-8701
력의	-8702
면에	-8703
모를	-8704
받는	-8705
사이	-8706
인다	-8707
인민	-8708
입을	-8709
제이	-8710
조한	-8711
크의	-8712
튼의	-8713
파울	-8714
플루	-8715
히는	-8716
ble	-8717
for	-8718
ish	-8719
ute	-8720
▁cd	-8721
▁가끔	-8722
▁강에	-8723
▁강행	-8724
▁결심	-8725
▁교토	-8726
▁군과	-8727
▁기아	-8728
▁깨끗	-8729
▁내다	-8730
▁대우	-8731
▁도덕	-8732
▁동참	-8733
▁라우	-8734
▁막아	-8735
▁만능	-8736
▁맨해	-8737
▁먹는	-8738
▁모집	-8739
▁무렵	-8740
▁묻는	-8741
▁박사	-8742
▁반전	-8743
▁발매	-8744
▁부러	-8745
▁부속	-8746
▁불만	-8747
▁세운	-8748
▁수족	-8749
▁수컷	-8750
▁숙박	-8751
▁시점	-8752
▁약혼	-8753
▁언덕	-8754
▁역임	-8755
▁연극	-8756
▁였다	-8757
▁영구	-8758
▁옥스	-8759
▁왜곡	-8760
▁요즘	-8761
▁위생	-8762
▁유적	-8763
▁이외	-8764
▁이정	-8765
▁장교	-8766
▁재무	-8767
▁전범	-8768
▁조항	-8769
▁주거	-8770
▁찾지	-8771
▁측이	-8772
▁치솟	-8773
▁포장	-8774
▁항생	-8775
▁행렬	-8776
▁협약	-8777
국들은	-8778
랜드는	-8779
럼비아	-8780
렀다고	-8781
으므로	-8782
정부의	-8783
졌으나	-8784
총리는	-8785
ains	-8786
uman	-8787
▁감정을	-8788
▁기능을	-8789
▁긴장이	-8790
▁납치한	-8791
▁다니는	-8792
▁돌아와	-8793
▁런던의	-8794
▁마이스	-8795
▁바티칸	-8796
▁박근혜	-8797
▁범죄를	-8798
▁보다는	-8799
▁상파울	-8800
▁세력을	-8801
▁수반은	-8802
▁시신은	-8803
▁신원이	-8804
▁아스날	-8805
▁업무를	-8806
▁연구가	-8807
▁열심히	-8808
▁왔다고	-8809
▁우울증	-8810
▁유력한	-8811
▁의원을	-8812
▁전쟁이	-8813
▁존스턴	-8814
▁주요한	-8815
▁중단을	-8816
▁취하고	-8817
▁크기의	-8818
▁텔레비	-8819
▁투표가	-8820
▁피랍된	-8821
▁피하기	-8822
▁해수욕	-8823
▁호텔에	-8824
▁work	-8825
▁가능하다	-8826
▁공개하지	-8827
▁관계자의	-8828
▁국민투표	-8829
▁내려졌다	-8830
▁노르웨이	-8831
▁당부했다	-8832
▁받아왔다	-8833
▁분리주의	-8834
▁분위기를	-8835
▁승인했다	-8836
▁시티그룹	-8837
▁아버지인	-8838
▁아시아의	-8839
▁위원회의	-8840
▁일으켰다	-8841
▁자동차업	-8842
▁자원봉사	-8843
▁재판에서	-8844
▁전해졌다	-8845
▁정부군이	-8846
▁차지하는	-8847
▁최고경영	-8848
▁출연했다	-8849
▁테이프를	-8850
▁평화적인	-8851
▁first	-8852
▁다우지수는	-8853
▁오하이오주	-8854
▁용의자들을	-8855
▁적극적으로	-8856
▁정기적으로	-8857
▁파키스탄에	-8858
▁프랑스에서	-8859
▁프로그램이	-8860
▁하이브리드	-8861
▁학생들에게	-8862
▁국제우주정거	-8863
▁아랍에미리트	-8864
▁아마디네자드	-8865
▁military	-8866
go	-8867
▁굿	-8868
▁깔	-8869
▁덜	-8870
검사	-8871
것도	-8872
니를	-8873
니언	-8874
당에	-8875
독한	-8876
려야	-8877
마르	-8878
미를	-8879
받침	-8880
범한	-8881
보안	-8882
본부	-8883
색을	-8884
서치	-8885
애틀	-8886
올로	-8887
정상	-8888
정의	-8889
지다	-8890
타이	-8891
테르	-8892
티에	-8893
피를	-8894
해가	-8895
해주	-8896
lic	-8897
mer	-8898
pos	-8899
urt	-8900
▁gu	-8901
▁lg	-8902
▁강간	-8903
▁것일	-8904
▁고어	-8905
▁공대	-8906
▁꺾고	-8907
▁남쪽	-8908
▁내리	-8909
▁당일	-8910
▁덕분	-8911
▁던진	-8912
▁럼스	-8913
▁모리	-8914
▁미셸	-8915
▁박격	-8916
▁발이	-8917
▁봤다	-8918
▁부결	-8919
▁사인	-8920
▁삭감	-8921
▁산맥	-8922
▁상의	-8923
▁스노	-8924
▁신사	-8925
▁아빠	-8926
▁약탈	-8927
▁없애	-8928
▁에따	-8929
▁연출	-8930
▁외계	-8931
▁우편	-8932
▁워렌	-8933
▁유수	-8934
▁음료	-8935
▁일고	-8936
▁저렴	-8937
▁전파	-8938
▁접수	-8939
▁제정	-8940
▁진전	-8941
▁체류	-8942
▁치매	-8943
▁카스	-8944
▁크리	-8945
▁표결	-8946
▁한달	-8947
▁해상	-8948
▁해소	-8949
▁해체	-8950
▁회동	-8951
고에서	-8952
까지도	-8953
어졌다	-8954
에게서	-8955
이라며	-8956
통신이	-8957
하려던	-8958
ople	-8959
▁rep	-8960
▁가져올	-8961
▁간단한	-8962
▁개발에	-8963
▁건물을	-8964
▁경고를	-8965
▁구호물	-8966
▁남성을	-8967
▁내용에	-8968
▁돌아올	-8969
▁디트로	-8970
▁못한다	-8971
▁무장한	-8972
▁반군은	-8973
▁방향을	-8974
▁부분이	-8975
▁생존자	-8976
▁선거가	-8977
▁수감된	-8978
▁수사가	-8979
▁수치는	-8980
▁실패한	-8981
▁앞섰다	-8982
▁억만장	-8983
▁에르도	-8984
▁연락을	-8985
▁예정이	-8986
▁올라가	-8987
▁위협에	-8988
▁음주운	-8989
▁이유가	-8990
▁장관과	-8991
▁전에는	-8992
▁제시한	-8993
▁제품을	-8994
▁조직을	-8995
▁주식을	-8996
▁진행될	-8997
▁총기를	-8998
▁켄터키	-8999
▁파업에	-9000
▁편지를	-9001
▁해안에	-9002
▁행위는	-9003
▁현상이	-9004
▁형태의	-9005
▁환자가	-9006
대회에서	-9007
렸습니다	-9008
시장에서	-9009
위원장은	-9010
▁apec	-9011
▁가즈프롬	-9012
▁개발도상	-9013
▁거리에서	-9014
▁관련하여	-9015
▁권고했다	-9016
▁대표하는	-9017
▁못했지만	-9018
▁반대하고	-9019
▁병사들이	-9020
▁분석했다	-9021
▁선고했다	-9022
▁시나리오	-9023
▁않습니다	-9024
▁에드워드	-9025
▁여객기는	-9026
▁윌리엄스	-9027
▁의심되는	-9028
▁인질들이	-9029
▁정부에서	-9030
▁차전에서	-9031
▁창기라이	-9032
▁출신으로	-9033
▁출전하지	-9034
▁클린턴과	-9035
▁피츠버그	-9036
▁항의하는	-9037
▁헤럴드는	-9038
▁확신한다	-9039
▁확인되지	-9040
▁회견에서	-9041
▁press	-9042
▁동영상에서	-9043
▁디트로이트	-9044
▁러닝메이트	-9045
▁연구원들은	-9046
▁유나이티드	-9047
▁유죄판결을	-9048
▁지속적으로	-9049
▁people	-9050
bo	-9051
▁괜	-9052
▁덩	-9053
▁융	-9054
국민	-9055
기부	-9056
나게	-9057
노조	-9058
놓고	-9059
당인	-9060
런스	-9061
마의	-9062
만간	-9063
보좌	-9064
석에	-9065
연을	-9066
음이	-9067
조약	-9068
지우	-9069
차는	-9070
크를	-9071
클로	-9072
클리	-9073
타를	-9074
학을	-9075
ory	-9076
▁거친	-9077
▁결합	-9078
▁괜찮	-9079
▁구경	-9080
▁기증	-9081
▁기획	-9082
▁깊이	-9083
▁끊임	-9084
▁내전	-9085
▁돈이	-9086
▁마찰	-9087
▁만료	-9088
▁매입	-9089
▁물가	-9090
▁물어	-9091
▁미셀	-9092
▁발급	-9093
▁베탕	-9094
▁북측	-9095
▁상처	-9096
▁소니	-9097
▁솔로	-9098
▁송금	-9099
▁수락	-9100
▁쉬운	-9101
▁슬로	-9102
▁시골	-9103
▁실적	-9104
▁싶지	-9105
▁양측	-9106
▁에너	-9107
▁연말	-9108
▁영장	-9109
▁오를	-9110
▁인내	-9111
▁잠수	-9112
▁점유	-9113
▁정밀	-9114
▁즐기	-9115
▁지점	-9116
▁진상	-9117
▁차가	-9118
▁체계	-9119
▁총통	-9120
▁취급	-9121
▁케르	-9122
▁코너	-9123
▁터뜨	-9124
▁파편	-9125
▁포획	-9126
▁피신	-9127
▁헬리	-9128
병으로	-9129
시키지	-9130
위에서	-9131
정으로	-9132
태평양	-9133
▁cor	-9134
▁개발한	-9135
▁거부한	-9136
▁기지를	-9137
▁긴장을	-9138
▁남부의	-9139
▁남자의	-9140
▁대테러	-9141
▁뒷받침	-9142
▁북극곰	-9143
▁분노를	-9144
▁분쟁을	-9145
▁비공식	-9146
▁사고의	-9147
▁사이버	-9148
▁석방된	-9149
▁선수로	-9150
▁스튜어	-9151
▁안보를	-9152
▁언급한	-9153
▁없다며	-9154
▁열었다	-9155
▁오프라	-9156
▁우리당	-9157
▁원자력	-9158
▁위치를	-9159
▁위치해	-9160
▁유세를	-9161
▁은신처	-9162
▁의문을	-9163
▁이곳을	-9164
▁일제히	-9165
▁자격이	-9166
▁자국의	-9167
▁자세히	-9168
▁전투를	-9169
▁접촉을	-9170
▁조만간	-9171
▁조치로	-9172
▁줄이기	-9173
▁즐기는	-9174
▁지수가	-9175
▁참가한	-9176
▁출전할	-9177
▁캐릭터	-9178
▁크루즈	-9179
▁특사는	-9180
▁하도록	-9181
▁행진을	-9182
tions	-9183
▁high	-9184
▁miss	-9185
▁거짓말을	-9186
▁결혼식을	-9187
▁계속하고	-9188
▁그들에게	-9189
▁문제들을	-9190
▁발견되지	-9191
▁사과했다	-9192
▁샤라포바	-9193
▁수십명이	-9194
▁수요일에	-9195
▁수천명이	-9196
▁시인했다	-9197
▁아무것도	-9198
▁안토니오	-9199
▁엘리베이	-9200
▁용의자를	-9201
▁재무장관	-9202
▁줄기세포	-9203
▁테러와의	-9204
▁포함됐다	-9205
▁힐러리가	-9206
ration	-9207
▁교도소에서	-9208
▁디스커버리	-9209
▁소비자들이	-9210
▁수사관들은	-9211
▁이스라엘을	-9212
▁파키스탄이	-9213
▁플로리다주	-9214
▁associ	-9215
▁secretary	-9216
ai	-9217
fo	-9218
▁갔	-9219
▁깁	-9220
▁닭	-9221
▁뮌	-9222
▁쟁	-9223
▁쪽	-9224
▁험	-9225
관과	-9226
구조	-9227
르바	-9228
름이	-9229
말라	-9230
명에	-9231
백을	-9232
분야	-9233
석은	-9234
세이	-9235
업자	-9236
자스	-9237
자원	-9238
청이	-9239
치인	-9240
타다	-9241
타운	-9242
통합	-9243
티의	-9244
파인	-9245
허가	-9246
ral	-9247
rol	-9248
vel	-9249
▁ny	-9250
▁가깝	-9251
▁가리	-9252
▁각종	-9253
▁교과	-9254
▁국적	-9255
▁기분	-9256
▁기뻐	-9257
▁나섰	-9258
▁내의	-9259
▁노던	-9260
▁느껴	-9261
▁다소	-9262
▁던져	-9263
▁덴버	-9264
▁독도	-9265
▁동굴	-9266
▁득점	-9267
▁리오	-9268
▁면서	-9269
▁무산	-9270
▁물품	-9271
▁발렌	-9272
▁발령	-9273
▁발의	-9274
▁배포	-9275
▁벌이	-9276
▁복합	-9277
▁부처	-9278
▁불황	-9279
▁사마	-9280
▁산하	-9281
▁상위	-9282
▁생겨	-9283
▁소총	-9284
▁손해	-9285
▁스콧	-9286
▁신의	-9287
▁실수	-9288
▁심슨	-9289
▁쓰는	-9290
▁씨의	-9291
▁아민	-9292
▁악의	-9293
▁엉덩	-9294
▁예언	-9295
▁위축	-9296
▁유괴	-9297
▁유조	-9298
▁인형	-9299
▁장벽	-9300
▁절약	-9301
▁제니	-9302
▁종사	-9303
▁주류	-9304
▁줄을	-9305
▁찍은	-9306
▁참전	-9307
▁추천	-9308
▁치른	-9309
▁통근	-9310
▁피추	-9311
▁필수	-9312
▁하드	-9313
▁회수	-9314
▁히트	-9315
단체의	-9316
대학교	-9317
들보다	-9318
중이다	-9319
학자인	-9320
ited	-9321
▁acc	-9322
▁aid	-9323
▁dec	-9324
▁tri	-9325
▁two	-9326
▁감독을	-9327
▁검색어	-9328
▁경기장	-9329
▁과정에	-9330
▁교전을	-9331
▁국민을	-9332
▁기술이	-9333
▁끔찍한	-9334
▁넣었다	-9335
▁느끼는	-9336
▁다수의	-9337
▁다행히	-9338
▁대비해	-9339
▁대한민	-9340
▁돌아온	-9341
▁된다면	-9342
▁명이다	-9343
▁모여들	-9344
▁무소속	-9345
▁무죄를	-9346
▁번이나	-9347
▁범인은	-9348
▁보여준	-9349
▁보유한	-9350
▁본부를	-9351
▁분량의	-9352
▁분야에	-9353
▁브로드	-9354
▁사례가	-9355
▁사용을	-9356
▁사회에	-9357
▁사회의	-9358
▁새롭게	-9359
▁세웠다	-9360
▁소리를	-9361
▁소유한	-9362
▁슈퍼볼	-9363
▁스탈린	-9364
▁시애틀	-9365
▁실시될	-9366
▁아니며	-9367
▁안전에	-9368
▁오늘밤	-9369
▁외무성	-9370
▁우간다	-9371
▁유전자	-9372
▁유지할	-9373
▁의미가	-9374
▁의장이	-9375
▁인상을	-9376
▁있기를	-9377
▁자금이	-9378
▁조직의	-9379
▁죽음에	-9380
▁집회에	-9381
▁출연해	-9382
▁카지노	-9383
▁테러의	-9384
▁트라볼	-9385
▁판결에	-9386
▁평가를	-9387
▁포스트	-9388
▁한다면	-9389
▁행동이	-9390
▁협력을	-9391
▁협정을	-9392
위원회에	-9393
ainst	-9394
▁comp	-9395
▁검토하고	-9396
▁남쪽으로	-9397
▁동의했다	-9398
▁레이스를	-9399
▁방송에서	-9400
▁법적으로	-9401
▁부상자가	-9402
▁북한과의	-9403
▁불법으로	-9404
▁브레이크	-9405
▁사용되는	-9406
▁샤리프는	-9407
▁수백명이	-9408
▁예상되고	-9409
▁예측했다	-9410
▁온실가스	-9411
▁움직임이	-9412
▁워싱턴의	-9413
▁이들에게	-9414
▁전달했다	-9415
▁전쟁으로	-9416
▁증가하는	-9417
▁최고치를	-9418
▁출구조사	-9419
▁프랑스는	-9420
▁하마스의	-9421
▁활동하고	-9422
illion	-9423
▁human	-9424
▁노대통령은	-9425
▁재무장관은	-9426
▁지도자들을	-9427
▁폭력사태로	-9428
▁center	-9429
▁연방준비제도	-9430
▁지지자들에게	-9431
▁against	-9432
av	-9433
ms	-9434
▁댈	-9435
▁램	-9436
▁킨	-9437
▁헝	-9438
▁흩	-9439
가격	-9440
과정	-9441
길을	-9442
까요	-9443
내려	-9444
널티	-9445
니고	-9446
대책	-9447
되던	-9448
드폰	-9449
렌은	-9450
례를	-9451
림을	-9452
미한	-9453
방이	-9454
법이	-9455
복지	-9456
본을	-9457
브가	-9458
브레	-9459
빌리	-9460
색의	-9461
시로	-9462
심한	-9463
우석	-9464
절한	-9465
제품	-9466
클린	-9467
퍼드	-9468
평가	-9469
프에	-9470
협력	-9471
ook	-9472
ung	-9473
▁sw	-9474
▁가동	-9475
▁게리	-9476
▁고수	-9477
▁공사	-9478
▁규칙	-9479
▁균형	-9480
▁급진	-9481
▁나눠	-9482
▁날이	-9483
▁남녀	-9484
▁남미	-9485
▁남서	-9486
▁내게	-9487
▁내로	-9488
▁놀랄	-9489
▁다비	-9490
▁도핑	-9491
▁독감	-9492
▁돌을	-9493
▁드는	-9494
▁딜러	-9495
▁라울	-9496
▁레오	-9497
▁로맨	-9498
▁매도	-9499
▁매몰	-9500
▁모의	-9501
▁모험	-9502
▁반미	-9503
▁배급	-9504
▁버냉	-9505
▁버크	-9506
▁벌일	-9507
▁보증	-9508
▁복원	-9509
▁브랜	-9510
▁브로	-9511
▁생태	-9512
▁선진	-9513
▁슬픔	-9514
▁안나	-9515
▁암호	-9516
▁얼룩	-9517
▁오케	-9518
▁자사	-9519
▁작곡	-9520
▁절도	-9521
▁중반	-9522
▁지분	-9523
▁처형	-9524
▁첩보	-9525
▁첫날	-9526
▁취해	-9527
▁침묵	-9528
▁카디	-9529
▁카자	-9530
▁칸다	-9531
▁칼리	-9532
▁코피	-9533
▁클로	-9534
▁톤의	-9535
▁피할	-9536
▁해방	-9537
▁호날	-9538
▁호전	-9539
▁화염	-9540
거리는	-9541
공격을	-9542
국들이	-9543
까지는	-9544
내에서	-9545
달라는	-9546
메이션	-9547
문제를	-9548
센터는	-9549
스러워	-9550
시킨다	-9551
아티아	-9552
어지는	-9553
인에게	-9554
작으로	-9555
제네거	-9556
지역인	-9557
플루엔	-9558
할만한	-9559
화되고	-9560
enti	-9561
▁sur	-9562
▁강화할	-9563
▁경계를	-9564
▁교전이	-9565
▁급격히	-9566
▁기준금	-9567
▁끝까지	-9568
▁내셔널	-9569
▁노력할	-9570
▁뉴욕에	-9571
▁늘어날	-9572
▁다리가	-9573
▁단순히	-9574
▁담배를	-9575
▁대선주	-9576
▁대회에	-9577
▁들어와	-9578
▁레이저	-9579
▁리조트	-9580
▁머리카	-9581
▁목적이	-9582
▁못했던	-9583
▁미시건	-9584
▁미주리	-9585
▁바하마	-9586
▁반체제	-9587
▁밝히며	-9588
▁베이루	-9589
▁부인인	-9590
▁부토는	-9591
▁브리트	-9592
▁브리티	-9593
▁산불이	-9594
▁서울에	-9595
▁선박이	-9596
▁선택할	-9597
▁세계를	-9598
▁시간의	-9599
▁시작될	-9600
▁약속한	-9601
▁양측이	-9602
▁연기가	-9603
▁영상을	-9604
▁외쳤다	-9605
▁인도분	-9606
▁임기를	-9607
▁입수한	-9608
▁자신에	-9609
▁재판에	-9610
▁재판이	-9611
▁존스는	-9612
▁철저히	-9613
▁최고위	-9614
▁토대로	-9615
▁헬리콥	-9616
▁휴스턴	-9617
아프리카	-9618
▁have	-9619
▁거래됐다	-9620
▁공격했다	-9621
▁그곳에서	-9622
▁대표단은	-9623
▁목요일에	-9624
▁북한에서	-9625
▁스튜디오	-9626
▁스페인의	-9627
▁실질적인	-9628
▁야생동물	-9629
▁연구에서	-9630
▁요르단강	-9631
▁이라크로	-9632
▁인정하지	-9633
▁일어나고	-9634
▁자동차를	-9635
▁장소에서	-9636
▁전합니다	-9637
▁정부군과	-9638
▁지역사회	-9639
▁징역형을	-9640
▁총리에게	-9641
▁크레이그	-9642
▁하마스는	-9643
▁헤즈볼라	-9644
▁호주오픈	-9645
▁확인하기	-9646
▁가족들에게	-9647
▁정치적으로	-9648
▁크로아티아	-9649
▁프로그램의	-9650
▁항공우주국	-9651
▁troops	-9652
▁라스베이거스	-9653
▁인도네시아의	-9654
▁england	-9655
af	-9656
cc	-9657
mp	-9658
▁닌	-9659
▁촛	-9660
그라	-9661
다이	-9662
데버	-9663
드러	-9664
들인	-9665
듯이	-9666
디슈	-9667
라리	-9668
리야	-9669
리티	-9670
메르	-9671
물인	-9672
법의	-9673
보로	-9674
사절	-9675
세는	-9676
세에	-9677
있을	-9678
제의	-9679
지수	-9680
차량	-9681
처리	-9682
쿠니	-9683
타가	-9684
타의	-9685
토는	-9686
해도	-9687
해에	-9688
화될	-9689
int	-9690
ons	-9691
▁ai	-9692
▁가죽	-9693
▁감정	-9694
▁광장	-9695
▁군함	-9696
▁금년	-9697
▁나빠	-9698
▁네이	-9699
▁달아	-9700
▁대폭	-9701
▁도울	-9702
▁마침	-9703
▁만장	-9704
▁말로	-9705
▁메리	-9706
▁면접	-9707
▁몸값	-9708
▁무대	-9709
▁무효	-9710
▁뮌헨	-9711
▁반등	-9712
▁발레	-9713
▁부실	-9714
▁분경	-9715
▁사면	-9716
▁삶의	-9717
▁얻지	-9718
▁엔지	-9719
▁역대	-9720
▁울프	-9721
▁원치	-9722
▁입어	-9723
▁적응	-9724
▁전임	-9725
▁제네	-9726
▁제도	-9727
▁제일	-9728
▁종이	-9729
▁중도	-9730
▁집필	-9731
▁집회	-9732
▁친선	-9733
▁클루	-9734
▁키드	-9735
▁편안	-9736
▁플레	-9737
▁피부	-9738
▁피의	-9739
▁하트	-9740
▁했을	-9741
▁화가	-9742
▁확장	-9743
관계가	-9744
구에서	-9745
냈으며	-9746
시키려	-9747
rest	-9748
ther	-9749
▁가량의	-9750
▁개표가	-9751
▁겨냥한	-9752
▁국회에	-9753
▁기자의	-9754
▁남성과	-9755
▁남편은	-9756
▁내리고	-9757
▁노동당	-9758
▁뉴욕시	-9759
▁단체를	-9760
▁도시를	-9761
▁동물을	-9762
▁라호르	-9763
▁메모리	-9764
▁명확히	-9765
▁물건을	-9766
▁미군에	-9767
▁미래의	-9768
▁바닥에	-9769
▁바람이	-9770
▁방식을	-9771
▁보도한	-9772
▁부르는	-9773
▁부모가	-9774
▁분쟁이	-9775
▁사라진	-9776
▁선거는	-9777
▁속도를	-9778
▁스프링	-9779
▁시위로	-9780
▁신뢰를	-9781
▁신호를	-9782
▁쌍둥이	-9783
▁안보리	-9784
▁않겠다	-9785
▁압바스	-9786
▁야당은	-9787
▁여사가	-9788
▁연료를	-9789
▁외교관	-9790
▁원숭이	-9791
▁유감을	-9792
▁이르기	-9793
▁이스트	-9794
▁임기가	-9795
▁전력을	-9796
▁전체에	-9797
▁정치범	-9798
▁주장이	-9799
▁줄이는	-9800
▁지구의	-9801
▁지수도	-9802
▁추락한	-9803
▁취하지	-9804
▁태우고	-9805
▁특별히	-9806
▁판매를	-9807
▁하는데	-9808
▁항공은	-9809
▁행사할	-9810
▁호랑이	-9811
▁환경에	-9812
▁회의가	-9813
▁히드로	-9814
시키는데	-9815
에서부터	-9816
ublic	-9817
▁says	-9818
▁국방부가	-9819
▁기자들이	-9820
▁당선자는	-9821
▁데이비스	-9822
▁둘러싸고	-9823
▁러시아와	-9824
▁밝혔었다	-9825
▁밝혔으나	-9826
▁보였다고	-9827
▁본선에서	-9828
▁부인하고	-9829
▁사망자를	-9830
▁사상자가	-9831
▁스미스의	-9832
▁시민들은	-9833
▁아버지의	-9834
▁예정되어	-9835
▁이슬람교	-9836
▁이어졌다	-9837
▁인명피해	-9838
▁일으키는	-9839
▁저항세력	-9840
▁전쟁에서	-9841
▁제외하고	-9842
▁증언했다	-9843
▁테러단체	-9844
▁표시했다	-9845
▁확인하고	-9846
▁trans	-9847
▁가자지구를	-9848
▁때문입니다	-9849
▁받아들이지	-9850
▁상원의원에	-9851
▁애니메이션	-9852
▁어린이들이	-9853
▁우주왕복선	-9854
▁이탈리아의	-9855
▁프로그램은	-9856
▁파키스탄에서	-9857
▁팔레스타인의	-9858
▁닷	-9859
▁랄	-9860
▁슛	-9861
▁팜	-9862
권은	-9863
당국	-9864
돌이	-9865
디가	-9866
마트	-9867
무드	-9868
박한	-9869
병은	-9870
보장	-9871
선과	-9872
세기	-9873
션을	-9874
습을	-9875
의원	-9876
인도	-9877
전략	-9878
커가	-9879
크로	-9880
통을	-9881
현정	-9882
ern	-9883
ick	-9884
▁il	-9885
▁lp	-9886
▁mm	-9887
▁가한	-9888
▁개설	-9889
▁고장	-9890
▁김선	-9891
▁나왔	-9892
▁내세	-9893
▁당원	-9894
▁독자	-9895
▁딸의	-9896
▁리우	-9897
▁마스	-9898
▁만이	-9899
▁매력	-9900
▁맥주	-9901
▁모가	-9902
▁모으	-9903
▁무크	-9904
▁믿는	-9905
▁발을	-9906
▁방화	-9907
▁버진	-9908
▁번호	-9909
▁부작	-9910
▁블룸	-9911
▁상담	-9912
▁세웠	-9913
▁숨어	-9914
▁슈워	-9915
▁시일	-9916
▁싸움	-9917
▁아칸	-9918
▁앞선	-9919
▁역전	-9920
▁연안	-9921
▁열려	-9922
▁영광	-9923
▁예배	-9924
▁예약	-9925
▁유용	-9926
▁음란	-9927
▁입력	-9928
▁장비	-9929
▁저택	-9930
▁전부	-9931
▁점프	-9932
▁제프	-9933
▁조명	-9934
▁조짐	-9935
▁종파	-9936
▁주당	-9937
▁징계	-9938
▁칼라	-9939
▁타협	-9940
▁토마	-9941
▁퇴역	-9942
▁파크	-9943
▁펭귄	-9944
▁포괄	-9945
▁폭로	-9946
▁품목	-9947
▁휴먼	-9948
바에서	-9949
상태를	-9950
세력을	-9951
스타인	-9952
었는데	-9953
었는지	-9954
자였던	-9955
작업이	-9956
최지우	-9957
arch	-9958
ings	-9959
▁bar	-9960
▁law	-9961
▁usa	-9962
▁강타한	-9963
▁개선을	-9964
▁거리로	-9965
▁검찰의	-9966
▁것이기	-9967
▁고현정	-9968
▁공급을	-9969
▁관람객	-9970
▁그곳에	-9971
▁글래스	-9972
▁기대를	-9973
▁기반을	-9974
▁나눴다	-9975
▁나와즈	-9976
▁나타났	-9977
▁남한의	-9978
▁노력의	-9979
▁뉴스의	-9980
▁달라고	-9981
▁답변을	-9982
▁드라이	-9983
▁들어온	-9984
▁때마다	-9985
▁떨어질	-9986
▁라모스	-9987
▁런던에	-9988
▁마케팅	-9989
▁모두를	-9990
▁목소리	-9991
▁문서를	-9992
▁박사가	-9993
▁베탕쿠	-9994
▁보상을	-9995
▁부분은	-9996
▁붕괴된	-9997
▁비난한	-9998
▁선거의	-9999
▁성직자	-10000
▁세에서	-10001
▁센터의	-10002
▁손상을	-10003
▁시라크	-10004
▁아이는	-10005
▁야당의	-10006
▁야당이	-10007
▁언제나	-10008
▁에스토	-10009
▁영향력	-10010
▁요구에	-10011
▁요청한	-10012
▁운동가	-10013
▁원하지	-10014
▁이름의	-10015
▁인기가	-10016
▁일에도	-10017
▁있었기	-10018
▁자격을	-10019
▁자살한	-10020
▁재개할	-10021
▁재활용	-10022
▁중심에	-10023
▁지방의	-10024
▁차량은	-10025
▁총리로	-10026
▁취했다	-10027
▁친구가	-10028
▁통해서	-10029
▁하버드	-10030
▁행사가	-10031
▁형태로	-10032
▁확보할	-10033
되었다는	-10034
되었지만	-10035
하였으며	-10036
▁meet	-10037
▁강화하고	-10038
▁경쟁자인	-10039
▁관점에서	-10040
▁국민들을	-10041
▁국방위원	-10042
▁국회에서	-10043
▁근본주의	-10044
▁대사관은	-10045
▁들어가는	-10046
▁라이벌인	-10047
▁럼스펠드	-10048
▁말하면서	-10049
▁밝혀냈다	-10050
▁벌였다고	-10051
▁베어스턴	-10052
▁생산하는	-10053
▁수상자인	-10054
▁애틀랜타	-10055
▁에따르면	-10056
▁에르도간	-10057
▁연방수사	-10058
▁영국으로	-10059
▁인질들의	-10060
▁일어나지	-10061
▁책임자인	-10062
▁취소했다	-10063
▁크리스마	-10064
▁탈레반과	-10065
▁테러지원	-10066
▁필요성을	-10067
▁해결책을	-10068
▁행사에서	-10069
▁호주에서	-10070
▁확신했다	-10071
▁회사들이	-10072
▁휴대전화	-10073
▁힐러리는	-10074
▁court	-10075
▁secur	-10076
▁관광객들이	-10077
▁국무장관이	-10078
▁되었습니다	-10079
▁미국에서는	-10080
▁상원의원인	-10081
▁에스토니아	-10082
▁지지선언을	-10083
▁하락했습니다	-10084
hd	-10085
▁류	-10086
▁줬	-10087
▁챙	-10088
감은	-10089
개월	-10090
검찰	-10091
게도	-10092
고가	-10093
골로	-10094
두를	-10095
롭고	-10096
르며	-10097
바일	-10098
바흐	-10099
밴드	-10100
비한	-10101
선한	-10102
세대	-10103
세와	-10104
이란	-10105
이면	-10106
장애	-10107
주기	-10108
청의	-10109
총장	-10110
켓을	-10111
하러	-10112
호에	-10113
ief	-10114
ise	-10115
rac	-10116
▁bm	-10117
▁bu	-10118
▁감기	-10119
▁거둔	-10120
▁권리	-10121
▁년전	-10122
▁녹색	-10123
▁대니	-10124
▁대략	-10125
▁뒤집	-10126
▁들을	-10127
▁라시	-10128
▁로버	-10129
▁리얼	-10130
▁매주	-10131
▁머무	-10132
▁명칭	-10133
▁바꿔	-10134
▁바쿠	-10135
▁반환	-10136
▁발달	-10137
▁발효	-10138
▁배를	-10139
▁배상	-10140
▁뱅크	-10141
▁본다	-10142
▁성사	-10143
▁손실	-10144
▁수수	-10145
▁스텔	-10146
▁승점	-10147
▁신원	-10148
▁안락	-10149
▁암시	-10150
▁역설	-10151
▁와의	-10152
▁요새	-10153
▁운반	-10154
▁유입	-10155
▁유해	-10156
▁은하	-10157
▁의석	-10158
▁임상	-10159
▁잡은	-10160
▁제의	-10161
▁조속	-10162
▁존경	-10163
▁좋다	-10164
▁줄여	-10165
▁지낸	-10166
▁차로	-10167
▁착취	-10168
▁창설	-10169
▁채가	-10170
▁최후	-10171
▁침팬	-10172
▁타계	-10173
▁털어	-10174
▁파란	-10175
▁펀드	-10176
▁포터	-10177
▁피로	-10178
▁하산	-10179
▁하얀	-10180
▁한층	-10181
▁할지	-10182
▁행성	-10183
▁현상	-10184
▁혈액	-10185
▁흰색	-10186
▁히스	-10187
대표는	-10188
돼있다	-10189
되지만	-10190
베리아	-10191
연구소	-10192
지기도	-10193
하자는	-10194
해서는	-10195
회장은	-10196
ents	-10197
iver	-10198
▁cap	-10199
▁car	-10200
▁kim	-10201
▁wto	-10202
▁경영진	-10203
▁공급이	-10204
▁국가는	-10205
▁국가들	-10206
▁근처에	-10207
▁끝나는	-10208
▁나가는	-10209
▁나오고	-10210
▁노력에	-10211
▁높이의	-10212
▁덕분에	-10213
▁동유럽	-10214
▁만개의	-10215
▁만명에	-10216
▁머리에	-10217
▁명백히	-10218
▁모로코	-10219
▁목적은	-10220
▁무장대	-10221
▁미국산	-10222
▁미끄러	-10223
▁병원을	-10224
▁복귀할	-10225
▁분위기	-10226
▁사람과	-10227
▁사원을	-10228
▁사이언	-10229
▁선출된	-10230
▁쇠고기	-10231
▁수업을	-10232
▁시까지	-10233
▁실업수	-10234
▁싶다고	-10235
▁쓰레기	-10236
▁않아도	-10237
▁어두운	-10238
▁어려움	-10239
▁여왕의	-10240
▁연구의	-10241
▁영감을	-10242
▁올리고	-10243
▁요청할	-10244
▁의석을	-10245
▁이래로	-10246
▁인근서	-10247
▁일으켜	-10248
▁자살을	-10249
▁자이언	-10250
▁작성한	-10251
▁정도가	-10252
▁정보가	-10253
▁정상화	-10254
▁제작된	-10255
▁조건을	-10256
▁조치에	-10257
▁종교적	-10258
▁주가가	-10259
▁주장은	-10260
▁진전을	-10261
▁차례로	-10262
▁차이나	-10263
▁차지한	-10264
▁카라치	-10265
▁코스피	-10266
▁티셔츠	-10267
▁패리스	-10268
▁폭발물	-10269
▁필요할	-10270
▁하나가	-10271
▁해왔다	-10272
▁혼란에	-10273
▁확인된	-10274
▁환경을	-10275
▁환자의	-10276
▁황우석	-10277
▁회견을	-10278
되었는데	-10279
▁city	-10280
▁take	-10281
▁경제성장	-10282
▁골든글로	-10283
▁교전으로	-10284
▁기록하며	-10285
▁대대적인	-10286
▁리처드슨	-10287
▁명단에서	-10288
▁명이라고	-10289
▁모가디슈	-10290
▁무승부를	-10291
▁반박했다	-10292
▁부통령이	-10293
▁북부에서	-10294
▁분야에서	-10295
▁사랑하는	-10296
▁상공에서	-10297
▁상승세를	-10298
▁슈퍼대의	-10299
▁스트레스	-10300
▁야스쿠니	-10301
▁어머니가	-10302
▁억달러의	-10303
▁원자바오	-10304
▁이라크인	-10305
▁일반적인	-10306
▁입었으며	-10307
▁제공하고	-10308
▁지도부는	-10309
▁지속적인	-10310
▁지지율을	-10311
▁추산했다	-10312
▁클린턴을	-10313
▁하더라도	-10314
▁현지경찰	-10315
트레이어스	-10316
▁가자지구에	-10317
▁감소했다고	-10318
▁사무총장이	-10319
▁스피어스는	-10320
▁웹사이트는	-10321
▁이산화탄소	-10322
▁주장했지만	-10323
▁지지한다고	-10324
▁한나라당이	-10325
▁마이스페이스	-10326
aw	-10327
co	-10328
np	-10329
▁꼽	-10330
▁닐	-10331
▁뚜	-10332
▁란	-10333
▁했	-10334
건은	-10335
견을	-10336
구에	-10337
냄새	-10338
너럴	-10339
누엘	-10340
당과	-10341
데일	-10342
등한	-10343
디스	-10344
로우	-10345
론을	-10346
론의	-10347
르던	-10348
리한	-10349
미널	-10350
받지	-10351
부대	-10352
부모	-10353
브스	-10354
성한	-10355
소시	-10356
쉬는	-10357
스텔	-10358
심의	-10359
악한	-10360
열에	-10361
주인	-10362
증권	-10363
지면	-10364
집행	-10365
치기	-10366
팀의	-10367
포트	-10368
한국	-10369
ket	-10370
▁gl	-10371
▁po	-10372
▁so	-10373
▁가라	-10374
▁가축	-10375
▁가할	-10376
▁거세	-10377
▁검시	-10378
▁겨우	-10379
▁격돌	-10380
▁고민	-10381
▁공기	-10382
▁관절	-10383
▁끌고	-10384
▁내는	-10385
▁뇌물	-10386
▁도메	-10387
▁되풀	-10388
▁듣지	-10389
▁따를	-10390
▁레빈	-10391
▁메인	-10392
▁면제	-10393
▁반란	-10394
▁밝힐	-10395
▁불평	-10396
▁설계	-10397
▁세우	-10398
▁소화	-10399
▁실은	-10400
▁안젤	-10401
▁알렌	-10402
▁알파	-10403
▁연대	-10404
▁연임	-10405
▁영원	-10406
▁오고	-10407
▁유시	-10408
▁이룩	-10409
▁이바	-10410
▁전원	-10411
▁정식	-10412
▁정오	-10413
▁중계	-10414
▁진흙	-10415
▁집무	-10416
▁채의	-10417
▁추종	-10418
▁추출	-10419
▁충족	-10420
▁취득	-10421
▁침수	-10422
▁칭찬	-10423
▁카우	-10424
▁콘텐	-10425
▁크다	-10426
▁파르	-10427
▁폴리	-10428
▁피플	-10429
▁학년	-10430
▁헤이	-10431
▁현행	-10432
▁호킹	-10433
면으로	-10434
블랜드	-10435
사건에	-10436
시켜야	-10437
연상을	-10438
이트를	-10439
조사를	-10440
총장은	-10441
테리아	-10442
해에서	-10443
해주는	-10444
▁afp	-10445
▁air	-10446
▁hol	-10447
▁nfl	-10448
▁org	-10449
▁ter	-10450
▁top	-10451
▁wfp	-10452
▁감사를	-10453
▁계획의	-10454
▁공공장	-10455
▁관계는	-10456
▁국민이	-10457
▁군대가	-10458
▁단계에	-10459
▁단순한	-10460
▁대기업	-10461
▁도시로	-10462
▁독일인	-10463
▁들어오	-10464
▁로스앤	-10465
▁로켓포	-10466
▁로한은	-10467
▁마라도	-10468
▁만명을	-10469
▁무엇이	-10470
▁바다로	-10471
▁박격포	-10472
▁반군을	-10473
▁방문이	-10474
▁버냉키	-10475
▁버마의	-10476
▁범죄에	-10477
▁보안관	-10478
▁사고에	-10479
▁사태는	-10480
▁사태의	-10481
▁수류탄	-10482
▁수준의	-10483
▁수치다	-10484
▁신문에	-10485
▁신발을	-10486
▁알제리	-10487
▁야후는	-10488
▁양국간	-10489
▁언급은	-10490
▁없었던	-10491
▁올리는	-10492
▁우리베	-10493
▁위기가	-10494
▁의미를	-10495
▁의지를	-10496
▁이어질	-10497
▁이해할	-10498
▁있거나	-10499
▁장거리	-10500
▁장비를	-10501
▁전기가	-10502
▁정책이	-10503
▁제니퍼	-10504
▁제조업	-10505
▁제출할	-10506
▁줄이고	-10507
▁카자흐	-10508
▁터키군	-10509
▁투데이	-10510
▁투표할	-10511
▁판결은	-10512
▁판매할	-10513
▁합의는	-10514
▁헬기를	-10515
▁협력할	-10516
▁활성화	-10517
▁힐튼이	-10518
지역으로	-10519
ights	-10520
ondon	-10521
▁bank	-10522
▁lpga	-10523
▁pros	-10524
▁serv	-10525
▁같습니다	-10526
▁국회의사	-10527
▁남아있다	-10528
▁네바다주	-10529
▁도로에서	-10530
▁드립니다	-10531
▁목격자는	-10532
▁무장괴한	-10533
▁받았지만	-10534
▁방지하기	-10535
▁백악관에	-10536
▁보호하고	-10537
▁보호하는	-10538
▁사라졌다	-10539
▁사무실을	-10540
▁상관없이	-10541
▁수퍼대의	-10542
▁시달리고	-10543
▁시스템이	-10544
▁시작되는	-10545
▁예상보다	-10546
▁유일하게	-10547
▁자회담에	-10548
▁전대통령	-10549
▁전세계에	-10550
▁조사하기	-10551
▁주최측은	-10552
▁중단하고	-10553
▁진출했다	-10554
▁차원에서	-10555
▁참여하는	-10556
▁추가적인	-10557
▁추정했다	-10558
▁칸다하르	-10559
▁컴퓨터가	-10560
▁크리스티	-10561
▁탈레반의	-10562
▁티베트의	-10563
▁퍼센트의	-10564
▁페이스북	-10565
▁폭풍으로	-10566
▁프랑스와	-10567
▁후보들은	-10568
▁count	-10569
▁elect	-10570
▁경기부양책	-10571
▁다큐멘터리	-10572
▁시상식에서	-10573
▁시카고에서	-10574
▁이르기까지	-10575
▁인도주의적	-10576
▁중요하다고	-10577
▁london	-10578
▁가자지구에서	-10579
▁로스앤젤레스	-10580
▁아프가니스탄에	-10581
▁아프가니스탄의	-10582
▁security	-10583
sh	-10584
▁렉	-10585
▁웬	-10586
▁짜	-10587
▁쿼	-10588
▁튀	-10589
감시	-10590
개혁	-10591
금은	-10592
나귀	-10593
냈던	-10594
놓은	-10595
라노	-10596
란히	-10597
미가	-10598
베리	-10599
보의	-10600
부인	-10601
산층	-10602
소득	-10603
수감	-10604
수준	-10605
숙한	-10606
스프	-10607
시즌	-10608
예를	-10609
워터	-10610
인데	-10611
있고	-10612
조정	-10613
조치	-10614
참모	-10615
츠의	-10616
캐슬	-10617
턴은	-10618
표가	-10619
행정	-10620
히고	-10621
ech	-10622
ety	-10623
way	-10624
▁ak	-10625
▁거머	-10626
▁과시	-10627
▁광우	-10628
▁근교	-10629
▁기습	-10630
▁기조	-10631
▁나노	-10632
▁내비	-10633
▁놓은	-10634
▁다녀	-10635
▁단일	-10636
▁대지	-10637
▁도주	-10638
▁두개	-10639
▁둘째	-10640
▁드물	-10641
▁들은	-10642
▁러드	-10643
▁레논	-10644
▁로빈	-10645
▁롬니	-10646
▁만났	-10647
▁맞붙	-10648
▁매머	-10649
▁맺고	-10650
▁모터	-10651
▁몰래	-10652
▁몸무	-10653
▁밤새	-10654
▁배아	-10655
▁백신	-10656
▁밴드	-10657
▁범행	-10658
▁베리	-10659
▁벤자	-10660
▁부른	-10661
▁분실	-10662
▁불공	-10663
▁비영	-10664
▁비유	-10665
▁사카	-10666
▁사탕	-10667
▁생성	-10668
▁생일	-10669
▁서신	-10670
▁선을	-10671
▁성전	-10672
▁세를	-10673
▁세실	-10674
▁세이	-10675
▁소실	-10676
▁숫자	-10677
▁승부	-10678
▁싶은	-10679
▁악어	-10680
▁앞당	-10681
▁언어	-10682
▁여부	-10683
▁연령	-10684
▁연휴	-10685
▁예수	-10686
▁오키	-10687
▁올바	-10688
▁우방	-10689
▁위태	-10690
▁유효	-10691
▁응원	-10692
▁이례	-10693
▁이며	-10694
▁인계	-10695
▁일할	-10696
▁자크	-10697
▁잠을	-10698
▁장치	-10699
▁저널	-10700
▁전송	-10701
▁절감	-10702
▁주교	-10703
▁주미	-10704
▁지중	-10705
▁창조	-10706
▁출국	-10707
▁취약	-10708
▁크고	-10709
▁타지	-10710
▁탄소	-10711
▁패한	-10712
▁포위	-10713
▁포츠	-10714
▁해를	-10715
▁허블	-10716
▁호화	-10717
▁회부	-10718
▁회색	-10719
▁힘이	-10720
는지에	-10721
메리카	-10722
방에서	-10723
스와의	-10724
였으나	-10725
으려는	-10726
의사를	-10727
하기는	-10728
하는지	-10729
ense	-10730
▁fed	-10731
▁may	-10732
▁sch	-10733
▁url	-10734
▁결혼식	-10735
▁경우가	-10736
▁계획한	-10737
▁구체적	-10738
▁국가주	-10739
▁그룹의	-10740
▁기간에	-10741
▁기간을	-10742
▁김선일	-10743
▁눈물을	-10744
▁뉴캐슬	-10745
▁느낀다	-10746
▁당국과	-10747
▁당나귀	-10748
▁대만의	-10749
▁대사가	-10750
▁대주교	-10751
▁동반한	-10752
▁되돌아	-10753
▁말라고	-10754
▁맞았다	-10755
▁명단에	-10756
▁무너져	-10757
▁바람직	-10758
▁발사를	-10759
▁발전을	-10760
▁버스를	-10761
▁보여줄	-10762
▁본사를	-10763
▁부부의	-10764
▁북부의	-10765
▁비판을	-10766
▁빠졌다	-10767
▁사항은	-10768
▁서울의	-10769
▁설치된	-10770
▁셰이크	-10771
▁손해를	-10772
▁쇼핑몰	-10773
▁수십억	-10774
▁수용할	-10775
▁시설에	-10776
▁심문을	-10777
▁아내와	-10778
▁아들인	-10779
▁아이돌	-10780
▁아칸소	-10781
▁양국이	-10782
▁엘바라	-10783
▁여왕은	-10784
▁열차가	-10785
▁영국이	-10786
▁오마르	-10787
▁의무를	-10788
▁의혹에	-10789
▁일정이	-10790
▁임무는	-10791
▁있었을	-10792
▁자산을	-10793
▁자세를	-10794
▁재정적	-10795
▁재확인	-10796
▁접전을	-10797
▁제안한	-10798
▁제프리	-10799
▁주인이	-10800
▁중산층	-10801
▁지속될	-10802
▁참석해	-10803
▁찾았다	-10804
▁최선의	-10805
▁축구팬	-10806
▁케이시	-10807
▁코끼리	-10808
▁토론을	-10809
▁판단을	-10810
▁프레드	-10811
▁하나를	-10812
▁할아버	-10813
▁행사는	-10814
▁향하고	-10815
▁호텔을	-10816
▁후지모	-10817
경기에서	-10818
선거에서	-10819
센터에서	-10820
적이었다	-10821
▁life	-10822
▁공동으로	-10823
▁구조대원	-10824
▁군인들은	-10825
▁금지하고	-10826
▁기록하고	-10827
▁대통령도	-10828
▁브리티시	-10829
▁비밀리에	-10830
▁비행기에	-10831
▁사람들도	-10832
▁세계보건	-10833
▁세트에서	-10834
▁승객들이	-10835
▁않겠다는	-10836
▁어머니와	-10837
▁유세에서	-10838
▁전국적인	-10839
▁점프하는	-10840
▁정해지지	-10841
▁중요성을	-10842
▁지구에서	-10843
▁지지율이	-10844
▁촉구하는	-10845
▁총격으로	-10846
▁학생들의	-10847
▁헤럴드가	-10848
▁후보들이	-10849
▁관계자들과	-10850
▁다이애나가	-10851
▁대통령과의	-10852
▁버지니아주	-10853
▁소식입니다	-10854
▁아시아에서	-10855
▁엘바라데이	-10856
▁의원들에게	-10857
▁짐바브웨의	-10858
▁카자흐스탄	-10859
▁폭력사태를	-10860
▁폭탄테러를	-10861
▁프로젝트를	-10862
▁경찰에따르면	-10863
▁해수욕장에서	-10864
▁연방준비제도이사회	-10865
az	-10866
cr	-10867
sc	-10868
▁끈	-10869
▁댓	-10870
▁밸	-10871
▁앰	-10872
▁즈	-10873
▁핑	-10874
건설	-10875
경이	-10876
길에	-10877
너스	-10878
놨다	-10879
다코	-10880
락은	-10881
로지	-10882
망이	-10883
문의	-10884
병에	-10885
보면	-10886
브리	-10887
액은	-10888
여행	-10889
우로	-10890
운을	-10891
유로	-10892
음악	-10893
재를	-10894
종일	-10895
죄로	-10896
줘야	-10897
질유	-10898
타와	-10899
테인	-10900
티를	-10901
호한	-10902
ail	-10903
▁bb	-10904
▁br	-10905
▁hy	-10906
▁kn	-10907
▁kt	-10908
▁lo	-10909
▁가기	-10910
▁가서	-10911
▁개별	-10912
▁격리	-10913
▁경보	-10914
▁군데	-10915
▁그럼	-10916
▁기초	-10917
▁끌려	-10918
▁닥터	-10919
▁당혹	-10920
▁도발	-10921
▁도서	-10922
▁두뇌	-10923
▁드림	-10924
▁디에	-10925
▁땅을	-10926
▁로페	-10927
▁마호	-10928
▁막고	-10929
▁면역	-10930
▁몸이	-10931
▁문자	-10932
▁바위	-10933
▁방치	-10934
▁배로	-10935
▁병에	-10936
▁부품	-10937
▁비준	-10938
▁비즈	-10939
▁빠뜨	-10940
▁서안	-10941
▁서쪽	-10942
▁설정	-10943
▁스케	-10944
▁시판	-10945
▁신장	-10946
▁실어	-10947
▁싫어	-10948
▁아끼	-10949
▁아사	-10950
▁아우	-10951
▁오피	-10952
▁원화	-10953
▁유망	-10954
▁의식	-10955
▁인신	-10956
▁인치	-10957
▁일단	-10958
▁일명	-10959
▁잃고	-10960
▁입학	-10961
▁자서	-10962
▁재경	-10963
▁재벌	-10964
▁제가	-10965
▁조셉	-10966
▁조언	-10967
▁좌파	-10968
▁줄이	-10969
▁지닌	-10970
▁지뢰	-10971
▁진단	-10972
▁첨단	-10973
▁촛불	-10974
▁추격	-10975
▁측에	-10976
▁치고	-10977
▁침투	-10978
▁키스	-10979
▁타결	-10980
▁테리	-10981
▁통증	-10982
▁틀림	-10983
▁평소	-10984
▁폴란	-10985
▁해석	-10986
▁해킹	-10987
▁홈런	-10988
▁후퇴	-10989
▁휴양	-10990
기간을	-10991
된다는	-10992
사건을	-10993
서비스	-10994
선으로	-10995
시위를	-10996
었다는	-10997
화하는	-10998
able	-10999
alth	-11000
ital	-11001
ward	-11002
▁bur	-11003
▁cam	-11004
▁get	-11005
▁leg	-11006
▁med	-11007
▁mus	-11008
▁pml	-11009
▁ref	-11010
▁sum	-11011
▁개최된	-11012
▁거래가	-11013
▁겪었다	-11014
▁경기도	-11015
▁경기의	-11016
▁경제는	-11017
▁경제와	-11018
▁고려해	-11019
▁고향인	-11020
▁공화국	-11021
▁과거의	-11022
▁구하기	-11023
▁국세청	-11024
▁군대를	-11025
▁규모는	-11026
▁기도를	-11027
▁나토군	-11028
▁날씨가	-11029
▁남편과	-11030
▁년에도	-11031
▁논의가	-11032
▁누르고	-11033
▁뉴스는	-11034
▁대표인	-11035
▁되풀이	-11036
▁마련할	-11037
▁마을에	-11038
▁말아야	-11039
▁맡았던	-11040
▁모았다	-11041
▁무너진	-11042
▁물었다	-11043
▁미네소	-11044
▁미드필	-11045
▁발표에	-11046
▁방송의	-11047
▁벤자민	-11048
▁보호할	-11049
▁불렀다	-11050
▁사임할	-11051
▁생산할	-11052
▁성추행	-11053
▁소녀가	-11054
▁소리가	-11055
▁수치를	-11056
▁시장과	-11057
▁시즌을	-11058
▁아기가	-11059
▁아기의	-11060
▁아들의	-11061
▁알자와	-11062
▁양측의	-11063
▁어디서	-11064
▁언제든	-11065
▁오딩가	-11066
▁운행을	-11067
▁유수프	-11068
▁응답자	-11069
▁의식을	-11070
▁인정한	-11071
▁인정할	-11072
▁있을지	-11073
▁장치를	-11074
▁전망이	-11075
▁전쟁의	-11076
▁전하며	-11077
▁중국인	-11078
▁증시의	-11079
▁지나지	-11080
▁지진은	-11081
▁지키고	-11082
▁지키기	-11083
▁진술을	-11084
▁차이를	-11085
▁타이완	-11086
▁태국의	-11087
▁터키는	-11088
▁토론토	-11089
▁판사가	-11090
▁페트로	-11091
▁풍부한	-11092
▁프로듀	-11093
▁피아노	-11094
▁한다며	-11095
▁합의가	-11096
▁헌법을	-11097
▁호르몬	-11098
▁화상을	-11099
▁회동을	-11100
▁힘들다	-11101
▁week	-11102
▁경찰서에	-11103
▁글래스고	-11104
▁기반으로	-11105
▁기상청은	-11106
▁니콜라스	-11107
▁대답했다	-11108
▁라이스는	-11109
▁명령했다	-11110
▁모습으로	-11111
▁민주당과	-11112
▁받았으나	-11113
▁벌어지고	-11114
▁부문에서	-11115
▁비즈니스	-11116
▁사임했다	-11117
▁상원에서	-11118
▁상파울루	-11119
▁시점에서	-11120
▁아이들과	-11121
▁애완동물	-11122
▁억달러를	-11123
▁연기했다	-11124
▁예상되는	-11125
▁우주정거	-11126
▁웨스트버	-11127
▁위협하는	-11128
▁위협했다	-11129
▁유명하다	-11130
▁이라크가	-11131
▁이용하고	-11132
▁이재민이	-11133
▁인디아나	-11134
▁인종차별	-11135
▁일정으로	-11136
▁자신감을	-11137
▁장난감을	-11138
▁재정경제	-11139
▁정상들은	-11140
▁제공했다	-11141
▁지나치게	-11142
▁지방에서	-11143
▁착수했다	-11144
▁참가했다	-11145
▁참여하지	-11146
▁참여했다	-11147
▁추진하고	-11148
▁커뮤니티	-11149
▁쿠데타로	-11150
▁쿠르드족	-11151
▁판결했다	-11152
▁팔레스타	-11153
▁플레이어	-11154
▁확실하지	-11155
▁활동하는	-11156
▁회사들은	-11157
▁plans	-11158
▁국제유가는	-11159
▁아이디어를	-11160
▁지도자들과	-11161
▁투자자들은	-11162
▁투자자들이	-11163
▁한국인들이	-11164
▁former	-11165
▁세계보건기구	-11166
▁정상회담에서	-11167
▁남아프리카공화국	-11168
▁association	-11169
ma	-11170
ug	-11171
▁릭	-11172
▁빗	-11173
▁빵	-11174
▁툴	-11175
가족	-11176
거는	-11177
경비	-11178
공사	-11179
그래	-11180
극을	-11181
긴다	-11182
대사	-11183
돌프	-11184
동생	-11185
되게	-11186
두에	-11187
들리	-11188
디언	-11189
디의	-11190
려면	-11191
뤘다	-11192
문과	-11193
베르	-11194
병의	-11195
비엘	-11196
센은	-11197
야의	-11198
얄라	-11199
열을	-11200
오염	-11201
욕을	-11202
인수	-11203
일라	-11204
자지	-11205
작업	-11206
조로	-11207
주와	-11208
중계	-11209
트맨	-11210
퍼스	-11211
형에	-11212
ctv	-11213
ugh	-11214
▁hs	-11215
▁pf	-11216
▁가결	-11217
▁가던	-11218
▁각자	-11219
▁갈등	-11220
▁격려	-11221
▁결함	-11222
▁계곡	-11223
▁고마	-11224
▁공판	-11225
▁공학	-11226
▁구사	-11227
▁구할	-11228
▁구형	-11229
▁그때	-11230
▁길에	-11231
▁김경	-11232
▁냄새	-11233
▁누드	-11234
▁단식	-11235
▁대면	-11236
▁대에	-11237
▁동일	-11238
▁동점	-11239
▁뒤따	-11240
▁듯한	-11241
▁때가	-11242
▁라왈	-11243
▁레저	-11244
▁로라	-11245
▁만찬	-11246
▁맞게	-11247
▁몸집	-11248
▁미친	-11249
▁바나	-11250
▁바에	-11251
▁방한	-11252
▁복사	-11253
▁본드	-11254
▁빛을	-11255
▁속옷	-11256
▁속한	-11257
▁수업	-11258
▁승용	-11259
▁시범	-11260
▁쓰여	-11261
▁아닐	-11262
▁악영	-11263
▁야자	-11264
▁양보	-11265
▁얻는	-11266
▁에디	-11267
▁에버	-11268
▁에탄	-11269
▁여년	-11270
▁예보	-11271
▁오징	-11272
▁오프	-11273
▁우호	-11274
▁월과	-11275
▁이나	-11276
▁이내	-11277
▁일방	-11278
▁일째	-11279
▁자라	-11280
▁자백	-11281
▁잔디	-11282
▁저작	-11283
▁정통	-11284
▁제패	-11285
▁조장	-11286
▁종말	-11287
▁종신	-11288
▁종양	-11289
▁좋게	-11290
▁즐거	-11291
▁지수	-11292
▁지침	-11293
▁집어	-11294
▁차림	-11295
▁차에	-11296
▁채워	-11297
▁총알	-11298
▁출장	-11299
▁침범	-11300
▁침착	-11301
▁캐리	-11302
▁캠벨	-11303
▁코네	-11304
▁콜레	-11305
▁테마	-11306
▁퇴직	-11307
▁티모	-11308
▁평론	-11309
▁평방	-11310
▁폴슨	-11311
▁피셔	-11312
▁하리	-11313
▁호수	-11314
▁호의	-11315
▁회피	-11316
대사는	-11317
대학의	-11318
렸지만	-11319
명으로	-11320
버그는	-11321
스탄불	-11322
스트롱	-11323
시설을	-11324
자리에	-11325
장치를	-11326
적이지	-11327
ange	-11328
ants	-11329
atch	-11330
▁ann	-11331
▁reg	-11332
▁sci	-11333
▁가격에	-11334
▁가져다	-11335
▁갤런당	-11336
▁경찰을	-11337
▁공격의	-11338
▁국제사	-11339
▁군부가	-11340
▁권한을	-11341
▁그린피	-11342
▁금융위	-11343
▁기술의	-11344
▁년형을	-11345
▁니케이	-11346
▁다음과	-11347
▁단어를	-11348
▁단체에	-11349
▁대선을	-11350
▁대중의	-11351
▁대학살	-11352
▁던졌다	-11353
▁도널드	-11354
▁뒤에서	-11355
▁라이프	-11356
▁마약을	-11357
▁매코맥	-11358
▁맥케인	-11359
▁맥코맥	-11360
▁맨해튼	-11361
▁모바일	-11362
▁무엇인	-11363
▁바바라	-11364
▁바이오	-11365
▁방사능	-11366
▁버몬트	-11367
▁베컴이	-11368
▁부상당	-11369
▁브루스	-11370
▁비교해	-11371
▁비무장	-11372
▁사업에	-11373
▁산불로	-11374
▁생일을	-11375
▁선언한	-11376
▁세계에	-11377
▁소수의	-11378
▁수위가	-11379
▁스피처	-11380
▁시도를	-11381
▁식량을	-11382
▁식민지	-11383
▁아스널	-11384
▁아흐메	-11385
▁안타깝	-11386
▁얼음이	-11387
▁여파로	-11388
▁역사가	-11389
▁연승을	-11390
▁영장을	-11391
▁오리건	-11392
▁요구할	-11393
▁우승한	-11394
▁이것을	-11395
▁이름은	-11396
▁입국을	-11397
▁자유의	-11398
▁장소로	-11399
▁재판은	-11400
▁잭슨은	-11401
▁정신과	-11402
▁정치에	-11403
▁존드로	-11404
▁주말에	-11405
▁주어진	-11406
▁중상을	-11407
▁지원에	-11408
▁지지율	-11409
▁참가할	-11410
▁철저한	-11411
▁총기난	-11412
▁총선에	-11413
▁최대한	-11414
▁출마할	-11415
▁출전한	-11416
▁커지고	-11417
▁크라우	-11418
▁투표는	-11419
▁특이한	-11420
▁페널티	-11421
▁필요는	-11422
▁협조를	-11423
단체들은	-11424
통합민주	-11425
▁fire	-11426
▁rese	-11427
▁가족에게	-11428
▁개최되는	-11429
▁결의안에	-11430
▁경제적인	-11431
▁국가보안	-11432
▁금지하는	-11433
▁기본적인	-11434
▁단체들은	-11435
▁당국자는	-11436
▁대부분을	-11437
▁데이터를	-11438
▁도미니카	-11439
▁동영상은	-11440
▁동쪽으로	-11441
▁떨어지는	-11442
▁마흐무드	-11443
▁만달러를	-11444
▁말했지만	-11445
▁미드필더	-11446
▁박테리아	-11447
▁법무장관	-11448
▁부상자는	-11449
▁부족으로	-11450
▁부총리는	-11451
▁브리트니	-11452
▁사망하는	-11453
▁사무총장	-11454
▁사용되고	-11455
▁사이트에	-11456
▁사회주의	-11457
▁상승으로	-11458
▁선정됐다	-11459
▁수사관은	-11460
▁수하르토	-11461
▁시스템은	-11462
▁시위대와	-11463
▁알자와히	-11464
▁암스트롱	-11465
▁앞으로의	-11466
▁어린이를	-11467
▁어머니는	-11468
▁연구팀은	-11469
▁용의자의	-11470
▁유권자의	-11471
▁이스탄불	-11472
▁일자리가	-11473
▁일축했다	-11474
▁전문가인	-11475
▁정상적인	-11476
▁좋아한다	-11477
▁중단됐다	-11478
▁중심으로	-11479
▁중앙정보	-11480
▁차베스는	-11481
▁카트리나	-11482
▁케르비엘	-11483
▁학생들과	-11484
▁확인하는	-11485
▁환경보호	-11486
▁후세인의	-11487
▁death	-11488
▁관광객들은	-11489
▁동계올림픽	-11490
▁메사추세츠	-11491
▁보도합니다	-11492
▁사망자수가	-11493
▁살해했다고	-11494
▁수감자들을	-11495
▁시위자들이	-11496
▁아웅산수치	-11497
▁알카에다는	-11498
▁이라크전에	-11499
▁크리스티나	-11500
▁확인했다고	-11501
▁모스크바에서	-11502
▁미국인들에게	-11503
▁사망했습니다	-11504
▁유럽축구연맹	-11505
▁control	-11506
▁research	-11507
dp	-11508
wc	-11509
▁굶	-11510
▁꽤	-11511
▁닿	-11512
▁룰	-11513
▁룸	-11514
▁앗	-11515
▁옵	-11516
▁칩	-11517
▁캥	-11518
가리	-11519
개가	-11520
거루	-11521
겔라	-11522
구로	-11523
냐고	-11524
로로	-11525
머는	-11526
봉을	-11527
부족	-11528
비용	-11529
산이	-11530
상승	-11531
시바	-11532
엄한	-11533
웨어	-11534
유의	-11535
작을	-11536
장치	-11537
재가	-11538
저널	-11539
적은	-11540
카르	-11541
통화	-11542
해져	-11543
ces	-11544
ino	-11545
▁ev	-11546
▁간섭	-11547
▁감추	-11548
▁건립	-11549
▁걷는	-11550
▁격추	-11551
▁경신	-11552
▁고정	-11553
▁공략	-11554
▁교내	-11555
▁군용	-11556
▁그날	-11557
▁김계	-11558
▁꿈을	-11559
▁나쁘	-11560
▁냉동	-11561
▁넣어	-11562
▁노왁	-11563
▁농부	-11564
▁닉슨	-11565
▁다짐	-11566
▁달에	-11567
▁돕고	-11568
▁딸인	-11569
▁라틴	-11570
▁러셀	-11571
▁리치	-11572
▁마주	-11573
▁매수	-11574
▁메뉴	-11575
▁미망	-11576
▁미트	-11577
▁미하	-11578
▁바퀴	-11579
▁방북	-11580
▁방식	-11581
▁백화	-11582
▁번영	-11583
▁복부	-11584
▁복지	-11585
▁볼리	-11586
▁불행	-11587
▁브레	-11588
▁산소	-11589
▁서버	-11590
▁선생	-11591
▁세균	-11592
▁수마	-11593
▁수지	-11594
▁시경	-11595
▁식이	-11596
▁아미	-11597
▁악성	-11598
▁안겨	-11599
▁않자	-11600
▁애도	-11601
▁얼리	-11602
▁오직	-11603
▁오차	-11604
▁완공	-11605
▁요하	-11606
▁운하	-11607
▁월터	-11608
▁웨이	-11609
▁잃지	-11610
▁장갑	-11611
▁전과	-11612
▁전미	-11613
▁전비	-11614
▁정체	-11615
▁정한	-11616
▁지킬	-11617
▁책정	-11618
▁초고	-11619
▁초과	-11620
▁켈리	-11621
▁크누	-11622
▁타입	-11623
▁토양	-11624
▁펼칠	-11625
▁포유	-11626
▁폭도	-11627
▁폭등	-11628
▁하반	-11629
▁합참	-11630
▁후쿠	-11631
▁흥행	-11632
겼으며	-11633
계획을	-11634
기적인	-11635
되지는	-11636
력으로	-11637
렸다는	-11638
문제에	-11639
세포를	-11640
소시에	-11641
시키다	-11642
어가고	-11643
였다는	-11644
이트는	-11645
코비치	-11646
하다며	-11647
혔다고	-11648
회담을	-11649
acks	-11650
ploy	-11651
▁bmw	-11652
▁est	-11653
▁eta	-11654
▁fts	-11655
▁pak	-11656
▁sen	-11657
▁가정에	-11658
▁가하고	-11659
▁걸렸다	-11660
▁경보를	-11661
▁경선이	-11662
▁경향이	-11663
▁경호원	-11664
▁고립된	-11665
▁공격할	-11666
▁공항은	-11667
▁과반수	-11668
▁과학자	-11669
▁교수가	-11670
▁구스마	-11671
▁국왕은	-11672
▁국왕이	-11673
▁그래미	-11674
▁그런가	-11675
▁기술은	-11676
▁기준을	-11677
▁나란히	-11678
▁나타낸	-11679
▁네덜란	-11680
▁뇌물을	-11681
▁대단히	-11682
▁대학은	-11683
▁도시에	-11684
▁동물의	-11685
▁마침내	-11686
▁만장일	-11687
▁메시지	-11688
▁모니터	-11689
▁모르고	-11690
▁목격한	-11691
▁몸무게	-11692
▁법정에	-11693
▁보안을	-11694
▁불안한	-11695
▁비영리	-11696
▁비자를	-11697
▁빠질까	-11698
▁사랑에	-11699
▁사적인	-11700
▁살해할	-11701
▁샘플을	-11702
▁석방할	-11703
▁선데이	-11704
▁수개월	-11705
▁수용소	-11706
▁시도한	-11707
▁시작해	-11708
▁신속한	-11709
▁아들은	-11710
▁아이티	-11711
▁않았을	-11712
▁어려워	-11713
▁에서는	-11714
▁엔데버	-11715
▁여명을	-11716
▁여배우	-11717
▁여사와	-11718
▁위기로	-11719
▁유니버	-11720
▁유럽을	-11721
▁유리한	-11722
▁음모를	-11723
▁의약품	-11724
▁이사는	-11725
▁이상한	-11726
▁이었다	-11727
▁이의를	-11728
▁이틀간	-11729
▁일정은	-11730
▁자메이	-11731
▁작품은	-11732
▁잡았다	-11733
▁장관급	-11734
▁장관을	-11735
▁장기간	-11736
▁장악한	-11737
▁재개될	-11738
▁재배치	-11739
▁저희는	-11740
▁전망을	-11741
▁제너럴	-11742
▁주목을	-11743
▁준장은	-11744
▁지원한	-11745
▁진행할	-11746
▁질환을	-11747
▁출동한	-11748
▁출전을	-11749
▁취임한	-11750
▁캔자스	-11751
▁캥거루	-11752
▁코커스	-11753
▁크로커	-11754
▁타임스	-11755
▁탈라바	-11756
▁탈북자	-11757
▁터미널	-11758
▁파병을	-11759
▁패스를	-11760
▁페리노	-11761
▁폐쇄를	-11762
▁하여금	-11763
▁학대를	-11764
▁행동은	-11765
▁협의를	-11766
▁화장실	-11767
▁회장의	-11768
▁후에도	-11769
▁휴대용	-11770
으로서의	-11771
▁down	-11772
▁said	-11773
▁this	-11774
▁강조하고	-11775
▁거부하고	-11776
▁건물에서	-11777
▁것이지만	-11778
▁경찰관은	-11779
▁공원에서	-11780
▁국영방송	-11781
▁국토안보	-11782
▁금메달을	-11783
▁기소했다	-11784
▁뉴멕시코	-11785
▁담당하고	-11786
▁돌아왔다	-11787
▁들어있는	-11788
▁따뜻하면	-11789
▁매케인을	-11790
▁모르겠다	-11791
▁목소리로	-11792
▁무시하고	-11793
▁미얀마를	-11794
▁민주변화	-11795
▁보수주의	-11796
▁부사장은	-11797
▁브라질의	-11798
▁사람들에	-11799
▁사용하기	-11800
▁사원에서	-11801
▁산사태로	-11802
▁산타클로	-11803
▁상태라고	-11804
▁선수들의	-11805
▁성폭행을	-11806
▁세실리아	-11807
▁스미스는	-11808
▁스파이스	-11809
▁스피어스	-11810
▁싶어한다	-11811
▁알베르토	-11812
▁애틀란타	-11813
▁여기에는	-11814
▁오토바이	-11815
▁오픈에서	-11816
▁올랐으며	-11817
▁왔습니다	-11818
▁움직이고	-11819
▁움직임에	-11820
▁이상으로	-11821
▁자리잡고	-11822
▁전적으로	-11823
▁조선중앙	-11824
▁주도하는	-11825
▁주지사의	-11826
▁지역이다	-11827
▁지원하기	-11828
▁착용하고	-11829
▁충격으로	-11830
▁컬럼비아	-11831
▁팬들에게	-11832
▁평양에서	-11833
▁표현했다	-11834
▁피추시킨	-11835
▁하겠다고	-11836
▁하나이다	-11837
▁하락세를	-11838
▁하락하며	-11839
▁하원의원	-11840
▁해외에서	-11841
▁환영했다	-11842
▁후보에게	-11843
위원회에서	-11844
으로부터의	-11845
minist	-11846
▁prime	-11847
▁무샤라프의	-11848
▁바이러스에	-11849
▁샤라포바는	-11850
▁슈워제네거	-11851
▁아이들에게	-11852
▁엘리베이터	-11853
▁월드시리즈	-11854
▁이슬람교도	-11855
▁전반적으로	-11856
▁체포되었다	-11857
▁클리블랜드	-11858
▁테러지원국	-11859
▁파키스탄은	-11860
▁평화적으로	-11861
▁market	-11862
▁police	-11863
▁prosec	-11864
▁united	-11865
▁자유무역협정	-11866
titution	-11867
▁administ	-11868
▁economic	-11869
▁election	-11870
ik	-11871
pt	-11872
we	-11873
xt	-11874
▁람	-11875
▁쉴	-11876
▁탓	-11877
▁톱	-11878
▁팩	-11879
▁픽	-11880
▁혐	-11881
개로	-11882
노는	-11883
능을	-11884
류가	-11885
마리	-11886
멘토	-11887
물질	-11888
분간	-11889
분한	-11890
브로	-11891
세요	-11892
수수	-11893
심은	-11894
야만	-11895
오가	-11896
오프	-11897
웠던	-11898
이저	-11899
인권	-11900
일인	-11901
있지	-11902
자고	-11903
자르	-11904
잡을	-11905
장암	-11906
쟁을	-11907
전선	-11908
절을	-11909
종이	-11910
주택	-11911
즈에	-11912
지리	-11913
질러	-11914
카를	-11915
카스	-11916
테랑	-11917
해로	-11918
호른	-11919
ads	-11920
als	-11921
ged	-11922
ock	-11923
ron	-11924
unc	-11925
▁ps	-11926
▁강의	-11927
▁갤럭	-11928
▁고아	-11929
▁골로	-11930
▁공통	-11931
▁구름	-11932
▁구의	-11933
▁궁극	-11934
▁권한	-11935
▁그냥	-11936
▁기권	-11937
▁나치	-11938
▁낙찰	-11939
▁납세	-11940
▁낭비	-11941
▁내장	-11942
▁넓은	-11943
▁년도	-11944
▁농작	-11945
▁닌텐	-11946
▁다녔	-11947
▁다뤄	-11948
▁대담	-11949
▁대와	-11950
▁라인	-11951
▁많지	-11952
▁말은	-11953
▁맹세	-11954
▁밀리	-11955
▁밀림	-11956
▁밀집	-11957
▁바가	-11958
▁바오	-11959
▁발부	-11960
▁배나	-11961
▁배에	-11962
▁불매	-11963
▁사직	-11964
▁색깔	-11965
▁서약	-11966
▁성경	-11967
▁세는	-11968
▁셔츠	-11969
▁수잔	-11970
▁시한	-11971
▁아크	-11972
▁앗아	-11973
▁어휘	-11974
▁에미	-11975
▁여유	-11976
▁열쇠	-11977
▁예로	-11978
▁올드	-11979
▁올릴	-11980
▁요인	-11981
▁용인	-11982
▁원격	-11983
▁월경	-11984
▁위법	-11985
▁유골	-11986
▁유태	-11987
▁이겨	-11988
▁이벤	-11989
▁인지	-11990
▁일년	-11991
▁자매	-11992
▁정규	-11993
▁종의	-11994
▁죄수	-11995
▁주관	-11996
▁주를	-11997
▁죽을	-11998
▁중소	-11999
▁지내	-12000
▁지미	-12001
▁지저	-12002
▁직장	-12003
▁차전	-12004
▁참배	-12005
▁체스	-12006
▁출범	-12007
▁측의	-12008
▁코트	-12009
▁크기	-12010
▁터치	-12011
▁토지	-12012
▁통역	-12013
▁특사	-12014
▁파운	-12015
▁편지	-12016
▁허위	-12017
▁헤르	-12018
▁혁신	-12019
▁화석	-12020
▁확고	-12021
▁후계	-12022
경기에	-12023
계에서	-12024
기록을	-12025
레스테	-12026
레이션	-12027
방송의	-12028
버렸다	-12029
법원에	-12030
브리지	-12031
슬러는	-12032
시간을	-12033
인들과	-12034
정책을	-12035
ally	-12036
ious	-12037
reak	-12038
umer	-12039
▁bag	-12040
▁cal	-12041
▁det	-12042
▁lee	-12043
▁각국의	-12044
▁감옥에	-12045
▁개국이	-12046
▁건강을	-12047
▁걸었다	-12048
▁검찰에	-12049
▁겁니다	-12050
▁고려할	-12051
▁고문을	-12052
▁곧바로	-12053
▁공항의	-12054
▁과도한	-12055
▁규제를	-12056
▁그쳤다	-12057
▁급속히	-12058
▁기온이	-12059
▁남편을	-12060
▁달한다	-12061
▁돌려보	-12062
▁때로는	-12063
▁뛰어난	-12064
▁뛰어들	-12065
▁레이더	-12066
▁로딕은	-12067
▁린제이	-12068
▁마호메	-12069
▁만남을	-12070
▁명성을	-12071
▁모델을	-12072
▁무기한	-12073
▁무책임	-12074
▁물질을	-12075
▁믿는다	-12076
▁반군에	-12077
▁받았고	-12078
▁벨몬트	-12079
▁보내기	-12080
▁봤다고	-12081
▁부근에	-12082
▁부상한	-12083
▁빠르면	-12084
▁사람도	-12085
▁사전에	-12086
▁사태로	-12087
▁생중계	-12088
▁선거법	-12089
▁성관계	-12090
▁아끼지	-12091
▁아니고	-12092
▁아이슬	-12093
▁악화될	-12094
▁않다는	-12095
▁알리기	-12096
▁알았다	-12097
▁암살된	-12098
▁어려울	-12099
▁에이미	-12100
▁여동생	-12101
▁연관된	-12102
▁연합은	-12103
▁열렸던	-12104
▁올바른	-12105
▁요구가	-12106
▁운전을	-12107
▁유가족	-12108
▁유엔과	-12109
▁은행이	-12110
▁의료진	-12111
▁이른바	-12112
▁이씨는	-12113
▁인권을	-12114
▁인식을	-12115
▁일만에	-12116
▁임명된	-12117
▁재산을	-12118
▁저렴한	-12119
▁전화로	-12120
▁정권은	-12121
▁정당이	-12122
▁정보부	-12123
▁정책은	-12124
▁제공해	-12125
▁제이미	-12126
▁제품에	-12127
▁주민이	-12128
▁주석은	-12129
▁주치의	-12130
▁지중해	-12131
▁진단을	-12132
▁진실을	-12133
▁차례나	-12134
▁초대형	-12135
▁초래할	-12136
▁총리에	-12137
▁최우수	-12138
▁태양열	-12139
▁파견된	-12140
▁펼치고	-12141
▁피난민	-12142
▁하기로	-12143
▁학교를	-12144
▁행위가	-12145
▁헤럴드	-12146
▁협상은	-12147
▁홍수가	-12148
▁홍콩의	-12149
▁확인한	-12150
▁확인해	-12151
해달라고	-12152
icial	-12153
▁back	-12154
▁가능하게	-12155
▁공격하는	-12156
▁국민에게	-12157
▁기자들의	-12158
▁끊임없이	-12159
▁다운로드	-12160
▁다음으로	-12161
▁독일에서	-12162
▁매케인에	-12163
▁모르지만	-12164
▁모하마드	-12165
▁미네소타	-12166
▁발생했던	-12167
▁본격적인	-12168
▁승려들이	-12169
▁신용카드	-12170
▁아버지와	-12171
▁아흐마디	-12172
▁악영향을	-12173
▁엔지니어	-12174
▁엔터테인	-12175
▁여성들을	-12176
▁오키나와	-12177
▁오피니언	-12178
▁우주에서	-12179
▁워싱턴에	-12180
▁의료진은	-12181
▁의료진이	-12182
▁의원들의	-12183
▁이용하여	-12184
▁자선단체	-12185
▁전형적인	-12186
▁진행중인	-12187
▁초등학교	-12188
▁포기하지	-12189
▁포함하고	-12190
▁폭발물을	-12191
▁프리메라	-12192
▁협상에서	-12193
▁희망하고	-12194
▁chief	-12195
▁under	-12196
▁교통사고로	-12197
▁기록했다고	-12198
▁내무장관은	-12199
▁라운드에서	-12200
▁무샤라프가	-12201
▁생각합니다	-12202
▁생방송으로	-12203
▁선거운동을	-12204
▁수색작업을	-12205
▁스피어스가	-12206
▁알카에다를	-12207
▁어린이들을	-12208
▁이스라엘군	-12209
▁일부에서는	-12210
▁토네이도가	-12211
▁구조대원들이	-12212
▁베네수엘라의	-12213
▁사이클론으로	-12214
▁살해하겠다고	-12215
▁유권자들에게	-12216
▁퍼트레이어스	-12217
▁chinese	-12218
▁general	-12219
▁웨스트버지니아	-12220
ha	-12221
ij	-12222
la	-12223
▁겐	-12224
▁깜	-12225
▁댐	-12226
▁삽	-12227
▁섞	-12228
▁웅	-12229
▁첨	-12230
▁첸	-12231
▁쾌	-12232
▁팰	-12233
것을	-12234
관광	-12235
달라	-12236
데르	-12237
동영	-12238
란다	-12239
레즈	-12240
류에	-12241
머스	-12242
무니	-12243
속에	-12244
수산	-12245
수출	-12246
신문	-12247
알라	-12248
연상	-12249
연설	-12250
였을	-12251
와이	-12252
요원	-12253
운트	-12254
원들	-12255
의약	-12256
일로	-12257
있게	-12258
잡이	-12259
재로	-12260
전시	-12261
주며	-12262
지길	-12263
지스	-12264
지않	-12265
층을	-12266
층이	-12267
티컷	-12268
anu	-12269
gra	-12270
lam	-12271
mit	-12272
ool	-12273
tim	-12274
▁dc	-12275
▁가뭄	-12276
▁가볍	-12277
▁감량	-12278
▁걸프	-12279
▁검출	-12280
▁고생	-12281
▁고심	-12282
▁과다	-12283
▁과잉	-12284
▁과테	-12285
▁구타	-12286
▁군복	-12287
▁그랜	-12288
▁그로	-12289
▁기쁨	-12290
▁기적	-12291
▁꾸준	-12292
▁넣은	-12293
▁년째	-12294
▁녹화	-12295
▁농산	-12296
▁뇌졸	-12297
▁단백	-12298
▁당뇨	-12299
▁독점	-12300
▁뒤로	-12301
▁레인	-12302
▁리틀	-12303
▁링컨	-12304
▁마닐	-12305
▁말고	-12306
▁맞을	-12307
▁맡게	-12308
▁맺은	-12309
▁메가	-12310
▁무리	-12311
▁무어	-12312
▁배럭	-12313
▁번에	-12314
▁베니	-12315
▁별로	-12316
▁병역	-12317
▁보드	-12318
▁부각	-12319
▁불명	-12320
▁비싼	-12321
▁뿌리	-12322
▁삼림	-12323
▁선적	-12324
▁세컨	-12325
▁쇼에	-12326
▁시의	-12327
▁심판	-12328
▁안고	-12329
▁야간	-12330
▁없기	-12331
▁연립	-12332
▁열정	-12333
▁오락	-12334
▁와서	-12335
▁왕자	-12336
▁위장	-12337
▁유동	-12338
▁유물	-12339
▁유포	-12340
▁유혹	-12341
▁육상	-12342
▁의구	-12343
▁이브	-12344
▁재발	-12345
▁재생	-12346
▁전례	-12347
▁제국	-12348
▁종업	-12349
▁좌익	-12350
▁준다	-12351
▁증진	-12352
▁지폐	-12353
▁짝짓	-12354
▁체인	-12355
▁체제	-12356
▁클래	-12357
▁테크	-12358
▁톰슨	-12359
▁파울	-12360
▁피어	-12361
▁피오	-12362
▁해가	-12363
▁혼합	-12364
▁홀리	-12365
▁환수	-12366
거리가	-12367
관으로	-12368
났지만	-12369
되도록	-12370
라이프	-12371
사건이	-12372
선고를	-12373
성으로	-12374
에서만	-12375
웨스트	-12376
자들로	-12377
자로서	-12378
카드를	-12379
테니스	-12380
트로터	-12381
해진다	-12382
행위에	-12383
form	-12384
hdad	-12385
▁bbk	-12386
▁bri	-12387
▁env	-12388
▁mic	-12389
▁pow	-12390
▁sex	-12391
▁ufo	-12392
▁was	-12393
▁you	-12394
▁감소를	-12395
▁강경한	-12396
▁강에서	-12397
▁건설을	-12398
▁경관은	-12399
▁공개할	-12400
▁공군기	-12401
▁공장을	-12402
▁과학적	-12403
▁구멍을	-12404
▁국무총	-12405
▁국정원	-12406
▁근소한	-12407
▁남편의	-12408
▁노리에	-12409
▁뉴욕증	-12410
▁달러화	-12411
▁당분간	-12412
▁당수는	-12413
▁대결을	-12414
▁대체할	-12415
▁도로에	-12416
▁독일은	-12417
▁되면서	-12418
▁마을을	-12419
▁맨유는	-12420
▁문제다	-12421
▁미국발	-12422
▁미치지	-12423
▁발견돼	-12424
▁방송이	-12425
▁배터리	-12426
▁베테랑	-12427
▁변화의	-12428
▁부인과	-12429
▁부인이	-12430
▁부토가	-12431
▁블로거	-12432
▁비롯해	-12433
▁비율이	-12434
▁사이로	-12435
▁새겨진	-12436
▁새끼를	-12437
▁생활에	-12438
▁세번째	-12439
▁세상을	-12440
▁세트를	-12441
▁소년의	-12442
▁소방관	-12443
▁소방대	-12444
▁솔로몬	-12445
▁수요가	-12446
▁수준을	-12447
▁스카이	-12448
▁시기를	-12449
▁시한을	-12450
▁식으로	-12451
▁신청을	-12452
▁실종자	-12453
▁싱가폴	-12454
▁안타까	-12455
▁애쓰고	-12456
▁에넹은	-12457
▁여진이	-12458
▁역사의	-12459
▁연이어	-12460
▁열렬한	-12461
▁영화로	-12462
▁예산을	-12463
▁예수의	-12464
▁오늘은	-12465
▁월에도	-12466
▁위반한	-12467
▁위치에	-12468
▁이들에	-12469
▁이베이	-12470
▁이정인	-12471
▁인도와	-12472
▁임신한	-12473
▁입원한	-12474
▁작업은	-12475
▁장소를	-12476
▁장착된	-12477
▁전략적	-12478
▁전원이	-12479
▁정동영	-12480
▁정상에	-12481
▁제기한	-12482
▁제도를	-12483
▁제안에	-12484
▁주도의	-12485
▁주식은	-12486
▁지구로	-12487
▁지명을	-12488
▁직면한	-12489
▁집행유	-12490
▁처음에	-12491
▁추수감	-12492
▁콘서트	-12493
▁터키가	-12494
▁토론회	-12495
▁판정을	-12496
▁퍼레이	-12497
▁평범한	-12498
▁평화상	-12499
▁포스터	-12500
▁학교의	-12501
▁항소할	-12502
▁해주는	-12503
▁헬기니	-12504
▁확률이	-12505
과정에서	-12506
적으로는	-12507
▁fund	-12508
▁into	-12509
▁결승전에	-12510
▁결의안은	-12511
▁공개되지	-12512
▁교회에서	-12513
▁국가대표	-12514
▁규정하고	-12515
▁나타내고	-12516
▁내무부가	-12517
▁논의하고	-12518
▁논의했다	-12519
▁대표단이	-12520
▁대표들은	-12521
▁도움으로	-12522
▁만달러의	-12523
▁말했으며	-12524
▁민간인이	-12525
▁배제하지	-12526
▁백악관의	-12527
▁보건복지	-12528
▁보여주기	-12529
▁북한으로	-12530
▁사용한다	-12531
▁살아있는	-12532
▁선수들을	-12533
▁수만명의	-12534
▁시작하는	-12535
▁없었지만	-12536
▁연합군은	-12537
▁연합군이	-12538
▁예정대로	-12539
▁우주선이	-12540
▁유지하기	-12541
▁유지하는	-12542
▁응답자의	-12543
▁의료보험	-12544
▁이란에서	-12545
▁인도에서	-12546
▁인플루엔	-12547
▁자신들을	-12548
▁장기적인	-12549
▁재판관은	-12550
▁줄어들고	-12551
▁지목했다	-12552
▁진행하는	-12553
▁참석하기	-12554
▁코미디언	-12555
▁콘서트를	-12556
▁쿠데타를	-12557
▁탈라바니	-12558
▁터키군은	-12559
▁틸트로터	-12560
▁학생들을	-12561
▁행동으로	-12562
▁확보했다	-12563
▁휴대폰을	-12564
▁희망한다	-12565
ission	-12566
▁journ	-12567
▁관계당국은	-12568
▁구체적으로	-12569
▁국제사회가	-12570
▁만장일치로	-12571
▁무장단체가	-12572
▁바그다드에	-12573
▁바그다드의	-12574
▁바이러스가	-12575
▁사살했다고	-12576
▁시작되었다	-12577
▁추수감사절	-12578
▁크리스티아	-12579
▁agency	-12580
▁health	-12581
▁leader	-12582
▁결과에따르면	-12583
▁웹사이트에서	-12584
▁baghdad	-12585
▁consumer	-12586
▁pakistan	-12587
be	-12588
tc	-12589
▁q	-12590
▁됐	-12591
▁펌	-12592
▁횟	-12593
▁힉	-12594
각이	-12595
건강	-12596
국제	-12597
놀드	-12598
라나	-12599
레아	-12600
먼이	-12601
문화	-12602
방위	-12603
비오	-12604
살상	-12605
서도	-12606
스포	-12607
씨를	-12608
온난	-12609
익을	-12610
인한	-12611
조에	-12612
주재	-12613
처에	-12614
체와	-12615
탕카	-12616
티드	-12617
파이	-12618
페이	-12619
피크	-12620
day	-12621
ger	-12622
ile	-12623
pro	-12624
vie	-12625
vis	-12626
▁hd	-12627
▁ma	-12628
▁os	-12629
▁감안	-12630
▁갤러	-12631
▁결렬	-12632
▁결별	-12633
▁고백	-12634
▁곤돌	-12635
▁공직	-12636
▁군수	-12637
▁궁금	-12638
▁극장	-12639
▁기가	-12640
▁기둥	-12641
▁나간	-12642
▁난폭	-12643
▁냉각	-12644
▁노선	-12645
▁녹아	-12646
▁당이	-12647
▁당첨	-12648
▁덩어	-12649
▁동쪽	-12650
▁드문	-12651
▁땅에	-12652
▁라크	-12653
▁루마	-12654
▁리브	-12655
▁리타	-12656
▁리트	-12657
▁마샤	-12658
▁마오	-12659
▁막는	-12660
▁맥코	-12661
▁모닝	-12662
▁뮤직	-12663
▁미들	-12664
▁밀매	-12665
▁밖의	-12666
▁받던	-12667
▁밝은	-12668
▁배터	-12669
▁버린	-12670
▁범람	-12671
▁벽에	-12672
▁보류	-12673
▁부추	-12674
▁붙어	-12675
▁브란	-12676
▁브뤼	-12677
▁비방	-12678
▁비싸	-12679
▁사장	-12680
▁새해	-12681
▁수직	-12682
▁술에	-12683
▁스틸	-12684
▁식물	-12685
▁썼다	-12686
▁앤디	-12687
▁앨라	-12688
▁앵커	-12689
▁야심	-12690
▁어울	-12691
▁억압	-12692
▁엔진	-12693
▁여야	-12694
▁역을	-12695
▁온천	-12696
▁요격	-12697
▁요소	-12698
▁운이	-12699
▁윈프	-12700
▁유예	-12701
▁이건	-12702
▁이끈	-12703
▁이데	-12704
▁이룬	-12705
▁인력	-12706
▁인원	-12707
▁입지	-12708
▁입찰	-12709
▁자격	-12710
▁잠정	-12711
▁잡기	-12712
▁지에	-12713
▁지칭	-12714
▁창립	-12715
▁채권	-12716
▁채로	-12717
▁척이	-12718
▁컨퍼	-12719
▁타운	-12720
▁탐지	-12721
▁퇴장	-12722
▁파고	-12723
▁퍼져	-12724
▁페퍼	-12725
▁펠리	-12726
▁평생	-12727
▁하려	-12728
▁한쪽	-12729
▁항복	-12730
▁행한	-12731
▁헌신	-12732
경기를	-12733
는지를	-12734
떨어진	-12735
로서는	-12736
면서도	-12737
문제가	-12738
상태가	-12739
수술을	-12740
스트를	-12741
심으로	-12742
으로의	-12743
크에서	-12744
하려면	-12745
혁명군	-12746
ated	-12747
ator	-12748
orts	-12749
ound	-12750
reet	-12751
▁arm	-12752
▁mad	-12753
▁pop	-12754
▁suv	-12755
▁갖는다	-12756
▁같았다	-12757
▁개월이	-12758
▁거라고	-12759
▁게임에	-12760
▁격차로	-12761
▁경우에	-12762
▁공군은	-12763
▁공무원	-12764
▁공습이	-12765
▁그린스	-12766
▁극적인	-12767
▁기간이	-12768
▁긴밀한	-12769
▁김계관	-12770
▁끝났다	-12771
▁나가고	-12772
▁논란을	-12773
▁높이고	-12774
▁뉴스를	-12775
▁대답을	-12776
▁대도시	-12777
▁대사를	-12778
▁더보기	-12779
▁도로가	-12780
▁동안에	-12781
▁동원해	-12782
▁라왈핀	-12783
▁로맨틱	-12784
▁로한이	-12785
▁리서치	-12786
▁맥도날	-12787
▁면담을	-12788
▁밀란은	-12789
▁바스크	-12790
▁발견은	-12791
▁발표가	-12792
▁범행을	-12793
▁보고는	-12794
▁부당한	-12795
▁부대가	-12796
▁부딪혀	-12797
▁분명한	-12798
▁불길이	-12799
▁비핵화	-12800
▁비행사	-12801
▁사인을	-12802
▁상반기	-12803
▁상승을	-12804
▁상승할	-12805
▁상품을	-12806
▁서로를	-12807
▁세력의	-12808
▁세우고	-12809
▁소유의	-12810
▁수단을	-12811
▁숨지게	-12812
▁승부를	-12813
▁앙겔라	-12814
▁앞에서	-12815
▁얘기를	-12816
▁어렵게	-12817
▁어렵다	-12818
▁업체인	-12819
▁에탄올	-12820
▁오르며	-12821
▁오스틴	-12822
▁왔으며	-12823
▁외치며	-12824
▁우려로	-12825
▁우즈는	-12826
▁원장은	-12827
▁은행은	-12828
▁이하의	-12829
▁인접한	-12830
▁일기로	-12831
▁일에서	-12832
▁자이툰	-12833
▁저질렀	-12834
▁전달한	-12835
▁전역의	-12836
▁전체를	-12837
▁점수를	-12838
▁점에서	-12839
▁접근을	-12840
▁접근할	-12841
▁정보는	-12842
▁주장해	-12843
▁중점을	-12844
▁지니고	-12845
▁지원이	-12846
▁질병을	-12847
▁창문을	-12848
▁취임식	-12849
▁취해야	-12850
▁카리스	-12851
▁카톨릭	-12852
▁터무니	-12853
▁터키를	-12854
▁토마토	-12855
▁투탕카	-12856
▁폭발은	-12857
▁폴라로	-12858
▁표적이	-12859
▁프랑크	-12860
▁피해는	-12861
▁하원은	-12862
▁학생들	-12863
▁해결에	-12864
▁해군은	-12865
▁해안을	-12866
▁향하던	-12867
▁허커비	-12868
▁협회는	-12869
▁확신을	-12870
▁활용할	-12871
▁후보자	-12872
기때문에	-12873
레스테롤	-12874
리우드의	-12875
지리스탄	-12876
했는지는	-12877
▁cand	-12878
▁conc	-12879
▁ftse	-12880
▁star	-12881
▁stri	-12882
▁wild	-12883
▁year	-12884
▁가자시티	-12885
▁개월간의	-12886
▁것인지에	-12887
▁게임에서	-12888
▁결승에서	-12889
▁공장에서	-12890
▁관광객이	-12891
▁그루지아	-12892
▁기념하기	-12893
▁기다리는	-12894
▁기록적인	-12895
▁기업들이	-12896
▁기울이고	-12897
▁나머지는	-12898
▁노력으로	-12899
▁담겨있다	-12900
▁대중교통	-12901
▁대한민국	-12902
▁도착했을	-12903
▁돌아가는	-12904
▁루마니아	-12905
▁리얼리티	-12906
▁말입니다	-12907
▁보스니아	-12908
▁부정선거	-12909
▁블룸버그	-12910
▁사건에서	-12911
▁사망했고	-12912
▁살해했다	-12913
▁서명했다	-12914
▁석방됐다	-12915
▁소개했다	-12916
▁소수민족	-12917
▁수행하고	-12918
▁승리하는	-12919
▁승리하며	-12920
▁언론과의	-12921
▁오케스트	-12922
▁외교부는	-12923
▁원인으로	-12924
▁이끌었던	-12925
▁이데올로	-12926
▁이뤄지지	-12927
▁이자율을	-12928
▁자메이카	-12929
▁장악하고	-12930
▁정보기관	-12931
▁제공하기	-12932
▁중앙은행	-12933
▁지지율로	-12934
▁총격전이	-12935
▁추구하는	-12936
▁친구들과	-12937
▁파파라치	-12938
▁페르난도	-12939
▁페일린은	-12940
▁포함된다	-12941
▁푸에르토	-12942
▁한반도의	-12943
▁항공사는	-12944
▁해변에서	-12945
▁핵시설을	-12946
통합민주신	-12947
▁peace	-12948
▁soldi	-12949
▁가자지구의	-12950
▁고위관리는	-12951
▁노동자들이	-12952
▁동남아시아	-12953
▁러시아에서	-12954
▁메드베데프	-12955
▁사무실에서	-12956
▁살모넬라균	-12957
▁상태입니다	-12958
▁생각한다고	-12959
▁용의자들이	-12960
▁유권자들의	-12961
▁자회담에서	-12962
▁전통적으로	-12963
▁정부로부터	-12964
▁정상적으로	-12965
▁참가자들은	-12966
▁파키스탄을	-12967
▁희생자들을	-12968
▁달라이라마는	-12969
▁대통합민주신	-12970
▁이라크에서의	-12971
▁이스라엘군은	-12972
▁america	-12973
dy	-12974
ty	-12975
▁갓	-12976
▁놔	-12977
▁닮	-12978
▁쉐	-12979
▁싣	-12980
▁컸	-12981
▁퓨	-12982
감과	-12983
건이	-12984
기상	-12985
노프	-12986
느라	-12987
둘러	-12988
라트	-12989
마에	-12990
맨은	-12991
모는	-12992
미국	-12993
바리	-12994
북한	-12995
빌에	-12996
사람	-12997
사진	-12998
샤는	-12999
선언	-13000
세탁	-13001
셀러	-13002
소연	-13003
여야	-13004
예방	-13005
인해	-13006
일즈	-13007
임에	-13008
자치	-13009
잡지	-13010
줄기	-13011
츠를	-13012
층의	-13013
폭력	-13014
해의	-13015
헤드	-13016
aim	-13017
air	-13018
ecd	-13019
hed	-13020
▁간첩	-13021
▁감면	-13022
▁감원	-13023
▁검정	-13024
▁계절	-13025
▁고집	-13026
▁공안	-13027
▁공조	-13028
▁군을	-13029
▁권유	-13030
▁글렌	-13031
▁급파	-13032
▁기번	-13033
▁나뉘	-13034
▁나자	-13035
▁낙하	-13036
▁날을	-13037
▁남지	-13038
▁농구	-13039
▁농장	-13040
▁농촌	-13041
▁단기	-13042
▁도박	-13043
▁돕는	-13044
▁됐던	-13045
▁두목	-13046
▁두자	-13047
▁뒤덮	-13048
▁디아	-13049
▁랜드	-13050
▁레젭	-13051
▁로열	-13052
▁마가	-13053
▁마텔	-13054
▁만의	-13055
▁만톤	-13056
▁머피	-13057
▁모토	-13058
▁무려	-13059
▁보아	-13060
▁본래	-13061
▁볼튼	-13062
▁분양	-13063
▁분출	-13064
▁비만	-13065
▁빌리	-13066
▁뽑아	-13067
▁사제	-13068
▁산유	-13069
▁산토	-13070
▁상정	-13071
▁섬에	-13072
▁성당	-13073
▁세라	-13074
▁속해	-13075
▁싸울	-13076
▁아로	-13077
▁아웃	-13078
▁약품	-13079
▁언더	-13080
▁얼어	-13081
▁연애	-13082
▁예일	-13083
▁올랜	-13084
▁요금	-13085
▁유네	-13086
▁유아	-13087
▁이길	-13088
▁임산	-13089
▁자부	-13090
▁자위	-13091
▁장의	-13092
▁재차	-13093
▁저격	-13094
▁정글	-13095
▁정직	-13096
▁제퍼	-13097
▁조그	-13098
▁조카	-13099
▁중년	-13100
▁줬다	-13101
▁지식	-13102
▁지표	-13103
▁질식	-13104
▁집이	-13105
▁쫓겨	-13106
▁처럼	-13107
▁추도	-13108
▁카나	-13109
▁칼로	-13110
▁쿼터	-13111
▁키우	-13112
▁타는	-13113
▁터진	-13114
▁퇴치	-13115
▁팔루	-13116
▁펼쳤	-13117
▁평창	-13118
▁피델	-13119
▁한글	-13120
▁현직	-13121
▁혐오	-13122
▁호위	-13123
▁황교	-13124
가스를	-13125
거래를	-13126
국들의	-13127
내용을	-13128
들에서	-13129
르에서	-13130
방으로	-13131
법안을	-13132
보다도	-13133
사고가	-13134
센터의	-13135
안으로	-13136
연하게	-13137
원서를	-13138
웠다고	-13139
작업에	-13140
지거나	-13141
지었다	-13142
탈리아	-13143
파운드	-13144
하기에	-13145
reen	-13146
▁can	-13147
▁cur	-13148
▁del	-13149
▁gir	-13150
▁pet	-13151
▁red	-13152
▁wwf	-13153
▁가볍게	-13154
▁가속화	-13155
▁가스를	-13156
▁가졌던	-13157
▁가톨릭	-13158
▁개국의	-13159
▁건물로	-13160
▁결정될	-13161
▁결정한	-13162
▁경력을	-13163
▁경보가	-13164
▁고래를	-13165
▁광장에	-13166
▁구매할	-13167
▁끌어들	-13168
▁끝내고	-13169
▁나라가	-13170
▁나라는	-13171
▁날짜를	-13172
▁남자아	-13173
▁노조는	-13174
▁논쟁의	-13175
▁누구든	-13176
▁니제르	-13177
▁다하고	-13178
▁당신을	-13179
▁대선이	-13180
▁데니스	-13181
▁동부에	-13182
▁뜨거운	-13183
▁마르코	-13184
▁마을의	-13185
▁마음이	-13186
▁만나는	-13187
▁면에서	-13188
▁몬타나	-13189
▁무차별	-13190
▁물러날	-13191
▁반군과	-13192
▁발사된	-13193
▁발사한	-13194
▁버시바	-13195
▁변화는	-13196
▁보고가	-13197
▁복용한	-13198
▁부모는	-13199
▁부시가	-13200
▁부시와	-13201
▁부정부	-13202
▁부족을	-13203
▁분석가	-13204
▁불편한	-13205
▁브뤼셀	-13206
▁빙하가	-13207
▁빨간색	-13208
▁사카쉬	-13209
▁산업이	-13210
▁생각은	-13211
▁석방에	-13212
▁선택한	-13213
▁설립한	-13214
▁성범죄	-13215
▁세워진	-13216
▁세컨드	-13217
▁센터는	-13218
▁소감을	-13219
▁소아과	-13220
▁수익이	-13221
▁승객을	-13222
▁시기가	-13223
▁시대에	-13224
▁신경을	-13225
▁싸움을	-13226
▁아내가	-13227
▁앨범을	-13228
▁야후가	-13229
▁억류된	-13230
▁엄마가	-13231
▁업체가	-13232
▁여권을	-13233
▁여자아	-13234
▁열리고	-13235
▁오르는	-13236
▁우주로	-13237
▁의견에	-13238
▁의원과	-13239
▁이동할	-13240
▁이유에	-13241
▁작전에	-13242
▁전기를	-13243
▁정권의	-13244
▁제조사	-13245
▁조언을	-13246
▁중서부	-13247
▁증거로	-13248
▁지금이	-13249
▁지나친	-13250
▁지위를	-13251
▁지점에	-13252
▁직면해	-13253
▁천명의	-13254
▁첼시는	-13255
▁첼시의	-13256
▁촬영을	-13257
▁충돌을	-13258
▁치르는	-13259
▁쿠바의	-13260
▁크리켓	-13261
▁태어나	-13262
▁통과한	-13263
▁파업이	-13264
▁페인트	-13265
▁포기할	-13266
▁폭동이	-13267
▁폭발해	-13268
▁한번도	-13269
▁합참의	-13270
▁해제할	-13271
▁행위로	-13272
▁협정에	-13273
▁호르타	-13274
▁화재는	-13275
▁확실시	-13276
코비치는	-13277
▁call	-13278
▁face	-13279
▁good	-13280
▁oecd	-13281
▁that	-13282
▁zanu	-13283
▁강력하게	-13284
▁경고하고	-13285
▁공급하는	-13286
▁그라운드	-13287
▁근무하는	-13288
▁금융제재	-13289
▁나타나고	-13290
▁내용이다	-13291
▁내전으로	-13292
▁다큐멘터	-13293
▁대량살상	-13294
▁대처하기	-13295
▁동물들이	-13296
▁득표율을	-13297
▁레바논의	-13298
▁마련했다	-13299
▁미국인의	-13300
▁반대했다	-13301
▁발생한지	-13302
▁벌어지는	-13303
▁보수적인	-13304
▁불가능한	-13305
▁불과했다	-13306
▁비행기는	-13307
▁사상자는	-13308
▁상징적인	-13309
▁상태였다	-13310
▁선택했다	-13311
▁소요사태	-13312
▁수마트라	-13313
▁시간으로	-13314
▁시스템에	-13315
▁식품의약	-13316
▁신속하게	-13317
▁앤더슨은	-13318
▁여객기를	-13319
▁여객기의	-13320
▁여러가지	-13321
▁여성에게	-13322
▁여성으로	-13323
▁연속으로	-13324
▁움직이는	-13325
▁원한다고	-13326
▁은신처를	-13327
▁이끌었다	-13328
▁이루어질	-13329
▁인용하여	-13330
▁인정하고	-13331
▁잃었다고	-13332
▁있겠지만	-13333
▁전설적인	-13334
▁조사했다	-13335
▁주지사와	-13336
▁지도자를	-13337
▁진행됐다	-13338
▁최저치를	-13339
▁추락했다	-13340
▁콘크리트	-13341
▁타임스가	-13342
▁테스트를	-13343
▁특파원이	-13344
▁판매하는	-13345
▁퍼센트가	-13346
▁풀려났다	-13347
▁피라미드	-13348
▁하마스와	-13349
▁한국은행	-13350
▁항공기가	-13351
▁환자들이	-13352
▁희생자가	-13353
▁about	-13354
▁group	-13355
▁union	-13356
▁white	-13357
▁국방장관이	-13358
▁도착했다고	-13359
▁미국인들의	-13360
▁바르셀로나	-13361
▁받아들였다	-13362
▁발견했으며	-13363
▁브로드웨이	-13364
▁스피어스의	-13365
▁아웅산수지	-13366
▁에드워즈는	-13367
▁연방수사국	-13368
▁이루어지고	-13369
▁콜레스테롤	-13370
▁파키스탄과	-13371
▁프로그램과	-13372
▁필요하다는	-13373
▁해리포터와	-13374
▁홈페이지에	-13375
▁희생자들의	-13376
▁희생자들이	-13377
▁office	-13378
▁rights	-13379
▁천문학자들은	-13380
▁프리메라리가	-13381
cd	-13382
ep	-13383
io	-13384
mo	-13385
wn	-13386
▁꿀	-13387
▁낡	-13388
▁멘	-13389
▁뭉	-13390
▁쏜	-13391
▁왈	-13392
▁젖	-13393
▁젠	-13394
▁족	-13395
▁짙	-13396
▁켐	-13397
▁훈	-13398
▁휠	-13399
가게	-13400
과이	-13401
나르	-13402
델타	-13403
락이	-13404
렐은	-13405
리즘	-13406
벌리	-13407
범이	-13408
변을	-13409
상업	-13410
석방	-13411
세스	-13412
시다	-13413
시미	-13414
시스	-13415
씨와	-13416
액이	-13417
요한	-13418
우가	-13419
우조	-13420
웰은	-13421
이게	-13422
자문	-13423
적의	-13424
질환	-13425
쿠버	-13426
탄과	-13427
투스	-13428
편에	-13429
편이	-13430
포로	-13431
해준	-13432
ank	-13433
hes	-13434
ord	-13435
tig	-13436
▁gr	-13437
▁가이	-13438
▁간접	-13439
▁걸고	-13440
▁곡물	-13441
▁공부	-13442
▁괴롭	-13443
▁굉장	-13444
▁깨달	-13445
▁남을	-13446
▁남측	-13447
▁누설	-13448
▁능력	-13449
▁당장	-13450
▁대조	-13451
▁더글	-13452
▁더블	-13453
▁데비	-13454
▁동요	-13455
▁동해	-13456
▁됐고	-13457
▁롱고	-13458
▁루시	-13459
▁리사	-13460
▁만평	-13461
▁맞출	-13462
▁맡아	-13463
▁매체	-13464
▁맨하	-13465
▁모자	-13466
▁몬테	-13467
▁무서	-13468
▁문학	-13469
▁미치	-13470
▁밀러	-13471
▁바비	-13472
▁바시	-13473
▁발송	-13474
▁발자	-13475
▁법에	-13476
▁병을	-13477
▁보트	-13478
▁보행	-13479
▁볼드	-13480
▁부당	-13481
▁부의	-13482
▁불태	-13483
▁비어	-13484
▁상임	-13485
▁생기	-13486
▁생후	-13487
▁샤론	-13488
▁서해	-13489
▁세에	-13490
▁섹시	-13491
▁수습	-13492
▁수염	-13493
▁순교	-13494
▁순회	-13495
▁시몬	-13496
▁시체	-13497
▁시키	-13498
▁신생	-13499
▁신설	-13500
▁신종	-13501
▁십년	-13502
▁십대	-13503
▁십만	-13504
▁싱글	-13505
▁아리	-13506
▁애널	-13507
▁언색	-13508
▁에밀	-13509
▁에바	-13510
▁영부	-13511
▁영입	-13512
▁예금	-13513
▁온건	-13514
▁외각	-13515
▁우드	-13516
▁월말	-13517
▁의지	-13518
▁인천	-13519
▁일곱	-13520
▁일기	-13521
▁일대	-13522
▁잃게	-13523
▁잃을	-13524
▁임박	-13525
▁임원	-13526
▁자루	-13527
▁잡스	-13528
▁잡을	-13529
▁잡힌	-13530
▁장군	-13531
▁적힌	-13532
▁전세	-13533
▁전의	-13534
▁점은	-13535
▁접한	-13536
▁정비	-13537
▁제보	-13538
▁제인	-13539
▁조달	-13540
▁졸릭	-13541
▁죽어	-13542
▁진공	-13543
▁차고	-13544
▁천여	-13545
▁초콜	-13546
▁총살	-13547
▁테헤	-13548
▁토끼	-13549
▁퇴진	-13550
▁트랜	-13551
▁트루	-13552
▁팀에	-13553
▁팀은	-13554
▁파워	-13555
▁표면	-13556
▁풍력	-13557
▁풍자	-13558
▁해명	-13559
▁향년	-13560
▁호킨	-13561
▁후안	-13562
▁휴일	-13563
고했다	-13564
뉴스는	-13565
라이브	-13566
렸으나	-13567
릴랜드	-13568
문으로	-13569
변인은	-13570
부들이	-13571
았으나	-13572
어지고	-13573
월드컵	-13574
임이사	-13575
터바흐	-13576
회사가	-13577
▁cro	-13578
▁dep	-13579
▁glo	-13580
▁gnp	-13581
▁hot	-13582
▁six	-13583
▁tax	-13584
▁가이드	-13585
▁거머쥐	-13586
▁거짓말	-13587
▁경사는	-13588
▁경우는	-13589
▁경의를	-13590
▁계기가	-13591
▁고어는	-13592
▁공동성	-13593
▁관리를	-13594
▁교수인	-13595
▁교황의	-13596
▁구성할	-13597
▁국기를	-13598
▁군복을	-13599
▁그림을	-13600
▁금융시	-13601
▁기관의	-13602
▁기술에	-13603
▁기존의	-13604
▁꾸준히	-13605
▁끌어올	-13606
▁끝나지	-13607
▁남겼다	-13608
▁높였다	-13609
▁누구나	-13610
▁늘어난	-13611
▁능력이	-13612
▁다르게	-13613
▁더이상	-13614
▁도전을	-13615
▁독일과	-13616
▁들어보	-13617
▁등에서	-13618
▁따뜻한	-13619
▁떨어뜨	-13620
▁리더십	-13621
▁말았다	-13622
▁목표가	-13623
▁못하면	-13624
▁문화를	-13625
▁발전소	-13626
▁법적인	-13627
▁베이비	-13628
▁별도로	-13629
▁병력은	-13630
▁보낸다	-13631
▁보도된	-13632
▁사냥꾼	-13633
▁사망에	-13634
▁살았던	-13635
▁살짜리	-13636
▁생각할	-13637
▁서부의	-13638
▁선수는	-13639
▁설명을	-13640
▁성적을	-13641
▁소방서	-13642
▁속으로	-13643
▁수반이	-13644
▁수행한	-13645
▁순례객	-13646
▁슈나이	-13647
▁스텔스	-13648
▁식사를	-13649
▁신부는	-13650
▁신행정	-13651
▁실수로	-13652
▁실험에	-13653
▁아놀드	-13654
▁아이만	-13655
▁아직은	-13656
▁애플은	-13657
▁앨라배	-13658
▁어디에	-13659
▁여사의	-13660
▁연패를	-13661
▁열린다	-13662
▁오래전	-13663
▁올해는	-13664
▁용납할	-13665
▁운행이	-13666
▁원조를	-13667
▁위성을	-13668
▁유망주	-13669
▁이득을	-13670
▁이소연	-13671
▁이어진	-13672
▁자사의	-13673
▁자신도	-13674
▁작용할	-13675
▁작전이	-13676
▁장례식	-13677
▁장면은	-13678
▁장소에	-13679
▁장애가	-13680
▁저녁식	-13681
▁적당한	-13682
▁전문의	-13683
▁전통을	-13684
▁전투가	-13685
▁정말로	-13686
▁정보에	-13687
▁정부청	-13688
▁제목의	-13689
▁주머니	-13690
▁주변을	-13691
▁주유소	-13692
▁줄어든	-13693
▁증거는	-13694
▁지구를	-13695
▁지난밤	-13696
▁지명에	-13697
▁지속된	-13698
▁지시를	-13699
▁지정된	-13700
▁지켜보	-13701
▁지키지	-13702
▁진출에	-13703
▁차지할	-13704
▁추진할	-13705
▁친구인	-13706
▁케냐의	-13707
▁파괴된	-13708
▁하기도	-13709
▁합의된	-13710
▁해결책	-13711
▁향했다	-13712
▁허드슨	-13713
▁회장과	-13714
▁휴식을	-13715
리스트인	-13716
항공우주	-13717
했음에도	-13718
▁aust	-13719
▁host	-13720
▁next	-13721
▁wind	-13722
▁가졌다고	-13723
▁가족들을	-13724
▁가했다고	-13725
▁강화했다	-13726
▁경쟁에서	-13727
▁고객들이	-13728
▁공항으로	-13729
▁관광산업	-13730
▁구호품을	-13731
▁그렇다면	-13732
▁그루지야	-13733
▁그린스펀	-13734
▁기념하는	-13735
▁내비쳤다	-13736
▁다국적군	-13737
▁답변했다	-13738
▁대변인의	-13739
▁도쿄에서	-13740
▁동부에서	-13741
▁들어오는	-13742
▁러시아를	-13743
▁롱고리아	-13744
▁무크타다	-13745
▁무하메드	-13746
▁받았다는	-13747
▁발표하지	-13748
▁방콕에서	-13749
▁변호사를	-13750
▁보였지만	-13751
▁부적절한	-13752
▁불과하다	-13753
▁불법적인	-13754
▁사령관이	-13755
▁생각했던	-13756
▁서비스가	-13757
▁서식하는	-13758
▁서쪽으로	-13759
▁선거캠페	-13760
▁선관위는	-13761
▁선보였다	-13762
▁소지하고	-13763
▁시민들의	-13764
▁시작했고	-13765
▁신고했다	-13766
▁실업수당	-13767
▁아이디어	-13768
▁악화되고	-13769
▁안보리의	-13770
▁어려움이	-13771
▁어머니인	-13772
▁억만장자	-13773
▁에너지를	-13774
▁여겨지는	-13775
▁연결하는	-13776
▁외교정책	-13777
▁원한다면	-13778
▁이야기가	-13779
▁이야기는	-13780
▁입장이다	-13781
▁자본주의	-13782
▁자살폭탄	-13783
▁자유로운	-13784
▁자회담이	-13785
▁전투기가	-13786
▁전투에서	-13787
▁전해지고	-13788
▁정식으로	-13789
▁주도하고	-13790
▁줄리아니	-13791
▁중태라고	-13792
▁증권거래	-13793
▁지구온난	-13794
▁직원들의	-13795
▁참가하는	-13796
▁컴퓨터와	-13797
▁클럽에서	-13798
▁클레이코	-13799
▁탈레반에	-13800
▁탑승하고	-13801
▁태국에서	-13802
▁파업으로	-13803
▁한국전쟁	-13804
▁한반도에	-13805
▁행정부에	-13806
▁허용하는	-13807
▁호나우두	-13808
▁효과적인	-13809
ancial	-13810
▁earth	-13811
▁islam	-13812
▁국경지역에	-13813
▁노대통령의	-13814
▁당국자들은	-13815
▁대량살상무	-13816
▁대선주자인	-13817
▁라우터바흐	-13818
▁리히터규모	-13819
▁목격했다고	-13820
▁바이러스는	-13821
▁받았습니다	-13822
▁부상했으며	-13823
▁상대적으로	-13824
▁수용소에서	-13825
▁승무원들은	-13826
▁실종됐다고	-13827
▁여론조사를	-13828
▁오바마에게	-13829
▁요청했다고	-13830
▁이라크전을	-13831
▁인터넷에서	-13832
▁코리아타임	-13833
▁프로젝트에	-13834
eration	-13835
ization	-13836
▁school	-13837
▁threat	-13838
▁보도했습니다	-13839
▁austral	-13840
▁관계자에따르면	-13841
▁인도네시아에서	-13842
▁financial	-13843
▁constitution	-13844
▁administration	-13845
br	-13846
do	-13847
so	-13848
▁곁	-13849
▁낫	-13850
▁딴	-13851
▁샀	-13852
▁솜	-13853
▁숭	-13854
▁콤	-13855
▁퀴	-13856
▁킴	-13857
▁틈	-13858
▁펴	-13859
강을	-13860
고는	-13861
구역	-13862
글리	-13863
기념	-13864
기증	-13865
나드	-13866
낸셜	-13867
레드	-13868
렬히	-13869
로그	-13870
링턴	-13871
마가	-13872
마드	-13873
마켓	-13874
모어	-13875
몬드	-13876
무라	-13877
바의	-13878
반응	-13879
받게	-13880
버는	-13881
버린	-13882
버스	-13883
법과	-13884
별로	-13885
봐야	-13886
수술	-13887
스케	-13888
슬램	-13889
시픽	-13890
신저	-13891
아리	-13892
액을	-13893
액의	-13894
어에	-13895
오밍	-13896
용의	-13897
원도	-13898
이익	-13899
중국	-13900
중을	-13901
지나	-13902
지오	-13903
직원	-13904
차이	-13905
천옹	-13906
청을	-13907
트만	-13908
튼을	-13909
폰테	-13910
폴로	-13911
햄은	-13912
협상	-13913
화학	-13914
act	-13915
ame	-13916
app	-13917
bal	-13918
erg	-13919
its	-13920
mex	-13921
ony	-13922
ues	-13923
▁jp	-13924
▁sg	-13925
▁가금	-13926
▁가두	-13927
▁강아	-13928
▁개념	-13929
▁개와	-13930
▁개조	-13931
▁객실	-13932
▁경유	-13933
▁구급	-13934
▁그럴	-13935
▁극히	-13936
▁기름	-13937
▁낡은	-13938
▁납부	-13939
▁낮게	-13940
▁내야	-13941
▁넬슨	-13942
▁년은	-13943
▁노숙	-13944
▁놀랍	-13945
▁다룰	-13946
▁다툼	-13947
▁단축	-13948
▁달할	-13949
▁동행	-13950
▁땅콩	-13951
▁라자	-13952
▁레노	-13953
▁로보	-13954
▁리스	-13955
▁린다	-13956
▁만델	-13957
▁맞춘	-13958
▁매트	-13959
▁먹을	-13960
▁명명	-13961
▁목에	-13962
▁몰디	-13963
▁무관	-13964
▁무의	-13965
▁무중	-13966
▁물려	-13967
▁반다	-13968
▁발명	-13969
▁배달	-13970
▁보르	-13971
▁부수	-13972
▁비로	-13973
▁빈번	-13974
▁살펴	-13975
▁상속	-13976
▁상자	-13977
▁서류	-13978
▁서열	-13979
▁서한	-13980
▁선동	-13981
▁스릴	-13982
▁시께	-13983
▁시트	-13984
▁시합	-13985
▁신시	-13986
▁실용	-13987
▁안심	-13988
▁연맹	-13989
▁연상	-13990
▁예외	-13991
▁오페	-13992
▁옮기	-13993
▁왕궁	-13994
▁외신	-13995
▁우익	-13996
▁위크	-13997
▁육성	-13998
▁이반	-13999
▁일삼	-14000
▁있길	-14001
▁잊지	-14002
▁자란	-14003
▁자와	-14004
▁장성	-14005
▁장이	-14006
▁재단	-14007
▁제라	-14008
▁제어	-14009
▁조차	-14010
▁주된	-14011
▁중대	-14012
▁진료	-14013
▁진열	-14014
▁진원	-14015
▁초당	-14016
▁출간	-14017
▁키티	-14018
▁탑재	-14019
▁투기	-14020
▁투항	-14021
▁팔을	-14022
▁패널	-14023
▁포옹	-14024
▁폭넓	-14025
▁푸켓	-14026
▁하비	-14027
▁해협	-14028
▁현수	-14029
▁호박	-14030
▁화폐	-14031
▁황박	-14032
▁후속	-14033
감으로	-14034
나갔다	-14035
들간의	-14036
라인을	-14037
리면서	-14038
미사일	-14039
범으로	-14040
법으로	-14041
사들의	-14042
사진을	-14043
성에서	-14044
위기에	-14045
자마자	-14046
주었다	-14047
하지도	-14048
협정을	-14049
ater	-14050
stem	-14051
▁bet	-14052
▁che	-14053
▁col	-14054
▁fil	-14055
▁gps	-14056
▁har	-14057
▁mem	-14058
▁가라앉	-14059
▁가방을	-14060
▁가석방	-14061
▁가슴에	-14062
▁감독과	-14063
▁거두며	-14064
▁걸리는	-14065
▁결승전	-14066
▁결심을	-14067
▁결정된	-14068
▁결함이	-14069
▁경기후	-14070
▁경로를	-14071
▁경우를	-14072
▁계획과	-14073
▁관여한	-14074
▁교황이	-14075
▁구조를	-14076
▁군정은	-14077
▁군정이	-14078
▁권한이	-14079
▁궤도를	-14080
▁균형을	-14081
▁그룹은	-14082
▁극심한	-14083
▁급상승	-14084
▁기리기	-14085
▁기업에	-14086
▁기자를	-14087
▁김경준	-14088
▁나타내	-14089
▁남았다	-14090
▁내리지	-14091
▁노선을	-14092
▁노조가	-14093
▁논평을	-14094
▁놓았다	-14095
▁니스텔	-14096
▁대신해	-14097
▁대출을	-14098
▁대표와	-14099
▁대화가	-14100
▁도착해	-14101
▁돈세탁	-14102
▁되어야	-14103
▁두려움	-14104
▁라일라	-14105
▁로널드	-14106
▁마련된	-14107
▁만나고	-14108
▁말하지	-14109
▁메르세	-14110
▁못하다	-14111
▁무너지	-14112
▁문화적	-14113
▁물러난	-14114
▁미국내	-14115
▁미하일	-14116
▁바람에	-14117
▁발언이	-14118
▁방안에	-14119
▁배우인	-14120
▁버렸다	-14121
▁버스에	-14122
▁벌이던	-14123
▁병원의	-14124
▁보리스	-14125
▁부모의	-14126
▁부분에	-14127
▁부상은	-14128
▁부유한	-14129
▁분기에	-14130
▁불안정	-14131
▁비정부	-14132
▁비틀즈	-14133
▁사기를	-14134
▁사랑을	-14135
▁사항이	-14136
▁삼엄한	-14137
▁상세한	-14138
▁상원은	-14139
▁선박에	-14140
▁선박을	-14141
▁선택을	-14142
▁소니는	-14143
▁소문이	-14144
▁손해배	-14145
▁시에서	-14146
▁시점에	-14147
▁식이요	-14148
▁신천옹	-14149
▁심리학	-14150
▁심슨은	-14151
▁아라파	-14152
▁아이다	-14153
▁아이팟	-14154
▁애플의	-14155
▁언론을	-14156
▁에서도	-14157
▁역할에	-14158
▁연관이	-14159
▁열차는	-14160
▁오토바	-14161
▁외국의	-14162
▁요인이	-14163
▁우비넨	-14164
▁운영을	-14165
▁운전사	-14166
▁웃으며	-14167
▁윌리암	-14168
▁유가가	-14169
▁유람선	-14170
▁유럽에	-14171
▁이른다	-14172
▁이전의	-14173
▁이틀째	-14174
▁인디언	-14175
▁일부로	-14176
▁일정에	-14177
▁자금은	-14178
▁작성된	-14179
▁잠재적	-14180
▁저자인	-14181
▁전에도	-14182
▁전통적	-14183
▁점이다	-14184
▁접어들	-14185
▁정책의	-14186
▁제시할	-14187
▁중단된	-14188
▁증가로	-14189
▁지방에	-14190
▁지배를	-14191
▁지불할	-14192
▁지진의	-14193
▁지하드	-14194
▁차량의	-14195
▁착륙을	-14196
▁찬사를	-14197
▁철수할	-14198
▁체제를	-14199
▁총으로	-14200
▁카스트	-14201
▁커피를	-14202
▁코스타	-14203
▁코카인	-14204
▁크기가	-14205
▁클레멘	-14206
▁타블로	-14207
▁타이거	-14208
▁탁신은	-14209
▁테헤란	-14210
▁통과할	-14211
▁통화를	-14212
▁투쟁을	-14213
▁트레킹	-14214
▁파업은	-14215
▁파티를	-14216
▁폭설로	-14217
▁표한다	-14218
▁프라임	-14219
▁하는지	-14220
▁하에서	-14221
▁한국계	-14222
▁해리왕	-14223
▁해준다	-14224
▁확산을	-14225
▁힌두교	-14226
그로폰테	-14227
이었으며	-14228
하겠지만	-14229
하였다고	-14230
ijing	-14231
iness	-14232
ition	-14233
ivers	-14234
ology	-14235
tical	-14236
▁hsbc	-14237
▁post	-14238
▁russ	-14239
▁soci	-14240
▁갑작스런	-14241
▁게이츠는	-14242
▁결의안이	-14243
▁경찰관이	-14244
▁고양이를	-14245
▁고조되고	-14246
▁공격하기	-14247
▁구스마오	-14248
▁구호단체	-14249
▁국제사면	-14250
▁기업들은	-14251
▁기업들의	-14252
▁끌어들이	-14253
▁나오면서	-14254
▁나타나는	-14255
▁내다봤다	-14256
▁노력했다	-14257
▁높아졌다	-14258
▁뉴욕상업	-14259
▁당선자가	-14260
▁당신에게	-14261
▁대표들이	-14262
▁돌아갔다	-14263
▁돌아오는	-14264
▁돌입했다	-14265
▁마련하기	-14266
▁말했었다	-14267
▁매들린의	-14268
▁무너졌다	-14269
▁무엇인지	-14270
▁미얀마에	-14271
▁발생하자	-14272
▁발언으로	-14273
▁방문하고	-14274
▁방침이다	-14275
▁백악관을	-14276
▁버시바우	-14277
▁베이징에	-14278
▁베탕쿠르	-14279
▁분명하다	-14280
▁분석가는	-14281
▁분석가인	-14282
▁비극적인	-14283
▁비핵화를	-14284
▁사람으로	-14285
▁사실이다	-14286
▁삼성그룹	-14287
▁생산량을	-14288
▁선거캠프	-14289
▁성공적인	-14290
▁세계무역	-14291
▁수행하는	-14292
▁시민들을	-14293
▁시위대에	-14294
▁시작하기	-14295
▁싶어하는	-14296
▁양국간의	-14297
▁어소시에	-14298
▁여객기에	-14299
▁여겨지고	-14300
▁외곽에서	-14301
▁요청하는	-14302
▁요하네스	-14303
▁용의자인	-14304
▁우려하는	-14305
▁위원회가	-14306
▁이송됐다	-14307
▁이전에는	-14308
▁일요일에	-14309
▁일이었다	-14310
▁잃어버린	-14311
▁재미있는	-14312
▁정권인수	-14313
▁정보통신	-14314
▁제공한다	-14315
▁지켜보는	-14316
▁직원들을	-14317
▁진지하게	-14318
▁처음에는	-14319
▁총격전을	-14320
▁총기난사	-14321
▁컴퓨터에	-14322
▁테네시주	-14323
▁텔레비전	-14324
▁특파원은	-14325
▁평화로운	-14326
▁폐쇄하고	-14327
▁하원에서	-14328
▁한국으로	-14329
▁해결하는	-14330
▁헬리콥터	-14331
▁확실하다	-14332
▁환영한다	-14333
▁후임으로	-14334
들에따르면	-14335
vestig	-14336
▁break	-14337
▁claim	-14338
▁democ	-14339
▁movie	-14340
▁nymex	-14341
▁start	-14342
▁결과에따라	-14343
▁경제적으로	-14344
▁골든글로브	-14345
▁긍정적으로	-14346
▁기록했으며	-14347
▁떨어졌다고	-14348
▁발견됐으며	-14349
▁발표하면서	-14350
▁베를린에서	-14351
▁베스트셀러	-14352
▁사르코지가	-14353
▁선거캠프는	-14354
▁시작했으며	-14355
▁아파트에서	-14356
▁여론조사는	-14357
▁예상된다고	-14358
▁올림픽에서	-14359
▁일시적으로	-14360
▁자발적으로	-14361
▁전문가들의	-14362
▁주식시장이	-14363
▁주차장에서	-14364
▁중앙일보가	-14365
▁타블로이드	-14366
▁플로리다의	-14367
▁하원의장은	-14368
▁한국인들은	-14369
▁현지경찰이	-14370
▁arrest	-14371
▁candid	-14372
▁resign	-14373
▁street	-14374
▁summit	-14375
▁system	-14376
▁로드리게스는	-14377
▁매사추세츠주	-14378
▁크라이슬러는	-14379
▁팔레스타인과	-14380
▁푸에르토리코	-14381
▁프라이머리를	-14382
▁beijing	-14383
▁defense	-14384
▁society	-14385
▁국가비상사태를	-14386
▁investig	-14387
ca	-14388
lp	-14389
▁랩	-14390
▁뭔	-14391
▁봅	-14392
▁샬	-14393
▁션	-14394
▁째	-14395
▁췌	-14396
▁핫	-14397
강산	-14398
경색	-14399
권의	-14400
그리	-14401
꺼이	-14402
나갈	-14403
네트	-14404
능한	-14405
데자	-14406
라니	-14407
럽게	-14408
리학	-14409
막을	-14410
만인	-14411
묘한	-14412
문서	-14413
바에	-14414
벌을	-14415
변에	-14416
보나	-14417
분의	-14418
식량	-14419
에트	-14420
우드	-14421
운영	-14422
워즈	-14423
자키	-14424
제인	-14425
조가	-14426
지요	-14427
측과	-14428
퀘어	-14429
토록	-14430
투어	-14431
파르	-14432
파에	-14433
팍스	-14434
펀드	-14435
편을	-14436
함과	-14437
함에	-14438
행동	-14439
황을	-14440
ely	-14441
ied	-14442
ned	-14443
ult	-14444
▁fc	-14445
▁wr	-14446
▁각기	-14447
▁갖춰	-14448
▁갱신	-14449
▁거센	-14450
▁걸음	-14451
▁견해	-14452
▁경주	-14453
▁공주	-14454
▁공표	-14455
▁과일	-14456
▁광대	-14457
▁구를	-14458
▁구분	-14459
▁구상	-14460
▁귀를	-14461
▁김영	-14462
▁깜짝	-14463
▁끝내	-14464
▁나르	-14465
▁나체	-14466
▁납북	-14467
▁내달	-14468
▁노란	-14469
▁노엘	-14470
▁다카	-14471
▁대공	-14472
▁데는	-14473
▁도구	-14474
▁돌며	-14475
▁될지	-14476
▁들며	-14477
▁때도	-14478
▁때에	-14479
▁라마	-14480
▁루디	-14481
▁리터	-14482
▁마터	-14483
▁만개	-14484
▁맞교	-14485
▁맞설	-14486
▁매리	-14487
▁면허	-14488
▁반짝	-14489
▁방코	-14490
▁법의	-14491
▁병이	-14492
▁본거	-14493
▁부를	-14494
▁부착	-14495
▁불거	-14496
▁불필	-14497
▁비율	-14498
▁빼고	-14499
▁사로	-14500
▁사모	-14501
▁사촌	-14502
▁상무	-14503
▁상세	-14504
▁스탤	-14505
▁스필	-14506
▁심어	-14507
▁쓰지	-14508
▁씨를	-14509
▁아브	-14510
▁아유	-14511
▁안다	-14512
▁양은	-14513
▁양조	-14514
▁어리	-14515
▁여덟	-14516
▁완수	-14517
▁외딴	-14518
▁외출	-14519
▁울머	-14520
▁위헌	-14521
▁은폐	-14522
▁이성	-14523
▁인적	-14524
▁인준	-14525
▁자고	-14526
▁자진	-14527
▁작별	-14528
▁장래	-14529
▁적게	-14530
▁적지	-14531
▁전념	-14532
▁절단	-14533
▁점에	-14534
▁접경	-14535
▁제주	-14536
▁졌다	-14537
▁조세	-14538
▁죄를	-14539
▁주권	-14540
▁주력	-14541
▁쫓아	-14542
▁처분	-14543
▁첫째	-14544
▁청중	-14545
▁카림	-14546
▁탄약	-14547
▁투옥	-14548
▁판명	-14549
▁팔려	-14550
▁팽팽	-14551
▁하퍼	-14552
▁합리	-14553
▁행방	-14554
▁행해	-14555
▁혼다	-14556
▁흡수	-14557
다니는	-14558
다코타	-14559
대서양	-14560
되기를	-14561
렌스탐	-14562
부장은	-14563
석에서	-14564
업체가	-14565
여부를	-14566
왔다는	-14567
이기도	-14568
이치로	-14569
일러는	-14570
자들도	-14571
장에게	-14572
조사에	-14573
지원을	-14574
프라이	-14575
하우스	-14576
하이머	-14577
회사는	-14578
eren	-14579
head	-14580
turn	-14581
▁aut	-14582
▁bro	-14583
▁ecb	-14584
▁faa	-14585
▁per	-14586
▁str	-14587
▁unh	-14588
▁wid	-14589
▁wti	-14590
▁가동을	-14591
▁가이트	-14592
▁가하는	-14593
▁감추지	-14594
▁감축할	-14595
▁강세를	-14596
▁개인의	-14597
▁개정을	-14598
▁검토할	-14599
▁것과는	-14600
▁경쟁이	-14601
▁공격해	-14602
▁구입한	-14603
▁국가와	-14604
▁궤도에	-14605
▁근처의	-14606
▁금강산	-14607
▁기금을	-14608
▁기꺼이	-14609
▁기다려	-14610
▁깃발을	-14611
▁나폴리	-14612
▁내년에	-14613
▁내부의	-14614
▁년대에	-14615
▁놀라게	-14616
▁다루는	-14617
▁단거리	-14618
▁단계로	-14619
▁대응할	-14620
▁대표단	-14621
▁데이브	-14622
▁도덕적	-14623
▁동생인	-14624
▁두개골	-14625
▁디에고	-14626
▁떠나지	-14627
▁똑같은	-14628
▁라스무	-14629
▁레드삭	-14630
▁로드맵	-14631
▁마누엘	-14632
▁마시는	-14633
▁마찰을	-14634
▁만나기	-14635
▁많았다	-14636
▁망명을	-14637
▁맺었다	-14638
▁먹이를	-14639
▁메디컬	-14640
▁명단을	-14641
▁모하메	-14642
▁목록을	-14643
▁무너뜨	-14644
▁무료로	-14645
▁무중력	-14646
▁물질이	-14647
▁물품을	-14648
▁바다에	-14649
▁바이든	-14650
▁밝히기	-14651
▁방송국	-14652
▁버스는	-14653
▁변호인	-14654
▁북측의	-14655
▁비난이	-14656
▁비용은	-14657
▁비율은	-14658
▁빈라덴	-14659
▁산업의	-14660
▁삼았다	-14661
▁생겼다	-14662
▁서명한	-14663
▁석유를	-14664
▁선생님	-14665
▁선정된	-14666
▁선포한	-14667
▁설립된	-14668
▁설치한	-14669
▁성공할	-14670
▁성장이	-14671
▁세계가	-14672
▁수비수	-14673
▁수색을	-14674
▁수준에	-14675
▁수치가	-14676
▁순간에	-14677
▁스콜세	-14678
▁시간은	-14679
▁시민이	-14680
▁시부터	-14681
▁시험을	-14682
▁아들과	-14683
▁아로요	-14684
▁알자지	-14685
▁약물을	-14686
▁언급도	-14687
▁언론과	-14688
▁얼어붙	-14689
▁없도록	-14690
▁없었고	-14691
▁여왕이	-14692
▁영어를	-14693
▁올랜도	-14694
▁와중에	-14695
▁요구해	-14696
▁우려해	-14697
▁우주의	-14698
▁의사와	-14699
▁의사의	-14700
▁이건희	-14701
▁이바노	-14702
▁이행할	-14703
▁인터내	-14704
▁임무에	-14705
▁잘못을	-14706
▁전반에	-14707
▁점으로	-14708
▁조직은	-14709
▁주변의	-14710
▁죽음의	-14711
▁지나가	-14712
▁지내고	-14713
▁징역형	-14714
▁참석을	-14715
▁초부터	-14716
▁친구와	-14717
▁캠페인	-14718
▁테러와	-14719
▁테이블	-14720
▁텔레콤	-14721
▁트럭이	-14722
▁파도가	-14723
▁팬들의	-14724
▁폐쇄할	-14725
▁폭격기	-14726
▁폭격을	-14727
▁피해여	-14728
▁필리스	-14729
▁하려는	-14730
▁학부모	-14731
▁함유된	-14732
▁혐의와	-14733
▁호날두	-14734
▁호주는	-14735
▁혼란이	-14736
▁화해를	-14737
▁확보에	-14738
▁회의는	-14739
▁후쿠다	-14740
▁휴전을	-14741
되었으나	-14742
법원에서	-14743
회견에서	-14744
▁char	-14745
▁euro	-14746
▁head	-14747
▁make	-14748
▁park	-14749
▁stud	-14750
▁가로질러	-14751
▁가졌으며	-14752
▁강화하는	-14753
▁격돌한다	-14754
▁결정하기	-14755
▁경찰에게	-14756
▁고양이가	-14757
▁곳곳에서	-14758
▁공화당은	-14759
▁관계자와	-14760
▁구조대가	-14761
▁국가들과	-14762
▁급속도로	-14763
▁기후변화	-14764
▁나스닥은	-14765
▁나타나지	-14766
▁뉴저지주	-14767
▁대통령궁	-14768
▁동물보호	-14769
▁동영상에	-14770
▁드레스를	-14771
▁루아얄은	-14772
▁리버풀은	-14773
▁마터호른	-14774
▁매릴랜드	-14775
▁매케인과	-14776
▁메시지가	-14777
▁멸종위기	-14778
▁모른다는	-14779
▁못했으며	-14780
▁무대에서	-14781
▁미국인이	-14782
▁발생한다	-14783
▁보고되지	-14784
▁보조금을	-14785
▁부모들이	-14786
▁부통령의	-14787
▁사생활을	-14788
▁살해하고	-14789
▁소렌스탐	-14790
▁소속으로	-14791
▁수단으로	-14792
▁스스로를	-14793
▁시리아와	-14794
▁시사했다	-14795
▁신용경색	-14796
▁실종됐다	-14797
▁안젤리나	-14798
▁압도적인	-14799
▁연구하는	-14800
▁올림픽에	-14801
▁올해들어	-14802
▁요원들이	-14803
▁우승자인	-14804
▁위원장의	-14805
▁유네스코	-14806
▁의미하는	-14807
▁의존하고	-14808
▁이뤄져야	-14809
▁이뤄지고	-14810
▁이후에도	-14811
▁인정하는	-14812
▁입원했다	-14813
▁있었는지	-14814
▁자전거를	-14815
▁재무부는	-14816
▁적극적인	-14817
▁정확하게	-14818
▁조사하는	-14819
▁중국으로	-14820
▁지도자의	-14821
▁집회에서	-14822
▁최근까지	-14823
▁최루탄을	-14824
▁코네티컷	-14825
▁테러범이	-14826
▁텍사스와	-14827
▁토로했다	-14828
▁투탕카멘	-14829
▁폐쇄했다	-14830
▁포기했다	-14831
▁포틀랜드	-14832
▁푸에르타	-14833
▁프랑스가	-14834
▁하마스를	-14835
▁합법적인	-14836
▁해안경비	-14837
▁현지에서	-14838
▁교착상태에	-14839
▁국제적으로	-14840
▁그랜드슬램	-14841
▁기준금리를	-14842
▁나타났다고	-14843
▁뉴스입니다	-14844
▁무장세력을	-14845
▁배심원단은	-14846
▁보고서에는	-14847
▁비평가들은	-14848
▁사망자수는	-14849
▁스트레스를	-14850
▁시작됐으며	-14851
▁아니었다고	-14852
▁와지리스탄	-14853
▁자르다리는	-14854
▁자체적으로	-14855
▁젊은이들이	-14856
▁직접적으로	-14857
▁추가적으로	-14858
▁추정된다고	-14859
▁코커스에서	-14860
▁콜롬비아의	-14861
▁플로리다에	-14862
▁할리우드의	-14863
▁효과적으로	-14864
▁forces	-14865
▁public	-14866
▁달라이라마가	-14867
▁주장했습니다	-14868
▁프로그램에서	-14869
▁committ	-14870
▁journal	-14871
▁소식통에따르면	-14872
▁official	-14873
▁prosecut	-14874
▁commission	-14875
dm	-14876
fk	-14877
gs	-14878
▁둥	-14879
▁띠	-14880
▁럭	-14881
▁롭	-14882
▁맑	-14883
▁멍	-14884
▁뻔	-14885
▁셔	-14886
▁싼	-14887
▁씻	-14888
▁잦	-14889
▁튜	-14890
감에	-14891
감한	-14892
강한	-14893
건의	-14894
결혼	-14895
고등	-14896
귀한	-14897
그레	-14898
끼를	-14899
넷소	-14900
대출	-14901
럴드	-14902
려져	-14903
류는	-14904
마이	-14905
마저	-14906
망에	-14907
모델	-14908
바가	-14909
바닥	-14910
바를	-14911
바인	-14912
방의	-14913
방한	-14914
번에	-14915
베키	-14916
비안	-14917
비츠	-14918
스팅	-14919
어서	-14920
없다	-14921
에다	-14922
연대	-14923
오를	-14924
와르	-14925
왔고	-14926
이에	-14927
인하	-14928
있어	-14929
자산	-14930
자유	-14931
적일	-14932
제한	-14933
중독	-14934
질의	-14935
취를	-14936
치료	-14937
카이	-14938
코가	-14939
코드	-14940
크레	-14941
타스	-14942
터에	-14943
티노	-14944
티브	-14945
팀에	-14946
팅을	-14947
펠러	-14948
폰을	-14949
프와	-14950
한한	-14951
혈을	-14952
효과	-14953
ale	-14954
leg	-14955
uge	-14956
ush	-14957
▁fe	-14958
▁fi	-14959
▁sl	-14960
▁가야	-14961
▁가혹	-14962
▁개회	-14963
▁건이	-14964
▁게놈	-14965
▁겪은	-14966
▁경이	-14967
▁공범	-14968
▁과장	-14969
▁구해	-14970
▁국유	-14971
▁그랬	-14972
▁금전	-14973
▁길게	-14974
▁날카	-14975
▁낳은	-14976
▁넣고	-14977
▁농담	-14978
▁눈보	-14979
▁단절	-14980
▁대단	-14981
▁대원	-14982
▁더미	-14983
▁델라	-14984
▁도피	-14985
▁독특	-14986
▁돌풍	-14987
▁되살	-14988
▁든다	-14989
▁딜런	-14990
▁뚜렷	-14991
▁라드	-14992
▁라싸	-14993
▁로렌	-14994
▁로얄	-14995
▁루스	-14996
▁마루	-14997
▁만회	-14998
▁말도	-14999
▁말아	-15000
▁맞지	-15001
▁메흐	-15002
▁멜리	-15003
▁명시	-15004
▁목을	-15005
▁묻혀	-15006
▁물라	-15007
▁미수	-15008
▁미화	-15009
▁바랍	-15010
▁바랬	-15011
▁바바	-15012
▁발리	-15013
▁밤을	-15014
▁배정	-15015
▁백과	-15016
▁벤처	-15017
▁봉인	-15018
▁봉착	-15019
▁북경	-15020
▁불리	-15021
▁비리	-15022
▁비참	-15023
▁사의	-15024
▁상실	-15025
▁상트	-15026
▁서머	-15027
▁섬유	-15028
▁성지	-15029
▁쇼를	-15030
▁숨겨	-15031
▁스몰	-15032
▁시리	-15033
▁신병	-15034
▁싣고	-15035
▁실감	-15036
▁아세	-15037
▁아티	-15038
▁안을	-15039
▁야외	-15040
▁에르	-15041
▁연못	-15042
▁영유	-15043
▁오디	-15044
▁오지	-15045
▁오클	-15046
▁와일	-15047
▁왕복	-15048
▁왜냐	-15049
▁용기	-15050
▁용서	-15051
▁우파	-15052
▁의상	-15053
▁인텔	-15054
▁일환	-15055
▁자민	-15056
▁자수	-15057
▁자정	-15058
▁잘라	-15059
▁재결	-15060
▁재계	-15061
▁재앙	-15062
▁재해	-15063
▁점심	-15064
▁정박	-15065
▁조립	-15066
▁존엄	-15067
▁좁은	-15068
▁주입	-15069
▁중립	-15070
▁지향	-15071
▁진도	-15072
▁척추	-15073
▁철강	-15074
▁철거	-15075
▁청색	-15076
▁첼시	-15077
▁춤을	-15078
▁카펠	-15079
▁캠퍼	-15080
▁쿠르	-15081
▁토드	-15082
▁투여	-15083
▁투하	-15084
▁트위	-15085
▁파커	-15086
▁팔아	-15087
▁퍼뜨	-15088
▁평결	-15089
▁포도	-15090
▁표기	-15091
▁프란	-15092
▁하누	-15093
▁하위	-15094
▁햇볕	-15095
▁행크	-15096
▁허리	-15097
▁홈구	-15098
▁황폐	-15099
▁회상	-15100
▁후인	-15101
▁훔쳐	-15102
검사를	-15103
계선을	-15104
관계에	-15105
레이터	-15106
리라고	-15107
방안을	-15108
보나레	-15109
상황을	-15110
센터에	-15111
소시엄	-15112
스럽고	-15113
스에게	-15114
시한을	-15115
안에는	-15116
어사전	-15117
었었다	-15118
여사는	-15119
이라크	-15120
있다는	-15121
줬다고	-15122
지역은	-15123
측에서	-15124
카메라	-15125
케이션	-15126
텍사스	-15127
품으로	-15128
하기가	-15129
하에서	-15130
하자고	-15131
했거나	-15132
협회는	-15133
ands	-15134
ones	-15135
reed	-15136
ries	-15137
week	-15138
▁ben	-15139
▁end	-15140
▁hal	-15141
▁low	-15142
▁sun	-15143
▁uae	-15144
▁ump	-15145
▁wom	-15146
▁www	-15147
▁감행한	-15148
▁강화된	-15149
▁거리가	-15150
▁거슬러	-15151
▁게임은	-15152
▁격차가	-15153
▁격차를	-15154
▁계획된	-15155
▁고유가	-15156
▁공개될	-15157
▁공동의	-15158
▁공연은	-15159
▁관계로	-15160
▁교수의	-15161
▁교회에	-15162
▁군부는	-15163
▁그래픽	-15164
▁그래함	-15165
▁기관인	-15166
▁기준에	-15167
▁길이의	-15168
▁까지는	-15169
▁깨끗한	-15170
▁나아갈	-15171
▁나이에	-15172
▁나중에	-15173
▁나토의	-15174
▁남자와	-15175
▁내각을	-15176
▁내놓은	-15177
▁내부에	-15178
▁넘어서	-15179
▁놀랐다	-15180
▁누군가	-15181
▁느꼈다	-15182
▁다이앤	-15183
▁다이어	-15184
▁단계를	-15185
▁당선된	-15186
▁당시의	-15187
▁당하는	-15188
▁대가를	-15189
▁대령은	-15190
▁데에는	-15191
▁독재자	-15192
▁동북아	-15193
▁돼있다	-15194
▁뒤이어	-15195
▁드레스	-15196
▁등록된	-15197
▁디얄라	-15198
▁마리화	-15199
▁매카트	-15200
▁면밀히	-15201
▁명확한	-15202
▁목사가	-15203
▁목사의	-15204
▁몰려들	-15205
▁몰아넣	-15206
▁무기와	-15207
▁물의를	-15208
▁미소를	-15209
▁미확인	-15210
▁반대의	-15211
▁반응이	-15212
▁반하는	-15213
▁발견해	-15214
▁발표될	-15215
▁방송사	-15216
▁버려진	-15217
▁법안의	-15218
▁병사가	-15219
▁보고된	-15220
▁분야의	-15221
▁불만이	-15222
▁비공개	-15223
▁사라질	-15224
▁사진기	-15225
▁사회를	-15226
▁상태는	-15227
▁서울대	-15228
▁선거인	-15229
▁선고를	-15230
▁성향을	-15231
▁성화를	-15232
▁세포를	-15233
▁센트럴	-15234
▁소녀는	-15235
▁소년은	-15236
▁소니의	-15237
▁소행성	-15238
▁손상된	-15239
▁손으로	-15240
▁수반과	-15241
▁수십년	-15242
▁스타가	-15243
▁승객과	-15244
▁식량과	-15245
▁신문의	-15246
▁실었다	-15247
▁쓰러져	-15248
▁아내는	-15249
▁안락사	-15250
▁암스테	-15251
▁애도의	-15252
▁억원의	-15253
▁얼굴에	-15254
▁없이는	-15255
▁여기서	-15256
▁여기에	-15257
▁염두에	-15258
▁예상한	-15259
▁예언자	-15260
▁오늘의	-15261
▁외국계	-15262
▁우연히	-15263
▁운항을	-15264
▁운항이	-15265
▁원칙을	-15266
▁위기의	-15267
▁은행인	-15268
▁음와이	-15269
▁의문이	-15270
▁의장의	-15271
▁의혹이	-15272
▁이곳의	-15273
▁이르게	-15274
▁이상은	-15275
▁이스마	-15276
▁인도는	-15277
▁입장에	-15278
▁있을까	-15279
▁자체가	-15280
▁잠비아	-15281
▁장식된	-15282
▁전당대	-15283
▁절반이	-15284
▁제품이	-15285
▁제한을	-15286
▁조약을	-15287
▁좋았다	-15288
▁주위를	-15289
▁지금의	-15290
▁지도부	-15291
▁직원은	-15292
▁진지한	-15293
▁찍었다	-15294
▁차원의	-15295
▁차질이	-15296
▁체계를	-15297
▁초안을	-15298
▁초콜릿	-15299
▁촉발된	-15300
▁총리도	-15301
▁총선이	-15302
▁추락해	-15303
▁축제를	-15304
▁출마를	-15305
▁충돌한	-15306
▁충돌해	-15307
▁치료에	-15308
▁친구를	-15309
▁카르발	-15310
▁카이로	-15311
▁커플은	-15312
▁클라크	-15313
▁통신에	-15314
▁통제를	-15315
▁통증을	-15316
▁파손된	-15317
▁판매가	-15318
▁포드는	-15319
▁폭풍이	-15320
▁프로디	-15321
▁프리츨	-15322
▁피고인	-15323
▁하나다	-15324
▁하락을	-15325
▁하반기	-15326
▁하지는	-15327
▁해결될	-15328
▁해외로	-15329
▁해제를	-15330
▁홀에서	-15331
▁환자는	-15332
났습니다	-15333
스타인은	-15334
인이었다	-15335
잉글랜드	-15336
투표에서	-15337
하였으나	-15338
함으로서	-15339
▁food	-15340
▁home	-15341
▁rctv	-15342
▁some	-15343
▁than	-15344
▁가르시아	-15345
▁가정에서	-15346
▁감소했다	-15347
▁것인지는	-15348
▁결정하지	-15349
▁경찰들이	-15350
▁고마움을	-15351
▁공격하고	-15352
▁구조대는	-15353
▁국가들에	-15354
▁근본적인	-15355
▁금융감독	-15356
▁나왔다고	-15357
▁늘어나고	-15358
▁달한다고	-15359
▁당선자의	-15360
▁대사관이	-15361
▁도착하자	-15362
▁등장하는	-15363
▁마스터스	-15364
▁말했으나	-15365
▁매니저인	-15366
▁머레이는	-15367
▁못한다고	-15368
▁민주적인	-15369
▁발생하기	-15370
▁비서실장	-15371
▁사드르가	-15372
▁사형집행	-15373
▁상승하며	-15374
▁소송에서	-15375
▁수감됐다	-15376
▁수준이다	-15377
▁수행했다	-15378
▁스튜어트	-15379
▁승객들은	-15380
▁시간동안	-15381
▁시도했다	-15382
▁시리즈의	-15383
▁시민권을	-15384
▁시민단체	-15385
▁식당에서	-15386
▁신중하게	-15387
▁실시됐다	-15388
▁심사위원	-15389
▁아이다호	-15390
▁아프간의	-15391
▁않았다면	-15392
▁앞서있다	-15393
▁어렵다고	-15394
▁어린이가	-15395
▁억류되어	-15396
▁없었으며	-15397
▁여성들의	-15398
▁연구하고	-15399
▁연기됐다	-15400
▁연말까지	-15401
▁연방정부	-15402
▁영향으로	-15403
▁와이오밍	-15404
▁완화하기	-15405
▁왜냐하면	-15406
▁위원회에	-15407
▁위험성을	-15408
▁유엔사무	-15409
▁유전자를	-15410
▁의구심을	-15411
▁의원들과	-15412
▁이라크군	-15413
▁이뤄지는	-15414
▁이제까지	-15415
▁이혼했다	-15416
▁인권단체	-15417
▁인질들은	-15418
▁인터폴은	-15419
▁일주일에	-15420
▁있는지에	-15421
▁있음에도	-15422
▁저질렀다	-15423
▁전까지는	-15424
▁전당대회	-15425
▁제기됐다	-15426
▁조사결과	-15427
▁조종사가	-15428
▁주문했다	-15429
▁주인공인	-15430
▁즈보나레	-15431
▁지지했다	-15432
▁지켜보고	-15433
▁촉구하고	-15434
▁취소됐다	-15435
▁측에서는	-15436
▁쿠즈넷소	-15437
▁태어났다	-15438
▁통신과의	-15439
▁트로피를	-15440
▁파견했다	-15441
▁파예드의	-15442
▁포괄적인	-15443
▁포기하고	-15444
▁폭발물이	-15445
▁프로듀서	-15446
▁하루종일	-15447
▁함부르크	-15448
▁항의했다	-15449
▁확신하고	-15450
▁회복하고	-15451
▁획득했다	-15452
▁후세인은	-15453
▁힐러리의	-15454
폴리스에서	-15455
▁heart	-15456
▁가능하다고	-15457
▁경기장에서	-15458
▁관계당국이	-15459
▁나이트클럽	-15460
▁네그로폰테	-15461
▁뉴올리언스	-15462
▁대선후보가	-15463
▁미얀마에서	-15464
▁민간인들을	-15465
▁바스라에서	-15466
▁밝혀졌다고	-15467
▁본격적으로	-15468
▁불가능하다	-15469
▁사르코지의	-15470
▁아프리카의	-15471
▁예정이지만	-15472
▁이라크군이	-15473
▁중앙정보국	-15474
▁지시했다고	-15475
▁집중적으로	-15476
▁체포됐으며	-15477
▁평론가들은	-15478
▁합법적으로	-15479
▁france	-15480
▁window	-15481
▁떨어졌습니다	-15482
▁소프트웨어를	-15483
▁아프리카에서	-15484
▁어린이들에게	-15485
▁와인하우스가	-15486
▁인도네시아는	-15487
▁핵프로그램을	-15488
ployment	-15489
▁express	-15490
▁마터호른에서의	-15491
▁굽	-15492
▁돋	-15493
▁몫	-15494
▁뻗	-15495
▁슐	-15496
▁왓	-15497
▁죠	-15498
▁찔	-15499
▁캡	-15500
▁퀘	-15501
계와	-15502
고에	-15503
권과	-15504
나왓	-15505
다피	-15506
당할	-15507
더드	-15508
독립	-15509
되다	-15510
드르	-15511
디다	-15512
라기	-15513
라브	-15514
레티	-15515
르담	-15516
릭스	-15517
매설	-15518
먼의	-15519
면허	-15520
목이	-15521
물과	-15522
방향	-15523
설이	-15524
솔린	-15525
신원	-15526
안토	-15527
열차	-15528
완다	-15529
운하	-15530
을때	-15531
작가	-15532
쟁이	-15533
저우	-15534
전과	-15535
전인	-15536
전한	-15537
정과	-15538
정희	-15539
제와	-15540
차관	-15541
채를	-15542
천후	-15543
철도	-15544
치다	-15545
카라	-15546
크와	-15547
킨스	-15548
탄이	-15549
테이	-15550
통은	-15551
투아	-15552
트랙	-15553
튼이	-15554
파일	-15555
판매	-15556
판은	-15557
풋볼	-15558
호프	-15559
히지	-15560
att	-15561
iam	-15562
ich	-15563
ics	-15564
ink	-15565
ner	-15566
▁mp	-15567
▁가계	-15568
▁감수	-15569
▁값싼	-15570
▁강연	-15571
▁같아	-15572
▁개구	-15573
▁개는	-15574
▁개리	-15575
▁거행	-15576
▁건스	-15577
▁겪을	-15578
▁고독	-15579
▁고맙	-15580
▁곤란	-15581
▁공백	-15582
▁공적	-15583
▁관제	-15584
▁교역	-15585
▁굶주	-15586
▁급히	-15587
▁기용	-15588
▁끄는	-15589
▁나포	-15590
▁난처	-15591
▁날려	-15592
▁날에	-15593
▁남긴	-15594
▁났다	-15595
▁낳을	-15596
▁내기	-15597
▁노린	-15598
▁놀랐	-15599
▁놓인	-15600
▁늘릴	-15601
▁다닐	-15602
▁다스	-15603
▁다할	-15604
▁다해	-15605
▁단언	-15606
▁돌진	-15607
▁동기	-15608
▁동아	-15609
▁들려	-15610
▁때와	-15611
▁러브	-15612
▁레비	-15613
▁로브	-15614
▁로젠	-15615
▁로즈	-15616
▁루고	-15617
▁리베	-15618
▁마츠	-15619
▁막바	-15620
▁많을	-15621
▁매설	-15622
▁명절	-15623
▁모나	-15624
▁몸싸	-15625
▁미안	-15626
▁믿지	-15627
▁바우	-15628
▁반경	-15629
▁배의	-15630
▁법규	-15631
▁변형	-15632
▁보궐	-15633
▁복수	-15634
▁분배	-15635
▁분주	-15636
▁분화	-15637
▁불빛	-15638
▁블래	-15639
▁블리	-15640
▁비춰	-15641
▁빨라	-15642
▁사귀	-15643
▁사립	-15644
▁상아	-15645
▁생길	-15646
▁서기	-15647
▁선교	-15648
▁세골	-15649
▁세관	-15650
▁소란	-15651
▁속출	-15652
▁숨져	-15653
▁스즈	-15654
▁시모	-15655
▁식수	-15656
▁신기	-15657
▁실내	-15658
▁쌓인	-15659
▁아드	-15660
▁약을	-15661
▁양이	-15662
▁어드	-15663
▁어미	-15664
▁에워	-15665
▁여개	-15666
▁연습	-15667
▁연패	-15668
▁오닐	-15669
▁오퍼	-15670
▁올림	-15671
▁왔던	-15672
▁외모	-15673
▁워커	-15674
▁월로	-15675
▁위는	-15676
▁유독	-15677
▁이빨	-15678
▁잉그	-15679
▁자가	-15680
▁재규	-15681
▁적도	-15682
▁전술	-15683
▁정원	-15684
▁져야	-15685
▁조율	-15686
▁주니	-15687
▁주소	-15688
▁주어	-15689
▁죽고	-15690
▁증폭	-15691
▁지대	-15692
▁지어	-15693
▁직무	-15694
▁찍힌	-15695
▁참패	-15696
▁체첸	-15697
▁총회	-15698
▁최다	-15699
▁추기	-15700
▁충청	-15701
▁치르	-15702
▁칠면	-15703
▁침대	-15704
▁카누	-15705
▁카렌	-15706
▁캐시	-15707
▁컨셉	-15708
▁탔다	-15709
▁터져	-15710
▁템파	-15711
▁토레	-15712
▁토튼	-15713
▁트래	-15714
▁트러	-15715
▁패러	-15716
▁퍼부	-15717
▁페어	-15718
▁편에	-15719
▁푸미	-15720
▁프렌	-15721
▁핑크	-15722
▁한창	-15723
▁할로	-15724
▁해줄	-15725
▁헤어	-15726
▁호는	-15727
▁활주	-15728
▁회전	-15729
▁횡단	-15730
▁휘말	-15731
갔지만	-15732
네이루	-15733
되었을	-15734
라이트	-15735
러시아	-15736
렀으며	-15737
레이트	-15738
로에서	-15739
루스코	-15740
목으로	-15741
바이잔	-15742
사건과	-15743
사로서	-15744
습니까	-15745
영장을	-15746
왔지만	-15747
이라면	-15748
인민당	-15749
장관을	-15750
정이다	-15751
정책에	-15752
조직을	-15753
테이프	-15754
포스트	-15755
프레드	-15756
하였고	-15757
협회의	-15758
화하고	-15759
회사를	-15760
goti	-15761
ives	-15762
roll	-15763
tain	-15764
urch	-15765
ving	-15766
▁but	-15767
▁ent	-15768
▁inv	-15769
▁mid	-15770
▁pal	-15771
▁sad	-15772
▁san	-15773
▁toe	-15774
▁가깝게	-15775
▁가담한	-15776
▁가솔린	-15777
▁가정집	-15778
▁강풍을	-15779
▁개정된	-15780
▁개최될	-15781
▁거래에	-15782
▁거부할	-15783
▁건물은	-15784
▁것들을	-15785
▁게임의	-15786
▁결혼한	-15787
▁계약이	-15788
▁고르바	-15789
▁고릴라	-15790
▁공약을	-15791
▁과정이	-15792
▁관절염	-15793
▁광우병	-15794
▁교전은	-15795
▁교회의	-15796
▁구속된	-15797
▁그런데	-15798
▁그려진	-15799
▁그리핀	-15800
▁그린존	-15801
▁금지된	-15802
▁금지를	-15803
▁급격한	-15804
▁급속한	-15805
▁기업체	-15806
▁기원전	-15807
▁기자인	-15808
▁기회로	-15809
▁나갔다	-15810
▁나온다	-15811
▁년동안	-15812
▁농산물	-15813
▁뉴델리	-15814
▁단장은	-15815
▁대만에	-15816
▁대열에	-15817
▁대운하	-15818
▁대학에	-15819
▁대학이	-15820
▁댈러스	-15821
▁도메인	-15822
▁도시는	-15823
▁동료인	-15824
▁동맹을	-15825
▁동의를	-15826
▁들어서	-15827
▁로날드	-15828
▁르완다	-15829
▁리치는	-15830
▁마련해	-15831
▁마스크	-15832
▁마을로	-15833
▁맥주를	-15834
▁메신저	-15835
▁며칠간	-15836
▁명만이	-15837
▁모델로	-15838
▁모두는	-15839
▁모였다	-15840
▁목격자	-15841
▁목록에	-15842
▁무거운	-15843
▁무대에	-15844
▁무혐의	-15845
▁미스터	-15846
▁밀라노	-15847
▁밀란의	-15848
▁밀접한	-15849
▁바리케	-15850
▁바이에	-15851
▁박사의	-15852
▁박신원	-15853
▁박정희	-15854
▁반대를	-15855
▁반대해	-15856
▁밝혔고	-15857
▁방침을	-15858
▁방화를	-15859
▁버틀러	-15860
▁벌어들	-15861
▁벌이다	-15862
▁보건부	-15863
▁보안군	-15864
▁복장을	-15865
▁부담을	-15866
▁부드러	-15867
▁부문에	-15868
▁부인은	-15869
▁부정적	-15870
▁북쪽에	-15871
▁불안을	-15872
▁불행한	-15873
▁비난의	-15874
▁산업에	-15875
▁상금을	-15876
▁샤리아	-15877
▁서류를	-15878
▁선거유	-15879
▁선언을	-15880
▁성공회	-15881
▁성매매	-15882
▁세레나	-15883
▁소령은	-15884
▁소유주	-15885
▁손실이	-15886
▁쇼핑을	-15887
▁수상은	-15888
▁수상자	-15889
▁수입이	-15890
▁수집한	-15891
▁스테판	-15892
▁승객이	-15893
▁승리가	-15894
▁승용차	-15895
▁승인한	-15896
▁시신의	-15897
▁시위자	-15898
▁신문이	-15899
▁신선한	-15900
▁신원은	-15901
▁실업률	-15902
▁싶다는	-15903
▁쏟아져	-15904
▁아시안	-15905
▁아이튠	-15906
▁아제르	-15907
▁아지즈	-15908
▁아폴로	-15909
▁악화된	-15910
▁않았기	-15911
▁암으로	-15912
▁업계의	-15913
▁업무에	-15914
▁여당이	-15915
▁여론이	-15916
▁연구원	-15917
▁열리기	-15918
▁영상은	-15919
▁영어로	-15920
▁예산이	-15921
▁올라온	-15922
▁올스타	-15923
▁왕복선	-15924
▁외곽에	-15925
▁위원장	-15926
▁은행을	-15927
▁의도가	-15928
▁이들과	-15929
▁이외의	-15930
▁이자율	-15931
▁인공위	-15932
▁인물로	-15933
▁인물이	-15934
▁인수가	-15935
▁인수를	-15936
▁일했다	-15937
▁임시로	-15938
▁입원해	-15939
▁자르카	-15940
▁잔혹한	-15941
▁장기를	-15942
▁재건축	-15943
▁저소득	-15944
▁저작권	-15945
▁전국의	-15946
▁전달할	-15947
▁정교회	-15948
▁정부군	-15949
▁정치가	-15950
▁제이슨	-15951
▁제작자	-15952
▁조선일	-15953
▁조용히	-15954
▁조직이	-15955
▁조직인	-15956
▁존슨은	-15957
▁졸업생	-15958
▁주목할	-15959
▁주석이	-15960
▁주장인	-15961
▁주제로	-15962
▁주최한	-15963
▁죽음이	-15964
▁중동의	-15965
▁중령은	-15966
▁증가에	-15967
▁증상을	-15968
▁지명된	-15969
▁지역과	-15970
▁직원과	-15971
▁진압을	-15972
▁질병에	-15973
▁쪽으로	-15974
▁차세대	-15975
▁착용한	-15976
▁체중이	-15977
▁초드리	-15978
▁총재가	-15979
▁촬영된	-15980
▁최상의	-15981
▁친구의	-15982
▁케이스	-15983
▁쿠알라	-15984
▁크메르	-15985
▁탈출한	-15986
▁파리의	-15987
▁팔렸다	-15988
▁편안한	-15989
▁평했다	-15990
▁폭우가	-15991
▁푸틴의	-15992
▁하늘을	-15993
▁하이킹	-15994
▁학교는	-15995
▁한가지	-15996
▁한통이	-15997
▁항의를	-15998
▁핸드폰	-15999
▁헌법에	-16000
▁헝가리	-16001
▁현상을	-16002
▁혐의도	-16003
▁화산이	-16004
▁화성의	-16005
▁확보해	-16006
▁환자를	-16007
▁회복을	-16008
▁흐름을	-16009
▁희생을	-16010
민주당은	-16011
받았다고	-16012
아메리카	-16013
업자들은	-16014
조사에서	-16015
크라멘토	-16016
하면서도	-16017
ather	-16018
ected	-16019
gress	-16020
▁bill	-16021
▁expl	-16022
▁spec	-16023
▁usgs	-16024
▁가이트너	-16025
▁가족들의	-16026
▁강화하기	-16027
▁거부하는	-16028
▁걱정하고	-16029
▁결혼했다	-16030
▁경쟁력을	-16031
▁계속됐다	-16032
▁고위관리	-16033
▁관광객을	-16034
▁국가안전	-16035
▁국경지역	-16036
▁국내에서	-16037
▁군사력을	-16038
▁군인들을	-16039
▁극장에서	-16040
▁극적으로	-16041
▁금요일에	-16042
▁기각했다	-16043
▁기록됐다	-16044
▁기자들과	-16045
▁남자아이	-16046
▁납치됐다	-16047
▁내놓았다	-16048
▁단체들이	-16049
▁담당자인	-16050
▁당선됐다	-16051
▁대학교의	-16052
▁도로매설	-16053
▁동성결혼	-16054
▁두번째로	-16055
▁들어주지	-16056
▁로비스트	-16057
▁리트비넨	-16058
▁멕시코의	-16059
▁명이었다	-16060
▁목격했다	-16061
▁무가베는	-16062
▁무너지고	-16063
▁민간인을	-16064
▁민족주의	-16065
▁밀리밴드	-16066
▁바랍니다	-16067
▁발표되지	-16068
▁방문했을	-16069
▁방코델타	-16070
▁배경으로	-16071
▁배아줄기	-16072
▁벌였으며	-16073
▁베이루트	-16074
▁병사들은	-16075
▁보고서의	-16076
▁보였으며	-16077
▁보이지만	-16078
▁불쾌감을	-16079
▁사망했을	-16080
▁사용자가	-16081
▁상황으로	-16082
▁생각된다	-16083
▁서비스는	-16084
▁석방했다	-16085
▁선수들과	-16086
▁성명서를	-16087
▁수용소에	-16088
▁스트리트	-16089
▁시상식은	-16090
▁시스템의	-16091
▁시위대의	-16092
▁심리에서	-16093
▁아버지를	-16094
▁아시아와	-16095
▁안보리는	-16096
▁앨라배마	-16097
▁양곤에서	-16098
▁연구소는	-16099
▁영국군은	-16100
▁영어사전	-16101
▁우승으로	-16102
▁위협적인	-16103
▁유권자가	-16104
▁유니세프	-16105
▁유명인사	-16106
▁이사회는	-16107
▁이틀간의	-16108
▁일상적인	-16109
▁자이언트	-16110
▁전문가는	-16111
▁전시작전	-16112
▁제한하는	-16113
▁주지사를	-16114
▁중앙일보	-16115
▁지지자들	-16116
▁참석하는	-16117
▁총리와의	-16118
▁총회에서	-16119
▁추정되고	-16120
▁충돌했다	-16121
▁카불에서	-16122
▁크리스틴	-16123
▁탈출했다	-16124
▁통과하는	-16125
▁티셔츠를	-16126
▁파손됐다	-16127
▁파악하고	-16128
▁파예드는	-16129
▁패션계의	-16130
▁포기하는	-16131
▁폭락했다	-16132
▁폭발했다	-16133
▁프랑스를	-16134
▁환경에서	-16135
▁환자들은	-16136
▁회사에서	-16137
▁획기적인	-16138
데자네이루	-16139
▁child	-16140
▁found	-16141
▁organ	-16142
▁구조작업을	-16143
▁국제올림픽	-16144
▁다우지수가	-16145
▁디스플레이	-16146
▁만들어졌다	-16147
▁미항공우주	-16148
▁바에따르면	-16149
▁베를루스코	-16150
▁소식통들은	-16151
▁신행정수도	-16152
▁압도적으로	-16153
▁애틀랜티스	-16154
▁외무장관이	-16155
▁운동가들은	-16156
▁재정경제부	-16157
▁정상회담에	-16158
▁조사에서는	-16159
▁주장했다고	-16160
▁주장했었다	-16161
▁줄리아니는	-16162
▁중국에서는	-16163
▁중앙일보는	-16164
▁탈레반측은	-16165
▁토론회에서	-16166
▁페널티킥을	-16167
▁플레이오프	-16168
▁플로리다와	-16169
▁피해자들을	-16170
▁합의에따라	-16171
▁희망한다고	-16172
▁report	-16173
▁travel	-16174
▁관광객들에게	-16175
▁아제르바이잔	-16176
▁열린우리당은	-16177
▁예정이었으나	-16178
▁요하네스버그	-16179
▁이슬라마바드	-16180
▁캘리포니아에	-16181
▁economy	-16182
▁방코델타아시아	-16183
▁오사마빈라덴의	-16184
▁캘리포니아에서	-16185
▁soldiers	-16186
ci	-16187
fc	-16188
▁긱	-16189
▁눌	-16190
▁룩	-16191
▁릴	-16192
▁빔	-16193
▁썩	-16194
▁쐈	-16195
▁쭉	-16196
▁콴	-16197
▁홉	-16198
가루	-16199
고로	-16200
고의	-16201
구와	-16202
그러	-16203
금의	-16204
난을	-16205
더미	-16206
더와	-16207
됐기	-16208
랜더	-16209
럼을	-16210
레오	-16211
루즈	-16212
르다	-16213
린이	-16214
린트	-16215
마뱀	-16216
목에	-16217
민순	-16218
박물	-16219
반이	-16220
병원	-16221
보드	-16222
보지	-16223
분석	-16224
석현	-16225
세의	-16226
수비	-16227
슬링	-16228
시마	-16229
시킴	-16230
애를	-16231
에겐	-16232
예프	-16233
유는	-16234
인들	-16235
주간	-16236
지사	-16237
최초	-16238
탐사	-16239
테스	-16240
토야	-16241
토프	-16242
티네	-16243
팀인	-16244
파와	-16245
패닉	-16246
행은	-16247
히기	-16248
히드	-16249
ady	-16250
ago	-16251
emy	-16252
ges	-16253
gin	-16254
ism	-16255
ote	-16256
uss	-16257
▁bp	-16258
▁el	-16259
▁ip	-16260
▁가루	-16261
▁가시	-16262
▁각성	-16263
▁강철	-16264
▁개로	-16265
▁개에	-16266
▁거울	-16267
▁걸림	-16268
▁겪게	-16269
▁결장	-16270
▁경력	-16271
▁고층	-16272
▁곡을	-16273
▁공업	-16274
▁공작	-16275
▁과속	-16276
▁규명	-16277
▁그외	-16278
▁그저	-16279
▁금치	-16280
▁깨고	-16281
▁끝낼	-16282
▁나뭇	-16283
▁날로	-16284
▁누출	-16285
▁늦추	-16286
▁다나	-16287
▁다둘	-16288
▁달고	-16289
▁당연	-16290
▁대성	-16291
▁독극	-16292
▁드미	-16293
▁디젤	-16294
▁디카	-16295
▁때를	-16296
▁로야	-16297
▁로키	-16298
▁로하	-16299
▁룰라	-16300
▁리비	-16301
▁먼지	-16302
▁명씩	-16303
▁무척	-16304
▁물과	-16305
▁미식	-16306
▁발작	-16307
▁방금	-16308
▁보니	-16309
▁불꽃	-16310
▁불사	-16311
▁산체	-16312
▁살상	-16313
▁삼각	-16314
▁서던	-16315
▁서두	-16316
▁선사	-16317
▁설교	-16318
▁섬의	-16319
▁성실	-16320
▁성행	-16321
▁셰르	-16322
▁소더	-16323
▁순위	-16324
▁스펙	-16325
▁스폰	-16326
▁아쿠	-16327
▁애슐	-16328
▁액션	-16329
▁야만	-16330
▁어윈	-16331
▁어쩔	-16332
▁언젠	-16333
▁에반	-16334
▁엠마	-16335
▁온도	-16336
▁우체	-16337
▁원심	-16338
▁유머	-16339
▁유언	-16340
▁육박	-16341
▁음향	-16342
▁의거	-16343
▁의논	-16344
▁의류	-16345
▁이타	-16346
▁인접	-16347
▁일생	-16348
▁일일	-16349
▁자궁	-16350
▁자는	-16351
▁잠겨	-16352
▁잠깐	-16353
▁저가	-16354
▁저하	-16355
▁적혀	-16356
▁전두	-16357
▁제왕	-16358
▁조업	-16359
▁좌우	-16360
▁죽게	-16361
▁중개	-16362
▁중장	-16363
▁즐겁	-16364
▁즐겨	-16365
▁증산	-16366
▁진짜	-16367
▁진척	-16368
▁집결	-16369
▁짙은	-16370
▁참수	-16371
▁창업	-16372
▁천명	-16373
▁출항	-16374
▁출현	-16375
▁치타	-16376
▁친미	-16377
▁카니	-16378
▁칼데	-16379
▁컨설	-16380
▁키르	-16381
▁타개	-16382
▁탈퇴	-16383
▁티나	-16384
▁파는	-16385
▁파일	-16386
▁페리	-16387
▁품질	-16388
▁피그	-16389
▁피를	-16390
▁하르	-16391
▁한꺼	-16392
▁할인	-16393
▁해발	-16394
▁핵을	-16395
▁헬만	-16396
▁현저	-16397
▁현존	-16398
▁형을	-16399
▁혼인	-16400
▁화상	-16401
▁희박	-16402
객들이	-16403
과정을	-16404
기관인	-16405
기구가	-16406
기구를	-16407
나이트	-16408
됐는지	-16409
라이너	-16410
란티스	-16411
리아스	-16412
명하게	-16413
법안에	-16414
사건의	-16415
센터를	-16416
여행을	-16417
임에도	-16418
자라고	-16419
자에서	-16420
졌는데	-16421
졌었다	-16422
주의를	-16423
친구를	-16424
판에서	-16425
하게도	-16426
해주고	-16427
회사의	-16428
회의가	-16429
bass	-16430
ison	-16431
ting	-16432
tish	-16433
▁big	-16434
▁den	-16435
▁epl	-16436
▁lib	-16437
▁nhc	-16438
▁set	-16439
▁uci	-16440
▁won	-16441
▁가옥이	-16442
▁가치는	-16443
▁가혹한	-16444
▁갈수록	-16445
▁감소할	-16446
▁개막식	-16447
▁개성공	-16448
▁개인적	-16449
▁개최할	-16450
▁검사가	-16451
▁게임이	-16452
▁경선에	-16453
▁경영자	-16454
▁고객을	-16455
▁과정은	-16456
▁구조조	-16457
▁국가적	-16458
▁국회는	-16459
▁군부의	-16460
▁군인을	-16461
▁그래도	-16462
▁그룹이	-16463
▁기네스	-16464
▁기념행	-16465
▁기사에	-16466
▁기존에	-16467
▁기지에	-16468
▁나타날	-16469
▁난동을	-16470
▁날씨는	-16471
▁남우주	-16472
▁납치를	-16473
▁낳았다	-16474
▁내각의	-16475
▁노리는	-16476
▁눈으로	-16477
▁뉴욕과	-16478
▁다윈은	-16479
▁달했다	-16480
▁당선이	-16481
▁대니얼	-16482
▁대선은	-16483
▁대승을	-16484
▁대우를	-16485
▁대응을	-16486
▁대표로	-16487
▁던지는	-16488
▁도달할	-16489
▁도요타	-16490
▁독립한	-16491
▁독특한	-16492
▁됐지만	-16493
▁되는데	-16494
▁들어갔	-16495
▁들어올	-16496
▁따르지	-16497
▁때부터	-16498
▁라덴은	-16499
▁라시드	-16500
▁롤링은	-16501
▁마다가	-16502
▁만델라	-16503
▁만든다	-16504
▁말라는	-16505
▁머리가	-16506
▁목표에	-16507
▁무게가	-16508
▁물체가	-16509
▁바다가	-16510
▁바오로	-16511
▁반면에	-16512
▁반응은	-16513
▁반지를	-16514
▁받기도	-16515
▁받도록	-16516
▁발간된	-16517
▁발견할	-16518
▁발레리	-16519
▁밝혀질	-16520
▁버리고	-16521
▁버스가	-16522
▁벌어질	-16523
▁본사가	-16524
▁볼티모	-16525
▁부담이	-16526
▁부모님	-16527
▁분쟁에	-16528
▁불과한	-16529
▁불길에	-16530
▁불참을	-16531
▁붙였다	-16532
▁비난해	-16533
▁비스타	-16534
▁사망할	-16535
▁사업은	-16536
▁사업의	-16537
▁사용이	-16538
▁사용자	-16539
▁사이를	-16540
▁사진에	-16541
▁산업을	-16542
▁샌안토	-16543
▁생산된	-16544
▁서둘러	-16545
▁성장률	-16546
▁세기에	-16547
▁센터에	-16548
▁소동이	-16549
▁소유즈	-16550
▁소재로	-16551
▁소지한	-16552
▁송민순	-16553
▁수단이	-16554
▁수하물	-16555
▁승리의	-16556
▁승부차	-16557
▁승인할	-16558
▁시대가	-16559
▁신생아	-16560
▁실적을	-16561
▁실행에	-16562
▁실험이	-16563
▁심리를	-16564
▁싶다면	-16565
▁아내인	-16566
▁아디다	-16567
▁아르메	-16568
▁아름다	-16569
▁아메드	-16570
▁아브라	-16571
▁아프카	-16572
▁악천후	-16573
▁안에는	-16574
▁않을까	-16575
▁알아야	-16576
▁어렸을	-16577
▁얻는데	-16578
▁없음을	-16579
▁여행할	-16580
▁역할이	-16581
▁연합의	-16582
▁영국을	-16583
▁영업이	-16584
▁영토를	-16585
▁예술가	-16586
▁오디오	-16587
▁오르고	-16588
▁오사카	-16589
▁올해로	-16590
▁요소가	-16591
▁운동이	-16592
▁운명을	-16593
▁월에서	-16594
▁윌슨은	-16595
▁유용한	-16596
▁유조선	-16597
▁음베키	-16598
▁의사인	-16599
▁이겼다	-16600
▁이미지	-16601
▁이어져	-16602
▁이와는	-16603
▁인구는	-16604
▁인질이	-16605
▁일부다	-16606
▁일종의	-16607
▁일하던	-16608
▁자국민	-16609
▁자전거	-16610
▁작품이	-16611
▁장군이	-16612
▁장벽을	-16613
▁재건을	-16614
▁재결합	-16615
▁전쟁은	-16616
▁전투로	-16617
▁정권에	-16618
▁정당은	-16619
▁정치를	-16620
▁정통한	-16621
▁정해진	-16622
▁제의를	-16623
▁제품의	-16624
▁주간의	-16625
▁즐거운	-16626
▁증상이	-16627
▁지방을	-16628
▁지분을	-16629
▁지시한	-16630
▁지지한	-16631
▁지켜본	-16632
▁직원을	-16633
▁차량과	-16634
▁처음엔	-16635
▁천문학	-16636
▁철회할	-16637
▁추방된	-16638
▁추측이	-16639
▁췌장암	-16640
▁취하는	-16641
▁카르자	-16642
▁키티호	-16643
▁타이어	-16644
▁탐사선	-16645
▁통과된	-16646
▁통치를	-16647
▁트럭에	-16648
▁트럭을	-16649
▁파란색	-16650
▁팬들을	-16651
▁편이다	-16652
▁평양에	-16653
▁포기한	-16654
▁포즈를	-16655
▁폭동을	-16656
▁표결에	-16657
▁표현을	-16658
▁푸미폰	-16659
▁프레슬	-16660
▁학교와	-16661
▁학생은	-16662
▁학생의	-16663
▁합류할	-16664
▁해변에	-16665
▁해안의	-16666
▁했는지	-16667
▁행복한	-16668
▁혐의는	-16669
▁협력해	-16670
▁협상의	-16671
▁홍석현	-16672
▁화성에	-16673
▁화재를	-16674
▁화합을	-16675
▁확정될	-16676
▁흡연을	-16677
관계자는	-16678
니케이션	-16679
랜드에서	-16680
로부터의	-16681
연설에서	-16682
중앙은행	-16683
하기에는	-16684
ences	-16685
iforn	-16686
▁case	-16687
▁dead	-16688
▁deal	-16689
▁four	-16690
▁grow	-16691
▁isaf	-16692
▁kill	-16693
▁move	-16694
▁rock	-16695
▁tech	-16696
▁감소하고	-16697
▁개체수가	-16698
▁결심했다	-16699
▁결정하는	-16700
▁경기후퇴	-16701
▁경우에는	-16702
▁공격적인	-16703
▁과도하게	-16704
▁관광객은	-16705
▁관리들과	-16706
▁국무총리	-16707
▁그녀에게	-16708
▁글로리아	-16709
▁금융기관	-16710
▁기점으로	-16711
▁노력하는	-16712
▁늘어났다	-16713
▁대법원에	-16714
▁대사관에	-16715
▁대표적인	-16716
▁동료들은	-16717
▁동점골을	-16718
▁드미트리	-16719
▁들어가기	-16720
▁들었다고	-16721
▁떠오르던	-16722
▁라왈핀디	-16723
▁매들린이	-16724
▁메시지는	-16725
▁모색하고	-16726
▁목소리가	-16727
▁무하마드	-16728
▁미시간주	-16729
▁바탕으로	-16730
▁박물관에	-16731
▁박물관은	-16732
▁받았었다	-16733
▁발표하는	-16734
▁방문한다	-16735
▁백과사전	-16736
▁벗어나기	-16737
▁베이징의	-16738
▁변호사와	-16739
▁보도자료	-16740
▁부정부패	-16741
▁북대서양	-16742
▁불필요한	-16743
▁사드르의	-16744
▁사무실에	-16745
▁사살하고	-16746
▁사용하여	-16747
▁사직서를	-16748
▁사회에서	-16749
▁상임이사	-16750
▁선거기부	-16751
▁센터에서	-16752
▁수십명의	-16753
▁수치이다	-16754
▁스프레이	-16755
▁시리아는	-16756
▁시상식을	-16757
▁압수했다	-16758
▁억달러에	-16759
▁에스트라	-16760
▁엑스파일	-16761
▁여러차례	-16762
▁연구진이	-16763
▁영향력이	-16764
▁영화제작	-16765
▁왕세자의	-16766
▁외교관은	-16767
▁요구한다	-16768
▁요청으로	-16769
▁우리당은	-16770
▁우승했다	-16771
▁이해하고	-16772
▁인사들과	-16773
▁임명했다	-16774
▁장례식에	-16775
▁전세계의	-16776
▁정부에게	-16777
▁정상들이	-16778
▁주둔중인	-16779
▁중소기업	-16780
▁중심부에	-16781
▁지도부가	-16782
▁지불하고	-16783
▁지역에는	-16784
▁지지자의	-16785
▁지질조사	-16786
▁진압하기	-16787
▁진행자인	-16788
▁집권당인	-16789
▁차량에서	-16790
▁참여하고	-16791
▁청와대는	-16792
▁충돌하는	-16793
▁측면에서	-16794
▁캐나다의	-16795
▁태풍으로	-16796
▁토요일에	-16797
▁통제하는	-16798
▁트레이드	-16799
▁파예드가	-16800
▁파이낸셜	-16801
▁페르난데	-16802
▁포함하는	-16803
▁피해자가	-16804
▁한꺼번에	-16805
▁항공사가	-16806
▁항구도시	-16807
▁해적들이	-16808
▁홀랜드는	-16809
▁확보해야	-16810
▁확인하지	-16811
▁환자들을	-16812
▁환자에게	-16813
▁히스패닉	-16814
평균지수는	-16815
▁after	-16816
▁green	-16817
▁paris	-16818
▁right	-16819
▁their	-16820
▁고속도로를	-16821
▁관계자들의	-16822
▁관광객들을	-16823
▁국무장관과	-16824
▁국제사회는	-16825
▁기대한다고	-16826
▁뉴잉글랜드	-16827
▁당국자들이	-16828
▁동물원에서	-16829
▁동의했다고	-16830
▁레바논에서	-16831
▁마다가스카	-16832
▁무장단체의	-16833
▁비상사태가	-16834
▁비행기에서	-16835
▁새크라멘토	-16836
▁서부텍사스	-16837
▁성공시켰다	-16838
▁소비자들은	-16839
▁소탕작전을	-16840
▁소행이라고	-16841
▁시민들에게	-16842
▁실질적으로	-16843
▁싱가포르의	-16844
▁아이슬란드	-16845
▁오래전부터	-16846
▁외국인들이	-16847
▁위원회에서	-16848
▁제조업체인	-16849
▁조심스럽게	-16850
▁지지자들을	-16851
▁청문회에서	-16852
▁캐나다에서	-16853
▁하락했다고	-16854
▁헌법재판소	-16855
ifornia	-16856
▁negoti	-16857
▁return	-16858
▁국제축구연맹	-16859
▁마드리드에서	-16860
▁미항공우주국	-16861
▁소비자들에게	-16862
▁아프카니스탄	-16863
▁알자와히리는	-16864
▁엔터테인먼트	-16865
▁크리스티아누	-16866
▁플로리다에서	-16867
▁attacks	-16868
▁british	-16869
▁million	-16870
▁service	-16871
▁자살폭탄테러로	-16872
▁business	-16873
▁newsweek	-16874
▁이슬라마바드에서	-16875
▁committee	-16876
▁california	-16877
hs	-16878
mn	-16879
ok	-16880
ys	-16881
▁꾀	-16882
▁낚	-16883
▁놈	-16884
▁딱	-16885
▁락	-16886
▁뭐	-16887
▁뮬	-16888
▁뷰	-16889
▁셈	-16890
▁쇄	-16891
▁윗	-16892
▁율	-16893
▁춘	-16894
▁탕	-16895
▁흠	-16896
가락	-16897
간을	-16898
고리	-16899
고문	-16900
교회	-16901
구는	-16902
군요	-16903
낸다	-16904
뉴얼	-16905
다를	-16906
대기	-16907
더가	-16908
든지	-16909
들만	-16910
때로	-16911
로워	-16912
록을	-16913
리히	-16914
마라	-16915
반을	-16916
버릴	-16917
범을	-16918
본이	-16919
블리	-16920
사찰	-16921
상도	-16922
선박	-16923
세르	-16924
셨다	-16925
손은	-16926
수아	-16927
시민	-16928
식간	-16929
실의	-16930
심에	-16931
업계	-16932
오던	-16933
이치	-16934
자나	-16935
자다	-16936
자리	-16937
잡한	-16938
젠은	-16939
중생	-16940
증에	-16941
지휘	-16942
차의	-16943
천히	-16944
충돌	-16945
쿠스	-16946
크에	-16947
타노	-16948
타닉	-16949
탄의	-16950
토바	-16951
티리	-16952
판무	-16953
편의	-16954
포럼	-16955
플리	-16956
학적	-16957
행에	-16958
행이	-16959
cil	-16960
eep	-16961
lar	-16962
let	-16963
ple	-16964
ror	-16965
uck	-16966
▁er	-16967
▁fo	-16968
▁ic	-16969
▁mg	-16970
▁tg	-16971
▁가오	-16972
▁간다	-16973
▁갈망	-16974
▁감동	-16975
▁강대	-16976
▁강탈	-16977
▁갖기	-16978
▁건에	-16979
▁격분	-16980
▁결백	-16981
▁경색	-16982
▁계승	-16983
▁고령	-16984
▁고전	-16985
▁공영	-16986
▁과실	-16987
▁관례	-16988
▁교량	-16989
▁구가	-16990
▁구소	-16991
▁구직	-16992
▁권장	-16993
▁규탄	-16994
▁그어	-16995
▁금주	-16996
▁기를	-16997
▁까다	-16998
▁꿈이	-16999
▁끝이	-17000
▁난투	-17001
▁내륙	-17002
▁내외	-17003
▁냉장	-17004
▁넘기	-17005
▁넘길	-17006
▁넘쳐	-17007
▁농림	-17008
▁뇌의	-17009
▁누워	-17010
▁다름	-17011
▁다저	-17012
▁당수	-17013
▁당직	-17014
▁대거	-17015
▁대배	-17016
▁동거	-17017
▁됐을	-17018
▁되자	-17019
▁뒤쳐	-17020
▁듣게	-17021
▁따르	-17022
▁딸은	-17023
▁라벨	-17024
▁래드	-17025
▁로게	-17026
▁리옹	-17027
▁리츠	-17028
▁마신	-17029
▁마우	-17030
▁마자	-17031
▁마테	-17032
▁만드	-17033
▁매진	-17034
▁메탄	-17035
▁명단	-17036
▁몰린	-17037
▁무언	-17038
▁무패	-17039
▁묶여	-17040
▁미만	-17041
▁미용	-17042
▁민영	-17043
▁바닷	-17044
▁바락	-17045
▁방을	-17046
▁버려	-17047
▁법이	-17048
▁변함	-17049
▁보라	-17050
▁본선	-17051
▁봤을	-17052
▁부에	-17053
▁부친	-17054
▁분개	-17055
▁불량	-17056
▁비관	-17057
▁비전	-17058
▁사교	-17059
▁사료	-17060
▁사하	-17061
▁살던	-17062
▁살된	-17063
▁상기	-17064
▁새우	-17065
▁생겼	-17066
▁서포	-17067
▁세와	-17068
▁세울	-17069
▁속도	-17070
▁속의	-17071
▁수성	-17072
▁수에	-17073
▁순조	-17074
▁슬픈	-17075
▁시급	-17076
▁시술	-17077
▁식별	-17078
▁신흥	-17079
▁십자	-17080
▁씨앗	-17081
▁아비	-17082
▁아인	-17083
▁알츠	-17084
▁양도	-17085
▁에비	-17086
▁여사	-17087
▁연일	-17088
▁열광	-17089
▁예고	-17090
▁오델	-17091
▁오찬	-17092
▁옳은	-17093
▁외설	-17094
▁원로	-17095
▁웰스	-17096
▁위배	-17097
▁의대	-17098
▁의정	-17099
▁이병	-17100
▁일광	-17101
▁일조	-17102
▁입힌	-17103
▁있으	-17104
▁자페	-17105
▁재가	-17106
▁적법	-17107
▁적의	-17108
▁전제	-17109
▁전후	-17110
▁정계	-17111
▁정복	-17112
▁제휴	-17113
▁좁혀	-17114
▁종전	-17115
▁좌석	-17116
▁주먹	-17117
▁주제	-17118
▁증오	-17119
▁지아	-17120
▁지을	-17121
▁찍어	-17122
▁체험	-17123
▁총파	-17124
▁최장	-17125
▁추운	-17126
▁취업	-17127
▁치뤄	-17128
▁친지	-17129
▁카펫	-17130
▁캐피	-17131
▁콜럼	-17132
▁크랜	-17133
▁클랩	-17134
▁클릭	-17135
▁키팅	-17136
▁타디	-17137
▁타바	-17138
▁태워	-17139
▁투병	-17140
▁트랙	-17141
▁특혜	-17142
▁파기	-17143
▁페레	-17144
▁포크	-17145
▁프랜	-17146
▁피에	-17147
▁필리	-17148
▁하우	-17149
▁한명	-17150
▁할렘	-17151
▁햇빛	-17152
▁헬렌	-17153
▁호프	-17154
▁확립	-17155
▁휘두	-17156
▁휘트	-17157
겠는가	-17158
국가로	-17159
나르도	-17160
냈지만	-17161
라리온	-17162
명령을	-17163
밀하게	-17164
버스터	-17165
부대를	-17166
비용을	-17167
비치가	-17168
소리가	-17169
스키는	-17170
시설에	-17171
위원은	-17172
일정을	-17173
자료를	-17174
자리를	-17175
자원부	-17176
장관의	-17177
장치가	-17178
총장이	-17179
평의회	-17180
할머니	-17181
행진을	-17182
협상을	-17183
호에서	-17184
화하기	-17185
book	-17186
ects	-17187
ines	-17188
lest	-17189
line	-17190
omes	-17191
ould	-17192
ures	-17193
ying	-17194
▁bid	-17195
▁ces	-17196
▁chr	-17197
▁cri	-17198
▁cut	-17199
▁dar	-17200
▁gdp	-17201
▁gol	-17202
▁hit	-17203
▁ill	-17204
▁iwc	-17205
▁kbs	-17206
▁maj	-17207
▁mtv	-17208
▁pen	-17209
▁rev	-17210
▁ser	-17211
▁tak	-17212
▁tsa	-17213
▁ver	-17214
▁way	-17215
▁가격의	-17216
▁가까워	-17217
▁가량이	-17218
▁가져야	-17219
▁간단히	-17220
▁감소한	-17221
▁감시를	-17222
▁강원도	-17223
▁강타해	-17224
▁개월을	-17225
▁검정색	-17226
▁것이나	-17227
▁경수로	-17228
▁경제성	-17229
▁곤경에	-17230
▁공격수	-17231
▁공급할	-17232
▁공상과	-17233
▁공원에	-17234
▁공장이	-17235
▁공항이	-17236
▁굉장히	-17237
▁교과서	-17238
▁교육부	-17239
▁구성원	-17240
▁국민은	-17241
▁국방성	-17242
▁국영언	-17243
▁극도로	-17244
▁금메달	-17245
▁기술로	-17246
▁기지로	-17247
▁나아가	-17248
▁남쪽에	-17249
▁내각이	-17250
▁내리기	-17251
▁냄새가	-17252
▁넣으며	-17253
▁노력해	-17254
▁노리고	-17255
▁노벨상	-17256
▁노출된	-17257
▁놀이공	-17258
▁높았다	-17259
▁느끼게	-17260
▁느끼지	-17261
▁다리에	-17262
▁다시는	-17263
▁단백질	-17264
▁달라는	-17265
▁달성할	-17266
▁대만이	-17267
▁대처할	-17268
▁대표의	-17269
▁대하여	-17270
▁도로는	-17271
▁도왔다	-17272
▁도움의	-17273
▁되도록	-17274
▁떠나는	-17275
▁라덴의	-17276
▁로리언	-17277
▁로브는	-17278
▁마을이	-17279
▁만나게	-17280
▁만약에	-17281
▁만토바	-17282
▁말하자	-17283
▁망원경	-17284
▁맞교환	-17285
▁맞추고	-17286
▁메릴린	-17287
▁메이도	-17288
▁메트로	-17289
▁모두의	-17290
▁모습은	-17291
▁몰디브	-17292
▁무조건	-17293
▁미쳤다	-17294
▁바나프	-17295
▁박사와	-17296
▁박차를	-17297
▁받기로	-17298
▁버클리	-17299
▁번화가	-17300
▁벌였던	-17301
▁벌이며	-17302
▁범인을	-17303
▁변하지	-17304
▁병원은	-17305
▁보내며	-17306
▁보안에	-17307
▁보았다	-17308
▁볼드윈	-17309
▁부근의	-17310
▁부위에	-17311
▁부채를	-17312
▁분리된	-17313
▁불안이	-17314
▁불편을	-17315
▁블랙홀	-17316
▁블레이	-17317
▁빠지게	-17318
▁사랑과	-17319
▁사례를	-17320
▁사이먼	-17321
▁사임한	-17322
▁사장이	-17323
▁사진과	-17324
▁상승은	-17325
▁생기는	-17326
▁서서히	-17327
▁서울을	-17328
▁석방될	-17329
▁선관위	-17330
▁선물로	-17331
▁선물을	-17332
▁선보일	-17333
▁선수의	-17334
▁설명할	-17335
▁설치할	-17336
▁성명에	-17337
▁성화가	-17338
▁세골렌	-17339
▁세력과	-17340
▁세상에	-17341
▁섹시한	-17342
▁셰퍼드	-17343
▁소동을	-17344
▁소속된	-17345
▁속도가	-17346
▁솔직히	-17347
▁쇼에서	-17348
▁수년간	-17349
▁수술이	-17350
▁수십만	-17351
▁수영을	-17352
▁수위를	-17353
▁순간을	-17354
▁순식간	-17355
▁순이익	-17356
▁스타인	-17357
▁시도로	-17358
▁신뢰할	-17359
▁신문을	-17360
▁신시내	-17361
▁신중한	-17362
▁신체적	-17363
▁실적이	-17364
▁심슨의	-17365
▁심슨이	-17366
▁십자가	-17367
▁아내를	-17368
▁안았다	-17369
▁안전이	-17370
▁애도를	-17371
▁앤더슨	-17372
▁언론인	-17373
▁없다면	-17374
▁여중생	-17375
▁연기에	-17376
▁예방접	-17377
▁오르지	-17378
▁오전에	-17379
▁오페라	-17380
▁온난화	-17381
▁올라와	-17382
▁요청에	-17383
▁용기를	-17384
▁용의가	-17385
▁원인에	-17386
▁유가는	-17387
▁유지될	-17388
▁유지해	-17389
▁유태인	-17390
▁의무가	-17391
▁의식이	-17392
▁의심을	-17393
▁이견을	-17394
▁이목을	-17395
▁이익이	-17396
▁이해를	-17397
▁인류가	-17398
▁인물을	-17399
▁인수제	-17400
▁입장이	-17401
▁잇따라	-17402
▁있느냐	-17403
▁자녀가	-17404
▁자치구	-17405
▁작곡가	-17406
▁잡스는	-17407
▁재개를	-17408
▁재단은	-17409
▁잭슨이	-17410
▁적절히	-17411
▁전국에	-17412
▁정당한	-17413
▁정상은	-17414
▁정착촌	-17415
▁정찰위	-17416
▁제보를	-17417
▁제재가	-17418
▁제조한	-17419
▁제한된	-17420
▁조류독	-17421
▁조사해	-17422
▁조용한	-17423
▁종말론	-17424
▁주기로	-17425
▁주민은	-17426
▁죽음과	-17427
▁중심의	-17428
▁지냈던	-17429
▁지켰다	-17430
▁진영의	-17431
▁집권한	-17432
▁찾아야	-17433
▁천천히	-17434
▁총선은	-17435
▁출연할	-17436
▁치안을	-17437
▁친밀한	-17438
▁카드를	-17439
▁카타르	-17440
▁커플이	-17441
▁콜린스	-17442
▁쿼터백	-17443
▁탄압을	-17444
▁투자에	-17445
▁파이어	-17446
▁파티에	-17447
▁판매될	-17448
▁패배한	-17449
▁패트로	-17450
▁퍼시픽	-17451
▁폭행을	-17452
▁풍선을	-17453
▁하루가	-17454
▁하리리	-17455
▁하토야	-17456
▁학살을	-17457
▁학생을	-17458
▁학위를	-17459
▁한글판	-17460
▁한동안	-17461
▁항공모	-17462
▁행해진	-17463
▁헤드폰	-17464
▁호주에	-17465
▁확고한	-17466
▁확정된	-17467
▁획득한	-17468
▁효력을	-17469
▁후보작	-17470
▁흑인이	-17471
▁흔들며	-17472
▁흔적이	-17473
▁흥미를	-17474
▁흥분한	-17475
▁흩어져	-17476
▁희생된	-17477
▁힘들게	-17478
스테이션	-17479
시간으로	-17480
연구소의	-17481
적이지만	-17482
지대에서	-17483
iance	-17484
illed	-17485
▁acad	-17486
▁aids	-17487
▁clin	-17488
▁eads	-17489
▁free	-17490
▁iran	-17491
▁irna	-17492
▁live	-17493
▁test	-17494
▁감행했다	-17495
▁개발하고	-17496
▁거래에서	-17497
▁검문소를	-17498
▁경기침체	-17499
▁고등학생	-17500
▁고르바초	-17501
▁공약으로	-17502
▁공화당이	-17503
▁관리하고	-17504
▁광장에서	-17505
▁국가들을	-17506
▁국가주석	-17507
▁국제유가	-17508
▁규정했다	-17509
▁기다렸다	-17510
▁기대된다	-17511
▁나라에서	-17512
▁나타난다	-17513
▁나토군이	-17514
▁납치했다	-17515
▁넘어섰다	-17516
▁노동조합	-17517
▁농장에서	-17518
▁다가오는	-17519
▁달러에서	-17520
▁대변인을	-17521
▁대항하는	-17522
▁돌고래가	-17523
▁들어왔다	-17524
▁들어있다	-17525
▁마련하고	-17526
▁메모리얼	-17527
▁무자비한	-17528
▁무책임한	-17529
▁문제점을	-17530
▁물리치고	-17531
▁민병대가	-17532
▁민주노동	-17533
▁반발했다	-17534
▁발견하지	-17535
▁발령했다	-17536
▁발생했을	-17537
▁방송과의	-17538
▁백악관이	-17539
▁벌였지만	-17540
▁보건부는	-17541
▁보안군이	-17542
▁본국으로	-17543
▁부양책을	-17544
▁부족하다	-17545
▁부회장은	-17546
▁불안정한	-17547
▁블레이크	-17548
▁사람이다	-17549
▁산사태가	-17550
▁상징으로	-17551
▁생물학적	-17552
▁생존자를	-17553
▁석유수출	-17554
▁설명하지	-17555
▁성장률을	-17556
▁성장률이	-17557
▁세계경제	-17558
▁세계최초	-17559
▁수도에서	-17560
▁수직착륙	-17561
▁스타디움	-17562
▁승리해야	-17563
▁시작하고	-17564
▁시작한다	-17565
▁실업률이	-17566
▁심장마비	-17567
▁아들에게	-17568
▁아프간을	-17569
▁어려움에	-17570
▁어머니의	-17571
▁엉덩이는	-17572
▁여러분이	-17573
▁연구팀이	-17574
▁예상했던	-17575
▁위태롭게	-17576
▁이동했다	-17577
▁이례적인	-17578
▁이어갔다	-17579
▁이어지고	-17580
▁이전에도	-17581
▁이해하는	-17582
▁인신매매	-17583
▁일으키고	-17584
▁자부심을	-17585
▁자신만의	-17586
▁작가조합	-17587
▁장식했다	-17588
▁적대적인	-17589
▁정부군은	-17590
▁제작했다	-17591
▁조승희가	-17592
▁죽음으로	-17593
▁준이치로	-17594
▁중국과의	-17595
▁중단해야	-17596
▁중요하게	-17597
▁지원했다	-17598
▁지적하며	-17599
▁지켜봤다	-17600
▁진행하고	-17601
▁질병통제	-17602
▁집행유예	-17603
▁처음부터	-17604
▁촬영했다	-17605
▁축하하기	-17606
▁충격적인	-17607
▁충분하지	-17608
▁친구들은	-17609
▁타이타닉	-17610
▁투표권을	-17611
▁판매량이	-17612
▁판사에게	-17613
▁퍼센트로	-17614
▁퍼센트를	-17615
▁프랑스로	-17616
▁프랑스에	-17617
▁피해자의	-17618
▁핵심적인	-17619
▁현장으로	-17620
▁확산되는	-17621
▁활주로를	-17622
▁후보였던	-17623
dition	-17624
erence	-17625
▁early	-17626
▁toeic	-17627
▁unhcr	-17628
▁years	-17629
▁구호물품을	-17630
▁국토안보부	-17631
▁근로자들이	-17632
▁기본적으로	-17633
▁다이애나의	-17634
▁마라도나는	-17635
▁모여들었다	-17636
▁무장세력과	-17637
▁바이러스의	-17638
▁받아들이고	-17639
▁법무장관은	-17640
▁법무장관이	-17641
▁북서쪽으로	-17642
▁북아일랜드	-17643
▁불러일으키	-17644
▁사무국장은	-17645
▁석방됐다고	-17646
▁선고받았다	-17647
▁시에라리온	-17648
▁시위자들을	-17649
▁심장마비로	-17650
▁알카에다에	-17651
▁암스테르담	-17652
▁약속했다고	-17653
▁어린이들은	-17654
▁여론조사에	-17655
▁왕세자비가	-17656
▁용의자들은	-17657
▁유권자들을	-17658
▁의미한다고	-17659
▁이루어지는	-17660
▁인터내셔널	-17661
▁인플루엔자	-17662
▁전달했다고	-17663
▁정치인들이	-17664
▁주식시장은	-17665
▁중심부에서	-17666
▁즉각적으로	-17667
▁지역에서도	-17668
▁지지자들의	-17669
▁최고경영자	-17670
▁콜로라도주	-17671
▁파바로티의	-17672
▁폭탄테러는	-17673
▁폭탄테러의	-17674
▁플루토늄을	-17675
▁현대자동차	-17676
▁회원국들은	-17677
위원회에서는	-17678
▁global	-17679
▁height	-17680
▁indust	-17681
▁nation	-17682
▁produc	-17683
▁progra	-17684
▁senate	-17685
▁경제학자들은	-17686
▁고속도로에서	-17687
▁공공장소에서	-17688
▁구조대원들은	-17689
▁국경지역에서	-17690
▁남부지역에서	-17691
▁말레이시아의	-17692
▁발생했습니다	-17693
▁불가능하다고	-17694
▁와인하우스는	-17695
▁우크라이나가	-17696
▁이탈리아에서	-17697
▁주식시장에서	-17698
▁준결승전에서	-17699
▁지도자들에게	-17700
▁workers	-17701
▁뉴욕상업거래소	-17702
▁리우데자네이루	-17703
▁테러리스트들이	-17704
▁japanese	-17705
▁꽂	-17706
▁꽉	-17707
▁늑	-17708
▁랭	-17709
▁씩	-17710
▁얇	-17711
▁젤	-17712
▁챌	-17713
▁켜	-17714
▁팻	-17715
▁흙	-17716
가며	-17717
건물	-17718
건에	-17719
공을	-17720
교섭	-17721
구성	-17722
균형	-17723
금에	-17724
기서	-17725
나요	-17726
내용	-17727
네오	-17728
농축	-17729
단계	-17730
동에	-17731
두아	-17732
뒀다	-17733
든은	-17734
란은	-17735
러코	-17736
론에	-17737
롭다	-17738
류와	-17739
르노	-17740
르모	-17741
르베	-17742
리안	-17743
린의	-17744
린첨	-17745
메일	-17746
면이	-17747
모니	-17748
민이	-17749
반은	-17750
버른	-17751
범의	-17752
벨트	-17753
병과	-17754
보관	-17755
보이	-17756
브르	-17757
빌은	-17758
사르	-17759
생의	-17760
서비	-17761
설에	-17762
섬에	-17763
세서	-17764
소인	-17765
수이	-17766
슬람	-17767
슬로	-17768
시앙	-17769
신고	-17770
씨로	-17771
압을	-17772
야에	-17773
양이	-17774
역이	-17775
열로	-17776
위와	-17777
이은	-17778
인터	-17779
자도	-17780
자연	-17781
점인	-17782
조의	-17783
종은	-17784
중의	-17785
차에	-17786
처로	-17787
츠와	-17788
케는	-17789
코프	-17790
키마	-17791
킨은	-17792
통계	-17793
투자	-17794
티와	-17795
파는	-17796
품의	-17797
피는	-17798
하의	-17799
향의	-17800
헤딘	-17801
홍보	-17802
화할	-17803
회복	-17804
회장	-17805
효율	-17806
ada	-17807
ann	-17808
ful	-17809
per	-17810
raw	-17811
rup	-17812
ube	-17813
ump	-17814
usp	-17815
▁om	-17816
▁가방	-17817
▁갖지	-17818
▁겪는	-17819
▁견디	-17820
▁결성	-17821
▁공립	-17822
▁공헌	-17823
▁관통	-17824
▁교정	-17825
▁교훈	-17826
▁구두	-17827
▁권위	-17828
▁귀가	-17829
▁그간	-17830
▁근접	-17831
▁기내	-17832
▁깨닫	-17833
▁꼬리	-17834
▁꾸며	-17835
▁나눈	-17836
▁나도	-17837
▁나미	-17838
▁난무	-17839
▁냉소	-17840
▁넘긴	-17841
▁넣을	-17842
▁네브	-17843
▁농경	-17844
▁늘고	-17845
▁다임	-17846
▁단편	-17847
▁달링	-17848
▁대미	-17849
▁대부	-17850
▁대슐	-17851
▁도둑	-17852
▁돌고	-17853
▁두지	-17854
▁등교	-17855
▁뚫고	-17856
▁라운	-17857
▁랜디	-17858
▁루머	-17859
▁루터	-17860
▁마른	-17861
▁말씀	-17862
▁매번	-17863
▁목사	-17864
▁무작	-17865
▁뭔가	-17866
▁미라	-17867
▁밀수	-17868
▁바꾼	-17869
▁버밍	-17870
▁번식	-17871
▁법사	-17872
▁법은	-17873
▁법조	-17874
▁별칭	-17875
▁본질	-17876
▁봉투	-17877
▁부합	-17878
▁불고	-17879
▁불륜	-17880
▁비축	-17881
▁비키	-17882
▁빚을	-17883
▁뼈가	-17884
▁사안	-17885
▁산시	-17886
▁살기	-17887
▁살라	-17888
▁살레	-17889
▁상표	-17890
▁생생	-17891
▁생선	-17892
▁샤프	-17893
▁섭씨	-17894
▁성분	-17895
▁수신	-17896
▁수학	-17897
▁스머	-17898
▁슬림	-17899
▁시가	-17900
▁신년	-17901
▁신랑	-17902
▁신혼	-17903
▁싸우	-17904
▁쌓여	-17905
▁아델	-17906
▁아서	-17907
▁아타	-17908
▁안된	-17909
▁알릴	-17910
▁알메	-17911
▁압델	-17912
▁압승	-17913
▁양을	-17914
▁어스	-17915
▁어지	-17916
▁엄격	-17917
▁영사	-17918
▁예의	-17919
▁오웬	-17920
▁와코	-17921
▁완구	-17922
▁요트	-17923
▁용이	-17924
▁웃는	-17925
▁원동	-17926
▁유류	-17927
▁이룰	-17928
▁이맘	-17929
▁이모	-17930
▁이의	-17931
▁익사	-17932
▁익숙	-17933
▁일렉	-17934
▁잃어	-17935
▁자폭	-17936
▁잠들	-17937
▁장병	-17938
▁적임	-17939
▁전락	-17940
▁전한	-17941
▁정몽	-17942
▁정황	-17943
▁제레	-17944
▁조니	-17945
▁조롱	-17946
▁좋을	-17947
▁주모	-17948
▁주시	-17949
▁주와	-17950
▁주행	-17951
▁죽이	-17952
▁중유	-17953
▁중이	-17954
▁집값	-17955
▁철폐	-17956
▁청산	-17957
▁추돌	-17958
▁추억	-17959
▁추후	-17960
▁츠방	-17961
▁칸은	-17962
▁퀘벡	-17963
▁타격	-17964
▁타당	-17965
▁타워	-17966
▁탈세	-17967
▁태도	-17968
▁텐트	-17969
▁트럼	-17970
▁티켓	-17971
▁팔로	-17972
▁퍼붓	-17973
▁표본	-17974
▁풍경	-17975
▁프래	-17976
▁하노	-17977
▁하라	-17978
▁한일	-17979
▁한해	-17980
▁합쳐	-17981
▁해온	-17982
▁헤엄	-17983
▁혹등	-17984
▁환급	-17985
▁휠체	-17986
▁흉내	-17987
▁흑색	-17988
▁흔히	-17989
▁흡입	-17990
가격이	-17991
국장이	-17992
기관은	-17993
기관이	-17994
기구인	-17995
느냐는	-17996
는다면	-17997
닷컴은	-17998
당하고	-17999
당하는	-18000
때보다	-18001
랜드의	-18002
레이는	-18003
로서의	-18004
문제로	-18005
법원이	-18006
베이스	-18007
사들을	-18008
섰다고	-18009
업체에	-18010
위츠는	-18011
은행의	-18012
자였다	-18013
즈에서	-18014
치료를	-18015
타니아	-18016
편으로	-18017
해지는	-18018
행위로	-18019
회사에	-18020
회의는	-18021
ests	-18022
ters	-18023
tice	-18024
ties	-18025
▁abn	-18026
▁bel	-18027
▁bom	-18028
▁des	-18029
▁gaz	-18030
▁kid	-18031
▁let	-18032
▁num	-18033
▁가득한	-18034
▁가정을	-18035
▁가지는	-18036
▁가지의	-18037
▁갈등을	-18038
▁개월의	-18039
▁개최를	-18040
▁거리의	-18041
▁건강검	-18042
▁결승에	-18043
▁계기로	-18044
▁공세를	-18045
▁관리인	-18046
▁광고에	-18047
▁교통부	-18048
▁교회는	-18049
▁구글은	-18050
▁구성에	-18051
▁국경에	-18052
▁국민들	-18053
▁국왕의	-18054
▁군대에	-18055
▁군사작	-18056
▁권총을	-18057
▁권했다	-18058
▁그들과	-18059
▁그레그	-18060
▁기관은	-18061
▁기록은	-18062
▁기록인	-18063
▁기록할	-18064
▁기사는	-18065
▁기숙사	-18066
▁기한을	-18067
▁나라에	-18068
▁나이키	-18069
▁내각은	-18070
▁내용도	-18071
▁노던록	-18072
▁노력은	-18073
▁노워크	-18074
▁노인성	-18075
▁논란의	-18076
▁높이기	-18077
▁높이는	-18078
▁뉴스가	-18079
▁다루고	-18080
▁다비드	-18081
▁단체로	-18082
▁대검찰	-18083
▁대사와	-18084
▁대사의	-18085
▁대체로	-18086
▁도쿄의	-18087
▁돈으로	-18088
▁돌아간	-18089
▁동결된	-18090
▁동부의	-18091
▁때때로	-18092
▁라이더	-18093
▁래드클	-18094
▁레이드	-18095
▁레이크	-18096
▁리스트	-18097
▁리투아	-18098
▁마가렛	-18099
▁마피아	-18100
▁만화를	-18101
▁매몰된	-18102
▁멜버른	-18103
▁모델이	-18104
▁모레스	-18105
▁모색할	-18106
▁모자를	-18107
▁몸집이	-18108
▁못했을	-18109
▁무력을	-18110
▁무릎을	-18111
▁문서는	-18112
▁문제도	-18113
▁문화의	-18114
▁물리적	-18115
▁물질의	-18116
▁미연방	-18117
▁미프로	-18118
▁바꾸기	-18119
▁바다위	-18120
▁바람을	-18121
▁바쿠바	-18122
▁박수를	-18123
▁반도체	-18124
▁받았을	-18125
▁방송인	-18126
▁방에서	-18127
▁배트맨	-18128
▁배후로	-18129
▁벌인다	-18130
▁법으로	-18131
▁벗어날	-18132
▁병사를	-18133
▁보고에	-18134
▁보내게	-18135
▁보안이	-18136
▁보이스	-18137
▁보트를	-18138
▁부대의	-18139
▁부문의	-18140
▁부장은	-18141
▁분노한	-18142
▁불쾌한	-18143
▁붕괴로	-18144
▁비아그	-18145
▁비정상	-18146
▁사무차	-18147
▁사업가	-18148
▁사원에	-18149
▁사형이	-18150
▁사형제	-18151
▁사회가	-18152
▁사회당	-18153
▁살리기	-18154
▁상업적	-18155
▁생산이	-18156
▁생존을	-18157
▁서한을	-18158
▁선수를	-18159
▁선수인	-18160
▁선정한	-18161
▁세력에	-18162
▁세력은	-18163
▁세우는	-18164
▁소요될	-18165
▁수천만	-18166
▁숨겨진	-18167
▁스탠리	-18168
▁승리에	-18169
▁시간당	-18170
▁시대의	-18171
▁시도가	-18172
▁시드르	-18173
▁시민권	-18174
▁시설의	-18175
▁시위의	-18176
▁시켰다	-18177
▁시행할	-18178
▁신문사	-18179
▁심리가	-18180
▁심의를	-18181
▁아래로	-18182
▁아마드	-18183
▁아스카	-18184
▁아시프	-18185
▁안보와	-18186
▁알라헴	-18187
▁압력에	-18188
▁애슐리	-18189
▁양상을	-18190
▁없으나	-18191
▁에드로	-18192
▁엘리엇	-18193
▁연계된	-18194
▁연료로	-18195
▁영향에	-18196
▁옆에서	-18197
▁오마바	-18198
▁올랐고	-18199
▁와일드	-18200
▁요금을	-18201
▁우세를	-18202
▁운동에	-18203
▁위성이	-18204
▁위협은	-18205
▁윈프리	-18206
▁유대교	-18207
▁유로에	-18208
▁유발할	-18209
▁유치를	-18210
▁은퇴를	-18211
▁의미로	-18212
▁이름과	-18213
▁이후의	-18214
▁인종적	-18215
▁일이며	-18216
▁일했던	-18217
▁임신을	-18218
▁입후보	-18219
▁자유가	-18220
▁자유당	-18221
▁작년에	-18222
▁작품상	-18223
▁잔해를	-18224
▁장착한	-18225
▁잭슨의	-18226
▁저명한	-18227
▁정당의	-18228
▁정보국	-18229
▁정했다	-18230
▁제네바	-18231
▁제안은	-18232
▁제퍼슨	-18233
▁조그만	-18234
▁조명을	-18235
▁조세프	-18236
▁조속한	-18237
▁조속히	-18238
▁조직에	-18239
▁조직원	-18240
▁졸리는	-18241
▁좋겠다	-18242
▁주권을	-18243
▁중질유	-18244
▁증가를	-18245
▁증명할	-18246
▁지구와	-18247
▁지금도	-18248
▁지었다	-18249
▁지지해	-18250
▁지출이	-18251
▁진료를	-18252
▁집권당	-18253
▁징후가	-18254
▁차에서	-18255
▁차이는	-18256
▁찾아온	-18257
▁처해질	-18258
▁청문회	-18259
▁체중을	-18260
▁체포한	-18261
▁초고속	-18262
▁최신작	-18263
▁치르게	-18264
▁침체가	-18265
▁침팬지	-18266
▁케이프	-18267
▁키스를	-18268
▁터키와	-18269
▁통합을	-18270
▁퇴진을	-18271
▁투표한	-18272
▁파견한	-18273
▁패했다	-18274
▁평양을	-18275
▁폭발한	-18276
▁폭설이	-18277
▁프란체	-18278
▁프레이	-18279
▁피그미	-18280
▁피살된	-18281
▁피해로	-18282
▁핀란드	-18283
▁하니야	-18284
▁하라고	-18285
▁하락해	-18286
▁하루를	-18287
▁학교가	-18288
▁항생제	-18289
▁행복을	-18290
▁헬만드	-18291
▁현금을	-18292
▁협박을	-18293
▁호텔은	-18294
▁화제가	-18295
▁환영을	-18296
▁환율은	-18297
▁활력을	-18298
▁회복할	-18299
▁회장을	-18300
▁회장인	-18301
드립니다	-18302
위원회를	-18303
주에서는	-18304
짐에따라	-18305
쳤습니다	-18306
현장에서	-18307
ating	-18308
ative	-18309
ities	-18310
▁appe	-18311
▁auth	-18312
▁disp	-18313
▁inde	-18314
▁king	-18315
▁left	-18316
▁list	-18317
▁poll	-18318
▁sing	-18319
▁stop	-18320
▁susp	-18321
▁강조하며	-18322
▁건물들이	-18323
▁경매에서	-18324
▁경찰서로	-18325
▁계획으로	-18326
[...]
